{
  "version": "1.0",
  "truncation": null,
  "padding": null,
  "added_tokens": [
    {
      "id": 0,
      "content": "[UNK]",
      "single_word": false,
      "lstrip": false,
      "rstrip": false,
      "normalized": false,
      "special": true
    },
    {
      "id": 1,
      "content": "[PAD]",
      "single_word": false,
      "lstrip": false,
      "rstrip": false,
      "normalized": false,
      "special": true
    },
    {
      "id": 2,
      "content": "[BOS]",
      "single_word": false,
      "lstrip": false,
      "rstrip": false,
      "normalized": false,
      "special": true
    },
    {
      "id": 3,
      "content": "[EOS]",
      "single_word": false,
      "lstrip": false,
      "rstrip": false,
      "normalized": false,
      "special": true
    }
  ],
  "normalizer": null,
  "pre_tokenizer": {
    "type": "Whitespace"
  },
  "post_processor": null,
  "decoder": null,
  "model": {
    "type": "BPE",
    "dropout": null,
    "unk_token": "[UNK]",
    "continuing_subword_prefix": null,
    "end_of_word_suffix": null,
    "fuse_unk": false,
    "vocab": {
      "[UNK]": 0,
      "[PAD]": 1,
      "[BOS]": 2,
      "[EOS]": 3,
      "!": 4,
      "#": 5,
      "$": 6,
      "%": 7,
      "&": 8,
      "(": 9,
      ")": 10,
      "*": 11,
      "+": 12,
      ",": 13,
      "-": 14,
      ".": 15,
      "/": 16,
      "0": 17,
      "1": 18,
      "2": 19,
      "3": 20,
      "4": 21,
      "5": 22,
      "6": 23,
      "7": 24,
      "8": 25,
      "9": 26,
      ":": 27,
      ";": 28,
      "=": 29,
      "?": 30,
      "A": 31,
      "B": 32,
      "C": 33,
      "D": 34,
      "E": 35,
      "F": 36,
      "G": 37,
      "H": 38,
      "I": 39,
      "J": 40,
      "K": 41,
      "L": 42,
      "M": 43,
      "N": 44,
      "O": 45,
      "P": 46,
      "Q": 47,
      "R": 48,
      "S": 49,
      "T": 50,
      "U": 51,
      "V": 52,
      "W": 53,
      "X": 54,
      "Y": 55,
      "Z": 56,
      "\\": 57,
      "_": 58,
      "a": 59,
      "b": 60,
      "c": 61,
      "d": 62,
      "e": 63,
      "f": 64,
      "g": 65,
      "h": 66,
      "i": 67,
      "j": 68,
      "k": 69,
      "l": 70,
      "m": 71,
      "n": 72,
      "o": 73,
      "p": 74,
      "q": 75,
      "r": 76,
      "s": 77,
      "t": 78,
      "u": 79,
      "v": 80,
      "w": 81,
      "x": 82,
      "y": 83,
      "z": 84,
      "§": 85,
      "×": 86,
      "÷": 87,
      "‑": 88,
      "–": 89,
      "—": 90,
      "‘": 91,
      "’": 92,
      "“": 93,
      "”": 94,
      "†": 95,
      "‡": 96,
      "•": 97,
      "−": 98,
      "th": 99,
      "the": 100,
      "at": 101,
      "on": 102,
      "in": 103,
      "re": 104,
      "an": 105,
      "or": 106,
      "er": 107,
      "en": 108,
      "le": 109,
      "ion": 110,
      "se": 111,
      "ou": 112,
      "al": 113,
      "ct": 114,
      "st": 115,
      "es": 116,
      "ent": 117,
      "it": 118,
      "ed": 119,
      "ro": 120,
      "ic": 121,
      "ing": 122,
      "to": 123,
      "is": 124,
      "fi": 125,
      "for": 126,
      "el": 127,
      "12": 128,
      "and": 129,
      "ation": 130,
      "&#": 131,
      "124": 132,
      "ate": 133,
      "ar": 134,
      "pro": 135,
      "lo": 136,
      "In": 137,
      "of": 138,
      "po": 139,
      "ch": 140,
      "ment": 141,
      "de": 142,
      "as": 143,
      "co": 144,
      "lect": 145,
      "eld": 146,
      "field": 147,
      "Th": 148,
      "nt": 149,
      "that": 150,
      "mp": 151,
      "pos": 152,
      "ction": 153,
      "you": 154,
      "ge": 155,
      "cu": 156,
      "lic": 157,
      "con": 158,
      "ount": 159,
      "are": 160,
      "il": 161,
      "me": 162,
      "be": 163,
      "ac": 164,
      "qu": 165,
      "pe": 166,
      "apos": 167,
      "up": 168,
      "du": 169,
      "The": 170,
      "select": 171,
      "val": 172,
      "ta": 173,
      "can": 174,
      "ce": 175,
      "ord": 176,
      "ers": 177,
      "sa": 178,
      "ay": 179,
      "lick": 180,
      "ex": 181,
      "Se": 182,
      "ci": 183,
      "count": 184,
      "ur": 185,
      "tr": 186,
      "ice": 187,
      "ol": 188,
      "ow": 189,
      "low": 190,
      "ort": 191,
      "set": 192,
      "tit": 193,
      "te": 194,
      "ty": 195,
      "valu": 196,
      "di": 197,
      "op": 198,
      "use": 199,
      "les": 200,
      "form": 201,
      "ces": 202,
      "reate": 203,
      "mo": 204,
      "um": 205,
      "produ": 206,
      "ve": 207,
      "ad": 208,
      "ist": 209,
      "ated": 210,
      "end": 211,
      "ri": 212,
      "ab": 213,
      "ure": 214,
      "ew": 215,
      "ase": 216,
      "age": 217,
      "fin": 218,
      "ig": 219,
      "ap": 220,
      "enter": 221,
      "ul": 222,
      "value": 223,
      "inv": 224,
      "port": 225,
      "pl": 226,
      "ork": 227,
      "bu": 228,
      "Click": 229,
      "em": 230,
      "vi": 231,
      "tion": 232,
      "type": 233,
      "our": 234,
      "title": 235,
      "wh": 236,
      "rou": 237,
      "ti": 238,
      "un": 239,
      "ity": 240,
      "res": 241,
      "us": 242,
      "ter": 243,
      "ver": 244,
      "date": 245,
      "order": 246,
      "work": 247,
      "ollow": 248,
      "comp": 249,
      "des": 250,
      "account": 251,
      "follow": 252,
      "sto": 253,
      "ly": 254,
      "tran": 255,
      "dat": 256,
      "This": 257,
      "sion": 258,
      "lin": 259,
      "ber": 260,
      "product": 261,
      "ill": 262,
      "sh": 263,
      "per": 264,
      "ments": 265,
      "pay": 266,
      "fig": 267,
      "Create": 268,
      "following": 269,
      "red": 270,
      "rom": 271,
      "umber": 272,
      "cess": 273,
      "ition": 274,
      "item": 275,
      "invo": 276,
      "ory": 277,
      "Re": 278,
      "men": 279,
      "by": 280,
      "this": 281,
      "from": 282,
      "Set": 283,
      "cost": 284,
      "ations": 285,
      "report": 286,
      "wi": 287,
      "Select": 288,
      "data": 289,
      "ag": 290,
      "am": 291,
      "saction": 292,
      "act": 293,
      "cal": 294,
      "number": 295,
      "roup": 296,
      "stom": 297,
      "ot": 298,
      "ust": 299,
      "with": 300,
      "ies": 301,
      "od": 302,
      "ru": 303,
      "ect": 304,
      "00": 305,
      "group": 306,
      "pre": 307,
      "ign": 308,
      "ame": 309,
      "any": 310,
      "able": 311,
      "mension": 312,
      "endor": 313,
      "transaction": 314,
      "config": 315,
      "requ": 316,
      "del": 317,
      "ree": 318,
      "Ex": 319,
      "You": 320,
      "gt": 321,
      "if": 322,
      "man": 323,
      "iz": 324,
      "cre": 325,
      "peci": 326,
      "dimension": 327,
      "so": 328,
      "used": 329,
      "bal": 330,
      "ma": 331,
      "will": 332,
      "custom": 333,
      "ser": 334,
      "su": 335,
      "iv": 336,
      "art": 337,
      "cul": 338,
      "ob": 339,
      "vice": 340,
      "rec": 341,
      "ban": 342,
      "ener": 343,
      "urch": 344,
      "list": 345,
      "mat": 346,
      "invoice": 347,
      "ere": 348,
      "speci": 349,
      "sales": 350,
      "process": 351,
      "click": 352,
      "defin": 353,
      "nal": 354,
      "post": 355,
      "ject": 356,
      "ance": 357,
      "configur": 358,
      "loc": 359,
      "cl": 360,
      "ok": 361,
      "ts": 362,
      "urchase": 363,
      "vendor": 364,
      "fo": 365,
      "mple": 366,
      "ave": 367,
      "pr": 368,
      "ip": 369,
      "open": 370,
      "payment": 371,
      "cri": 372,
      "entory": 373,
      "create": 374,
      "add": 375,
      "but": 376,
      "do": 377,
      "view": 378,
      "time": 379,
      "formation": 380,
      "own": 381,
      "calcul": 382,
      "information": 383,
      "chan": 384,
      "ced": 385,
      "dis": 386,
      "id": 387,
      "model": 388,
      "cur": 389,
      "amount": 390,
      "De": 391,
      "how": 392,
      "ast": 393,
      "im": 394,
      "Pro": 395,
      "Co": 396,
      "option": 397,
      "line": 398,
      "ical": 399,
      "plan": 400,
      "antit": 401,
      "when": 402,
      "sign": 403,
      "bo": 404,
      "ournal": 405,
      "new": 406,
      "customer": 407,
      "tab": 408,
      "exp": 409,
      "ther": 410,
      "section": 411,
      "ive": 412,
      "tail": 413,
      "service": 414,
      "ample": 415,
      "lobal": 416,
      "one": 417,
      "Ad": 418,
      "ari": 419,
      "base": 420,
      "transactions": 421,
      "specif": 422,
      "configuration": 423,
      "have": 424,
      "out": 425,
      "must": 426,
      "Global": 427,
      "est": 428,
      "company": 429,
      "ask": 430,
      "journal": 431,
      "rop": 432,
      "ff": 433,
      "ll": 434,
      "purchase": 435,
      "drop": 436,
      "ption": 437,
      "asset": 438,
      "created": 439,
      "antity": 440,
      "rece": 441,
      "all": 442,
      "ant": 443,
      "ard": 444,
      "xed": 445,
      "led": 446,
      "page": 447,
      "production": 448,
      "Con": 449,
      "cy": 450,
      "ult": 451,
      "format": 452,
      "ke": 453,
      "ye": 454,
      "requi": 455,
      "ach": 456,
      "par": 457,
      "task": 458,
      "using": 459,
      "gener": 460,
      "inventory": 461,
      "Exp": 462,
      "get": 463,
      "selected": 464,
      "tax": 465,
      "reg": 466,
      "If": 467,
      "arch": 468,
      "hou": 469,
      "job": 470,
      "flow": 471,
      "10": 472,
      "ck": 473,
      "vers": 474,
      "On": 475,
      "ain": 476,
      "orders": 477,
      "arehou": 478,
      "proced": 479,
      "procedure": 480,
      "ail": 481,
      "has": 482,
      "iod": 483,
      "cont": 484,
      "av": 485,
      "cial": 486,
      "Add": 487,
      "down": 488,
      "ton": 489,
      "clu": 490,
      "ting": 491,
      "preci": 492,
      "com": 493,
      "arehouse": 494,
      "ancial": 495,
      "quantity": 496,
      "button": 497,
      "ices": 498,
      "row": 499,
      "location": 500,
      "app": 501,
      "file": 502,
      "ash": 503,
      "mpl": 504,
      "your": 505,
      "fa": 506,
      "ste": 507,
      "stat": 508,
      "igh": 509,
      "lines": 510,
      "preciation": 511,
      "mar": 512,
      "cription": 513,
      "min": 514,
      "record": 515,
      "ities": 516,
      "project": 517,
      "look": 518,
      "curre": 519,
      "Wh": 520,
      "ial": 521,
      "ses": 522,
      "ateg": 523,
      "version": 524,
      "For": 525,
      "ack": 526,
      "ched": 527,
      "Expand": 528,
      "period": 529,
      "fault": 530,
      "Ac": 531,
      "ates": 532,
      "manage": 533,
      "show": 534,
      "hi": 535,
      "dget": 536,
      "not": 537,
      "ron": 538,
      "based": 539,
      "name": 540,
      "items": 541,
      "ger": 542,
      "reporting": 543,
      "ization": 544,
      "each": 545,
      "ource": 546,
      "lookup": 547,
      "step": 548,
      "To": 549,
      "code": 550,
      "no": 551,
      "US": 552,
      "eck": 553,
      "anban": 554,
      "example": 555,
      "templ": 556,
      "ration": 557,
      "bank": 558,
      "been": 559,
      "docu": 560,
      "thod": 561,
      "leg": 562,
      "agree": 563,
      "assign": 564,
      "tain": 565,
      "ut": 566,
      "rect": 567,
      "mport": 568,
      "ual": 569,
      "depreciation": 570,
      "mplo": 571,
      "financial": 572,
      "gan": 573,
      "ning": 574,
      "fore": 575,
      "OM": 576,
      "inclu": 577,
      "price": 578,
      "state": 579,
      "Go": 580,
      "vari": 581,
      "ne": 582,
      "trans": 583,
      "over": 584,
      "int": 585,
      "redit": 586,
      "pic": 587,
      "col": 588,
      "management": 589,
      "warehouse": 590,
      "entity": 591,
      "unit": 592,
      "ext": 593,
      "appro": 594,
      "oper": 595,
      "BOM": 596,
      "specific": 597,
      "avail": 598,
      "discount": 599,
      "kanban": 600,
      "quot": 601,
      "au": 602,
      "ran": 603,
      "typ": 604,
      "tree": 605,
      "check": 606,
      "accounts": 607,
      "Ent": 608,
      "fixed": 609,
      "ters": 610,
      "method": 611,
      "ight": 612,
      "provi": 613,
      "sub": 614,
      "legal": 615,
      "ite": 616,
      "categ": 617,
      "ich": 618,
      "atch": 619,
      "values": 620,
      "erarch": 621,
      "Inv": 622,
      "polic": 623,
      "Produ": 624,
      "available": 625,
      "Yes": 626,
      "tw": 627,
      "Cost": 628,
      "Sa": 629,
      "ld": 630,
      "change": 631,
      "hierarch": 632,
      "sy": 633,
      "ating": 634,
      "activ": 635,
      "also": 636,
      "fir": 637,
      "let": 638,
      "fer": 639,
      "just": 640,
      "only": 641,
      "lement": 642,
      "which": 643,
      "Account": 644,
      "ous": 645,
      "rule": 646,
      "shows": 647,
      "Sales": 648,
      "organ": 649,
      "ould": 650,
      "products": 651,
      "fun": 652,
      "vel": 653,
      "mploye": 654,
      "rol": 655,
      "Pay": 656,
      "default": 657,
      "cons": 658,
      "fe": 659,
      "posting": 660,
      "template": 661,
      "detail": 662,
      "regist": 663,
      "status": 664,
      "other": 665,
      "Enter": 666,
      "diff": 667,
      "tem": 668,
      "recast": 669,
      "steps": 670,
      "20": 671,
      "Po": 672,
      "budget": 673,
      "Item": 674,
      "mul": 675,
      "inter": 676,
      "ace": 677,
      "11": 678,
      "ges": 679,
      "run": 680,
      "sched": 681,
      "ish": 682,
      "Ch": 683,
      "Fi": 684,
      "receip": 685,
      "rel": 686,
      "ledger": 687,
      "these": 688,
      "ense": 689,
      "ays": 690,
      "cash": 691,
      "user": 692,
      "main": 693,
      "ically": 694,
      "erial": 695,
      "gu": 696,
      "ncy": 697,
      "very": 698,
      "dimensions": 699,
      "forecast": 700,
      "Gener": 701,
      "Use": 702,
      "ple": 703,
      "rules": 704,
      "table": 705,
      "agreement": 706,
      "details": 707,
      "isition": 708,
      "control": 709,
      "credit": 710,
      "ring": 711,
      "ence": 712,
      "Config": 713,
      "import": 714,
      "tri": 715,
      "When": 716,
      "groups": 717,
      "want": 718,
      "types": 719,
      "nd": 720,
      "differe": 721,
      "Name": 722,
      "et": 723,
      "gh": 724,
      "stem": 725,
      "hierarchy": 726,
      "cle": 727,
      "ane": 728,
      "lete": 729,
      "setup": 730,
      "material": 731,
      "15": 732,
      "ary": 733,
      "No": 734,
      "cent": 735,
      "comm": 736,
      "Action": 737,
      "uses": 738,
      "defined": 739,
      "demo": 740,
      "workflow": 741,
      "multi": 742,
      "calculation": 743,
      "required": 744,
      "organization": 745,
      "sing": 746,
      "descri": 747,
      "Fin": 748,
      "sup": 749,
      "ameters": 750,
      "ID": 751,
      "MF": 752,
      "employe": 753,
      "ents": 754,
      "invoices": 755,
      "document": 756,
      "der": 757,
      "quest": 758,
      "Defin": 759,
      "tomat": 760,
      "ER": 761,
      "ded": 762,
      "ile": 763,
      "ry": 764,
      "ions": 765,
      "definition": 766,
      "ned": 767,
      "fil": 768,
      "should": 769,
      "soci": 770,
      "receipt": 771,
      "13": 772,
      "setting": 773,
      "perform": 774,
      "16": 775,
      "Des": 776,
      "artic": 777,
      "sc": 778,
      "ature": 779,
      "lectron": 780,
      "mand": 781,
      "og": 782,
      "ens": 783,
      "direct": 784,
      "accounting": 785,
      "put": 786,
      "level": 787,
      "codes": 788,
      "about": 789,
      "worker": 790,
      "mark": 791,
      "Vi": 792,
      "fter": 793,
      "ib": 794,
      "ality": 795,
      "book": 796,
      "St": 797,
      "ra": 798,
      "more": 799,
      "ources": 800,
      "verage": 801,
      "box": 802,
      "tur": 803,
      "profile": 804,
      "currency": 805,
      "lectronic": 806,
      "View": 807,
      "Pane": 808,
      "fact": 809,
      "sp": 810,
      "ys": 811,
      "Product": 812,
      "alog": 813,
      "proces": 814,
      "lose": 815,
      "sett": 816,
      "specify": 817,
      "receiv": 818,
      "require": 819,
      "parameters": 820,
      "system": 821,
      "mes": 822,
      "ines": 823,
      "multiple": 824,
      "As": 825,
      "fied": 826,
      "USMF": 827,
      "Vendor": 828,
      "position": 829,
      "category": 830,
      "Define": 831,
      "sequ": 832,
      "posted": 833,
      "batch": 834,
      "off": 835,
      "itional": 836,
      "PO": 837,
      "ros": 838,
      "ility": 839,
      "ify": 840,
      "function": 841,
      "14": 842,
      "associ": 843,
      "rough": 844,
      "termin": 845,
      "then": 846,
      "define": 847,
      "Tran": 848,
      "adjust": 849,
      "appl": 850,
      "ize": 851,
      "cel": 852,
      "apping": 853,
      "policy": 854,
      "go": 855,
      "source": 856,
      "match": 857,
      "load": 858,
      "Man": 859,
      "fy": 860,
      "ivery": 861,
      "through": 862,
      "transfer": 863,
      "automat": 864,
      "different": 865,
      "into": 866,
      "rep": 867,
      "contain": 868,
      "ir": 869,
      "ire": 870,
      "ule": 871,
      "year": 872,
      "Work": 873,
      "its": 874,
      "topic": 875,
      "issu": 876,
      "ress": 877,
      "ved": 878,
      "costs": 879,
      "ass": 880,
      "payments": 881,
      "assigned": 882,
      "need": 883,
      "we": 884,
      "inte": 885,
      "stru": 886,
      "entities": 887,
      "before": 888,
      "configure": 889,
      "describ": 890,
      "ding": 891,
      "ead": 892,
      "start": 893,
      "same": 894,
      "planning": 895,
      "Inventory": 896,
      "pri": 897,
      "dep": 898,
      "Configure": 899,
      "Qu": 900,
      "action": 901,
      "tal": 902,
      "enari": 903,
      "enario": 904,
      "bile": 905,
      "allow": 906,
      "mobile": 907,
      "article": 908,
      "Fixed": 909,
      "ensation": 910,
      "dated": 911,
      "retur": 912,
      "ia": 913,
      "nel": 914,
      "Cu": 915,
      "ide": 916,
      "attri": 917,
      "str": 918,
      "reports": 919,
      "two": 920,
      "object": 921,
      "collect": 922,
      "It": 923,
      "amounts": 924,
      "statement": 925,
      "Custom": 926,
      "rest": 927,
      "ries": 928,
      "dates": 929,
      "ship": 930,
      "balance": 931,
      "calculated": 932,
      "allocation": 933,
      "stand": 934,
      "compon": 935,
      "current": 936,
      "17": 937,
      "store": 938,
      "expense": 939,
      "jobs": 940,
      "char": 941,
      "access": 942,
      "worksp": 943,
      "link": 944,
      "ages": 945,
      "000": 946,
      "Post": 947,
      "iness": 948,
      "lease": 949,
      "umn": 950,
      "who": 951,
      "description": 952,
      "provides": 953,
      "ind": 954,
      "design": 955,
      "requisition": 956,
      "Accounts": 957,
      "pon": 958,
      "ufact": 959,
      "tasks": 960,
      "first": 961,
      "automatically": 962,
      "files": 963,
      "Example": 964,
      "mast": 965,
      "applic": 966,
      "settings": 967,
      "cor": 968,
      "mapping": 969,
      "options": 970,
      "Payment": 971,
      "Chan": 972,
      "POS": 973,
      "ine": 974,
      "update": 975,
      "play": 976,
      "bute": 977,
      "complete": 978,
      "imum": 979,
      "scenario": 980,
      "struct": 981,
      "describes": 982,
      "Purchase": 983,
      "cap": 984,
      "they": 985,
      "roll": 986,
      "determin": 987,
      "exist": 988,
      "percent": 989,
      "Retail": 990,
      "delivery": 991,
      "pick": 992,
      "ired": 993,
      "lan": 994,
      "text": 995,
      "ason": 996,
      "dialog": 997,
      "compensation": 998,
      "cycle": 999,
      "close": 1000,
      "ffect": 1001,
      "generated": 1002,
      "Per": 1003,
      "bill": 1004,
      "ef": 1005,
      "sed": 1006,
      "iter": 1007,
      "elp": 1008,
      "manual": 1009,
      "Description": 1010,
      "ross": 1011,
      "An": 1012,
      "Cal": 1013,
      "ful": 1014,
      "ized": 1015,
      "assets": 1016,
      "support": 1017,
      "structure": 1018,
      "oc": 1019,
      "mem": 1020,
      "manufact": 1021,
      "Customer": 1022,
      "ue": 1023,
      "total": 1024,
      "where": 1025,
      "make": 1026,
      "operations": 1027,
      "element": 1028,
      "ph": 1029,
      "was": 1030,
      "iscal": 1031,
      "fields": 1032,
      "Report": 1033,
      "processing": 1034,
      "filter": 1035,
      "messa": 1036,
      "Al": 1037,
      "vent": 1038,
      "enef": 1039,
      "vious": 1040,
      "related": 1041,
      "employee": 1042,
      "functionality": 1043,
      "ub": 1044,
      "during": 1045,
      "olid": 1046,
      "bus": 1047,
      "firm": 1048,
      "associated": 1049,
      "Ap": 1050,
      "ca": 1051,
      "head": 1052,
      "ults": 1053,
      "column": 1054,
      "ible": 1055,
      "business": 1056,
      "day": 1057,
      "site": 1058,
      "additional": 1059,
      "acking": 1060,
      "question": 1061,
      "processes": 1062,
      "average": 1063,
      "find": 1064,
      "resource": 1065,
      "previous": 1066,
      "master": 1067,
      "Un": 1068,
      "hol": 1069,
      "ref": 1070,
      "repl": 1071,
      "formul": 1072,
      "resources": 1073,
      "workspace": 1074,
      "hand": 1075,
      "help": 1076,
      "respon": 1077,
      "repres": 1078,
      "entries": 1079,
      "desired": 1080,
      "specified": 1081,
      "ident": 1082,
      "General": 1083,
      "riter": 1084,
      "atta": 1085,
      "rement": 1086,
      "lements": 1087,
      "entry": 1088,
      "documents": 1089,
      "letter": 1090,
      "Bu": 1091,
      "request": 1092,
      "Invo": 1093,
      "standard": 1094,
      "Cash": 1095,
      "New": 1096,
      "ouch": 1097,
      "demand": 1098,
      "cond": 1099,
      "erson": 1100,
      "overview": 1101,
      "approval": 1102,
      "schedule": 1103,
      "Di": 1104,
      "bers": 1105,
      "ered": 1106,
      "hour": 1107,
      "review": 1108,
      "reason": 1109,
      "coll": 1110,
      "endar": 1111,
      "configurations": 1112,
      "channel": 1113,
      "activity": 1114,
      "Col": 1115,
      "gg": 1116,
      "li": 1117,
      "existing": 1118,
      "ear": 1119,
      "pect": 1120,
      "tract": 1121,
      "feature": 1122,
      "riteria": 1123,
      "After": 1124,
      "een": 1125,
      "nce": 1126,
      "counting": 1127,
      "lock": 1128,
      "calculate": 1129,
      "En": 1130,
      "there": 1131,
      "asure": 1132,
      "betw": 1133,
      "updated": 1134,
      "generate": 1135,
      "include": 1136,
      "matching": 1137,
      "cause": 1138,
      "between": 1139,
      "22": 1140,
      "electronic": 1141,
      "ied": 1142,
      "release": 1143,
      "ances": 1144,
      "curement": 1145,
      "sequence": 1146,
      "formula": 1147,
      "All": 1148,
      "them": 1149,
      "stri": 1150,
      "results": 1151,
      "manag": 1152,
      "phys": 1153,
      "dit": 1154,
      "fic": 1155,
      "ank": 1156,
      "There": 1157,
      "tra": 1158,
      "changes": 1159,
      "return": 1160,
      "Be": 1161,
      "Mo": 1162,
      "cru": 1163,
      "mon": 1164,
      "part": 1165,
      "uring": 1166,
      "Setup": 1167,
      "address": 1168,
      "journals": 1169,
      "ished": 1170,
      "Manage": 1171,
      "Bank": 1172,
      "gr": 1173,
      "way": 1174,
      "ants": 1175,
      "device": 1176,
      "posal": 1177,
      "policies": 1178,
      "consolid": 1179,
      "raw": 1180,
      "oucher": 1181,
      "At": 1182,
      "back": 1183,
      "ether": 1184,
      "ending": 1185,
      "ife": 1186,
      "Comp": 1187,
      "Change": 1188,
      "Calcul": 1189,
      "18": 1190,
      "ted": 1191,
      "their": 1192,
      "ator": 1193,
      "cop": 1194,
      "expl": 1195,
      "users": 1196,
      "active": 1197,
      "general": 1198,
      "includes": 1199,
      "activities": 1200,
      "explain": 1201,
      "EU": 1202,
      "na": 1203,
      "ound": 1204,
      "measure": 1205,
      "adv": 1206,
      "customers": 1207,
      "display": 1208,
      "Up": 1209,
      "idate": 1210,
      "life": 1211,
      "rate": 1212,
      "read": 1213,
      "istical": 1214,
      "uling": 1215,
      "route": 1216,
      "vendors": 1217,
      "records": 1218,
      "Note": 1219,
      "Op": 1220,
      "ven": 1221,
      "dify": 1222,
      "apse": 1223,
      "days": 1224,
      "lim": 1225,
      "retail": 1226,
      "categor": 1227,
      "single": 1228,
      "Invoice": 1229,
      "physical": 1230,
      "scription": 1231,
      "than": 1232,
      "arri": 1233,
      "confirm": 1234,
      "payable": 1235,
      "Default": 1236,
      "expand": 1237,
      "registration": 1238,
      "requirements": 1239,
      "contains": 1240,
      "Main": 1241,
      "nam": 1242,
      "ose": 1243,
      "sum": 1244,
      "some": 1245,
      "planned": 1246,
      "Generate": 1247,
      "Budget": 1248,
      "elements": 1249,
      "mit": 1250,
      "see": 1251,
      "tific": 1252,
      "Pr": 1253,
      "Warehouse": 1254,
      "mption": 1255,
      "ended": 1256,
      "menu": 1257,
      "various": 1258,
      "manually": 1259,
      "Or": 1260,
      "bas": 1261,
      "benef": 1262,
      "enish": 1263,
      "icing": 1264,
      "butes": 1265,
      "message": 1266,
      "19": 1267,
      "Act": 1268,
      "amp": 1269,
      "fiscal": 1270,
      "sl": 1271,
      "search": 1272,
      "ication": 1273,
      "urpo": 1274,
      "move": 1275,
      "mary": 1276,
      "Transaction": 1277,
      "interest": 1278,
      "categories": 1279,
      "Plan": 1280,
      "person": 1281,
      "ways": 1282,
      "enable": 1283,
      "lex": 1284,
      "distri": 1285,
      "finished": 1286,
      "whether": 1287,
      "Reg": 1288,
      "does": 1289,
      "key": 1290,
      "statements": 1291,
      "subscription": 1292,
      "leted": 1293,
      "Open": 1294,
      "Import": 1295,
      "We": 1296,
      "ged": 1297,
      "redu": 1298,
      "role": 1299,
      "quisition": 1300,
      "shown": 1301,
      "added": 1302,
      "methods": 1303,
      "How": 1304,
      "Here": 1305,
      "Oper": 1306,
      "anced": 1307,
      "log": 1308,
      "divi": 1309,
      "ability": 1310,
      "sumption": 1311,
      "included": 1312,
      "Production": 1313,
      "interval": 1314,
      "scheduling": 1315,
      "hold": 1316,
      "calendar": 1317,
      "units": 1318,
      "Unit": 1319,
      "Dis": 1320,
      "cord": 1321,
      "now": 1322,
      "voucher": 1323,
      "settlement": 1324,
      "strain": 1325,
      "Speci": 1326,
      "purpo": 1327,
      "another": 1328,
      "valid": 1329,
      "minist": 1330,
      "operation": 1331,
      "attach": 1332,
      "hours": 1333,
      "explains": 1334,
      "Jap": 1335,
      "Ma": 1336,
      "Number": 1337,
      "vices": 1338,
      "point": 1339,
      "exchange": 1340,
      "Sett": 1341,
      "register": 1342,
      "issue": 1343,
      "picking": 1344,
      "after": 1345,
      "ei": 1346,
      "ans": 1347,
      "orig": 1348,
      "contract": 1349,
      "rid": 1350,
      "Assign": 1351,
      "questionna": 1352,
      "Japan": 1353,
      "either": 1354,
      "origin": 1355,
      "Electronic": 1356,
      "Sh": 1357,
      "mis": 1358,
      "entered": 1359,
      "ics": 1360,
      "due": 1361,
      "completed": 1362,
      "ification": 1363,
      "agreements": 1364,
      "relation": 1365,
      "percentage": 1366,
      "Pow": 1367,
      "Res": 1368,
      "cer": 1369,
      "sure": 1370,
      "ick": 1371,
      "profiles": 1372,
      "constrain": 1373,
      "creating": 1374,
      "output": 1375,
      "recording": 1376,
      "collapse": 1377,
      "Power": 1378,
      "Au": 1379,
      "Run": 1380,
      "loy": 1381,
      "deb": 1382,
      "acity": 1383,
      "bution": 1384,
      "Process": 1385,
      "What": 1386,
      "USD": 1387,
      "Financial": 1388,
      "employees": 1389,
      "Dimension": 1390,
      "slip": 1391,
      "AT": 1392,
      "Val": 1393,
      "gin": 1394,
      "lt": 1395,
      "might": 1396,
      "ative": 1397,
      "consumption": 1398,
      "Com": 1399,
      "net": 1400,
      "received": 1401,
      "Trans": 1402,
      "attributes": 1403,
      "component": 1404,
      "indic": 1405,
      "application": 1406,
      "correct": 1407,
      "header": 1408,
      "enishment": 1409,
      "Regist": 1410,
      "Not": 1411,
      "Show": 1412,
      "ayou": 1413,
      "bar": 1414,
      "block": 1415,
      "thor": 1416,
      "oft": 1417,
      "export": 1418,
      "administ": 1419,
      "workers": 1420,
      "note": 1421,
      "guide": 1422,
      "materials": 1423,
      "apply": 1424,
      "Quantity": 1425,
      "Credit": 1426,
      "Date": 1427,
      "Ser": 1428,
      "criteria": 1429,
      "ared": 1430,
      "plans": 1431,
      "attribute": 1432,
      "refere": 1433,
      "ggle": 1434,
      "Bo": 1435,
      "Cur": 1436,
      "Dat": 1437,
      "case": 1438,
      "gration": 1439,
      "ward": 1440,
      "ination": 1441,
      "anal": 1442,
      "ante": 1443,
      "edit": 1444,
      "arante": 1445,
      "posit": 1446,
      "because": 1447,
      "pear": 1448,
      "appear": 1449,
      "aging": 1450,
      "both": 1451,
      "content": 1452,
      "templates": 1453,
      "positions": 1454,
      "collection": 1455,
      "Curre": 1456,
      "arantee": 1457,
      "21": 1458,
      "non": 1459,
      "pages": 1460,
      "such": 1461,
      "Project": 1462,
      "intercompany": 1463,
      "guarantee": 1464,
      "cell": 1465,
      "released": 1466,
      "Data": 1467,
      "Le": 1468,
      "card": 1469,
      "ms": 1470,
      "ximum": 1471,
      "envi": 1472,
      "tact": 1473,
      "ply": 1474,
      "prin": 1475,
      "Toggle": 1476,
      "author": 1477,
      "trade": 1478,
      "environ": 1479,
      "Option": 1480,
      "center": 1481,
      "layou": 1482,
      "ctions": 1483,
      "dual": 1484,
      "trast": 1485,
      "locations": 1486,
      "components": 1487,
      "member": 1488,
      "cing": 1489,
      "effect": 1490,
      "sible": 1491,
      "beh": 1492,
      "costing": 1493,
      "aster": 1494,
      "parti": 1495,
      "variants": 1496,
      "receivable": 1497,
      "manufacturing": 1498,
      "represent": 1499,
      "dividual": 1500,
      "trastat": 1501,
      "rite": 1502,
      "vis": 1503,
      "ware": 1504,
      "three": 1505,
      "individual": 1506,
      "cep": 1507,
      "illust": 1508,
      "Review": 1509,
      "calculations": 1510,
      "clude": 1511,
      "periods": 1512,
      "Enable": 1513,
      "manager": 1514,
      "amples": 1515,
      "questionnaire": 1516,
      "24": 1517,
      "nch": 1518,
      "packing": 1519,
      "td": 1520,
      "eng": 1521,
      "ured": 1522,
      "result": 1523,
      "ived": 1524,
      "print": 1525,
      "2016": 1526,
      "performance": 1527,
      "good": 1528,
      "23": 1529,
      "25": 1530,
      "By": 1531,
      "Loc": 1532,
      "eet": 1533,
      "greg": 1534,
      "last": 1535,
      "num": 1536,
      "sol": 1537,
      "ansion": 1538,
      "ences": 1539,
      "isn": 1540,
      "Intrastat": 1541,
      "prices": 1542,
      "expansion": 1543,
      "capacity": 1544,
      "Specify": 1545,
      "Settle": 1546,
      "original": 1547,
      "From": 1548,
      "ak": 1549,
      "procurement": 1550,
      "pool": 1551,
      "test": 1552,
      "verse": 1553,
      "actual": 1554,
      "within": 1555,
      "Payments": 1556,
      "Before": 1557,
      "Update": 1558,
      "30": 1559,
      "VAT": 1560,
      "free": 1561,
      "flex": 1562,
      "ime": 1563,
      "rates": 1564,
      "come": 1565,
      "across": 1566,
      "accru": 1567,
      "tern": 1568,
      "made": 1569,
      "board": 1570,
      "ardware": 1571,
      "versions": 1572,
      "processed": 1573,
      "actions": 1574,
      "scenarios": 1575,
      "Operations": 1576,
      "Do": 1577,
      "Sched": 1578,
      "ecu": 1579,
      "ie": 1580,
      "next": 1581,
      "quality": 1582,
      "ression": 1583,
      "discounts": 1584,
      "provide": 1585,
      "Start": 1586,
      "allowed": 1587,
      "designer": 1588,
      "ready": 1589,
      "distribution": 1590,
      "Led": 1591,
      "proposal": 1592,
      "ilities": 1593,
      "email": 1594,
      "under": 1595,
      "curity": 1596,
      "fee": 1597,
      "Design": 1598,
      "Stat": 1599,
      "Appro": 1600,
      "environment": 1601,
      "nchron": 1602,
      "Lo": 1603,
      "ML": 1604,
      "Ver": 1605,
      "sence": 1606,
      "ors": 1607,
      "lets": 1608,
      "que": 1609,
      "team": 1610,
      "ular": 1611,
      "call": 1612,
      "balances": 1613,
      "class": 1614,
      "changed": 1615,
      "Depreciation": 1616,
      "antities": 1617,
      "comb": 1618,
      "submit": 1619,
      "sequences": 1620,
      "adjustments": 1621,
      "charges": 1622,
      "occur": 1623,
      "manufactured": 1624,
      "Collect": 1625,
      "certific": 1626,
      "layout": 1627,
      "Edit": 1628,
      "dent": 1629,
      "ft": 1630,
      "grid": 1631,
      "sources": 1632,
      "were": 1633,
      "ater": 1634,
      "alized": 1635,
      "buil": 1636,
      "itions": 1637,
      "maintain": 1638,
      "adjustment": 1639,
      "weight": 1640,
      "collections": 1641,
      "determine": 1642,
      "limit": 1643,
      "numbers": 1644,
      "Ledger": 1645,
      "Verify": 1646,
      "200": 1647,
      "XML": 1648,
      "event": 1649,
      "pa": 1650,
      "quantities": 1651,
      "statistical": 1652,
      "node": 1653,
      "lifecycle": 1654,
      "Service": 1655,
      "goods": 1656,
      "nect": 1657,
      "separ": 1658,
      "als": 1659,
      "ely": 1660,
      "qui": 1661,
      "tak": 1662,
      "cies": 1663,
      "aggreg": 1664,
      "Excel": 1665,
      "configured": 1666,
      "Allow": 1667,
      "consolidation": 1668,
      "venue": 1669,
      "debit": 1670,
      "Fe": 1671,
      "Job": 1672,
      "many": 1673,
      "recon": 1674,
      "ery": 1675,
      "alty": 1676,
      "acquisition": 1677,
      "less": 1678,
      "portation": 1679,
      "reser": 1680,
      "ternal": 1681,
      "again": 1682,
      "without": 1683,
      "Configur": 1684,
      "features": 1685,
      "basis": 1686,
      "Employe": 1687,
      "Time": 1688,
      "hist": 1689,
      "iation": 1690,
      "recomm": 1691,
      "ency": 1692,
      "enses": 1693,
      "chart": 1694,
      "take": 1695,
      "expect": 1696,
      "what": 1697,
      "izations": 1698,
      "contin": 1699,
      "mploy": 1700,
      "integration": 1701,
      "members": 1702,
      "replenishment": 1703,
      "Location": 1704,
      "ever": 1705,
      "inations": 1706,
      "possible": 1707,
      "exce": 1708,
      "modify": 1709,
      "round": 1710,
      "times": 1711,
      "image": 1712,
      "transl": 1713,
      "approved": 1714,
      "range": 1715,
      "Finance": 1716,
      "gram": 1717,
      "copy": 1718,
      "advanced": 1719,
      "reference": 1720,
      "Me": 1721,
      "wer": 1722,
      "write": 1723,
      "atalog": 1724,
      "program": 1725,
      "asing": 1726,
      "connect": 1727,
      "selection": 1728,
      "examples": 1729,
      "formance": 1730,
      "services": 1731,
      "projects": 1732,
      "synchron": 1733,
      "questions": 1734,
      "applied": 1735,
      "BI": 1736,
      "Can": 1737,
      "Cop": 1738,
      "Close": 1739,
      "Par": 1740,
      "done": 1741,
      "mer": 1742,
      "ong": 1743,
      "seg": 1744,
      "ites": 1745,
      "cho": 1746,
      "sale": 1747,
      "veral": 1748,
      "crease": 1749,
      "expression": 1750,
      "minimum": 1751,
      "hierarchies": 1752,
      "imported": 1753,
      "ibility": 1754,
      "ysis": 1755,
      "determines": 1756,
      "Period": 1757,
      "represents": 1758,
      "month": 1759,
      "partial": 1760,
      "31": 1761,
      "IS": 1762,
      "Ty": 1763,
      "hardware": 1764,
      "pare": 1765,
      "uro": 1766,
      "ints": 1767,
      "security": 1768,
      "roles": 1769,
      "dest": 1770,
      "plate": 1771,
      "avig": 1772,
      "running": 1773,
      "Find": 1774,
      "confirmation": 1775,
      "Copy": 1776,
      "Let": 1777,
      "RF": 1778,
      "Ta": 1779,
      "cil": 1780,
      "pack": 1781,
      "ving": 1782,
      "atory": 1783,
      "remain": 1784,
      "contact": 1785,
      "being": 1786,
      "abor": 1787,
      "absence": 1788,
      "sheet": 1789,
      "party": 1790,
      "Only": 1791,
      "Organ": 1792,
      "against": 1793,
      "91": 1794,
      "Am": 1795,
      "Euro": 1796,
      "Master": 1797,
      "Off": 1798,
      "bound": 1799,
      "catalog": 1800,
      "fac": 1801,
      "mi": 1802,
      "online": 1803,
      "several": 1804,
      "station": 1805,
      "Include": 1806,
      "coverage": 1807,
      "license": 1808,
      "const": 1809,
      "These": 1810,
      "abilities": 1811,
      "ties": 1812,
      "working": 1813,
      "Record": 1814,
      "ider": 1815,
      "estim": 1816,
      "notes": 1817,
      "overri": 1818,
      "operating": 1819,
      "performed": 1820,
      "Attri": 1821,
      "displayed": 1822,
      "doesn": 1823,
      "mission": 1824,
      "paid": 1825,
      "Europe": 1826,
      "93": 1827,
      "99": 1828,
      "Follow": 1829,
      "Line": 1830,
      "Over": 1831,
      "don": 1832,
      "draw": 1833,
      "ifi": 1834,
      "revenue": 1835,
      "already": 1836,
      "stage": 1837,
      "fill": 1838,
      "ntil": 1839,
      "execu": 1840,
      "uni": 1841,
      "0000": 1842,
      "maximum": 1843,
      "urchasing": 1844,
      "expenses": 1845,
      "Cont": 1846,
      "variance": 1847,
      "appropri": 1848,
      "quotation": 1849,
      "definitions": 1850,
      "prior": 1851,
      "depend": 1852,
      "Register": 1853,
      "Currency": 1854,
      "reconcil": 1855,
      "Configuration": 1856,
      "Journal": 1857,
      "Mic": 1858,
      "Mar": 1859,
      "WI": 1860,
      "giv": 1861,
      "md": 1862,
      "until": 1863,
      "second": 1864,
      "itu": 1865,
      "tool": 1866,
      "track": 1867,
      "valuation": 1868,
      "requis": 1869,
      "One": 1870,
      "variant": 1871,
      "Check": 1872,
      "clear": 1873,
      "books": 1874,
      "requirement": 1875,
      "rosoft": 1876,
      "issues": 1877,
      "returned": 1878,
      "strateg": 1879,
      "charge": 1880,
      "Therefore": 1881,
      "Modify": 1882,
      "benefit": 1883,
      "Make": 1884,
      "Transfer": 1885,
      "certificate": 1886,
      "expected": 1887,
      "reconciliation": 1888,
      "Microsoft": 1889,
      "26": 1890,
      "27": 1891,
      "avi": 1892,
      "carri": 1893,
      "here": 1894,
      "later": 1895,
      "sent": 1896,
      "those": 1897,
      "reb": 1898,
      "remove": 1899,
      "err": 1900,
      "mode": 1901,
      "via": 1902,
      "models": 1903,
      "Procurement": 1904,
      "formats": 1905,
      "fund": 1906,
      "forecasting": 1907,
      "shipp": 1908,
      "Calculate": 1909,
      "names": 1910,
      "Print": 1911,
      "However": 1912,
      "purposes": 1913,
      "loyalty": 1914,
      "behavi": 1915,
      "mployment": 1916,
      "Ident": 1917,
      "bel": 1918,
      "bru": 1919,
      "iration": 1920,
      "kill": 1921,
      "inst": 1922,
      "reverse": 1923,
      "lean": 1924,
      "ally": 1925,
      "proper": 1926,
      "external": 1927,
      "creation": 1928,
      "coming": 1929,
      "rows": 1930,
      "Pos": 1931,
      "derived": 1932,
      "applies": 1933,
      "indow": 1934,
      "columns": 1935,
      "enabled": 1936,
      "Febru": 1937,
      "appropriate": 1938,
      "behavior": 1939,
      "February": 1940,
      "Each": 1941,
      "End": 1942,
      "Group": 1943,
      "Sy": 1944,
      "Sub": 1945,
      "Te": 1946,
      "Tab": 1947,
      "clo": 1948,
      "fut": 1949,
      "ks": 1950,
      "rations": 1951,
      "ins": 1952,
      "Inte": 1953,
      "points": 1954,
      "quire": 1955,
      "query": 1956,
      "invoicing": 1957,
      "pricing": 1958,
      "region": 1959,
      "intended": 1960,
      "describe": 1961,
      "mandatory": 1962,
      "settled": 1963,
      "offset": 1964,
      "Reporting": 1965,
      "previously": 1966,
      "copied": 1967,
      "Activ": 1968,
      "Docu": 1969,
      "Statistical": 1970,
      "Amount": 1971,
      "constant": 1972,
      "unique": 1973,
      "future": 1974,
      "28": 1975,
      "BA": 1976,
      "high": 1977,
      "may": 1978,
      "navig": 1979,
      "wal": 1980,
      "reight": 1981,
      "tech": 1982,
      "modu": 1983,
      "stock": 1984,
      "requires": 1985,
      "consist": 1986,
      "Field": 1987,
      "receipts": 1988,
      "difference": 1989,
      "directive": 1990,
      "raft": 1991,
      "loaded": 1992,
      "needed": 1993,
      "earli": 1994,
      "Transactions": 1995,
      "Weight": 1996,
      "indicates": 1997,
      "recommend": 1998,
      "RFQ": 1999,
      "Attribute": 2000,
      "CS": 2001,
      "equ": 2002,
      "every": 2003,
      "her": 2004,
      "ling": 2005,
      "mb": 2006,
      "tend": 2007,
      "orial": 2008,
      "ctor": 2009,
      "itment": 2010,
      "root": 2011,
      "forms": 2012,
      "uman": 2013,
      "Rece": 2014,
      "sections": 2015,
      "fees": 2016,
      "depart": 2017,
      "correspon": 2018,
      "ublic": 2019,
      "identify": 2020,
      "Maintain": 2021,
      "purpose": 2022,
      "princi": 2023,
      "illustration": 2024,
      "separate": 2025,
      "ISO": 2026,
      "100": 2027,
      "Bal": 2028,
      "Batch": 2029,
      "Categ": 2030,
      "DE": 2031,
      "Kanban": 2032,
      "Mon": 2033,
      "Text": 2034,
      "cand": 2035,
      "rator": 2036,
      "ynam": 2037,
      "leave": 2038,
      "elig": 2039,
      "delete": 2040,
      "cannot": 2041,
      "plit": 2042,
      "reported": 2043,
      "receive": 2044,
      "stead": 2045,
      "schedu": 2046,
      "depending": 2047,
      "descriptions": 2048,
      "channels": 2049,
      "constraint": 2050,
      "analy": 2051,
      "accrual": 2052,
      "Schedule": 2053,
      "20022": 2054,
      "Employee": 2055,
      "Method": 2056,
      "Criteria": 2057,
      "Ful": 2058,
      "Fiscal": 2059,
      "Mod": 2060,
      "Sup": 2061,
      "Tr": 2062,
      "would": 2063,
      "anies": 2064,
      "oring": 2065,
      "ici": 2066,
      "ell": 2067,
      "aren": 2068,
      "istics": 2069,
      "shared": 2070,
      "defines": 2071,
      "signature": 2072,
      "Adv": 2073,
      "Adjust": 2074,
      "hiring": 2075,
      "transportation": 2076,
      "gui": 2077,
      "filters": 2078,
      "marked": 2079,
      "allows": 2080,
      "App": 2081,
      "conditions": 2082,
      "validation": 2083,
      "Notice": 2084,
      "taken": 2085,
      "segment": 2086,
      "Tax": 2087,
      "remaining": 2088,
      "closing": 2089,
      "Document": 2090,
      "Category": 2091,
      "Count": 2092,
      "Fast": 2093,
      "Tot": 2094,
      "affect": 2095,
      "ier": 2096,
      "ler": 2097,
      "sch": 2098,
      "reak": 2099,
      "sell": 2100,
      "arget": 2101,
      "arning": 2102,
      "aces": 2103,
      "umed": 2104,
      "tim": 2105,
      "ush": 2106,
      "terms": 2107,
      "stores": 2108,
      "creates": 2109,
      "Comple": 2110,
      "generating": 2111,
      "statuses": 2112,
      "kanbans": 2113,
      "funding": 2114,
      "velop": 2115,
      "primary": 2116,
      "consolidated": 2117,
      "Price": 2118,
      "Actual": 2119,
      "constraints": 2120,
      "administration": 2121,
      "Type": 2122,
      "Organization": 2123,
      "ISO20022": 2124,
      "Benef": 2125,
      "FT": 2126,
      "Fo": 2127,
      "Site": 2128,
      "emp": 2129,
      "imp": 2130,
      "imple": 2131,
      "nces": 2132,
      "ome": 2133,
      "input": 2134,
      "toler": 2135,
      "accord": 2136,
      "updates": 2137,
      "save": 2138,
      "modi": 2139,
      "companies": 2140,
      "Release": 2141,
      "serial": 2142,
      "organizations": 2143,
      "registrations": 2144,
      "supply": 2145,
      "capabilities": 2146,
      "identifi": 2147,
      "Direct": 2148,
      "arrival": 2149,
      "basic": 2150,
      "reduction": 2151,
      "Automat": 2152,
      "Book": 2153,
      "analysis": 2154,
      "engine": 2155,
      "history": 2156,
      "continu": 2157,
      "WIP": 2158,
      "strategy": 2159,
      "earlier": 2160,
      "FastTab": 2161,
      "Anal": 2162,
      "Del": 2163,
      "Fil": 2164,
      "eas": 2165,
      "fit": 2166,
      "freight": 2167,
      "partic": 2168,
      "purchasing": 2169,
      "ution": 2170,
      "onus": 2171,
      "revaluation": 2172,
      "iced": 2173,
      "arrow": 2174,
      "moved": 2175,
      "ulti": 2176,
      "ourcing": 2177,
      "prerequis": 2178,
      "lists": 2179,
      "signment": 2180,
      "typically": 2181,
      "2015": 2182,
      "Posting": 2183,
      "supports": 2184,
      "supported": 2185,
      "attached": 2186,
      "Calculation": 2187,
      "benefits": 2188,
      "answer": 2189,
      "Ship": 2190,
      "relationship": 2191,
      "administrator": 2192,
      "Approve": 2193,
      "carrier": 2194,
      "walks": 2195,
      "29": 2196,
      "50": 2197,
      "Est": 2198,
      "Human": 2199,
      "Multi": 2200,
      "Pre": 2201,
      "Str": 2202,
      "Ter": 2203,
      "air": 2204,
      "lish": 2205,
      "mone": 2206,
      "window": 2207,
      "orage": 2208,
      "Inter": 2209,
      "sage": 2210,
      "Search": 2211,
      "mencl": 2212,
      "focu": 2213,
      "Additional": 2214,
      "foreign": 2215,
      "checkbox": 2216,
      "Accounting": 2217,
      "levels": 2218,
      "shipment": 2219,
      "collabor": 2220,
      "Company": 2221,
      "summary": 2222,
      "appears": 2223,
      "submitted": 2224,
      "override": 2225,
      "System": 2226,
      "Weighted": 2227,
      "according": 2228,
      "Filter": 2229,
      "menclature": 2230,
      "36": 2231,
      "Jan": 2232,
      "RT": 2233,
      "Tal": 2234,
      "away": 2235,
      "bid": 2236,
      "ith": 2237,
      "pending": 2238,
      "target": 2239,
      "uary": 2240,
      "ves": 2241,
      "init": 2242,
      "sel": 2243,
      "alloc": 2244,
      "conformance": 2245,
      "exper": 2246,
      "shif": 2247,
      "Repl": 2248,
      "special": 2249,
      "dock": 2250,
      "optional": 2251,
      "provided": 2252,
      "consider": 2253,
      "directly": 2254,
      "needs": 2255,
      "deploy": 2256,
      "restri": 2257,
      "requisitions": 2258,
      "billing": 2259,
      "messages": 2260,
      "replace": 2261,
      "Planned": 2262,
      "Optional": 2263,
      "combinations": 2264,
      "Collections": 2265,
      "Mark": 2266,
      "Identify": 2267,
      "collaboration": 2268,
      "January": 2269,
      "Talent": 2270,
      "Head": 2271,
      "Is": 2272,
      "Net": 2273,
      "Pick": 2274,
      "Sc": 2275,
      "aim": 2276,
      "break": 2277,
      "bonus": 2278,
      "cross": 2279,
      "ging": 2280,
      "med": 2281,
      "pul": 2282,
      "pres": 2283,
      "vents": 2284,
      "increase": 2285,
      "sector": 2286,
      "elim": 2287,
      "accep": 2288,
      "final": 2289,
      "predefined": 2290,
      "listed": 2291,
      "postdated": 2292,
      "Delete": 2293,
      "Cons": 2294,
      "keting": 2295,
      "provider": 2296,
      "settle": 2297,
      "associate": 2298,
      "transferred": 2299,
      "objects": 2300,
      "full": 2301,
      "totals": 2302,
      "identification": 2303,
      "advance": 2304,
      "summar": 2305,
      "attachments": 2306,
      "Validate": 2307,
      "exceed": 2308,
      "Letter": 2309,
      "execution": 2310,
      "consists": 2311,
      "department": 2312,
      "Balance": 2313,
      "Total": 2314,
      "Delivery": 2315,
      "String": 2316,
      "self": 2317,
      "experi": 2318,
      "40": 2319,
      "Ke": 2320,
      "LCS": 2321,
      "Mapping": 2322,
      "Save": 2323,
      "Sample": 2324,
      "Table": 2325,
      "fere": 2326,
      "size": 2327,
      "sourcing": 2328,
      "vs": 2329,
      "incoming": 2330,
      "altern": 2331,
      "ission": 2332,
      "force": 2333,
      "conversion": 2334,
      "concep": 2335,
      "sample": 2336,
      "sets": 2337,
      "buy": 2338,
      "routing": 2339,
      "unity": 2340,
      "invoiced": 2341,
      "Require": 2342,
      "sert": 2343,
      "claim": 2344,
      "adding": 2345,
      "Access": 2346,
      "variable": 2347,
      "BOMs": 2348,
      "audit": 2349,
      "subcontract": 2350,
      "commission": 2351,
      "workflows": 2352,
      "dedu": 2353,
      "accessorial": 2354,
      "langu": 2355,
      "reflect": 2356,
      "Order": 2357,
      "often": 2358,
      "solution": 2359,
      "choose": 2360,
      "Effect": 2361,
      "Fact": 2362,
      "Round": 2363,
      "Sum": 2364,
      "Year": 2365,
      "ble": 2366,
      "den": 2367,
      "io": 2368,
      "ner": 2369,
      "pane": 2370,
      "skill": 2371,
      "ze": 2372,
      "ately": 2373,
      "instead": 2374,
      "alle": 2375,
      "stop": 2376,
      "convent": 2377,
      "peat": 2378,
      "mod": 2379,
      "righ": 2380,
      "Request": 2381,
      "curring": 2382,
      "generation": 2383,
      "Expense": 2384,
      "1099": 2385,
      "Acquisition": 2386,
      "consumed": 2387,
      "Polic": 2388,
      "internal": 2389,
      "Quest": 2390,
      "Channel": 2391,
      "Percent": 2392,
      "Calendar": 2393,
      "fulfill": 2394,
      "Because": 2395,
      "Dimensions": 2396,
      "positive": 2397,
      "effective": 2398,
      "distributions": 2399,
      "building": 2400,
      "rounding": 2401,
      "synchronization": 2402,
      "facility": 2403,
      "principle": 2404,
      "Ar": 2405,
      "Element": 2406,
      "FO": 2407,
      "Map": 2408,
      "Part": 2409,
      "Row": 2410,
      "Sto": 2411,
      "User": 2412,
      "fl": 2413,
      "fr": 2414,
      "frequ": 2415,
      "idates": 2416,
      "ove": 2417,
      "pie": 2418,
      "spect": 2419,
      "inqui": 2420,
      "enroll": 2421,
      "tom": 2422,
      "pose": 2423,
      "consignment": 2424,
      "selecting": 2425,
      "diag": 2426,
      "ople": 2427,
      "most": 2428,
      "above": 2429,
      "place": 2430,
      "Export": 2431,
      "paralle": 2432,
      "Format": 2433,
      "notific": 2434,
      "nomenclature": 2435,
      "USRT": 2436,
      "Char": 2437,
      "forecasts": 2438,
      "receiving": 2439,
      "assort": 2440,
      "charact": 2441,
      "EUR": 2442,
      "intervals": 2443,
      "Leg": 2444,
      "Offset": 2445,
      "error": 2446,
      "funds": 2447,
      "module": 2448,
      "Model": 2449,
      "guides": 2450,
      "tolerance": 2451,
      "experience": 2452,
      "Effective": 2453,
      "modity": 2454,
      "parallel": 2455,
      "32": 2456,
      "33": 2457,
      "Match": 2458,
      "Other": 2459,
      "Red": 2460,
      "cis": 2461,
      "four": 2462,
      "gress": 2463,
      "iver": 2464,
      "iled": 2465,
      "ified": 2466,
      "map": 2467,
      "ncies": 2468,
      "patch": 2469,
      "rap": 2470,
      "send": 2471,
      "reco": 2472,
      "itor": 2473,
      "icon": 2474,
      "top": 2475,
      "profit": 2476,
      "gether": 2477,
      "accur": 2478,
      "optim": 2479,
      "ables": 2480,
      "prepayment": 2481,
      "prevent": 2482,
      "clar": 2483,
      "discre": 2484,
      "Confirm": 2485,
      "ights": 2486,
      "periodic": 2487,
      "approver": 2488,
      "registered": 2489,
      "important": 2490,
      "organizational": 2491,
      "scoring": 2492,
      "mandate": 2493,
      "Associ": 2494,
      "going": 2495,
      "Quick": 2496,
      "designed": 2497,
      "closed": 2498,
      "earning": 2499,
      "Display": 2500,
      "indicate": 2501,
      "Current": 2502,
      "properties": 2503,
      "Position": 2504,
      "Templ": 2505,
      "scheduled": 2506,
      "prerequisites": 2507,
      "Cre": 2508,
      "Dynam": 2509,
      "PA": 2510,
      "Person": 2511,
      "SE": 2512,
      "employment": 2513,
      "ric": 2514,
      "recurring": 2515,
      "alf": 2516,
      "always": 2517,
      "ently": 2518,
      "together": 2519,
      "progress": 2520,
      "los": 2521,
      "demon": 2522,
      "lectric": 2523,
      "meet": 2524,
      "useful": 2525,
      "moving": 2526,
      "worked": 2527,
      "short": 2528,
      "grouping": 2529,
      "creen": 2530,
      "ives": 2531,
      "addition": 2532,
      "marketing": 2533,
      "currencies": 2534,
      "ferred": 2535,
      "File": 2536,
      "controlled": 2537,
      "common": 2538,
      "issued": 2539,
      "started": 2540,
      "structures": 2541,
      "calendars": 2542,
      "Maximum": 2543,
      "Resource": 2544,
      "blocking": 2545,
      "printing": 2546,
      "aggregate": 2547,
      "parent": 2548,
      "destination": 2549,
      "priority": 2550,
      "rebate": 2551,
      "below": 2552,
      "Advanced": 2553,
      "implement": 2554,
      "modified": 2555,
      "present": 2556,
      "Legal": 2557,
      "lectricity": 2558,
      "01": 2559,
      "34": 2560,
      "35": 2561,
      "60": 2562,
      "Out": 2563,
      "Public": 2564,
      "Rou": 2565,
      "Some": 2566,
      "Vari": 2567,
      "With": 2568,
      "dri": 2569,
      "ek": 2570,
      "evalu": 2571,
      "events": 2572,
      "gain": 2573,
      "ralized": 2574,
      "si": 2575,
      "sort": 2576,
      "side": 2577,
      "split": 2578,
      "atio": 2579,
      "inary": 2580,
      "rele": 2581,
      "ream": 2582,
      "revers": 2583,
      "reposit": 2584,
      "realized": 2585,
      "enance": 2586,
      "lear": 2587,
      "aler": 2588,
      "stream": 2589,
      "iture": 2590,
      "deci": 2591,
      "devices": 2592,
      "decis": 2593,
      "declar": 2594,
      "means": 2595,
      "quar": 2596,
      "peak": 2597,
      "trig": 2598,
      "abel": 2599,
      "abase": 2600,
      "verify": 2601,
      "payroll": 2602,
      "cessary": 2603,
      "Setting": 2604,
      "deliver": 2605,
      "maint": 2606,
      "tables": 2607,
      "controll": 2608,
      "Formul": 2609,
      "necessary": 2610,
      "approve": 2611,
      "typical": 2612,
      "commer": 2613,
      "Manag": 2614,
      "automatic": 2615,
      "repair": 2616,
      "container": 2617,
      "workspaces": 2618,
      "0001": 2619,
      "applicant": 2620,
      "mappings": 2621,
      "determined": 2622,
      "bills": 2623,
      "fully": 2624,
      "Apply": 2625,
      "requests": 2626,
      "Coll": 2627,
      "like": 2628,
      "Box": 2629,
      "authority": 2630,
      "build": 2631,
      "reserved": 2632,
      "drawal": 2633,
      "Full": 2634,
      "shift": 2635,
      "FactBox": 2636,
      "Question": 2637,
      "Template": 2638,
      "Dynamics": 2639,
      "Route": 2640,
      "maintenance": 2641,
      "Day": 2642,
      "Ger": 2643,
      "IBA": 2644,
      "IFO": 2645,
      "Jul": 2646,
      "Min": 2647,
      "Mex": 2648,
      "Ori": 2649,
      "om": 2650,
      "inde": 2651,
      "reject": 2652,
      "gest": 2653,
      "gets": 2654,
      "ild": 2655,
      "They": 2656,
      "enditure": 2657,
      "workload": 2658,
      "worksheet": 2659,
      "database": 2660,
      "permission": 2661,
      "pract": 2662,
      "explo": 2663,
      "Contact": 2664,
      "apped": 2665,
      "session": 2666,
      "Accru": 2667,
      "nolog": 2668,
      "assignment": 2669,
      "quotations": 2670,
      "relations": 2671,
      "centers": 2672,
      "commitment": 2673,
      "described": 2674,
      "shipments": 2675,
      "response": 2676,
      "Attract": 2677,
      "attachment": 2678,
      "nonconformance": 2679,
      "exception": 2680,
      "estimated": 2681,
      "given": 2682,
      "shipped": 2683,
      "technolog": 2684,
      "eligibility": 2685,
      "Fore": 2686,
      "empty": 2687,
      "continuity": 2688,
      "focuses": 2689,
      "Replenishment": 2690,
      "Header": 2691,
      "elimination": 2692,
      "claims": 2693,
      "Store": 2694,
      "Charges": 2695,
      "repository": 2696,
      "IBAN": 2697,
      "Mexic": 2698,
      "Origin": 2699,
      "Base": 2700,
      "could": 2701,
      "draft": 2702,
      "ep": 2703,
      "eme": 2704,
      "even": 2705,
      "hav": 2706,
      "ires": 2707,
      "lon": 2708,
      "ml": 2709,
      "mber": 2710,
      "mapped": 2711,
      "nes": 2712,
      "pan": 2713,
      "rill": 2714,
      "sim": 2715,
      "tary": 2716,
      "ume": 2717,
      "vant": 2718,
      "wave": 2719,
      "ycle": 2720,
      "instru": 2721,
      "ero": 2722,
      "encies": 2723,
      "least": 2724,
      "storage": 2725,
      "promo": 2726,
      "prove": 2727,
      "begin": 2728,
      "acy": 2729,
      "tracking": 2730,
      "olve": 2731,
      "rout": 2732,
      "follows": 2733,
      "stored": 2734,
      "shot": 2735,
      "Reverse": 2736,
      "Repeat": 2737,
      "001": 2738,
      "preview": 2739,
      "disposal": 2740,
      "expiration": 2741,
      "expenditure": 2742,
      "ivered": 2743,
      "formatting": 2744,
      "achie": 2745,
      "Expiration": 2746,
      "taxes": 2747,
      "regular": 2748,
      "margin": 2749,
      "financially": 2750,
      "color": 2751,
      "warehouses": 2752,
      "IDs": 2753,
      "rade": 2754,
      "factor": 2755,
      "Products": 2756,
      "batches": 2757,
      "years": 2758,
      "whole": 2759,
      "returns": 2760,
      "measurements": 2761,
      "slips": 2762,
      "Valid": 2763,
      "Commission": 2764,
      "understand": 2765,
      "combination": 2766,
      "translations": 2767,
      "merge": 2768,
      "shipping": 2769,
      "install": 2770,
      "Receive": 2771,
      "corresponding": 2772,
      "Support": 2773,
      "Complete": 2774,
      "particular": 2775,
      "monetary": 2776,
      "docking": 2777,
      "language": 2778,
      "frequency": 2779,
      "SEPA": 2780,
      "relevant": 2781,
      "Formula": 2782,
      "index": 2783,
      "Foreign": 2784,
      "longer": 2785,
      "44": 2786,
      "Bus": 2787,
      "Cycle": 2788,
      "Fun": 2789,
      "Hi": 2790,
      "High": 2791,
      "Test": 2792,
      "Task": 2793,
      "bur": 2794,
      "ders": 2795,
      "ggest": 2796,
      "hip": 2797,
      "label": 2798,
      "ram": 2799,
      "tre": 2800,
      "wo": 2801,
      "zone": 2802,
      "zero": 2803,
      "orical": 2804,
      "edded": 2805,
      "andard": 2806,
      "popul": 2807,
      "asses": 2808,
      "conver": 2809,
      "area": 2810,
      "people": 2811,
      "duties": 2812,
      "ership": 2813,
      "trace": 2814,
      "ading": 2815,
      "bud": 2816,
      "share": 2817,
      "Reason": 2818,
      "prepare": 2819,
      "delivered": 2820,
      "suggest": 2821,
      "dispatch": 2822,
      "Deb": 2823,
      "Code": 2824,
      "flows": 2825,
      "downloaded": 2826,
      "recorded": 2827,
      "hire": 2828,
      "operator": 2829,
      "checks": 2830,
      "letters": 2831,
      "State": 2832,
      "Standard": 2833,
      "Manual": 2834,
      "web": 2835,
      "week": 2836,
      "starting": 2837,
      "allowance": 2838,
      "linked": 2839,
      "Perform": 2840,
      "Performance": 2841,
      "Allocation": 2842,
      "helps": 2843,
      "reasons": 2844,
      "Move": 2845,
      "Management": 2846,
      "Compensation": 2847,
      "limits": 2848,
      "holds": 2849,
      "PowerApp": 2850,
      "Registration": 2851,
      "gives": 2852,
      "Interest": 2853,
      "analyt": 2854,
      "Benefits": 2855,
      "replacement": 2856,
      "summarized": 2857,
      "Key": 2858,
      "alternative": 2859,
      "concepts": 2860,
      "Policy": 2861,
      "Percentage": 2862,
      "diagram": 2863,
      "discrepan": 2864,
      "Associate": 2865,
      "demonstr": 2866,
      "Business": 2867,
      "AP": 2868,
      "Cross": 2869,
      "Days": 2870,
      "Draft": 2871,
      "Employment": 2872,
      "HR": 2873,
      "Mat": 2874,
      "Prep": 2875,
      "Tri": 2876,
      "Using": 2877,
      "Voucher": 2878,
      "ccess": 2879,
      "fers": 2880,
      "gative": 2881,
      "ient": 2882,
      "jur": 2883,
      "nap": 2884,
      "ratio": 2885,
      "scan": 2886,
      "snap": 2887,
      "word": 2888,
      "wers": 2889,
      "warning": 2890,
      "xml": 2891,
      "atform": 2892,
      "ink": 2893,
      "rever": 2894,
      "reward": 2895,
      "removed": 2896,
      "five": 2897,
      "Insert": 2898,
      "aced": 2899,
      "quick": 2900,
      "pegg": 2901,
      "tage": 2902,
      "tailed": 2903,
      "works": 2904,
      "dating": 2905,
      "among": 2906,
      "izes": 2907,
      "mak": 2908,
      "mach": 2909,
      "mail": 2910,
      "series": 2911,
      "domain": 2912,
      "calculating": 2913,
      "disposition": 2914,
      "Depart": 2915,
      "Develop": 2916,
      "bases": 2917,
      "rowse": 2918,
      "transfers": 2919,
      "availability": 2920,
      "activate": 2921,
      "consol": 2922,
      "scrap": 2923,
      "marking": 2924,
      "office": 2925,
      "adjusted": 2926,
      "links": 2927,
      "applicable": 2928,
      "handling": 2929,
      "requested": 2930,
      "Column": 2931,
      "managers": 2932,
      "measures": 2933,
      "subscriptions": 2934,
      "reduce": 2935,
      "reducing": 2936,
      "certain": 2937,
      "cases": 2938,
      "Options": 2939,
      "printed": 2940,
      "weighted": 2941,
      "reserv": 2942,
      "historical": 2943,
      "continue": 2944,
      "connector": 2945,
      "Parameters": 2946,
      "estimate": 2947,
      "Contin": 2948,
      "rebates": 2949,
      "Integration": 2950,
      "navigation": 2951,
      "navigate": 2952,
      "DEMF": 2953,
      "candidate": 2954,
      "candidates": 2955,
      "schem": 2956,
      "impact": 2957,
      "Scenario": 2958,
      "Rounding": 2959,
      "loss": 2960,
      "commerce": 2961,
      "Manager": 2962,
      "Collapse": 2963,
      "Questionna": 2964,
      "Dayforce": 2965,
      "July": 2966,
      "Mexico": 2967,
      "routes": 2968,
      "achieve": 2969,
      "Prepare": 2970,
      "Trial": 2971,
      "snapshot": 2972,
      "Cap": 2973,
      "Clear": 2974,
      "Dist": 2975,
      "ES": 2976,
      "Mes": 2977,
      "OK": 2978,
      "Packing": 2979,
      "Two": 2980,
      "Vis": 2981,
      "Vers": 2982,
      "bran": 2983,
      "bedded": 2984,
      "car": 2985,
      "imat": 2986,
      "lig": 2987,
      "nown": 2988,
      "situ": 2989,
      "screen": 2990,
      "uel": 2991,
      "thir": 2992,
      "attend": 2993,
      "enables": 2994,
      "stages": 2995,
      "loan": 2996,
      "local": 2997,
      "depreci": 2998,
      "acing": 2999,
      "produced": 3000,
      "embedded": 3001,
      "compare": 3002,
      "shop": 3003,
      "Recru": 3004,
      "withdrawal": 3005,
      "preferred": 3006,
      "izing": 3007,
      "images": 3008,
      "baseline": 3009,
      "Contain": 3010,
      "controls": 3011,
      "suppl": 3012,
      "ensive": 3013,
      "turn": 3014,
      "settlements": 3015,
      "Workflow": 3016,
      "masters": 3017,
      "holder": 3018,
      "respond": 3019,
      "Disposal": 3020,
      "Audit": 3021,
      "Value": 3022,
      "Transportation": 3023,
      "correctly": 3024,
      "blocks": 3025,
      "parties": 3026,
      "proposals": 3027,
      "Designer": 3028,
      "Load": 3029,
      "Overri": 3030,
      "tools": 3031,
      "Activate": 3032,
      "techn": 3033,
      "correspond": 3034,
      "Adjustment": 3035,
      "Released": 3036,
      "Automatic": 3037,
      "Analy": 3038,
      "Terms": 3039,
      "Issu": 3040,
      "buyer": 3041,
      "subcontracted": 3042,
      "Summary": 3043,
      "fulfillment": 3044,
      "inquiry": 3045,
      "notifications": 3046,
      "budgets": 3047,
      "Message": 3048,
      "branch": 3049,
      "third": 3050,
      "attendance": 3051,
      "37": 3052,
      "Av": 3053,
      "CC": 3054,
      "Electricity": 3055,
      "Lines": 3056,
      "Source": 3057,
      "UR": 3058,
      "Us": 3059,
      "clock": 3060,
      "dash": 3061,
      "face": 3062,
      "fuel": 3063,
      "iate": 3064,
      "known": 3065,
      "lay": 3066,
      "mask": 3067,
      "ped": 3068,
      "ping": 3069,
      "rst": 3070,
      "well": 3071,
      "zard": 3072,
      "ones": 3073,
      "reti": 3074,
      "ority": 3075,
      "left": 3076,
      "semb": 3077,
      "ough": 3078,
      "fix": 3079,
      "forward": 3080,
      "dered": 3081,
      "deleg": 3082,
      "develop": 3083,
      "best": 3084,
      "validate": 3085,
      "saved": 3086,
      "exclude": 3087,
      "counted": 3088,
      "older": 3089,
      "olume": 3090,
      "opport": 3091,
      "umer": 3092,
      "why": 3093,
      "uncheck": 3094,
      "wizard": 3095,
      "preced": 3096,
      "premi": 3097,
      "ively": 3098,
      "recru": 3099,
      "owner": 3100,
      "Detail": 3101,
      "purchased": 3102,
      "aining": 3103,
      "procedures": 3104,
      "comments": 3105,
      "statistics": 3106,
      "activated": 3107,
      "differ": 3108,
      "Point": 3109,
      "runs": 3110,
      "First": 3111,
      "command": 3112,
      "filled": 3113,
      "functions": 3114,
      "goal": 3115,
      "Any": 3116,
      "Altern": 3117,
      "Enroll": 3118,
      "Discount": 3119,
      "answers": 3120,
      "debits": 3121,
      "behalf": 3122,
      "copying": 3123,
      "Periodic": 3124,
      "belong": 3125,
      "recommendations": 3126,
      "equal": 3127,
      "scheme": 3128,
      "relationships": 3129,
      "Multiple": 3130,
      "Consolid": 3131,
      "right": 3132,
      "frame": 3133,
      "pieces": 3134,
      "character": 3135,
      "peaker": 3136,
      "deliveries": 3137,
      "technology": 3138,
      "Debit": 3139,
      "jury": 3140,
      "machine": 3141,
      "Distri": 3142,
      "imates": 3143,
      "Container": 3144,
      "Users": 3145,
      "Dem": 3146,
      "Easter": 3147,
      "Flex": 3148,
      "Link": 3149,
      "Pri": 3150,
      "Rel": 3151,
      "Rate": 3152,
      "Sing": 3153,
      "Send": 3154,
      "Sign": 3155,
      "Write": 3156,
      "ben": 3157,
      "drill": 3158,
      "flo": 3159,
      "few": 3160,
      "fail": 3161,
      "found": 3162,
      "global": 3163,
      "public": 3164,
      "still": 3165,
      "Init": 3166,
      "Inqui": 3167,
      "offer": 3168,
      "dead": 3169,
      "deposit": 3170,
      "detailed": 3171,
      "core": 3172,
      "posite": 3173,
      "cus": 3174,
      "licit": 3175,
      "met": 3176,
      "bet": 3177,
      "quart": 3178,
      "uplic": 3179,
      "Sequ": 3180,
      "try": 3181,
      "ablish": 3182,
      "plays": 3183,
      "unless": 3184,
      "illnes": 3185,
      "Restri": 3186,
      "Examples": 3187,
      "Execu": 3188,
      "client": 3189,
      "discus": 3190,
      "displays": 3191,
      "Determin": 3192,
      "improve": 3193,
      "antine": 3194,
      "Consol": 3195,
      "arehousing": 3196,
      "overhead": 3197,
      "Entity": 3198,
      "conside": 3199,
      "interface": 3200,
      "centralized": 3201,
      "community": 3202,
      "topics": 3203,
      "talent": 3204,
      "lank": 3205,
      "filtering": 3206,
      "conditional": 3207,
      "summ": 3208,
      "distribute": 3209,
      "United": 3210,
      "contracts": 3211,
      "Shared": 3212,
      "Level": 3213,
      "representative": 3214,
      "vision": 3215,
      "visual": 3216,
      "ength": 3217,
      "pools": 3218,
      "occurs": 3219,
      "Allowed": 3220,
      "Employees": 3221,
      "programs": 3222,
      "package": 3223,
      "Control": 3224,
      "dependent": 3225,
      "toolbar": 3226,
      "errors": 3227,
      "property": 3228,
      "regional": 3229,
      "eligible": 3230,
      "Tracking": 3231,
      "Counting": 3232,
      "FTI": 3233,
      "Automatically": 3234,
      "Analysis": 3235,
      "365": 3236,
      "initial": 3237,
      "conventions": 3238,
      "presented": 3239,
      "declaration": 3240,
      "trigger": 3241,
      "controller": 3242,
      "Minimum": 3243,
      "simul": 3244,
      "promotion": 3245,
      "burse": 3246,
      "Material": 3247,
      "premises": 3248,
      "Details": 3249,
      "Demand": 3250,
      "Eastern": 3251,
      "bench": 3252,
      "quarters": 3253,
      "considered": 3254,
      "..": 3255,
      "Bar": 3256,
      "Bill": 3257,
      "Browse": 3258,
      "Cor": 3259,
      "Den": 3260,
      "Down": 3261,
      "DOM": 3262,
      "Hour": 3263,
      "Im": 3264,
      "May": 3265,
      "Pl": 3266,
      "Put": 3267,
      "SL": 3268,
      "Skill": 3269,
      "Split": 3270,
      "Sell": 3271,
      "Top": 3272,
      "blank": 3273,
      "ets": 3274,
      "gre": 3275,
      "ground": 3276,
      "hensive": 3277,
      "kip": 3278,
      "light": 3279,
      "oose": 3280,
      "thres": 3281,
      "intra": 3282,
      "rection": 3283,
      "rehensive": 3284,
      "lead": 3285,
      "leting": 3286,
      "oud": 3287,
      "rodu": 3288,
      "ings": 3289,
      "ational": 3290,
      "aring": 3291,
      "promis": 3292,
      "chain": 3293,
      "child": 3294,
      "ily": 3295,
      "become": 3296,
      "tadata": 3297,
      "cile": 3298,
      "lower": 3299,
      "resses": 3300,
      "workbench": 3301,
      "Refere": 3302,
      "Exchange": 3303,
      "success": 3304,
      "outbound": 3305,
      "keys": 3306,
      "comes": 3307,
      "commodity": 3308,
      "Why": 3309,
      "util": 3310,
      "negative": 3311,
      "overtime": 3312,
      "overrid": 3313,
      "extended": 3314,
      "approach": 3315,
      "Entry": 3316,
      "Choose": 3317,
      "Configuring": 3318,
      "ilest": 3319,
      "Vendors": 3320,
      "privi": 3321,
      "holding": 3322,
      "responsible": 3323,
      "Invoices": 3324,
      "Atta": 3325,
      "Calculated": 3326,
      "authorities": 3327,
      "Approved": 3328,
      "classification": 3329,
      "limited": 3330,
      "separately": 3331,
      "aggregated": 3332,
      "translated": 3333,
      "synchronize": 3334,
      "Cancel": 3335,
      "destinations": 3336,
      "Letters": 3337,
      "Records": 3338,
      "Overview": 3339,
      "drawer": 3340,
      "tender": 3341,
      "analyze": 3342,
      "Applic": 3343,
      "Benefit": 3344,
      "identifiers": 3345,
      "Estim": 3346,
      "deployment": 3347,
      "flush": 3348,
      "enrollment": 3349,
      "assortments": 3350,
      "accuracy": 3351,
      "Creating": 3352,
      "reversal": 3353,
      "decide": 3354,
      "quarter": 3355,
      "instructions": 3356,
      "Hiring": 3357,
      "demonstrates": 3358,
      "quickly": 3359,
      "pegging": 3360,
      "Version": 3361,
      "carry": 3362,
      "preceding": 3363,
      "Sequence": 3364,
      "illness": 3365,
      "Consolidate": 3366,
      "summing": 3367,
      "Denmark": 3368,
      "overridden": 3369,
      "38": 3370,
      "39": 3371,
      "43": 3372,
      "AX": 3373,
      "Email": 3374,
      "Fab": 3375,
      "Gant": 3376,
      "Hardware": 3377,
      "IN": 3378,
      "Lat": 3379,
      "Lic": 3380,
      "LIFO": 3381,
      "Next": 3382,
      "Pack": 3383,
      "Ran": 3384,
      "ST": 3385,
      "Size": 3386,
      "Tre": 3387,
      "dynam": 3388,
      "eight": 3389,
      "hub": 3390,
      "ias": 3391,
      "ious": 3392,
      "kam": 3393,
      "mu": 3394,
      "oot": 3395,
      "past": 3396,
      "pass": 3397,
      "push": 3398,
      "ral": 3399,
      "rance": 3400,
      "sm": 3401,
      "vate": 3402,
      "vary": 3403,
      "wants": 3404,
      "warehousing": 3405,
      "atur": 3406,
      "info": 3407,
      "income": 3408,
      "semi": 3409,
      "sta": 3410,
      "edback": 3411,
      "fies": 3412,
      "arge": 3413,
      "promp": 3414,
      "defa": 3415,
      "contri": 3416,
      "areas": 3417,
      "ordin": 3418,
      "safe": 3419,
      "exact": 3420,
      "Seg": 3421,
      "country": 3422,
      "tracing": 3423,
      "umes": 3424,
      "rikam": 3425,
      "ulk": 3426,
      "ourse": 3427,
      "while": 3428,
      "resh": 3429,
      "vert": 3430,
      "perip": 3431,
      "acts": 3432,
      "prelim": 3433,
      "ameter": 3434,
      "posts": 3435,
      "viewer": 3436,
      "tabs": 3437,
      "estimates": 3438,
      "ffici": 3439,
      "keep": 3440,
      "yet": 3441,
      "avel": 3442,
      "Address": 3443,
      "buttons": 3444,
      "Whether": 3445,
      "nodes": 3446,
      "leges": 3447,
      "assignments": 3448,
      "transport": 3449,
      "introdu": 3450,
      "ranges": 3451,
      "veloper": 3452,
      "Payroll": 3453,
      "etencies": 3454,
      "factors": 3455,
      "goals": 3456,
      "Worker": 3457,
      "Working": 3458,
      "integr": 3459,
      "ublish": 3460,
      "headers": 3461,
      "replaced": 3462,
      "background": 3463,
      "personal": 3464,
      "logic": 3465,
      "questionnaires": 3466,
      "Both": 3467,
      "Leave": 3468,
      "authorized": 3469,
      "visible": 3470,
      "recommended": 3471,
      "timesh": 3472,
      "segments": 3473,
      "overrides": 3474,
      "Submit": 3475,
      "Activity": 3476,
      "modules": 3477,
      "Monitor": 3478,
      "Fulfill": 3479,
      "affected": 3480,
      "identifier": 3481,
      "easier": 3482,
      "Termin": 3483,
      "allocated": 3484,
      "restrictions": 3485,
      "Personal": 3486,
      "shortcu": 3487,
      "evaluate": 3488,
      "decision": 3489,
      "Based": 3490,
      "populated": 3491,
      "converted": 3492,
      "reversed": 3493,
      "makes": 3494,
      "Continue": 3495,
      "Questionnaire": 3496,
      "respondents": 3497,
      "Override": 3498,
      "framework": 3499,
      "Inquiries": 3500,
      "privileges": 3501,
      "Fabrikam": 3502,
      "Gantt": 3503,
      "Latvia": 3504,
      "Range": 3505,
      "defaults": 3506,
      "peripher": 3507,
      "preliminary": 3508,
      "49": 3509,
      "80": 3510,
      "Ab": 3511,
      "Az": 3512,
      "Cl": 3513,
      "Center": 3514,
      "Der": 3515,
      "FR": 3516,
      "Help": 3517,
      "Mass": 3518,
      "Now": 3519,
      "Purchasing": 3520,
      "Ste": 3521,
      "Word": 3522,
      "care": 3523,
      "fur": 3524,
      "gn": 3525,
      "his": 3526,
      "je": 3527,
      "lap": 3528,
      "lib": 3529,
      "long": 3530,
      "mass": 3531,
      "milest": 3532,
      "pat": 3533,
      "rit": 3534,
      "rating": 3535,
      "rary": 3536,
      "usage": 3537,
      "wa": 3538,
      "atively": 3539,
      "indu": 3540,
      "injury": 3541,
      "enh": 3542,
      "seven": 3543,
      "outs": 3544,
      "ouble": 3545,
      "cts": 3546,
      "ctit": 3547,
      "staging": 3548,
      "stitu": 3549,
      "ison": 3550,
      "fictit": 3551,
      "arison": 3552,
      "logo": 3553,
      "developer": 3554,
      "metadata": 3555,
      "cember": 3556,
      "produce": 3557,
      "endly": 3558,
      "riendly": 3559,
      "entering": 3560,
      "tial": 3561,
      "Reb": 3562,
      "wide": 3563,
      "numbering": 3564,
      "specifies": 3565,
      "defining": 3566,
      "configurable": 3567,
      "ownership": 3568,
      "Depending": 3569,
      "December": 3570,
      "regard": 3571,
      "archive": 3572,
      "aily": 3573,
      "hasn": 3574,
      "cluded": 3575,
      "USP": 3576,
      "variances": 3577,
      "symb": 3578,
      "activation": 3579,
      "rolled": 3580,
      "feedback": 3581,
      "2012": 3582,
      "Chart": 3583,
      "creditor": 3584,
      "differences": 3585,
      "ensure": 3586,
      "offers": 3587,
      "offline": 3588,
      "goti": 3589,
      "throughout": 3590,
      "Query": 3591,
      "capt": 3592,
      "capability": 3593,
      "Ans": 3594,
      "refresh": 3595,
      "formulas": 3596,
      "condition": 3597,
      "approvals": 3598,
      "managing": 3599,
      "monitor": 3600,
      "confirmed": 3601,
      "benefici": 3602,
      "logon": 3603,
      "pointment": 3604,
      "Settlement": 3605,
      "Common": 3606,
      "Commodity": 3607,
      "represented": 3608,
      "Scheduling": 3609,
      "Status": 3610,
      "aggregation": 3611,
      "translation": 3612,
      "Partial": 3613,
      "Typ": 3614,
      "contacts": 3615,
      "instance": 3616,
      "insights": 3617,
      "RFQs": 3618,
      "Month": 3619,
      "schedules": 3620,
      "Methods": 3621,
      "signatures": 3622,
      "Advance": 3623,
      "Forecast": 3624,
      "particip": 3625,
      "Intercompany": 3626,
      "Consider": 3627,
      "deduct": 3628,
      "convention": 3629,
      "Redu": 3630,
      "recovery": 3631,
      "profitability": 3632,
      "drive": 3633,
      "alert": 3634,
      "German": 3635,
      "explosion": 3636,
      "having": 3637,
      "Statement": 3638,
      "PowerApps": 3639,
      "consolidate": 3640,
      "Capacity": 3641,
      "situations": 3642,
      "Avail": 3643,
      "URL": 3644,
      "dashboard": 3645,
      "layer": 3646,
      "opportunity": 3647,
      "licitation": 3648,
      "bursement": 3649,
      "threshold": 3650,
      "utilization": 3651,
      "License": 3652,
      "much": 3653,
      "atural": 3654,
      "staff": 3655,
      "Azure": 3656,
      "Step": 3657,
      "library": 3658,
      "fictitious": 3659,
      "symbol": 3660,
      "42": 3661,
      "48": 3662,
      "52": 3663,
      "940": 3664,
      "Back": 3665,
      "CT": 3666,
      "Er": 3667,
      "Earning": 3668,
      "Hire": 3669,
      "MX": 3670,
      "MPOS": 3671,
      "OP": 3672,
      "Pe": 3673,
      "Qual": 3674,
      "Rout": 3675,
      "Sim": 3676,
      "ax": 3677,
      "award": 3678,
      "bin": 3679,
      "bulk": 3680,
      "duplic": 3681,
      "effici": 3682,
      "fast": 3683,
      "folder": 3684,
      "gross": 3685,
      "grade": 3686,
      "happ": 3687,
      "ise": 3688,
      "late": 3689,
      "mid": 3690,
      "nitu": 3691,
      "oid": 3692,
      "pain": 3693,
      "sen": 3694,
      "sites": 3695,
      "speaker": 3696,
      "skip": 3697,
      "tent": 3698,
      "volume": 3699,
      "though": 3700,
      "inci": 3701,
      "inet": 3702,
      "indirect": 3703,
      "ordered": 3704,
      "alias": 3705,
      "ession": 3706,
      "enters": 3707,
      "entire": 3708,
      "ited": 3709,
      "prospect": 3710,
      "Income": 3711,
      "coordin": 3712,
      "Three": 3713,
      "cumul": 3714,
      "conf": 3715,
      "conom": 3716,
      "ilar": 3717,
      "quired": 3718,
      "pection": 3719,
      "Security": 3720,
      "training": 3721,
      "travel": 3722,
      "tered": 3723,
      "modes": 3724,
      "abinet": 3725,
      "platform": 3726,
      "tile": 3727,
      "unmark": 3728,
      "term": 3729,
      "compu": 3730,
      "competencies": 3731,
      "Recon": 3732,
      "Reassign": 3733,
      "Remove": 3734,
      "Selected": 3735,
      "aged": 3736,
      "agnitu": 3737,
      "External": 3738,
      "solete": 3739,
      "obsolete": 3740,
      "opened": 3741,
      "buted": 3742,
      "calculates": 3743,
      "idance": 3744,
      "immed": 3745,
      "Prospect": 3746,
      "expire": 3747,
      "parameter": 3748,
      "context": 3749,
      "download": 3750,
      "Where": 3751,
      "including": 3752,
      "extend": 3753,
      "autom": 3754,
      "Costing": 3755,
      "registers": 3756,
      "filtered": 3757,
      "Storage": 3758,
      "association": 3759,
      "loads": 3760,
      "Manufact": 3761,
      "issuing": 3762,
      "starts": 3763,
      "currently": 3764,
      "picked": 3765,
      "reply": 3766,
      "grant": 3767,
      "consolidations": 3768,
      "Compon": 3769,
      "Comprehensive": 3770,
      "Upload": 3771,
      "named": 3772,
      "Active": 3773,
      "Planning": 3774,
      "Web": 3775,
      "Share": 3776,
      "missing": 3777,
      "Resources": 3778,
      "network": 3779,
      "references": 3780,
      "illustrate": 3781,
      "testing": 3782,
      "accrued": 3783,
      "Schedu": 3784,
      "Approval": 3785,
      "Loan": 3786,
      "Look": 3787,
      "Collection": 3788,
      "takt": 3789,
      "Party": 3790,
      "months": 3791,
      "Take": 3792,
      "facilities": 3793,
      "higher": 3794,
      "princip": 3795,
      "Completed": 3796,
      "easy": 3797,
      "Establish": 3798,
      "money": 3799,
      "allocate": 3800,
      "exceeds": 3801,
      "exceeded": 3802,
      "reflects": 3803,
      "skills": 3804,
      "rights": 3805,
      "assortment": 3806,
      "recogn": 3807,
      "optimize": 3808,
      "Currently": 3809,
      "simpl": 3810,
      "Original": 3811,
      "discrepancy": 3812,
      "Department": 3813,
      "reservations": 3814,
      "schemes": 3815,
      "supplier": 3816,
      "Alternatively": 3817,
      "characteristics": 3818,
      "floor": 3819,
      "Initial": 3820,
      "deadline": 3821,
      "Determine": 3822,
      "SLA": 3823,
      "Reference": 3824,
      "Application": 3825,
      "timesheet": 3826,
      "Absence": 3827,
      "Derived": 3828,
      "beneficiary": 3829,
      "Quality": 3830,
      "agnitude": 3831,
      "41": 3832,
      "56": 3833,
      "59": 3834,
      "Are": 3835,
      "CE": 3836,
      "Cent": 3837,
      "Dif": 3838,
      "EN": 3839,
      "Event": 3840,
      "France": 3841,
      "Icel": 3842,
      "King": 3843,
      "MT": 3844,
      "Mob": 3845,
      "Nor": 3846,
      "OR": 3847,
      "SI": 3848,
      "Stra": 3849,
      "Trade": 3850,
      "Window": 3851,
      "XT": 3852,
      "af": 3853,
      "bs": 3854,
      "cou": 3855,
      "econom": 3856,
      "fession": 3857,
      "home": 3858,
      "know": 3859,
      "lished": 3860,
      "plic": 3861,
      "plement": 3862,
      "sal": 3863,
      "sory": 3864,
      "ues": 3865,
      "wit": 3866,
      "yalty": 3867,
      "atives": 3868,
      "onboard": 3869,
      "instate": 3870,
      "inbound": 3871,
      "insert": 3872,
      "real": 3873,
      "revi": 3874,
      "reim": 3875,
      "remit": 3876,
      "reinstate": 3877,
      "ortage": 3878,
      "ern": 3879,
      "enrolled": 3880,
      "allocations": 3881,
      "ital": 3882,
      "iting": 3883,
      "Information": 3884,
      "Instead": 3885,
      "chand": 3886,
      "cover": 3887,
      "conne": 3888,
      "ilding": 3889,
      "upon": 3890,
      "cancel": 3891,
      "old": 3892,
      "oldest": 3893,
      "lowest": 3894,
      "temp": 3895,
      "valuations": 3896,
      "appointment": 3897,
      "verification": 3898,
      "complex": 3899,
      "Revenue": 3900,
      "uster": 3901,
      "grouped": 3902,
      "prepar": 3903,
      "delines": 3904,
      "solicitation": 3905,
      "obtain": 3906,
      "oblig": 3907,
      "ancements": 3908,
      "classes": 3909,
      "opening": 3910,
      "dom": 3911,
      "imit": 3912,
      "Profile": 3913,
      "Coverage": 3914,
      "planner": 3915,
      "signed": 3916,
      "outgoing": 3917,
      "purchases": 3918,
      "productions": 3919,
      "generates": 3920,
      "regul": 3921,
      "contents": 3922,
      "Who": 3923,
      "Form": 3924,
      "negoti": 3925,
      "overall": 3926,
      "providers": 3927,
      "subledger": 3928,
      "Accountant": 3929,
      "organize": 3930,
      "differs": 3931,
      "Items": 3932,
      "guidance": 3933,
      "clean": 3934,
      "Node": 3935,
      "Actions": 3936,
      "super": 3937,
      "space": 3938,
      "spaces": 3939,
      "receives": 3940,
      "sequent": 3941,
      "functional": 3942,
      "loading": 3943,
      "Workers": 3944,
      "Customers": 3945,
      "charged": 3946,
      "00011": 3947,
      "percentages": 3948,
      "handle": 3949,
      "handled": 3950,
      "identified": 3951,
      "Building": 3952,
      "ouchers": 3953,
      "reviews": 3954,
      "physically": 3955,
      "divided": 3956,
      "holders": 3957,
      "validated": 3958,
      "Respon": 3959,
      "cells": 3960,
      "Lean": 3961,
      "environments": 3962,
      "Optionally": 3963,
      "layouts": 3964,
      "effects": 3965,
      "illustrates": 3966,
      "sold": 3967,
      "solver": 3968,
      "Loyalty": 3969,
      "connected": 3970,
      "catalogs": 3971,
      "00002": 3972,
      "Identification": 3973,
      "inspection": 3974,
      "Modern": 3975,
      "Shipping": 3976,
      "Prerequis": 3977,
      "Interval": 3978,
      "Additionally": 3979,
      "initi": 3980,
      "media": 3981,
      "accept": 3982,
      "Accessorial": 3983,
      "subcontracting": 3984,
      "deductions": 3985,
      "Arch": 3986,
      "piece": 3987,
      "characters": 3988,
      "alerts": 3989,
      "decisions": 3990,
      "Germany": 3991,
      "permissions": 3992,
      "practice": 3993,
      "practices": 3994,
      "explore": 3995,
      "Functions": 3996,
      "analytical": 3997,
      "analytics": 3998,
      "Visual": 3999,
      "technici": 4000,
      "Analyze": 4001,
      "development": 4002,
      "Related": 4003,
      "better": 4004,
      "Restrict": 4005,
      "simulation": 4006,
      "promissory": 4007,
      "Attach": 4008,
      "Estimate": 4009,
      "dynamic": 4010,
      "small": 4011,
      "safety": 4012,
      "further": 4013,
      "pattern": 4014,
      "indust": 4015,
      "outside": 4016,
      "USP2": 4017,
      "Answer": 4018,
      "Routing": 4019,
      "binding": 4020,
      "prospective": 4021,
      "coordinator": 4022,
      "confli": 4023,
      "Manufacturing": 4024,
      "SharePoint": 4025,
      "Scheduled": 4026,
      "Differe": 4027,
      "Iceland": 4028,
      "Kingdom": 4029,
      "MT940": 4030,
      "Mobile": 4031,
      "Straight": 4032,
      "onboarding": 4033,
      "2a": 4034,
      "51": 4035,
      "53": 4036,
      "54": 4037,
      "57": 4038,
      "64": 4039,
      "Ag": 4040,
      "Aust": 4041,
      "Average": 4042,
      "Agg": 4043,
      "Don": 4044,
      "During": 4045,
      "Double": 4046,
      "Every": 4047,
      "FF": 4048,
      "Fac": 4049,
      "FIFO": 4050,
      "Get": 4051,
      "Hou": 4052,
      "Hub": 4053,
      "Li": 4054,
      "List": 4055,
      "Mal": 4056,
      "None": 4057,
      "Navig": 4058,
      "Ph": 4059,
      "Rew": 4060,
      "Rule": 4061,
      "Shou": 4062,
      "Side": 4063,
      "SWI": 4064,
      "Your": 4065,
      "cke": 4066,
      "equi": 4067,
      "employ": 4068,
      "fall": 4069,
      "gers": 4070,
      "give": 4071,
      "gran": 4072,
      "had": 4073,
      "idating": 4074,
      "labor": 4075,
      "lading": 4076,
      "length": 4077,
      "large": 4078,
      "ners": 4079,
      "nced": 4080,
      "ror": 4081,
      "ten": 4082,
      "vouchers": 4083,
      "incorrect": 4084,
      "inher": 4085,
      "segreg": 4086,
      "alph": 4087,
      "sty": 4088,
      "ston": 4089,
      "string": 4090,
      "itive": 4091,
      "today": 4092,
      "elf": 4093,
      "proble": 4094,
      "lot": 4095,
      "Info": 4096,
      "Increase": 4097,
      "offe": 4098,
      "chequ": 4099,
      "decrease": 4100,
      "cope": 4101,
      "covers": 4102,
      "ntax": 4103,
      "conform": 4104,
      "meets": 4105,
      "becomes": 4106,
      "acquire": 4107,
      "qual": 4108,
      "duty": 4109,
      "valent": 4110,
      "cance": 4111,
      "olved": 4112,
      "dig": 4113,
      "direction": 4114,
      "vember": 4115,
      "ends": 4116,
      "abling": 4117,
      "portal": 4118,
      "bucke": 4119,
      "tier": 4120,
      "tified": 4121,
      "usp": 4122,
      "comparison": 4123,
      "she": 4124,
      "sharing": 4125,
      "shortage": 4126,
      "Return": 4127,
      "called": 4128,
      "Excluded": 4129,
      "customize": 4130,
      "customized": 4131,
      "recently": 4132,
      "matched": 4133,
      "located": 4134,
      "cler": 4135,
      "Core": 4136,
      "optionally": 4137,
      "regions": 4138,
      "composite": 4139,
      "hide": 4140,
      "notation": 4141,
      "subject": 4142,
      "syntax": 4143,
      "budgeting": 4144,
      "aysia": 4145,
      "Generated": 4146,
      "importing": 4147,
      "November": 4148,
      "commit": 4149,
      "multilevel": 4150,
      "Finite": 4151,
      "turned": 4152,
      "Viewing": 4153,
      "settles": 4154,
      "throughput": 4155,
      "assumes": 4156,
      "weights": 4157,
      "designate": 4158,
      "applications": 4159,
      "applicants": 4160,
      "Reports": 4161,
      "Reported": 4162,
      "responses": 4163,
      "Eng": 4164,
      "Mode": 4165,
      "Moving": 4166,
      "parts": 4167,
      "backward": 4168,
      "advan": 4169,
      "distributed": 4170,
      "Operation": 4171,
      "Max": 4172,
      "recordings": 4173,
      "Processing": 4174,
      "Creditor": 4175,
      "Server": 4176,
      "editor": 4177,
      "editing": 4178,
      "queue": 4179,
      "certificates": 4180,
      "maintained": 4181,
      "debited": 4182,
      "reserve": 4183,
      "connectors": 4184,
      "choo": 4185,
      "expressions": 4186,
      "Organizations": 4187,
      "mixed": 4188,
      "00004": 4189,
      "secondary": 4190,
      "clearing": 4191,
      "Positions": 4192,
      "departments": 4193,
      "guidelines": 4194,
      "seller": 4195,
      "empt": 4196,
      "easily": 4197,
      "Shipment": 4198,
      "Multiplic": 4199,
      "windows": 4200,
      "restrict": 4201,
      "breaks": 4202,
      "accepted": 4203,
      "concept": 4204,
      "Requested": 4205,
      "inquiries": 4206,
      "notification": 4207,
      "implementation": 4208,
      "sorting": 4209,
      "quarantine": 4210,
      "exceptions": 4211,
      "haven": 4212,
      "Commissions": 4213,
      "trend": 4214,
      "suggestions": 4215,
      "operators": 4216,
      "Manually": 4217,
      "discrepancies": 4218,
      "Issue": 4219,
      "branches": 4220,
      "retirement": 4221,
      "sembly": 4222,
      "recruitment": 4223,
      "commands": 4224,
      "belongs": 4225,
      "Distribution": 4226,
      "Single": 4227,
      "discusses": 4228,
      "Correct": 4229,
      "Download": 4230,
      "password": 4231,
      "prompted": 4232,
      "peripherals": 4233,
      "jection": 4234,
      "Error": 4235,
      "incident": 4236,
      "principles": 4237,
      "Windows": 4238,
      "coupon": 4239,
      "economic": 4240,
      "witch": 4241,
      "remitt": 4242,
      "connection": 4243,
      "Archive": 4244,
      "Different": 4245,
      "Aggreg": 4246,
      "Facility": 4247,
      "Houston": 4248,
      "Malaysia": 4249,
      "Phys": 4250,
      "Reward": 4251,
      "Should": 4252,
      "SWIFT": 4253,
      "segregation": 4254,
      "offered": 4255,
      "cheques": 4256,
      "canceled": 4257,
      "2b": 4258,
      "46": 4259,
      "63": 4260,
      "65": 4261,
      "Aged": 4262,
      "Block": 4263,
      "Carri": 4264,
      "Course": 4265,
      "Elig": 4266,
      "FA": 4267,
      "GB": 4268,
      "Gross": 4269,
      "Jun": 4270,
      "Last": 4271,
      "Log": 4272,
      "Limit": 4273,
      "My": 4274,
      "Natural": 4275,
      "Port": 4276,
      "Preview": 4277,
      "Publish": 4278,
      "Sta": 4279,
      "Spain": 4280,
      "TXT": 4281,
      "Wa": 4282,
      "bot": 4283,
      "brow": 4284,
      "cs": 4285,
      "cation": 4286,
      "catch": 4287,
      "dle": 4288,
      "electricity": 4289,
      "fav": 4290,
      "gi": 4291,
      "iry": 4292,
      "iately": 4293,
      "iority": 4294,
      "lass": 4295,
      "mult": 4296,
      "nual": 4297,
      "national": 4298,
      "pu": 4299,
      "por": 4300,
      "press": 4301,
      "pared": 4302,
      "sof": 4303,
      "thread": 4304,
      "once": 4305,
      "ince": 4306,
      "remo": 4307,
      "reassign": 4308,
      "reallocation": 4309,
      "recall": 4310,
      "ension": 4311,
      "letion": 4312,
      "stra": 4313,
      "itself": 4314,
      "edu": 4315,
      "toso": 4316,
      "ising": 4317,
      "aries": 4318,
      "profession": 4319,
      "Input": 4320,
      "Inbound": 4321,
      "power": 4322,
      "decess": 4323,
      "deleted": 4324,
      "That": 4325,
      "Then": 4326,
      "ntime": 4327,
      "updating": 4328,
      "duration": 4329,
      "ordinary": 4330,
      "cise": 4331,
      "dist": 4332,
      "diem": 4333,
      "istic": 4334,
      "rix": 4335,
      "rival": 4336,
      "aph": 4337,
      "plied": 4338,
      "buff": 4339,
      "viol": 4340,
      "tied": 4341,
      "unch": 4342,
      "unities": 4343,
      "unrealized": 4344,
      "respect": 4345,
      "resolve": 4346,
      "workday": 4347,
      "comput": 4348,
      "compli": 4349,
      "accountant": 4350,
      "dataset": 4351,
      "agre": 4352,
      "agent": 4353,
      "agents": 4354,
      "withholding": 4355,
      "predi": 4356,
      "prepared": 4357,
      "predecess": 4358,
      "sume": 4359,
      "iving": 4360,
      "ivity": 4361,
      "recorder": 4362,
      "reclass": 4363,
      "clicking": 4364,
      "configuring": 4365,
      "cloud": 4366,
      "cluster": 4367,
      "addresses": 4368,
      "viewed": 4369,
      "Propose": 4370,
      "signers": 4371,
      "expiry": 4372,
      "Admin": 4373,
      "Administ": 4374,
      "asked": 4375,
      "Cond": 4376,
      "Consumption": 4377,
      "Contoso": 4378,
      "Expenses": 4379,
      "Adding": 4380,
      "looking": 4381,
      "Which": 4382,
      "ront": 4383,
      "nover": 4384,
      "ually": 4385,
      "variations": 4386,
      "overpayment": 4387,
      "overdue": 4388,
      "overlap": 4389,
      "approves": 4390,
      "aud": 4391,
      "rank": 4392,
      "subset": 4393,
      "substitu": 4394,
      "tware": 4395,
      "CostCenter": 4396,
      "justification": 4397,
      "postings": 4398,
      "Points": 4399,
      "trie": 4400,
      "150": 4401,
      "multiplied": 4402,
      "Definition": 4403,
      "Definitions": 4404,
      "performing": 4405,
      "mandates": 4406,
      "directives": 4407,
      "boxes": 4408,
      "turnover": 4409,
      "matches": 4410,
      "Workspaces": 4411,
      "Quar": 4412,
      "rollup": 4413,
      "exists": 4414,
      "Always": 4415,
      "headquarters": 4416,
      "hourly": 4417,
      "gged": 4418,
      "therefore": 4419,
      "grill": 4420,
      "graph": 4421,
      "Calculations": 4422,
      "Upgrade": 4423,
      "retailer": 4424,
      "expanded": 4425,
      "movement": 4426,
      "keyboard": 4427,
      "reduced": 4428,
      "operational": 4429,
      "Reser": 4430,
      "Result": 4431,
      "Auto": 4432,
      "barcode": 4433,
      "DateTime": 4434,
      "referenced": 4435,
      "nonconform": 4436,
      "cards": 4437,
      "authorizes": 4438,
      "visor": 4439,
      "engines": 4440,
      "originally": 4441,
      "actuals": 4442,
      "flexible": 4443,
      "teams": 4444,
      "Fee": 4445,
      "Configurations": 4446,
      "rounded": 4447,
      "Closed": 4448,
      "merchand": 4449,
      "Office": 4450,
      "Offline": 4451,
      "ifies": 4452,
      "tracked": 4453,
      "strategies": 4454,
      "Positive": 4455,
      "Groups": 4456,
      "Tele": 4457,
      "stocking": 4458,
      "TransactionsGroups": 4459,
      "Received": 4460,
      "Monday": 4461,
      "Supply": 4462,
      "Track": 4463,
      "selling": 4464,
      "tolerances": 4465,
      "Books": 4466,
      "prerequisite": 4467,
      "administrators": 4468,
      "focus": 4469,
      "shifts": 4470,
      "Replenish": 4471,
      "pull": 4472,
      "Keep": 4473,
      "alternatives": 4474,
      "commissions": 4475,
      "languages": 4476,
      "stops": 4477,
      "stopped": 4478,
      "Policies": 4479,
      "Arrival": 4480,
      "fraud": 4481,
      "maps": 4482,
      "earnings": 4483,
      "Created": 4484,
      "implemented": 4485,
      "Output": 4486,
      "declarations": 4487,
      "beginning": 4488,
      "Function": 4489,
      "preparer": 4490,
      "suggested": 4491,
      "scanned": 4492,
      "words": 4493,
      "reservation": 4494,
      "schema": 4495,
      "Recruitment": 4496,
      "technical": 4497,
      "delegates": 4498,
      "Consolidation": 4499,
      "fails": 4500,
      "Platform": 4501,
      "greater": 4502,
      "flushing": 4503,
      "integrated": 4504,
      "milestone": 4505,
      "enhancements": 4506,
      "Available": 4507,
      "tention": 4508,
      "computer": 4509,
      "Reconcile": 4510,
      "immediately": 4511,
      "automated": 4512,
      "granted": 4513,
      "simplified": 4514,
      "Centralized": 4515,
      "revised": 4516,
      "supervisor": 4517,
      "technician": 4518,
      "conflicts": 4519,
      "equivalent": 4520,
      "granular": 4521,
      "Engine": 4522,
      "advantage": 4523,
      "Multiplicity": 4524,
      "Physical": 4525,
      "Carrier": 4526,
      "Eligibility": 4527,
      "June": 4528,
      "bottom": 4529,
      "favor": 4530,
      "puts": 4531,
      "software": 4532,
      "straight": 4533,
      "buffer": 4534,
      "compliance": 4535,
      "1a": 4536,
      "1000": 4537,
      "45": 4538,
      "47": 4539,
      "58": 4540,
      "500": 4541,
      "61": 4542,
      "98": 4543,
      "AR": 4544,
      "CO": 4545,
      "Call": 4546,
      "Cabinet": 4547,
      "DI": 4548,
      "D0001": 4549,
      "Freight": 4550,
      "Friendly": 4551,
      "Front": 4552,
      "Give": 4553,
      "IP": 4554,
      "Ken": 4555,
      "Length": 4556,
      "Mi": 4557,
      "Mid": 4558,
      "M0001": 4559,
      "Ne": 4560,
      "Nam": 4561,
      "Purpo": 4562,
      "Rating": 4563,
      "Root": 4564,
      "SS": 4565,
      "Sol": 4566,
      "Sam": 4567,
      "Screen": 4568,
      "Score": 4569,
      "Und": 4570,
      "Wid": 4571,
      "Zone": 4572,
      "apo": 4573,
      "ahead": 4574,
      "aise": 4575,
      "bles": 4576,
      "bability": 4577,
      "brid": 4578,
      "daily": 4579,
      "eal": 4580,
      "electron": 4581,
      "evaluation": 4582,
      "hot": 4583,
      "hid": 4584,
      "human": 4585,
      "hoot": 4586,
      "kind": 4587,
      "lu": 4588,
      "my": 4589,
      "mal": 4590,
      "mits": 4591,
      "magnitude": 4592,
      "pap": 4593,
      "slic": 4594,
      "simple": 4595,
      "score": 4596,
      "susp": 4597,
      "writ": 4598,
      "zones": 4599,
      "atis": 4600,
      "atment": 4601,
      "attention": 4602,
      "rede": 4603,
      "reused": 4604,
      "repeat": 4605,
      "referred": 4606,
      "antified": 4607,
      "ercise": 4608,
      "enfor": 4609,
      "enabling": 4610,
      "ioned": 4611,
      "stated": 4612,
      "itoring": 4613,
      "isite": 4614,
      "arrows": 4615,
      "provision": 4616,
      "lost": 4617,
      "pot": 4618,
      "posed": 4619,
      "mentioned": 4620,
      "aspect": 4621,
      "gered": 4622,
      "cure": 4623,
      "quantified": 4624,
      "ups": 4625,
      "excep": 4626,
      "exempt": 4627,
      "Sector": 4628,
      "trics": 4629,
      "vest": 4630,
      "ulate": 4631,
      "involve": 4632,
      "portion": 4633,
      "tive": 4634,
      "ressed": 4635,
      "shir": 4636,
      "Real": 4637,
      "Required": 4638,
      "agency": 4639,
      "runtime": 4640,
      "matrix": 4641,
      "salesperson": 4642,
      "praise": 4643,
      "views": 4644,
      "modeling": 4645,
      "Deleting": 4646,
      "imize": 4647,
      "Provi": 4648,
      "signal": 4649,
      "outli": 4650,
      "outputs": 4651,
      "Consignment": 4652,
      "versus": 4653,
      "Addresses": 4654,
      "comment": 4655,
      "mpling": 4656,
      "states": 4657,
      "ials": 4658,
      "sess": 4659,
      "Forward": 4660,
      "USSI": 4661,
      "assigning": 4662,
      "extension": 4663,
      "approvers": 4664,
      "subcategories": 4665,
      "international": 4666,
      "credited": 4667,
      "cleared": 4668,
      "supplement": 4669,
      "documentation": 4670,
      "marks": 4671,
      "systems": 4672,
      "Assort": 4673,
      "yearly": 4674,
      "private": 4675,
      "0002": 4676,
      "00015": 4677,
      "Postal": 4678,
      "Posted": 4679,
      "Postdated": 4680,
      "whom": 4681,
      "pickup": 4682,
      "replenish": 4683,
      "respons": 4684,
      "Buy": 4685,
      "requester": 4686,
      "reviewer": 4687,
      "reviewed": 4688,
      "Color": 4689,
      "liability": 4690,
      "traordinary": 4691,
      "Compare": 4692,
      "measurement": 4693,
      "someone": 4694,
      "Budgeting": 4695,
      "Orders": 4696,
      "Region": 4697,
      "reduces": 4698,
      "Operator": 4699,
      "logistics": 4700,
      "Disposition": 4701,
      "originating": 4702,
      "Resolve": 4703,
      "Commer": 4704,
      "Registers": 4705,
      "Services": 4706,
      "behind": 4707,
      "representation": 4708,
      "individually": 4709,
      "accrue": 4710,
      "occurred": 4711,
      "Collected": 4712,
      "grids": 4713,
      "built": 4714,
      "reconcile": 4715,
      "connectivity": 4716,
      "chosen": 4717,
      "RFM": 4718,
      "packed": 4719,
      "packages": 4720,
      "packaging": 4721,
      "Attributes": 4722,
      "European": 4723,
      "depends": 4724,
      "carried": 4725,
      "Synchron": 4726,
      "Subscription": 4727,
      "Activities": 4728,
      "highest": 4729,
      "highlight": 4730,
      "walk": 4731,
      "CSV": 4732,
      "Trace": 4733,
      "impair": 4734,
      "restriction": 4735,
      "Scrap": 4736,
      "Requirement": 4737,
      "deduction": 4738,
      "optimization": 4739,
      "Confirmation": 4740,
      "Variable": 4741,
      "Various": 4742,
      "six": 4743,
      "triggered": 4744,
      "rejected": 4745,
      "workloads": 4746,
      "Accrued": 4747,
      "expenditures": 4748,
      "installation": 4749,
      "Supported": 4750,
      "Highlight": 4751,
      "treated": 4752,
      "assessed": 4753,
      "warnings": 4754,
      "rewards": 4755,
      "Departments": 4756,
      "Development": 4757,
      "depreciated": 4758,
      "masks": 4759,
      "Flexible": 4760,
      "Singapo": 4761,
      "Execute": 4762,
      "Execution": 4763,
      "Bills": 4764,
      "Hourly": 4765,
      "Treatment": 4766,
      "ralia": 4767,
      "Segment": 4768,
      "Segments": 4769,
      "Termination": 4770,
      "shortcut": 4771,
      "shortcuts": 4772,
      "Cloud": 4773,
      "Rebates": 4774,
      "capture": 4775,
      "Typically": 4776,
      "Reduce": 4777,
      "People": 4778,
      "Components": 4779,
      "Initialize": 4780,
      "reimbursement": 4781,
      "obligation": 4782,
      "regulatory": 4783,
      "negotiated": 4784,
      "Response": 4785,
      "Prerequisites": 4786,
      "Australia": 4787,
      "Liqu": 4788,
      "fallback": 4789,
      "qualify": 4790,
      "clerk": 4791,
      "choosing": 4792,
      "trends": 4793,
      "remittance": 4794,
      "Waive": 4795,
      "browser": 4796,
      "multisite": 4797,
      "professional": 4798,
      "predecessor": 4799,
      "Conditional": 4800,
      "Quarantine": 4801,
      "granularity": 4802,
      "Mixed": 4803,
      "Purpose": 4804,
      "Solver": 4805,
      "Under": 4806,
      "bleshoot": 4807,
      "electronically": 4808,
      "hidden": 4809,
      "except": 4810,
      "outliers": 4811,
      "impairment": 4812,
      "Singapore": 4813,
      "1b": 4814,
      "55": 4815,
      "62": 4816,
      "66": 4817,
      "AN": 4818,
      "Age": 4819,
      "Apr": 4820,
      "Aging": 4821,
      "BS": 4822,
      "Break": 4823,
      "Case": 4824,
      "Dri": 4825,
      "Dire": 4826,
      "Due": 4827,
      "Drill": 4828,
      "Daily": 4829,
      "Dedu": 4830,
      "Evalu": 4831,
      "Events": 4832,
      "Fre": 4833,
      "Free": 4834,
      "GT": 4835,
      "HQ": 4836,
      "Hide": 4837,
      "IT": 4838,
      "Ital": 4839,
      "IES": 4840,
      "ICE": 4841,
      "Layou": 4842,
      "MY": 4843,
      "M00": 4844,
      "NS": 4845,
      "Non": 4846,
      "Oct": 4847,
      "OFF": 4848,
      "QL": 4849,
      "Ren": 4850,
      "Rem": 4851,
      "Su": 4852,
      "Sort": 4853,
      "Stree": 4854,
      "Speaker": 4855,
      "TD": 4856,
      "Tit": 4857,
      "Tare": 4858,
      "Tur": 4859,
      "UL": 4860,
      "Volume": 4861,
      "Wave": 4862,
      "WBS": 4863,
      "YTD": 4864,
      "aw": 4865,
      "ale": 4866,
      "aid": 4867,
      "abet": 4868,
      "br": 4869,
      "cach": 4870,
      "criter": 4871,
      "course": 4872,
      "eper": 4873,
      "fon": 4874,
      "friendly": 4875,
      "grow": 4876,
      "he": 4877,
      "ho": 4878,
      "ian": 4879,
      "jor": 4880,
      "lbs": 4881,
      "mist": 4882,
      "nie": 4883,
      "ober": 4884,
      "pers": 4885,
      "pound": 4886,
      "publish": 4887,
      "ptive": 4888,
      "rich": 4889,
      "sor": 4890,
      "switch": 4891,
      "ube": 4892,
      "vage": 4893,
      "won": 4894,
      "zip": 4895,
      "thing": 4896,
      "inform": 4897,
      "incre": 4898,
      "independent": 4899,
      "redi": 4900,
      "reuse": 4901,
      "recalculation": 4902,
      "recalculate": 4903,
      "rections": 4904,
      "resemb": 4905,
      "revaluations": 4906,
      "retrie": 4907,
      "orrow": 4908,
      "era": 4909,
      "erated": 4910,
      "encu": 4911,
      "enough": 4912,
      "stic": 4913,
      "ess": 4914,
      "entials": 4915,
      "icated": 4916,
      "ingredi": 4917,
      "toward": 4918,
      "toms": 4919,
      "elcome": 4920,
      "1250": 4921,
      "proportion": 4922,
      "Int": 4923,
      "Intern": 4924,
      "deo": 4925,
      "depre": 4926,
      "deeper": 4927,
      "asource": 4928,
      "coding": 4929,
      "Thail": 4930,
      "mptoms": 4931,
      "cured": 4932,
      "conversions": 4933,
      "ilit": 4934,
      "accel": 4935,
      "upgr": 4936,
      "upcoming": 4937,
      "uploaded": 4938,
      "dule": 4939,
      "ceed": 4940,
      "sampling": 4941,
      "exts": 4942,
      "exclu": 4943,
      "See": 4944,
      "trial": 4945,
      "valued": 4946,
      "plus": 4947,
      "unication": 4948,
      "usually": 4949,
      "complet": 4950,
      "compared": 4951,
      "completing": 4952,
      "completion": 4953,
      "lying": 4954,
      "datasource": 4955,
      "pays": 4956,
      "redentials": 4957,
      "Reject": 4958,
      "Recalculate": 4959,
      "amort": 4960,
      "amera": 4961,
      "delay": 4962,
      "Extend": 4963,
      "Exercise": 4964,
      "manently": 4965,
      "max": 4966,
      "banner": 4967,
      "locate": 4968,
      "disable": 4969,
      "dispose": 4970,
      "disposed": 4971,
      "cursor": 4972,
      "expired": 4973,
      "expressed": 4974,
      "ledgers": 4975,
      "Constrain": 4976,
      "parse": 4977,
      "generic": 4978,
      "Explo": 4979,
      "Expression": 4980,
      "104": 4981,
      "105": 4982,
      "Online": 4983,
      "aving": 4984,
      "faction": 4985,
      "minimize": 4986,
      "noted": 4987,
      "utes": 4988,
      "checked": 4989,
      "subsi": 4990,
      "subsequent": 4991,
      "submits": 4992,
      "erarchy": 4993,
      "Safe": 4994,
      "organized": 4995,
      "Entering": 4996,
      "interaction": 4997,
      "setups": 4998,
      "Nomenclature": 4999,
      "descriptive": 5000,
      "performs": 5001,
      "Std": 5002,
      "States": 5003,
      "spent": 5004,
      "Ask": 5005,
      "Assembly": 5006,
      "Assess": 5007,
      "POs": 5008,
      "associates": 5009,
      "termination": 5010,
      "differently": 5011,
      "assumed": 5012,
      "prise": 5013,
      "standing": 5014,
      "175": 5015,
      "expensed": 5016,
      "0004": 5017,
      "00012": 5018,
      "00010": 5019,
      "correction": 5020,
      "rolling": 5021,
      "picks": 5022,
      "billable": 5023,
      "fulfilled": 5024,
      "causes": 5025,
      "respondent": 5026,
      "early": 5027,
      "earned": 5028,
      "pected": 5029,
      "managed": 5030,
      "fications": 5031,
      "Begin": 5032,
      "More": 5033,
      "Module": 5034,
      "backflush": 5035,
      "copies": 5036,
      "retailers": 5037,
      "categorize": 5038,
      "Pricing": 5039,
      "Ordered": 5040,
      "searches": 5041,
      "Imported": 5042,
      "Dispatch": 5043,
      "validations": 5044,
      "Sheet": 5045,
      "PowerBI": 5046,
      "Financials": 5047,
      "ATP": 5048,
      "Comment": 5049,
      "Composite": 5050,
      "indicated": 5051,
      "blocked": 5052,
      "exported": 5053,
      "applying": 5054,
      "editable": 5055,
      "representing": 5056,
      "visibility": 5057,
      "illustrations": 5058,
      "engage": 5059,
      "resulting": 5060,
      "Locate": 5061,
      "Locations": 5062,
      "numer": 5063,
      "flexibility": 5064,
      "underlying": 5065,
      "Local": 5066,
      "path": 5067,
      "acquisitions": 5068,
      "Measure": 5069,
      "synchronized": 5070,
      "merged": 5071,
      "monthly": 5072,
      "estimation": 5073,
      "00006": 5074,
      "priorities": 5075,
      "dependency": 5076,
      "Margin": 5077,
      "Marketing": 5078,
      "insight": 5079,
      "BAS": 5080,
      "earliest": 5081,
      "Receip": 5082,
      "1001": 5083,
      "Balances": 5084,
      "segmented": 5085,
      "Totals": 5086,
      "affects": 5087,
      "serialized": 5088,
      "identifies": 5089,
      "Predefined": 5090,
      "bids": 5091,
      "initiate": 5092,
      "deployments": 5093,
      "Headquarters": 5094,
      "Picking": 5095,
      "increases": 5096,
      "eliminations": 5097,
      "acceptable": 5098,
      "solutions": 5099,
      "Yearly": 5100,
      "Channels": 5101,
      "Calendars": 5102,
      "Arnie": 5103,
      "Rows": 5104,
      "Matching": 5105,
      "accurate": 5106,
      "Personnel": 5107,
      "Outcome": 5108,
      "Variance": 5109,
      "Withdrawal": 5110,
      "Withholding": 5111,
      "evaluated": 5112,
      "sessions": 5113,
      "Accrue": 5114,
      "Accrual": 5115,
      "technologies": 5116,
      "similar": 5117,
      "instruction": 5118,
      "promote": 5119,
      "Validations": 5120,
      "Hierarchy": 5121,
      "labels": 5122,
      "demonstrate": 5123,
      "scanners": 5124,
      "consolidating": 5125,
      "Continu": 5126,
      "Questionnaires": 5127,
      "situation": 5128,
      "localization": 5129,
      "depreciations": 5130,
      "supplies": 5131,
      "Disposals": 5132,
      "Analyt": 5133,
      "Issuing": 5134,
      "fixes": 5135,
      "umeric": 5136,
      "Alternative": 5137,
      "Consolidations": 5138,
      "Distribute": 5139,
      "Priority": 5140,
      "Signature": 5141,
      "improvements": 5142,
      "promotions": 5143,
      "Improve": 5144,
      "Skills": 5145,
      "successfully": 5146,
      "Packaging": 5147,
      "contributes": 5148,
      "introduced": 5149,
      "Fulfillment": 5150,
      "Terminate": 5151,
      "career": 5152,
      "Rebate": 5153,
      "regardless": 5154,
      "ensures": 5155,
      "captured": 5156,
      "Types": 5157,
      "deducted": 5158,
      "staffed": 5159,
      "symbols": 5160,
      "OPER": 5161,
      "OPEN": 5162,
      "Similar": 5163,
      "Simulate": 5164,
      "duplicate": 5165,
      "efficiency": 5166,
      "happen": 5167,
      "cumulative": 5168,
      "ORIES": 5169,
      "salary": 5170,
      "tempor": 5171,
      "preparing": 5172,
      "Whole": 5173,
      "industry": 5174,
      "bindings": 5175,
      "inherited": 5176,
      "alphabet": 5177,
      "styles": 5178,
      "problems": 5179,
      "Staff": 5180,
      "csv": 5181,
      "porate": 5182,
      "threads": 5183,
      "violations": 5184,
      "respective": 5185,
      "substitution": 5186,
      "nonconformances": 5187,
      "Engineer": 5188,
      "favorable": 5189,
      "Names": 5190,
      "lump": 5191,
      "paper": 5192,
      "slice": 5193,
      "suspended": 5194,
      "written": 5195,
      "atisfaction": 5196,
      "aspects": 5197,
      "Synchronize": 5198,
      "April": 5199,
      "Driver": 5200,
      "Deduction": 5201,
      "Evaluate": 5202,
      "French": 5203,
      "GTIN": 5204,
      "Layout": 5205,
      "October": 5206,
      "OFFICE": 5207,
      "Remaining": 5208,
      "Street": 5209,
      "Title": 5210,
      "criterion": 5211,
      "growth": 5212,
      "orrowing": 5213,
      "encumb": 5214,
      "International": 5215,
      "Thailand": 5216,
      "accelerated": 5217,
      "subsidi": 5218,
      "Beginning": 5219,
      "OPENXML": 5220,
      "Similarly": 5221,
      "02": 5222,
      "2000": 5223,
      "3a": 5224,
      "300": 5225,
      "4a": 5226,
      "4b": 5227,
      "67": 5228,
      "70": 5229,
      "700": 5230,
      "765": 5231,
      "95": 5232,
      "980": 5233,
      "AA": 5234,
      "Ax": 5235,
      "And": 5236,
      "A0001": 5237,
      "ACC": 5238,
      "BP": 5239,
      "Bel": 5240,
      "Bas": 5241,
      "Best": 5242,
      "Bind": 5243,
      "CA": 5244,
      "Cer": 5245,
      "Cand": 5246,
      "Clo": 5247,
      "Care": 5248,
      "Catalog": 5249,
      "Clean": 5250,
      "DU": 5251,
      "Dash": 5252,
      "Draw": 5253,
      "Duplic": 5254,
      "EF": 5255,
      "Emp": 5256,
      "Elim": 5257,
      "Emb": 5258,
      "EFT": 5259,
      "Fri": 5260,
      "Frequ": 5261,
      "GL": 5262,
      "Gain": 5263,
      "Hand": 5264,
      "Imple": 5265,
      "Jo": 5266,
      "JBA": 5267,
      "Lan": 5268,
      "Lead": 5269,
      "Lith": 5270,
      "L0001": 5271,
      "LIN": 5272,
      "Lbs": 5273,
      "M1": 5274,
      "M9": 5275,
      "Mer": 5276,
      "M000": 5277,
      "MIS": 5278,
      "Magnitude": 5279,
      "OY": 5280,
      "OPOS": 5281,
      "PG": 5282,
      "PI": 5283,
      "PS": 5284,
      "PT": 5285,
      "Page": 5286,
      "Pet": 5287,
      "Press": 5288,
      "Pass": 5289,
      "Pending": 5290,
      "Push": 5291,
      "Paid": 5292,
      "PPG": 5293,
      "Ratio": 5294,
      "SK": 5295,
      "Sen": 5296,
      "Sch": 5297,
      "Self": 5298,
      "Scope": 5299,
      "SQL": 5300,
      "SORIES": 5301,
      "T00": 5302,
      "Tim": 5303,
      "Tier": 5304,
      "Target": 5305,
      "UI": 5306,
      "YOY": 5307,
      "ZIP": 5308,
      "bad": 5309,
      "browse": 5310,
      "cles": 5311,
      "cated": 5312,
      "crit": 5313,
      "cabinet": 5314,
      "credentials": 5315,
      "dr": 5316,
      "dth": 5317,
      "eting": 5318,
      "eque": 5319,
      "fically": 5320,
      "fence": 5321,
      "gover": 5322,
      "hard": 5323,
      "half": 5324,
      "land": 5325,
      "lending": 5326,
      "mals": 5327,
      "nthe": 5328,
      "nical": 5329,
      "nest": 5330,
      "natural": 5331,
      "ored": 5332,
      "omin": 5333,
      "ris": 5334,
      "rated": 5335,
      "surch": 5336,
      "scope": 5337,
      "spot": 5338,
      "tor": 5339,
      "ture": 5340,
      "uan": 5341,
      "ute": 5342,
      "uations": 5343,
      "uish": 5344,
      "vation": 5345,
      "wor": 5346,
      "xt": 5347,
      "ym": 5348,
      "yon": 5349,
      "themes": 5350,
      "onto": 5351,
      "ongoing": 5352,
      "inct": 5353,
      "inser": 5354,
      "incur": 5355,
      "inbox": 5356,
      "incor": 5357,
      "insure": 5358,
      "infix": 5359,
      "invest": 5360,
      "reach": 5361,
      "recurre": 5362,
      "refer": 5363,
      "reaction": 5364,
      "refunds": 5365,
      "removing": 5366,
      "rejection": 5367,
      "ang": 5368,
      "annot": 5369,
      "annual": 5370,
      "oriz": 5371,
      "enclosed": 5372,
      "enumer": 5373,
      "eness": 5374,
      "leaf": 5375,
      "oubleshoot": 5376,
      "align": 5377,
      "stations": 5378,
      "stration": 5379,
      "essent": 5380,
      "icial": 5381,
      "inguish": 5382,
      "forcing": 5383,
      "else": 5384,
      "125": 5385,
      "andom": 5386,
      "ationship": 5387,
      "arran": 5388,
      "arrange": 5389,
      "prote": 5390,
      "procured": 5391,
      "logged": 5392,
      "Inst": 5393,
      "Inspect": 5394,
      "Injury": 5395,
      "pop": 5396,
      "chnical": 5397,
      "mental": 5398,
      "assed": 5399,
      "cove": 5400,
      "Through": 5401,
      "mpa": 5402,
      "cum": 5403,
      "cut": 5404,
      "consume": 5405,
      "metal": 5406,
      "metrics": 5407,
      "mestic": 5408,
      "beyon": 5409,
      "accom": 5410,
      "accumul": 5411,
      "acquired": 5412,
      "quer": 5413,
      "pet": 5414,
      "upper": 5415,
      "upload": 5416,
      "selects": 5417,
      "excl": 5418,
      "extraordinary": 5419,
      "Separ": 5420,
      "Second": 5421,
      "trading": 5422,
      "troubleshoot": 5423,
      "olution": 5424,
      "olves": 5425,
      "did": 5426,
      "aded": 5427,
      "ender": 5428,
      "finish": 5429,
      "involved": 5430,
      "involves": 5431,
      "plint": 5432,
      "placed": 5433,
      "bug": 5434,
      "white": 5435,
      "tiers": 5436,
      "unic": 5437,
      "unlock": 5438,
      "unchanged": 5439,
      "unpaid": 5440,
      "resourcing": 5441,
      "resolved": 5442,
      "verity": 5443,
      "verifies": 5444,
      "ordering": 5445,
      "comply": 5446,
      "accountants": 5447,
      "sha": 5448,
      "shelf": 5449,
      "Reuse": 5450,
      "Read": 5451,
      "Recent": 5452,
      "Recomm": 5453,
      "Requisition": 5454,
      "wise": 5455,
      "width": 5456,
      "usted": 5457,
      "ody": 5458,
      "prefere": 5459,
      "delim": 5460,
      "delays": 5461,
      "reement": 5462,
      "ift": 5463,
      "ifest": 5464,
      "major": 5465,
      "customization": 5466,
      "serve": 5467,
      "server": 5468,
      "suc": 5469,
      "postal": 5470,
      "printer": 5471,
      "owned": 5472,
      "changing": 5473,
      "disregard": 5474,
      "disbursement": 5475,
      "iders": 5476,
      "Deci": 5477,
      "Deposit": 5478,
      "impro": 5479,
      "Profit": 5480,
      "signs": 5481,
      "establish": 5482,
      "journalizing": 5483,
      "Connect": 5484,
      "Convert": 5485,
      "cycles": 5486,
      "ket": 5487,
      "parsing": 5488,
      "getting": 5489,
      "taxation": 5490,
      "taxable": 5491,
      "Once": 5492,
      "aves": 5493,
      "failed": 5494,
      "market": 5495,
      "minus": 5496,
      "minutes": 5497,
      "minute": 5498,
      "projected": 5499,
      "looks": 5500,
      "hires": 5501,
      "lookups": 5502,
      "legacy": 5503,
      "transition": 5504,
      "overwrite": 5505,
      "specification": 5506,
      "typing": 5507,
      "subcomponents": 5508,
      "consumer": 5509,
      "considers": 5510,
      "Enterprise": 5511,
      "Pool": 5512,
      "budgeted": 5513,
      "guage": 5514,
      "forecasted": 5515,
      "Generic": 5516,
      "Generating": 5517,
      "Notific": 5518,
      "communication": 5519,
      "dedicated": 5520,
      "articles": 5521,
      "scale": 5522,
      "directory": 5523,
      "rather": 5524,
      "offs": 5525,
      "terminal": 5526,
      "terminated": 5527,
      "terminals": 5528,
      "Transl": 5529,
      "adjusting": 5530,
      "Managing": 5531,
      "Worksheet": 5532,
      "needing": 5533,
      "idea": 5534,
      "collected": 5535,
      "Customize": 5536,
      "whose": 5537,
      "corrections": 5538,
      "PaymentBy": 5539,
      "PaymentModel": 5540,
      "Changes": 5541,
      "supporting": 5542,
      "memor": 5543,
      "whereas": 5544,
      "wasn": 5545,
      "messaging": 5546,
      "Alt": 5547,
      "Although": 5548,
      "ublished": 5549,
      "campa": 5550,
      "Union": 5551,
      "Units": 5552,
      "refers": 5553,
      "Build": 5554,
      "earn": 5555,
      "Modi": 5556,
      "displaying": 5557,
      "Optim": 5558,
      "venues": 5559,
      "confirms": 5560,
      "personnel": 5561,
      "personalized": 5562,
      "Importance": 5563,
      "Operating": 5564,
      "Dispose": 5565,
      "Special": 5566,
      "Specific": 5567,
      "Specifically": 5568,
      "Settlements": 5569,
      "registering": 5570,
      "Short": 5571,
      "Shift": 5572,
      "constrained": 5573,
      "Author": 5574,
      "Autom": 5575,
      "Running": 5576,
      "ATE": 5577,
      "Comm": 5578,
      "Transform": 5579,
      "indicator": 5580,
      "corrected": 5581,
      "printable": 5582,
      "authorization": 5583,
      "authorize": 5584,
      "Enabled": 5585,
      "accruals": 5586,
      "underpayment": 5587,
      "classify": 5588,
      "submitting": 5589,
      "certification": 5590,
      "atermark": 5591,
      "aggregations": 5592,
      "Jobs": 5593,
      "charts": 5594,
      "choice": 5595,
      "parenthe": 5596,
      "aborate": 5597,
      "facilit": 5598,
      "Overwrite": 5599,
      "execute": 5600,
      "Content": 5601,
      "priorit": 5602,
      "modeled": 5603,
      "Substitu": 5604,
      "Technical": 5605,
      "Documents": 5606,
      "consistent": 5607,
      "recommendation": 5608,
      "equally": 5609,
      "DESK": 5610,
      "Kanbans": 5611,
      "ellig": 5612,
      "Organizational": 5613,
      "FTE": 5614,
      "modifi": 5615,
      "continuous": 5616,
      "Shipped": 5617,
      "CompanyInfo": 5618,
      "targeted": 5619,
      "considerations": 5620,
      "deployed": 5621,
      "breakdown": 5622,
      "mediate": 5623,
      "accepts": 5624,
      "Summar": 5625,
      "denomin": 5626,
      "1099entries": 5627,
      "Questions": 5628,
      "flag": 5629,
      "diagon": 5630,
      "placeholders": 5631,
      "Rede": 5632,
      "Redraw": 5633,
      "discrete": 5634,
      "Confirmed": 5635,
      "Associated": 5636,
      "losses": 5637,
      "demonstration": 5638,
      "driver": 5639,
      "reversing": 5640,
      "reversals": 5641,
      "learn": 5642,
      "decimals": 5643,
      "controlling": 5644,
      "commercial": 5645,
      "Collaborate": 5646,
      "begins": 5647,
      "regularly": 5648,
      "Validation": 5649,
      "Supports": 5650,
      "populate": 5651,
      "pegged": 5652,
      "Columns": 5653,
      "ESSORIES": 5654,
      "Visio": 5655,
      "shopping": 5656,
      "Recruiter": 5657,
      "corresponds": 5658,
      "Avoid": 5659,
      "CC00": 5660,
      "clocks": 5661,
      "dashed": 5662,
      "layers": 5663,
      "retired": 5664,
      "delegate": 5665,
      "developers": 5666,
      "opportunities": 5667,
      "recruiting": 5668,
      "Discounts": 5669,
      "Private": 5670,
      "Relationship": 5671,
      "failure": 5672,
      "Initiation": 5673,
      "offerings": 5674,
      "deadlines": 5675,
      "discuss": 5676,
      "Determining": 5677,
      "Hours": 5678,
      "Place": 5679,
      "promising": 5680,
      "successful": 5681,
      "Attached": 5682,
      "Estimated": 5683,
      "STA": 5684,
      "prompt": 5685,
      "contribution": 5686,
      "vertical": 5687,
      "Personalization": 5688,
      "peripheral": 5689,
      "careful": 5690,
      "milestones": 5691,
      "waive": 5692,
      "enhanced": 5693,
      "Availability": 5694,
      "Backward": 5695,
      "Earnings": 5696,
      "happens": 5697,
      "middle": 5698,
      "seniority": 5699,
      "Component": 5700,
      "recognition": 5701,
      "Normal": 5702,
      "affil": 5703,
      "preparation": 5704,
      "cleanup": 5705,
      "initiated": 5706,
      "initiating": 5707,
      "industries": 5708,
      "Agreement": 5709,
      "Navigation": 5710,
      "employed": 5711,
      "digits": 5712,
      "bucket": 5713,
      "buckets": 5714,
      "committed": 5715,
      "ProcessingDateTime": 5716,
      "coupons": 5717,
      "Aggregate": 5718,
      "Blocking": 5719,
      "FAQ": 5720,
      "Portal": 5721,
      "removes": 5722,
      "distinguish": 5723,
      "computers": 5724,
      "agrees": 5725,
      "reclassify": 5726,
      "graphical": 5727,
      "Reservation": 5728,
      "merchandising": 5729,
      "Negative": 5730,
      "Width": 5731,
      "bridging": 5732,
      "hotel": 5733,
      "shirt": 5734,
      "Assortment": 5735,
      "responsibility": 5736,
      "Commerce": 5737,
      "Liquidate": 5738,
      "AND": 5739,
      "Direction": 5740,
      "Success": 5741,
      "Turn": 5742,
      "perspect": 5743,
      "pounds": 5744,
      "deprecated": 5745,
      "upgraded": 5746,
      "excluding": 5747,
      "amortizing": 5748,
      "Receipt": 5749,
      "ACCESSORIES": 5750,
      "BPM": 5751,
      "Belgi": 5752,
      "Dashboard": 5753,
      "Duplicate": 5754,
      "EFSTA": 5755,
      "Friday": 5756,
      "Frequency": 5757,
      "Handling": 5758,
      "Implement": 5759,
      "Language": 5760,
      "Lithuan": 5761,
      "MISC": 5762,
      "Petty": 5763,
      "Scheme": 5764,
      "drag": 5765,
      "nested": 5766,
      "incurred": 5767,
      "insured": 5768,
      "recurrence": 5769,
      "annotations": 5770,
      "orizon": 5771,
      "essential": 5772,
      "covered": 5773,
      "beyond": 5774,
      "accumulated": 5775,
      "Recommend": 5776,
      "preferences": 5777,
      "delimiter": 5778,
      "PaymentByCurrency": 5779,
      "parentheses": 5780,
      "denominations": 5781,
      "Relationships": 5782,
      "Lithuania": 5783,
      "05": 5784,
      "110": 5785,
      "10000": 5786,
      "6a": 5787,
      "72": 5788,
      "75": 5789,
      "77": 5790,
      "7a": 5791,
      "81": 5792,
      "90": 5793,
      "Asynchron": 5794,
      "BL": 5795,
      "But": 5796,
      "Bra": 5797,
      "Bonus": 5798,
      "BUL": 5799,
      "Body": 5800,
      "CD": 5801,
      "CR": 5802,
      "Card": 5803,
      "Clock": 5804,
      "CFO": 5805,
      "Camera": 5806,
      "Dates": 5807,
      "EDI": 5808,
      "Fl": 5809,
      "Fet": 5810,
      "Frank": 5811,
      "Gu": 5812,
      "GST": 5813,
      "Gold": 5814,
      "Hc": 5815,
      "Have": 5816,
      "Half": 5817,
      "Height": 5818,
      "Hold": 5819,
      "I2": 5820,
      "IM": 5821,
      "IO": 5822,
      "Id": 5823,
      "Just": 5824,
      "KPI": 5825,
      "L00": 5826,
      "Life": 5827,
      "Label": 5828,
      "Lading": 5829,
      "M2": 5830,
      "MS": 5831,
      "Med": 5832,
      "Mis": 5833,
      "Mand": 5834,
      "Mach": 5835,
      "March": 5836,
      "MST": 5837,
      "Never": 5838,
      "Of": 5839,
      "OIO": 5840,
      "Pen": 5841,
      "Pie": 5842,
      "P0002": 5843,
      "Qty": 5844,
      "Ro": 5845,
      "Rus": 5846,
      "Raw": 5847,
      "So": 5848,
      "Sal": 5849,
      "Scan": 5850,
      "Sur": 5851,
      "Scor": 5852,
      "Simple": 5853,
      "Skip": 5854,
      "Switch": 5855,
      "Since": 5856,
      "Tile": 5857,
      "Tues": 5858,
      "T0004": 5859,
      "UK": 5860,
      "UBL": 5861,
      "Vend": 5862,
      "Wed": 5863,
      "Welcome": 5864,
      "Zeal": 5865,
      "ake": 5866,
      "austed": 5867,
      "bl": 5868,
      "big": 5869,
      "bring": 5870,
      "bine": 5871,
      "borrowing": 5872,
      "cat": 5873,
      "city": 5874,
      "cable": 5875,
      "dic": 5876,
      "dRoute": 5877,
      "double": 5878,
      "fam": 5879,
      "fron": 5880,
      "faster": 5881,
      "gor": 5882,
      "gap": 5883,
      "gust": 5884,
      "hn": 5885,
      "hy": 5886,
      "held": 5887,
      "hover": 5888,
      "horizon": 5889,
      "hausted": 5890,
      "i9": 5891,
      "iers": 5892,
      "iations": 5893,
      "impl": 5894,
      "ique": 5895,
      "jo": 5896,
      "king": 5897,
      "lar": 5898,
      "ligh": 5899,
      "lunch": 5900,
      "mEmployment": 5901,
      "ni": 5902,
      "night": 5903,
      "nature": 5904,
      "native": 5905,
      "narrow": 5906,
      "nership": 5907,
      "pal": 5908,
      "passed": 5909,
      "rack": 5910,
      "rative": 5911,
      "rcum": 5912,
      "sis": 5913,
      "spe": 5914,
      "sense": 5915,
      "sia": 5916,
      "simp": 5917,
      "speak": 5918,
      "sizes": 5919,
      "since": 5920,
      "satisfaction": 5921,
      "tube": 5922,
      "texts": 5923,
      "txt": 5924,
      "uck": 5925,
      "waves": 5926,
      "watermark": 5927,
      "yy": 5928,
      "yes": 5929,
      "zing": 5930,
      "zil": 5931,
      "think": 5932,
      "things": 5933,
      "attr": 5934,
      "attemp": 5935,
      "onym": 5936,
      "ined": 5937,
      "indefin": 5938,
      "inflow": 5939,
      "instruct": 5940,
      "inactive": 5941,
      "intrastat": 5942,
      "independ": 5943,
      "informs": 5944,
      "rent": 5945,
      "reci": 5946,
      "rely": 5947,
      "recurrent": 5948,
      "replay": 5949,
      "revis": 5950,
      "refund": 5951,
      "revision": 5952,
      "revalued": 5953,
      "reapplying": 5954,
      "revenues": 5955,
      "annotation": 5956,
      "anumeric": 5957,
      "ert": 5958,
      "enced": 5959,
      "ensing": 5960,
      "enforce": 5961,
      "learning": 5962,
      "seen": 5963,
      "algor": 5964,
      "stit": 5965,
      "stances": 5966,
      "iters": 5967,
      "itely": 5968,
      "topo": 5969,
      "toggle": 5970,
      "ism": 5971,
      "isle": 5972,
      "isol": 5973,
      "fif": 5974,
      "fort": 5975,
      "1234": 5976,
      "around": 5977,
      "prob": 5978,
      "projection": 5979,
      "probability": 5980,
      "proceed": 5981,
      "Ins": 5982,
      "pointer": 5983,
      "potent": 5984,
      "cheque": 5985,
      "assembly": 5986,
      "poss": 5987,
      "posing": 5988,
      "consequences": 5989,
      "concat": 5990,
      "illed": 5991,
      "meeting": 5992,
      "accomp": 5993,
      "acities": 5994,
      "quid": 5995,
      "upgrade": 5996,
      "uploading": 5997,
      "validates": 5998,
      "tag": 5999,
      "tages": 6000,
      "say": 6001,
      "saving": 6002,
      "explan": 6003,
      "expose": 6004,
      "exhausted": 6005,
      "Section": 6006,
      "Several": 6007,
      "Semi": 6008,
      "Secure": 6009,
      "Severity": 6010,
      "circum": 6011,
      "counts": 6012,
      "urance": 6013,
      "trun": 6014,
      "trash": 6015,
      "truck": 6016,
      "ortize": 6017,
      "titles": 6018,
      "tele": 6019,
      "dio": 6020,
      "opting": 6021,
      "motion": 6022,
      "modate": 6023,
      "moves": 6024,
      "producing": 6025,
      "admin": 6026,
      "adopting": 6027,
      "isting": 6028,
      "ablished": 6029,
      "apy": 6030,
      "invited": 6031,
      "plates": 6032,
      "bund": 6033,
      "video": 6034,
      "ourses": 6035,
      "tip": 6036,
      "tiered": 6037,
      "resub": 6038,
      "resume": 6039,
      "comprehensive": 6040,
      "lind": 6041,
      "perty": 6042,
      "permit": 6043,
      "permanently": 6044,
      "redraw": 6045,
      "Reset": 6046,
      "Revi": 6047,
      "Requi": 6048,
      "Revert": 6049,
      "widget": 6050,
      "Selecting": 6051,
      "agencies": 6052,
      "amless": 6053,
      "acture": 6054,
      "actly": 6055,
      "otted": 6056,
      "prepayments": 6057,
      "Ext": 6058,
      "Exclude": 6059,
      "Expected": 6060,
      "Existing": 6061,
      "Exactly": 6062,
      "clicked": 6063,
      "posters": 6064,
      "clip": 6065,
      "ipment": 6066,
      "opens": 6067,
      "openings": 6068,
      "crip": 6069,
      "cribe": 6070,
      "informational": 6071,
      "chant": 6072,
      "chanism": 6073,
      "idence": 6074,
      "Dep": 6075,
      "Deleg": 6076,
      "Detailed": 6077,
      "Deactivate": 6078,
      "Proposal": 6079,
      "Proble": 6080,
      "Probability": 6081,
      "ProdRoute": 6082,
      "Promotion": 6083,
      "Property": 6084,
      "newly": 6085,
      "specifically": 6086,
      "outcome": 6087,
      "established": 6088,
      "Contri": 6089,
      "Contract": 6090,
      "kets": 6091,
      "partit": 6092,
      "avoid": 6093,
      "apps": 6094,
      "static": 6095,
      "mind": 6096,
      "periodically": 6097,
      "notice": 6098,
      "Tool": 6099,
      "banks": 6100,
      "uted": 6101,
      "utory": 6102,
      "Good": 6103,
      "overpayments": 6104,
      "overstated": 6105,
      "intellig": 6106,
      "colors": 6107,
      "rances": 6108,
      "checkout": 6109,
      "Entities": 6110,
      "ightly": 6111,
      "providing": 6112,
      "subtract": 6113,
      "subcomponent": 6114,
      "subproductions": 6115,
      "twice": 6116,
      "Sale": 6117,
      "symptoms": 6118,
      "Payable": 6119,
      "consum": 6120,
      "consult": 6121,
      "201": 6122,
      "2013": 6123,
      "2017": 6124,
      "interim": 6125,
      "relate": 6126,
      "cashier": 6127,
      "cashiers": 6128,
      "guest": 6129,
      "credits": 6130,
      "triang": 6131,
      "Final": 6132,
      "Finished": 6133,
      "Finally": 6134,
      "Finland": 6135,
      "suppres": 6136,
      "Defines": 6137,
      "Describe": 6138,
      "mandated": 6139,
      "directed": 6140,
      "booked": 6141,
      "bookmark": 6142,
      "bookmarks": 6143,
      "span": 6144,
      "spend": 6145,
      "spans": 6146,
      "specifying": 6147,
      "receivables": 6148,
      "systemat": 6149,
      "Assets": 6150,
      "offices": 6151,
      "offsetting": 6152,
      "transferring": 6153,
      "differentiate": 6154,
      "Workforce": 6155,
      "assist": 6156,
      "objective": 6157,
      "collects": 6158,
      "storefron": 6159,
      "designated": 6160,
      "corner": 6161,
      "Changing": 6162,
      "capital": 6163,
      "capacities": 6164,
      "determining": 6165,
      "Retailers": 6166,
      "Annual": 6167,
      "CustomerCredit": 6168,
      "phase": 6169,
      "phone": 6170,
      "Allocations": 6171,
      "Allocate": 6172,
      "Alert": 6173,
      "Unless": 6174,
      "Unique": 6175,
      "Invoiced": 6176,
      "liabilities": 6177,
      "liquid": 6178,
      "Ensure": 6179,
      "asurer": 6180,
      "releases": 6181,
      "Most": 6182,
      "monitoring": 6183,
      "partner": 6184,
      "BankAccount": 6185,
      "BankJournal": 6186,
      "grace": 6187,
      "backs": 6188,
      "backed": 6189,
      "Comparison": 6190,
      "explained": 6191,
      "measured": 6192,
      "advances": 6193,
      "Updates": 6194,
      "Ops": 6195,
      "slider": 6196,
      "searching": 6197,
      "Regular": 6198,
      "Week": 6199,
      "logy": 6200,
      "logical": 6201,
      "divide": 6202,
      "divides": 6203,
      "Disable": 6204,
      "contracting": 6205,
      "Assigning": 6206,
      "Assignment": 6207,
      "originator": 6208,
      "Sharing": 6209,
      "Results": 6210,
      "August": 6211,
      "debts": 6212,
      "Valuations": 6213,
      "Combine": 6214,
      "netting": 6215,
      "administer": 6216,
      "edited": 6217,
      "appearance": 6218,
      "Projects": 6219,
      "effectively": 6220,
      "printers": 6221,
      "Specifying": 6222,
      "Started": 6223,
      "Starting": 6224,
      "understated": 6225,
      "classifi": 6226,
      "combined": 6227,
      "maintains": 6228,
      "takes": 6229,
      "Allowing": 6230,
      "Feature": 6231,
      "merchant": 6232,
      "remains": 6233,
      "remainder": 6234,
      "Organize": 6235,
      "Amortize": 6236,
      "boundary": 6237,
      "990": 6238,
      "999": 6239,
      "executable": 6240,
      "executed": 6241,
      "uniqu": 6242,
      "00009": 6243,
      "Contents": 6244,
      "Controlling": 6245,
      "appropriations": 6246,
      "dependencies": 6247,
      "Journalize": 6248,
      "Checks": 6249,
      "TransferInitiation": 6250,
      "carriers": 6251,
      "Grouped": 6252,
      "Subcontracting": 6253,
      "Team": 6254,
      "Tables": 6255,
      "inside": 6256,
      "insurance": 6257,
      "Amounts": 6258,
      "BACS": 6259,
      "BAI2": 6260,
      "stocked": 6261,
      "Fields": 6262,
      "equity": 6263,
      "equipment": 6264,
      "Receiving": 6265,
      "1004": 6266,
      "Monitoring": 6267,
      "Suppose": 6268,
      "Supplement": 6269,
      "Adjusted": 6270,
      "Country": 6271,
      "sells": 6272,
      "Complement": 6273,
      "Actuals": 6274,
      "emptied": 6275,
      "modifications": 6276,
      "engineer": 6277,
      "continuing": 6278,
      "FastTabs": 6279,
      "Estimates": 6280,
      "Multilevel": 6281,
      "Prevent": 6282,
      "Previous": 6283,
      "Internet": 6284,
      "SearchAX": 6285,
      "ithm": 6286,
      "allocates": 6287,
      "allocating": 6288,
      "docks": 6289,
      "Marking": 6290,
      "Scroll": 6291,
      "increased": 6292,
      "summarize": 6293,
      "summarizes": 6294,
      "experiences": 6295,
      "buying": 6296,
      "Accessing": 6297,
      "1099format": 6298,
      "frequently": 6299,
      "enrollments": 6300,
      "placeholder": 6301,
      "Charge": 6302,
      "Modeling": 6303,
      "fourth": 6304,
      "accurately": 6305,
      "optimal": 6306,
      "Quickly": 6307,
      "groupings": 6308,
      "Outbound": 6309,
      "Within": 6310,
      "evaluating": 6311,
      "gains": 6312,
      "streams": 6313,
      "controllers": 6314,
      "Managers": 6315,
      "containerization": 6316,
      "omni": 6317,
      "rejects": 6318,
      "Mexican": 6319,
      "evenly": 6320,
      "nesday": 6321,
      "disposals": 6322,
      "understanding": 6323,
      "444": 6324,
      "Tasks": 6325,
      "trees": 6326,
      "convert": 6327,
      "weekday": 6328,
      "API": 6329,
      "making": 6330,
      "Scenarios": 6331,
      "Capture": 6332,
      "Clearing": 6333,
      "Versions": 6334,
      "depreciable": 6335,
      "Recruiting": 6336,
      "Overriding": 6337,
      "Issued": 6338,
      "URE": 6339,
      "retire": 6340,
      "Consolidated": 6341,
      "Linked": 6342,
      "Primary": 6343,
      "float": 6344,
      "foundation": 6345,
      "Restrictions": 6346,
      "promotional": 6347,
      "Barcode": 6348,
      "Images": 6349,
      "Immediate": 6350,
      "great": 6351,
      "leadership": 6352,
      "References": 6353,
      "successor": 6354,
      "carrying": 6355,
      "Treasurer": 6356,
      "dynamically": 6357,
      "introduce": 6358,
      "introduces": 6359,
      "personalization": 6360,
      "personalizations": 6361,
      "Class": 6362,
      "laptop": 6363,
      "Charts": 6364,
      "refreshed": 6365,
      "Months": 6366,
      "participates": 6367,
      "participants": 6368,
      "Reducing": 6369,
      "URLs": 6370,
      "duplicating": 6371,
      "efficient": 6372,
      "fasttab": 6373,
      "latest": 6374,
      "midnight": 6375,
      "paint": 6376,
      "computing": 6377,
      "immediate": 6378,
      "WebSearchAX": 6379,
      "Lookup": 6380,
      "recognize": 6381,
      "simplify": 6382,
      "Norway": 6383,
      "Prerequisite": 6384,
      "explorer": 6385,
      "smaller": 6386,
      "patterns": 6387,
      "Agent": 6388,
      "Navigate": 6389,
      "employer": 6390,
      "inherit": 6391,
      "alphanumeric": 6392,
      "strings": 6393,
      "problem": 6394,
      "digit": 6395,
      "sheets": 6396,
      "commitments": 6397,
      "backwards": 6398,
      "Aggregation": 6399,
      "catchweight": 6400,
      "distinct": 6401,
      "computations": 6402,
      "agreed": 6403,
      "Administrator": 6404,
      "graphic": 6405,
      "Functionality": 6406,
      "ealth": 6407,
      "kinds": 6408,
      "redeem": 6409,
      "redemption": 6410,
      "enforces": 6411,
      "enforced": 6412,
      "provisioning": 6413,
      "Provides": 6414,
      "sixth": 6415,
      "Understanding": 6416,
      "Italy": 6417,
      "Rename": 6418,
      "cache": 6419,
      "font": 6420,
      "host": 6421,
      "mistake": 6422,
      "incremental": 6423,
      "resembles": 6424,
      "retrieve": 6425,
      "ingredients": 6426,
      "completes": 6427,
      "Constraint": 6428,
      "Explosion": 6429,
      "Safety": 6430,
      "numeric": 6431,
      "Localization": 6432,
      "Continuity": 6433,
      "Improvements": 6434,
      "temporary": 6435,
      "alphabetically": 6436,
      "encumbrances": 6437,
      "subsidiary": 6438,
      "CAD": 6439,
      "Candidates": 6440,
      "Closing": 6441,
      "DUNS": 6442,
      "Draws": 6443,
      "Empty": 6444,
      "Elimination": 6445,
      "John": 6446,
      "LINE": 6447,
      "M9201": 6448,
      "Seniority": 6449,
      "T0020": 6450,
      "governed": 6451,
      "risk": 6452,
      "surcharge": 6453,
      "incorporate": 6454,
      "investig": 6455,
      "protection": 6456,
      "Install": 6457,
      "accommodate": 6458,
      "petty": 6459,
      "Separator": 6460,
      "Secondary": 6461,
      "troubleshooting": 6462,
      "didn": 6463,
      "shade": 6464,
      "ifesting": 6465,
      "Decide": 6466,
      "improved": 6467,
      "Notifications": 6468,
      "Translations": 6469,
      "memorized": 6470,
      "campaign": 6471,
      "facilitate": 6472,
      "Substituting": 6473,
      "modifiers": 6474,
      "diagonal": 6475,
      "Belgium": 6476,
      "Recommendation": 6477,
      "Asynchronous": 6478,
      "Brazil": 6479,
      "BULK": 6480,
      "CDS": 6481,
      "Flush": 6482,
      "Fetch": 6483,
      "HcmEmployment": 6484,
      "Justification": 6485,
      "L0050": 6486,
      "Lifecycle": 6487,
      "Machine": 6488,
      "OIOUBL": 6489,
      "Piece": 6490,
      "Russia": 6491,
      "Salvage": 6492,
      "Scoring": 6493,
      "Tuesday": 6494,
      "VendPay": 6495,
      "Wednesday": 6496,
      "Zealand": 6497,
      "blue": 6498,
      "lighting": 6499,
      "speed": 6500,
      "attrition": 6501,
      "onymous": 6502,
      "indefinitely": 6503,
      "independently": 6504,
      "recip": 6505,
      "algorithm": 6506,
      "stituted": 6507,
      "potential": 6508,
      "concaten": 6509,
      "explanation": 6510,
      "circumstances": 6511,
      "bundle": 6512,
      "Requires": 6513,
      "clipboard": 6514,
      "Delegate": 6515,
      "Problem": 6516,
      "ProdRouteTrans": 6517,
      "suppressed": 6518,
      "storefronts": 6519,
      "CustomerCreditTransferInitiation": 6520,
      "Brazilian": 6521,
      "--": 6522,
      "03": 6523,
      "04": 6524,
      "016": 6525,
      "01001": 6526,
      "3b": 6527,
      "400": 6528,
      "4000": 6529,
      "5a": 6530,
      "5b": 6531,
      "68": 6532,
      "600": 6533,
      "73": 6534,
      "AC": 6535,
      "AL": 6536,
      "Ano": 6537,
      "ASE": 6538,
      "BC": 6539,
      "BE": 6540,
      "Bl": 6541,
      "Bad": 6542,
      "Bulk": 6543,
      "Borrowing": 6544,
      "Blind": 6545,
      "Car": 6546,
      "Cable": 6547,
      "Cance": 6548,
      "Cass": 6549,
      "Cli": 6550,
      "COR": 6551,
      "Courses": 6552,
      "Div": 6553,
      "Drop": 6554,
      "D000": 6555,
      "ED": 6556,
      "EO": 6557,
      "Edu": 6558,
      "EUS": 6559,
      "Esc": 6560,
      "Even": 6561,
      "EXT": 6562,
      "FI": 6563,
      "Flo": 6564,
      "Flow": 6565,
      "Fax": 6566,
      "FUL": 6567,
      "GS": 6568,
      "GW": 6569,
      "Gi": 6570,
      "Gr": 6571,
      "Giv": 6572,
      "HT": 6573,
      "Ho": 6574,
      "Hot": 6575,
      "H25": 6576,
      "Health": 6577,
      "Ig": 6578,
      "Imp": 6579,
      "IIS": 6580,
      "JP": 6581,
      "KB": 6582,
      "LE": 6583,
      "La": 6584,
      "Lay": 6585,
      "Lot": 6586,
      "Later": 6587,
      "Labor": 6588,
      "Learn": 6589,
      "Marri": 6590,
      "Milest": 6591,
      "MEN": 6592,
      "NE": 6593,
      "Nan": 6594,
      "Numeric": 6595,
      "OC": 6596,
      "Ow": 6597,
      "PE": 6598,
      "Pat": 6599,
      "Pal": 6600,
      "Pol": 6601,
      "Pop": 6602,
      "Partic": 6603,
      "Pages": 6604,
      "P300": 6605,
      "Published": 6606,
      "PH25": 6607,
      "RP": 6608,
      "RS": 6609,
      "Ru": 6610,
      "Rol": 6611,
      "Rates": 6612,
      "Rank": 6613,
      "Rose": 6614,
      "RDE": 6615,
      "Random": 6616,
      "Sl": 6617,
      "Sm": 6618,
      "S80": 6619,
      "Susp": 6620,
      "Spot": 6621,
      "Satisfaction": 6622,
      "Splint": 6623,
      "Simpl": 6624,
      "SAL": 6625,
      "TF": 6626,
      "TH": 6627,
      "TY": 6628,
      "Trou": 6629,
      "Tod": 6630,
      "Tru": 6631,
      "Tree": 6632,
      "Tra": 6633,
      "Tms": 6634,
      "Tak": 6635,
      "TAX": 6636,
      "Tube": 6637,
      "Texts": 6638,
      "Tender": 6639,
      "TEXT": 6640,
      "UM": 6641,
      "Ut": 6642,
      "Usage": 6643,
      "UTF": 6644,
      "VM": 6645,
      "WH": 6646,
      "Wr": 6647,
      "Ws": 6648,
      "Warning": 6649,
      "Warehousing": 6650,
      "WMS": 6651,
      "XX": 6652,
      "Xml": 6653,
      "York": 6654,
      "Zip": 6655,
      "ause": 6656,
      "ales": 6657,
      "aware": 6658,
      "aType": 6659,
      "ailed": 6660,
      "awa": 6661,
      "aisle": 6662,
      "bi": 6663,
      "bro": 6664,
      "borders": 6665,
      "brough": 6666,
      "bind": 6667,
      "bble": 6668,
      "binary": 6669,
      "billed": 6670,
      "came": 6671,
      "cending": 6672,
      "camera": 6673,
      "dy": 6674,
      "dll": 6675,
      "dence": 6676,
      "dotted": 6677,
      "eue": 6678,
      "euro": 6679,
      "eets": 6680,
      "fol": 6681,
      "fits": 6682,
      "fences": 6683,
      "gl": 6684,
      "gall": 6685,
      "gra": 6686,
      "gender": 6687,
      "hon": 6688,
      "holid": 6689,
      "height": 6690,
      "hancements": 6691,
      "ior": 6692,
      "ium": 6693,
      "ides": 6694,
      "iance": 6695,
      "ients": 6696,
      "kg": 6697,
      "ls": 6698,
      "lapping": 6699,
      "law": 6700,
      "mally": 6701,
      "mWs": 6702,
      "nc": 6703,
      "ny": 6704,
      "nits": 6705,
      "ore": 6706,
      "oto": 6707,
      "ology": 6708,
      "pone": 6709,
      "ptem": 6710,
      "pression": 6711,
      "passes": 6712,
      "pcs": 6713,
      "published": 6714,
      "pbi": 6715,
      "qty": 6716,
      "rt": 6717,
      "rices": 6718,
      "random": 6719,
      "sday": 6720,
      "sending": 6721,
      "splint": 6722,
      "scrip": 6723,
      "tation": 6724,
      "tar": 6725,
      "usa": 6726,
      "uter": 6727,
      "vas": 6728,
      "vol": 6729,
      "void": 6730,
      "varies": 6731,
      "win": 6732,
      "wish": 6733,
      "wild": 6734,
      "welcome": 6735,
      "xls": 6736,
      "xpression": 6737,
      "ynchron": 6738,
      "zed": 6739,
      "thmet": 6740,
      "thent": 6741,
      "atible": 6742,
      "onia": 6743,
      "inting": 6744,
      "incent": 6745,
      "inactivate": 6746,
      "inactivated": 6747,
      "repe": 6748,
      "revalue": 6749,
      "restore": 6750,
      "remember": 6751,
      "redistribute": 6752,
      "recalled": 6753,
      "reusa": 6754,
      "aning": 6755,
      "ancing": 6756,
      "anonymous": 6757,
      "ories": 6758,
      "orced": 6759,
      "oried": 6760,
      "erapy": 6761,
      "encount": 6762,
      "enished": 6763,
      "encoding": 6764,
      "lege": 6765,
      "leasing": 6766,
      "seed": 6767,
      "secure": 6768,
      "seamless": 6769,
      "ali": 6770,
      "alled": 6771,
      "along": 6772,
      "cted": 6773,
      "stress": 6774,
      "esides": 6775,
      "entoried": 6776,
      "itation": 6777,
      "italized": 6778,
      "rot": 6779,
      "icip": 6780,
      "icPlan": 6781,
      "too": 6782,
      "isor": 6783,
      "isdi": 6784,
      "fier": 6785,
      "fidence": 6786,
      "eline": 6787,
      "ars": 6788,
      "arti": 6789,
      "arily": 6790,
      "promi": 6791,
      "proje": 6792,
      "lob": 6793,
      "lots": 6794,
      "Inc": 6795,
      "Indi": 6796,
      "Indirect": 6797,
      "Incoming": 6798,
      "Inher": 6799,
      "Indic": 6800,
      "powe": 6801,
      "chose": 6802,
      "deal": 6803,
      "dees": 6804,
      "depos": 6805,
      "dete": 6806,
      "devi": 6807,
      "defer": 6808,
      "deleting": 6809,
      "deletion": 6810,
      "debug": 6811,
      "assumption": 6812,
      "assemb": 6813,
      "asynchron": 6814,
      "coded": 6815,
      "Thur": 6816,
      "Thres": 6817,
      "Those": 6818,
      "Therapy": 6819,
      "mpt": 6820,
      "mples": 6821,
      "mptom": 6822,
      "cube": 6823,
      "lications": 6824,
      "licensing": 6825,
      "concurrent": 6826,
      "construct": 6827,
      "confidence": 6828,
      "arest": 6829,
      "ilver": 6830,
      "memo": 6831,
      "meters": 6832,
      "meals": 6833,
      "metry": 6834,
      "mechanism": 6835,
      "becoming": 6836,
      "bexpression": 6837,
      "acces": 6838,
      "ackets": 6839,
      "selections": 6840,
      "canvas": 6841,
      "ception": 6842,
      "samples": 6843,
      "exchanges": 6844,
      "excluded": 6845,
      "Septem": 6846,
      "ciled": 6847,
      "trust": 6848,
      "owes": 6849,
      "teen": 6850,
      "division": 6851,
      "cession": 6852,
      "moment": 6853,
      "moti": 6854,
      "vey": 6855,
      "ada": 6856,
      "enda": 6857,
      "endpoint": 6858,
      "ria": 6859,
      "rig": 6860,
      "rief": 6861,
      "finally": 6862,
      "apsed": 6863,
      "uler": 6864,
      "inventoried": 6865,
      "invitation": 6866,
      "places": 6867,
      "placing": 6868,
      "bubble": 6869,
      "bunits": 6870,
      "routed": 6871,
      "tify": 6872,
      "tives": 6873,
      "union": 6874,
      "unposted": 6875,
      "unplanned": 6876,
      "unapproved": 6877,
      "unexpected": 6878,
      "unately": 6879,
      "unscheduled": 6880,
      "unlimited": 6881,
      "unfavorable": 6882,
      "resched": 6883,
      "resumed": 6884,
      "resumes": 6885,
      "resolution": 6886,
      "usion": 6887,
      "versed": 6888,
      "worksheets": 6889,
      "compact": 6890,
      "complement": 6891,
      "comparing": 6892,
      "compatible": 6893,
      "productive": 6894,
      "itemize": 6895,
      "Reopen": 6896,
      "Reim": 6897,
      "Revers": 6898,
      "Refer": 6899,
      "Reply": 6900,
      "Reprint": 6901,
      "Repa": 6902,
      "Recurring": 6903,
      "Regeneration": 6904,
      "Removing": 6905,
      "Retrie": 6906,
      "Releasing": 6907,
      "Reversed": 6908,
      "menus": 6909,
      "byproducts": 6910,
      "Selection": 6911,
      "agenda": 6912,
      "009": 6913,
      "precis": 6914,
      "pretation": 6915,
      "ignored": 6916,
      "anywhere": 6917,
      "endorsing": 6918,
      "endorsed": 6919,
      "delimit": 6920,
      "Exit": 6921,
      "Exempt": 6922,
      "Extraordinary": 6923,
      "Exposing": 6924,
      "Exception": 6925,
      "YouTube": 6926,
      "ific": 6927,
      "manages": 6928,
      "manner": 6929,
      "manifesting": 6930,
      "balanced": 6931,
      "balancing": 6932,
      "serv": 6933,
      "serves": 6934,
      "subexpression": 6935,
      "subunits": 6936,
      "iveness": 6937,
      "listing": 6938,
      "matrices": 6939,
      "processor": 6940,
      "processors": 6941,
      "clicks": 6942,
      "configurator": 6943,
      "locator": 6944,
      "clare": 6945,
      "okay": 6946,
      "adds": 6947,
      "additions": 6948,
      "butors": 6949,
      "door": 6950,
      "doing": 6951,
      "domestic": 6952,
      "viewing": 6953,
      "owners": 6954,
      "dispositions": 6955,
      "dispat": 6956,
      "discovered": 6957,
      "identity": 6958,
      "Device": 6959,
      "Depreci": 6960,
      "Decrease": 6961,
      "however": 6962,
      "imal": 6963,
      "Profession": 6964,
      "Prompt": 6965,
      "Compl": 6966,
      "Coating": 6967,
      "planners": 6968,
      "whenever": 6969,
      "newer": 6970,
      "tablet": 6971,
      "tabular": 6972,
      "express": 6973,
      "expires": 6974,
      "explicit": 6975,
      "Advis": 6976,
      "arithmet": 6977,
      "outstanding": 6978,
      "drops": 6979,
      "anticip": 6980,
      "ardless": 6981,
      "Conne": 6982,
      "parsed": 6983,
      "generator": 6984,
      "archived": 6985,
      "archiving": 6986,
      "101": 6987,
      "102": 6988,
      "Onboard": 6989,
      "tonumber": 6990,
      "composition": 6991,
      "currences": 6992,
      "White": 6993,
      "ategy": 6994,
      "Forms": 6995,
      "Acquire": 6996,
      "showing": 6997,
      "hired": 6998,
      "nore": 6999,
      "notified": 7000,
      "nosis": 7001,
      "notify": 7002,
      "banking": 7003,
      "financials": 7004,
      "variables": 7005,
      "never": 7006,
      "nearest": 7007,
      "transform": 7008,
      "transparent": 7009,
      "overlapping": 7010,
      "approving": 7011,
      "discounted": 7012,
      "ranks": 7013,
      "checklist": 7014,
      "subtype": 7015,
      "subtask": 7016,
      "subproject": 7017,
      "substituted": 7018,
      "sync": 7019,
      "symptom": 7020,
      "activates": 7021,
      "defaulted": 7022,
      "defaulting": 7023,
      "others": 7024,
      "otherwise": 7025,
      "ItemGroup": 7026,
      "interunit": 7027,
      "interactive": 7028,
      "interfac": 7029,
      "11110": 7030,
      "scheduler": 7031,
      "Files": 7032,
      "reli": 7033,
      "relates": 7034,
      "importance": 7035,
      "wanted": 7036,
      "etency": 7037,
      "central": 7038,
      "commonly": 7039,
      "commits": 7040,
      "communities": 7041,
      "documented": 7042,
      "Defining": 7043,
      "markup": 7044,
      "Video": 7045,
      "ibly": 7046,
      "ibilities": 7047,
      "Storing": 7048,
      "facts": 7049,
      "spel": 7050,
      "settling": 7051,
      "Assume": 7052,
      "sequenced": 7053,
      "offic": 7054,
      "official": 7055,
      "PORT": 7056,
      "140": 7057,
      "terminology": 7058,
      "adjusts": 7059,
      "goes": 7060,
      "automating": 7061,
      "containing": 7062,
      "containers": 7063,
      "depth": 7064,
      "Quot": 7065,
      "Quantities": 7066,
      "Queue": 7067,
      "tally": 7068,
      "returning": 7069,
      "ideal": 7070,
      "objectives": 7071,
      "179": 7072,
      "charging": 7073,
      "linking": 7074,
      "00018": 7075,
      "Postgi": 7076,
      "indication": 7077,
      "applicability": 7078,
      "capitalized": 7079,
      "picker": 7080,
      "Permanently": 7081,
      "iteration": 7082,
      "iterations": 7083,
      "occurrences": 7084,
      "photo": 7085,
      "Report2": 7086,
      "Also": 7087,
      "Alias": 7088,
      "firmed": 7089,
      "Appointment": 7090,
      "caused": 7091,
      "finds": 7092,
      "Unable": 7093,
      "Undo": 7094,
      "Unspecific": 7095,
      "Unreleased": 7096,
      "Unfort": 7097,
      "replenished": 7098,
      "helpful": 7099,
      "responding": 7100,
      "identical": 7101,
      "overviews": 7102,
      "reviewing": 7103,
      "reviewers": 7104,
      "collapsed": 7105,
      "gging": 7106,
      "Enumer": 7107,
      "Encoding": 7108,
      "Enhancements": 7109,
      "managerial": 7110,
      "Modes": 7111,
      "BankTransaction": 7112,
      "backup": 7113,
      "backdated": 7114,
      "Compile": 7115,
      "Companies": 7116,
      "Competencies": 7117,
      "Computer": 7118,
      "Calculating": 7119,
      "generally": 7120,
      "advisor": 7121,
      "Updating": 7122,
      "reader": 7123,
      "readable": 7124,
      "arrive": 7125,
      "arrived": 7126,
      "confirmations": 7127,
      "something": 7128,
      "tificates": 7129,
      "Prices": 7130,
      "Princi": 7131,
      "Printing": 7132,
      "Warehouses": 7133,
      "slightly": 7134,
      "searched": 7135,
      "persona": 7136,
      "Regardless": 7137,
      "Opening": 7138,
      "Importing": 7139,
      "logs": 7140,
      "logies": 7141,
      "logically": 7142,
      "Discontinu": 7143,
      "Specified": 7144,
      "validity": 7145,
      "Making": 7146,
      "contractor": 7147,
      "originated": 7148,
      "misplaced": 7149,
      "Respect": 7150,
      "Residence": 7151,
      "Autonumber": 7152,
      "Values": 7153,
      "Registered": 7154,
      "Notes": 7155,
      "Showing": 7156,
      "bars": 7157,
      "Leverage": 7158,
      "Leaving": 7159,
      "prints": 7160,
      "effectiveness": 7161,
      "goodwill": 7162,
      "akes": 7163,
      "tested": 7164,
      "3024": 7165,
      "accruing": 7166,
      "Domestic": 7167,
      "Ledgers": 7168,
      "Statutory": 7169,
      "StaticPlan": 7170,
      "Loading": 7171,
      "calls": 7172,
      "classified": 7173,
      "combine": 7174,
      "occurring": 7175,
      "Editing": 7176,
      "weren": 7177,
      "maintaining": 7178,
      "limitations": 7179,
      "2007": 7180,
      "taking": 7181,
      "Allows": 7182,
      "reconciled": 7183,
      "reserving": 7184,
      "expectations": 7185,
      "modifying": 7186,
      "translate": 7187,
      "Memo": 7188,
      "Metadata": 7189,
      "Canada": 7190,
      "Parse": 7191,
      "Parsing": 7192,
      "Parameter": 7193,
      "merit": 7194,
      "merging": 7195,
      "partially": 7196,
      "Amend": 7197,
      "Official": 7198,
      "mix": 7199,
      "constants": 7200,
      "Overpayment": 7201,
      "drawn": 7202,
      "filling": 7203,
      "00007": 7204,
      "000017": 7205,
      "Registering": 7206,
      "Marital": 7207,
      "giving": 7208,
      "itution": 7209,
      "clearly": 7210,
      "strategic": 7211,
      "Modifying": 7212,
      "Printed": 7213,
      "instances": 7214,
      "installed": 7215,
      "institution": 7216,
      "externally": 7217,
      "Ended": 7218,
      "Ending": 7219,
      "Symptoms": 7220,
      "Sub1": 7221,
      "Subject": 7222,
      "Subledger": 7223,
      "Subsequent": 7224,
      "cloth": 7225,
      "inspect": 7226,
      "inspected": 7227,
      "offsets": 7228,
      "Activating": 7229,
      "AmountMST": 7230,
      "navigating": 7231,
      "consistency": 7232,
      "equals": 7233,
      "everyone": 7234,
      "everyday": 7235,
      "Maintaining": 7236,
      "1003": 7237,
      "Balanced": 7238,
      "DEFF": 7239,
      "analyzed": 7240,
      "Trail": 7241,
      "Tracing": 7242,
      "Travel": 7243,
      "Adjusting": 7244,
      "segmentation": 7245,
      "closings": 7246,
      "timeline": 7247,
      "implications": 7248,
      "accordance": 7249,
      "supplying": 7250,
      "Directed": 7251,
      "Bookmark": 7252,
      "continues": 7253,
      "Deliver": 7254,
      "Shipments": 7255,
      "Estonia": 7256,
      "Prepayment": 7257,
      "Prepayments": 7258,
      "Strategy": 7259,
      "Interviewer": 7260,
      "Interpretation": 7261,
      "focused": 7262,
      "bidding": 7263,
      "specialist": 7264,
      "restricts": 7265,
      "replacements": 7266,
      "Identifying": 7267,
      "Headcount": 7268,
      "breakpoints": 7269,
      "elimin": 7270,
      "finalizing": 7271,
      "summarization": 7272,
      "SampleVendPay": 7273,
      "SampleIncoming": 7274,
      "auditor": 7275,
      "auditors": 7276,
      "reflected": 7277,
      "Factor": 7278,
      "Requests": 7279,
      "internally": 7280,
      "Arrange": 7281,
      "Partnership": 7282,
      "Stock": 7283,
      "flat": 7284,
      "flight": 7285,
      "flights": 7286,
      "fracture": 7287,
      "diagnosis": 7288,
      "placement": 7289,
      "Legacy": 7290,
      "Otherwise": 7291,
      "sends": 7292,
      "recover": 7293,
      "accural": 7294,
      "optimum": 7295,
      "optimized": 7296,
      "preventing": 7297,
      "clarify": 7298,
      "Templates": 7299,
      "PAY": 7300,
      "Personalized": 7301,
      "presentation": 7302,
      "Outlook": 7303,
      "Sometimes": 7304,
      "Variant": 7305,
      "drivers": 7306,
      "driving": 7307,
      "drives": 7308,
      "releasing": 7309,
      "decides": 7310,
      "delivering": 7311,
      "Formulas": 7312,
      "FactBoxes": 7313,
      "Julie": 7314,
      "Minority": 7315,
      "rejecting": 7316,
      "Accruing": 7317,
      "Accruals": 7318,
      "Baseline": 7319,
      "routine": 7320,
      "achieved": 7321,
      "margins": 7322,
      "installer": 7323,
      "burden": 7324,
      "wood": 7325,
      "populates": 7326,
      "converting": 7327,
      "buddy": 7328,
      "suggestion": 7329,
      "Debtor": 7330,
      "Movement": 7331,
      "Keywords": 7332,
      "BusinessUnit": 7333,
      "jurisdi": 7334,
      "scanning": 7335,
      "scanner": 7336,
      "revert": 7337,
      "maker": 7338,
      "machines": 7339,
      "domains": 7340,
      "snapshots": 7341,
      "Capability": 7342,
      "ESC": 7343,
      "ESL": 7344,
      "ESTAX": 7345,
      "carries": 7346,
      "screenshot": 7347,
      "loaned": 7348,
      "depreciate": 7349,
      "compares": 7350,
      "correspondence": 7351,
      "Analyzing": 7352,
      "delegation": 7353,
      "precedence": 7354,
      "recruiters": 7355,
      "Enrollment": 7356,
      "belonging": 7357,
      "frameworks": 7358,
      "characteristic": 7359,
      "drilling": 7360,
      "Inquiry": 7361,
      "Restriction": 7362,
      "discussion": 7363,
      "visualizations": 7364,
      "initialize": 7365,
      "simulate": 7366,
      "simulations": 7367,
      "Billing": 7368,
      "Billable": 7369,
      "Corporate": 7370,
      "Corresponding": 7371,
      "Image": 7372,
      "Putting": 7373,
      "green": 7374,
      "thresholds": 7375,
      "utilize": 7376,
      "Package": 7377,
      "STD": 7378,
      "SizeCol": 7379,
      "Trend": 7380,
      "smart": 7381,
      "ordinate": 7382,
      "exactly": 7383,
      "integrator": 7384,
      "personalize": 7385,
      "timesheets": 7386,
      "Submitting": 7387,
      "Submitted": 7388,
      "495": 7389,
      "Cluster": 7390,
      "ratings": 7391,
      "wait": 7392,
      "waived": 7393,
      "industri": 7394,
      "seventh": 7395,
      "regarding": 7396,
      "USPI": 7397,
      "Answers": 7398,
      "refreshing": 7399,
      "CommodityRecord": 7400,
      "CommodityCode": 7401,
      "Monthly": 7402,
      "participant": 7403,
      "participating": 7404,
      "deductible": 7405,
      "Steps": 7406,
      "Backflushing": 7407,
      "CTA": 7408,
      "Erd": 7409,
      "MXMF": 7410,
      "Pegged": 7411,
      "Pegging": 7412,
      "awarded": 7413,
      "efficiently": 7414,
      "midpoint": 7415,
      "Reconcil": 7416,
      "Reassigning": 7417,
      "Externally": 7418,
      "automation": 7419,
      "Loaned": 7420,
      "Looking": 7421,
      "principal": 7422,
      "recognizes": 7423,
      "CEO": 7424,
      "Central": 7425,
      "salvage": 7426,
      "realistic": 7427,
      "revise": 7428,
      "reimburse": 7429,
      "chandising": 7430,
      "obtained": 7431,
      "obligations": 7432,
      "regulations": 7433,
      "negotiations": 7434,
      "sequential": 7435,
      "Responses": 7436,
      "Visualize": 7437,
      "technicians": 7438,
      "Attachments": 7439,
      "RoutingNumber": 7440,
      "conflict": 7441,
      "Austria": 7442,
      "Like": 7443,
      "tendees": 7444,
      "style": 7445,
      "qualifies": 7446,
      "clerks": 7447,
      "chooses": 7448,
      "restricted": 7449,
      "conceptual": 7450,
      "Distributions": 7451,
      "remittances": 7452,
      "FACT": 7453,
      "GBSI": 7454,
      "Staging": 7455,
      "threading": 7456,
      "removal": 7457,
      "education": 7458,
      "powerful": 7459,
      "prediction": 7460,
      "predictions": 7461,
      "reclassification": 7462,
      "Administration": 7463,
      "Reserve": 7464,
      "nonconforming": 7465,
      "merchandise": 7466,
      "Telephone": 7467,
      "Replenishments": 7468,
      "preparers": 7469,
      "983": 7470,
      "CON": 7471,
      "DIRDE": 7472,
      "Freighted": 7473,
      "IPC": 7474,
      "Middle": 7475,
      "Negoti": 7476,
      "SSCC": 7477,
      "SSRS": 7478,
      "Widget": 7479,
      "hotfixes": 7480,
      "provisioned": 7481,
      "shirts": 7482,
      "Provide": 7483,
      "extensions": 7484,
      "supplemental": 7485,
      "supplementary": 7486,
      "Assortments": 7487,
      "responsibilities": 7488,
      "Commercial": 7489,
      "highlighted": 7490,
      "Liquid": 7491,
      "Italian": 7492,
      "NSF": 7493,
      "Nonconformance": 7494,
      "Renumber": 7495,
      "Speaker2016": 7496,
      "brand": 7497,
      "brackets": 7498,
      "mistakes": 7499,
      "zipped": 7500,
      "resemble": 7501,
      "retrieved": 7502,
      "ingredient": 7503,
      "towards": 7504,
      "proportional": 7505,
      "proportionally": 7506,
      "Int64": 7507,
      "Rejected": 7508,
      "delayed": 7509,
      "Constraints": 7510,
      "Explore": 7511,
      "CompositeEntity": 7512,
      "engagement": 7513,
      "numerator": 7514,
      "Measurement": 7515,
      "Measurements": 7516,
      "Analytic": 7517,
      "Analytics": 7518,
      "temporarily": 7519,
      "alphabetic": 7520,
      "Engineering": 7521,
      "encumbrance": 7522,
      "subsidiaries": 7523,
      "AAA": 7524,
      "AxErd": 7525,
      "Basic": 7526,
      "Basis": 7527,
      "Certain": 7528,
      "Certificates": 7529,
      "Career": 7530,
      "Carefully": 7531,
      "Catalogs": 7532,
      "Embed": 7533,
      "Embedded": 7534,
      "Merchandising": 7535,
      "PSA": 7536,
      "PSUS": 7537,
      "PT1234": 7538,
      "Passport": 7539,
      "Times": 7540,
      "critical": 7541,
      "world": 7542,
      "inserting": 7543,
      "inserted": 7544,
      "reaching": 7545,
      "enumeration": 7546,
      "aligned": 7547,
      "arranged": 7548,
      "Throughput": 7549,
      "queries": 7550,
      "queried": 7551,
      "Requisitions": 7552,
      "succeed": 7553,
      "succession": 7554,
      "disregarded": 7555,
      "Profitability": 7556,
      "Modifier": 7557,
      "Optimization": 7558,
      "Optimize": 7559,
      "Authority": 7560,
      "Authorize": 7561,
      "Automation": 7562,
      "Automate": 7563,
      "Communic": 7564,
      "indicators": 7565,
      "prioritize": 7566,
      "FTEs": 7567,
      "Summarize": 7568,
      "1099entriescsv": 7569,
      "Redeem": 7570,
      "Redemption": 7571,
      "CC003": 7572,
      "contributions": 7573,
      "affiliation": 7574,
      "affiliations": 7575,
      "AggregateFunction": 7576,
      "Successor": 7577,
      "perspective": 7578,
      "perspectives": 7579,
      "Button": 7580,
      "EDIFACT": 7581,
      "IMPORT": 7582,
      "Missing": 7583,
      "OfAmountMST": 7584,
      "Penny": 7585,
      "Role": 7586,
      "Solicitation": 7587,
      "Survey": 7588,
      "bigger": 7589,
      "brings": 7590,
      "famil": 7591,
      "gaps": 7592,
      "join": 7593,
      "pallets": 7594,
      "simply": 7595,
      "speakers": 7596,
      "attempts": 7597,
      "instructs": 7598,
      "revisions": 7599,
      "topologies": 7600,
      "isolation": 7601,
      "fifth": 7602,
      "probabilities": 7603,
      "Insights": 7604,
      "possibly": 7605,
      "accomplished": 7606,
      "tags": 7607,
      "saying": 7608,
      "truncation": 7609,
      "admins": 7610,
      "tips": 7611,
      "resubmit": 7612,
      "Revise": 7613,
      "Deploy": 7614,
      "Contribution": 7615,
      "partition": 7616,
      "consuming": 7617,
      "consultant": 7618,
      "triangular": 7619,
      "systematic": 7620,
      "assistant": 7621,
      "capitalization": 7622,
      "liquidity": 7623,
      "BankAccountTable": 7624,
      "BankJournalEntity": 7625,
      "classifier": 7626,
      "uniquely": 7627,
      "Supplementary": 7628,
      "Previously": 7629,
      "Classify": 7630,
      "Flushing": 7631,
      "recipient": 7632,
      "0160": 7633,
      "Another": 7634,
      "Black": 7635,
      "Canceled": 7636,
      "Cassie": 7637,
      "Client": 7638,
      "Divorced": 7639,
      "Education": 7640,
      "EUSales": 7641,
      "FULL": 7642,
      "Giro": 7643,
      "Grant": 7644,
      "Given": 7645,
      "Host": 7646,
      "Hotel": 7647,
      "Ignore": 7648,
      "Launch": 7649,
      "Layer": 7650,
      "Married": 7651,
      "Milestone": 7652,
      "MENT": 7653,
      "Nancy": 7654,
      "Pallet": 7655,
      "Poland": 7656,
      "Particip": 7657,
      "PH2500": 7658,
      "Rules": 7659,
      "Roll": 7660,
      "Rosewood": 7661,
      "Randomize": 7662,
      "Slip": 7663,
      "Small": 7664,
      "S8050": 7665,
      "Simplified": 7666,
      "SALESTAX": 7667,
      "Troubleshoot": 7668,
      "Today": 7669,
      "Takt": 7670,
      "Wrist": 7671,
      "awaiting": 7672,
      "brought": 7673,
      "folders": 7674,
      "glance": 7675,
      "mWsReport2": 7676,
      "pbix": 7677,
      "rtual": 7678,
      "randomly": 7679,
      "volumes": 7680,
      "winning": 7681,
      "wildcard": 7682,
      "xlsx": 7683,
      "thentication": 7684,
      "repeated": 7685,
      "aningful": 7686,
      "artifacts": 7687,
      "promise": 7688,
      "projections": 7689,
      "Inherit": 7690,
      "powered": 7691,
      "deposits": 7692,
      "deviation": 7693,
      "deferral": 7694,
      "assemble": 7695,
      "asynchronous": 7696,
      "Thursday": 7697,
      "Threshold": 7698,
      "constructed": 7699,
      "accessed": 7700,
      "September": 7701,
      "motivate": 7702,
      "reschedule": 7703,
      "Repair": 7704,
      "Retrieve": 7705,
      "precision": 7706,
      "delimiters": 7707,
      "dispatched": 7708,
      "Compliance": 7709,
      "Advising": 7710,
      "arithmetic": 7711,
      "anticipated": 7712,
      "Connections": 7713,
      "interfaces": 7714,
      "Videos": 7715,
      "Postgirot": 7716,
      "Unfortunately": 7717,
      "Enumerated": 7718,
      "BankTransactionType": 7719,
      "Principle": 7720,
      "Discontinued": 7721,
      "SampleVendPaymWsReport2": 7722,
      "SampleIncomingMessage": 7723,
      "jurisdictions": 7724,
      "DIRDEB": 7725,
      "PT12345": 7726,
      "EUSalesList": 7727,
      "09": 7728,
      "013": 7729,
      "023": 7730,
      "027": 7731,
      "0175": 7732,
      "0101": 7733,
      "0140": 7734,
      "1st": 7735,
      "2B": 7736,
      "2P": 7737,
      "211": 7738,
      "2End": 7739,
      "3000": 7740,
      "318": 7741,
      "319": 7742,
      "329": 7743,
      "420": 7744,
      "450": 7745,
      "440": 7746,
      "456": 7747,
      "5150": 7748,
      "5102": 7749,
      "69": 7750,
      "680": 7751,
      "690": 7752,
      "71": 7753,
      "74": 7754,
      "76": 7755,
      "78": 7756,
      "79": 7757,
      "7b": 7758,
      "82": 7759,
      "83": 7760,
      "84": 7761,
      "86": 7762,
      "87": 7763,
      "88": 7764,
      "89": 7765,
      "811": 7766,
      "801": 7767,
      "966": 7768,
      "AE": 7769,
      "AF": 7770,
      "AM": 7771,
      "AS": 7772,
      "AV": 7773,
      "AZ": 7774,
      "Af": 7775,
      "Ah": 7776,
      "Alic": 7777,
      "Asc": 7778,
      "Aread": 7779,
      "ACT": 7780,
      "AQL": 7781,
      "Aisle": 7782,
      "Acounts": 7783,
      "ABC": 7784,
      "Async": 7785,
      "B1": 7786,
      "B4": 7787,
      "BR": 7788,
      "Br": 7789,
      "Ban": 7790,
      "Bay": 7791,
      "Bun": 7792,
      "Bot": 7793,
      "Bid": 7794,
      "Bone": 7795,
      "Bll": 7796,
      "Bron": 7797,
      "Bring": 7798,
      "Bet": 7799,
      "BER": 7800,
      "Bbox": 7801,
      "Bir": 7802,
      "BSE": 7803,
      "Blank": 7804,
      "Billed": 7805,
      "Besides": 7806,
      "Blob": 7807,
      "Brief": 7808,
      "B2B": 7809,
      "CF": 7810,
      "CG": 7811,
      "CI": 7812,
      "CL": 7813,
      "CP": 7814,
      "Cs": 7815,
      "Cle": 7816,
      "Cou": 7817,
      "Cas": 7818,
      "Ctr": 7819,
      "Cum": 7820,
      "City": 7821,
      "Cust": 7822,
      "Cach": 7823,
      "Chi": 7824,
      "Cut": 7825,
      "COM": 7826,
      "Could": 7827,
      "CPOS": 7828,
      "CAT": 7829,
      "Crit": 7830,
      "C0002": 7831,
      "CAN": 7832,
      "Credentials": 7833,
      "CATE": 7834,
      "CMS": 7835,
      "Cause": 7836,
      "CBR": 7837,
      "D2": 7838,
      "DF": 7839,
      "DK": 7840,
      "DR": 7841,
      "DT": 7842,
      "Dr": 7843,
      "Du": 7844,
      "Dan": 7845,
      "Ded": 7846,
      "Dut": 7847,
      "Dual": 7848,
      "Dress": 7849,
      "DEU": 7850,
      "DAT": 7851,
      "D001": 7852,
      "D0002": 7853,
      "DATE": 7854,
      "Dotted": 7855,
      "DBC": 7856,
      "DOC": 7857,
      "EI": 7858,
      "EM": 7859,
      "Eth": 7860,
      "Ear": 7861,
      "Eight": 7862,
      "Elements": 7863,
      "EEU": 7864,
      "Employ": 7865,
      "Evaluation": 7866,
      "Effici": 7867,
      "Elap": 7868,
      "Econom": 7869,
      "EATE": 7870,
      "EPE": 7871,
      "EPAY": 7872,
      "F6": 7873,
      "F7": 7874,
      "FH": 7875,
      "FL": 7876,
      "Fr": 7877,
      "Fal": 7878,
      "Fit": 7879,
      "Fed": 7880,
      "Fur": 7881,
      "Four": 7882,
      "Fill": 7883,
      "Fam": 7884,
      "Fif": 7885,
      "Fail": 7886,
      "Fra": 7887,
      "Funder": 7888,
      "FML": 7889,
      "Fuel": 7890,
      "Folder": 7891,
      "FIN": 7892,
      "Flu": 7893,
      "Failed": 7894,
      "Grid": 7895,
      "GORIES": 7896,
      "GHT": 7897,
      "HO": 7898,
      "HW": 7899,
      "He": 7900,
      "Has": 7901,
      "Hist": 7902,
      "Hard": 7903,
      "HIN": 7904,
      "Having": 7905,
      "Horizon": 7906,
      "IF": 7907,
      "II": 7908,
      "Ide": 7909,
      "Isa": 7910,
      "IFF": 7911,
      "ICO": 7912,
      "ICMS": 7913,
      "Jour": 7914,
      "Karen": 7915,
      "Known": 7916,
      "KED": 7917,
      "LL": 7918,
      "LN": 7919,
      "LP": 7920,
      "LS": 7921,
      "Lin": 7922,
      "Lor": 7923,
      "Lit": 7924,
      "Land": 7925,
      "Lim": 7926,
      "Learning": 7927,
      "Large": 7928,
      "Lunch": 7929,
      "Less": 7930,
      "LUM": 7931,
      "L0101": 7932,
      "ME": 7933,
      "MM": 7934,
      "MW": 7935,
      "Mn": 7936,
      "Men": 7937,
      "Many": 7938,
      "Mari": 7939,
      "Mich": 7940,
      "Met": 7941,
      "M0002": 7942,
      "Milit": 7943,
      "MIM": 7944,
      "MAC": 7945,
      "MRP": 7946,
      "NF": 7947,
      "Nar": 7948,
      "NCE": 7949,
      "NNE": 7950,
      "NAF": 7951,
      "NICO": 7952,
      "O1": 7953,
      "OS": 7954,
      "Ob": 7955,
      "Oc": 7956,
      "Ok": 7957,
      "Ox": 7958,
      "Our": 7959,
      "Ogan": 7960,
      "Oft": 7961,
      "OTH": 7962,
      "ODBC": 7963,
      "ONNE": 7964,
      "PC": 7965,
      "PR": 7966,
      "Pan": 7967,
      "Por": 7968,
      "Pres": 7969,
      "Pag": 7970,
      "Past": 7971,
      "PER": 7972,
      "Plast": 7973,
      "P91": 7974,
      "PRT": 7975,
      "PIN": 7976,
      "P00011": 7977,
      "Punch": 7978,
      "Passed": 7979,
      "P2P": 7980,
      "PDF": 7981,
      "Ra": 7982,
      "Rent": 7983,
      "Right": 7984,
      "Rich": 7985,
      "R14": 7986,
      "ROR": 7987,
      "RM1": 7988,
      "RED": 7989,
      "RACT": 7990,
      "REPAY": 7991,
      "Sp": 7992,
      "Sw": 7993,
      "San": 7994,
      "Sent": 7995,
      "Sar": 7996,
      "Sty": 7997,
      "Scal": 7998,
      "Same": 7999,
      "Sav": 8000,
      "Sense": 8001,
      "Sys": 8002,
      "Sinte": 8003,
      "Soc": 8004,
      "Solid": 8005,
      "Sca": 8006,
      "Sites": 8007,
      "Stage": 8008,
      "SSL": 8009,
      "Satur": 8010,
      "Session": 8011,
      "SSI": 8012,
      "Sold": 8013,
      "Saving": 8014,
      "S1234": 8015,
      "Scrip": 8016,
      "Silver": 8017,
      "SCAN": 8018,
      "SONNE": 8019,
      "TO": 8020,
      "TV": 8021,
      "Ti": 8022,
      "Tag": 8023,
      "Teen": 8024,
      "TCA": 8025,
      "Txt": 8026,
      "TDEFF": 8027,
      "TIFF": 8028,
      "TRACT": 8029,
      "TS1234": 8030,
      "Usu": 8031,
      "Until": 8032,
      "UNICO": 8033,
      "Va": 8034,
      "VID": 8035,
      "Void": 8036,
      "Vouchers": 8037,
      "Won": 8038,
      "Wal": 8039,
      "Wage": 8040,
      "Will": 8041,
      "Wiz": 8042,
      "West": 8043,
      "WOR": 8044,
      "Watermark": 8045,
      "XF": 8046,
      "Xr": 8047,
      "XSL": 8048,
      "XLS": 8049,
      "Zo": 8050,
      "Zero": 8051,
      "ael": 8052,
      "ament": 8053,
      "ape": 8054,
      "ather": 8055,
      "ampl": 8056,
      "aways": 8057,
      "amental": 8058,
      "bed": 8059,
      "bay": 8060,
      "bask": 8061,
      "bility": 8062,
      "backing": 8063,
      "brows": 8064,
      "body": 8065,
      "blind": 8066,
      "besides": 8067,
      "blob": 8068,
      "brief": 8069,
      "blogs": 8070,
      "cx": 8071,
      "cit": 8072,
      "cate": 8073,
      "cour": 8074,
      "clin": 8075,
      "cities": 8076,
      "cry": 8077,
      "crated": 8078,
      "courses": 8079,
      "dd": 8080,
      "ds": 8081,
      "dow": 8082,
      "dred": 8083,
      "dam": 8084,
      "dable": 8085,
      "dents": 8086,
      "dAmount": 8087,
      "diced": 8088,
      "ea": 8089,
      "ee": 8090,
      "eu": 8091,
      "ev": 8092,
      "ele": 8093,
      "etit": 8094,
      "ety": 8095,
      "etail": 8096,
      "eks": 8097,
      "fro": 8098,
      "fing": 8099,
      "fare": 8100,
      "fash": 8101,
      "ffix": 8102,
      "fresh": 8103,
      "front": 8104,
      "gal": 8105,
      "gent": 8106,
      "greate": 8107,
      "got": 8108,
      "gree": 8109,
      "grop": 8110,
      "gely": 8111,
      "gency": 8112,
      "gather": 8113,
      "hr": 8114,
      "hu": 8115,
      "han": 8116,
      "hit": 8117,
      "hte": 8118,
      "hab": 8119,
      "hun": 8120,
      "him": 8121,
      "hoc": 8122,
      "hear": 8123,
      "health": 8124,
      "ict": 8125,
      "iar": 8126,
      "iated": 8127,
      "idat": 8128,
      "iron": 8129,
      "ised": 8130,
      "iances": 8131,
      "iency": 8132,
      "isecond": 8133,
      "idelines": 8134,
      "js": 8135,
      "jac": 8136,
      "jay": 8137,
      "ken": 8138,
      "ked": 8139,
      "kWh": 8140,
      "kely": 8141,
      "karen": 8142,
      "len": 8143,
      "lent": 8144,
      "lated": 8145,
      "lend": 8146,
      "lif": 8147,
      "live": 8148,
      "lends": 8149,
      "mor": 8150,
      "mers": 8151,
      "mort": 8152,
      "mig": 8153,
      "mill": 8154,
      "mag": 8155,
      "mim": 8156,
      "mut": 8157,
      "mile": 8158,
      "mmed": 8159,
      "m80": 8160,
      "m0004": 8161,
      "munic": 8162,
      "ns": 8163,
      "nor": 8164,
      "nit": 8165,
      "nic": 8166,
      "nar": 8167,
      "nment": 8168,
      "nish": 8169,
      "ncing": 8170,
      "niture": 8171,
      "ote": 8172,
      "oled": 8173,
      "omit": 8174,
      "olean": 8175,
      "pen": 8176,
      "pur": 8177,
      "ples": 8178,
      "pad": 8179,
      "pill": 8180,
      "piv": 8181,
      "purch": 8182,
      "phi": 8183,
      "p0000": 8184,
      "preserve": 8185,
      "p00015": 8186,
      "pict": 8187,
      "rare": 8188,
      "rup": 8189,
      "rri": 8190,
      "rays": 8191,
      "rally": 8192,
      "rapped": 8193,
      "sw": 8194,
      "sand": 8195,
      "spo": 8196,
      "sment": 8197,
      "sco": 8198,
      "sur": 8199,
      "slow": 8200,
      "sul": 8201,
      "sour": 8202,
      "spre": 8203,
      "sight": 8204,
      "solid": 8205,
      "scop": 8206,
      "soft": 8207,
      "sors": 8208,
      "scho": 8209,
      "satis": 8210,
      "slots": 8211,
      "silver": 8212,
      "tes": 8213,
      "till": 8214,
      "tical": 8215,
      "tically": 8216,
      "touch": 8217,
      "tang": 8218,
      "tightly": 8219,
      "tlen": 8220,
      "ued": 8221,
      "udi": 8222,
      "udio": 8223,
      "ugal": 8224,
      "vac": 8225,
      "vend": 8226,
      "vital": 8227,
      "vince": 8228,
      "vOps": 8229,
      "wel": 8230,
      "war": 8231,
      "wall": 8232,
      "wron": 8233,
      "wet": 8234,
      "wages": 8235,
      "warran": 8236,
      "xsl": 8237,
      "zin": 8238,
      "zen": 8239,
      "thin": 8240,
      "throw": 8241,
      "thous": 8242,
      "thick": 8243,
      "theme": 8244,
      "theore": 8245,
      "atments": 8246,
      "attract": 8247,
      "attendees": 8248,
      "atrri": 8249,
      "infin": 8250,
      "incl": 8251,
      "invalid": 8252,
      "intrast": 8253,
      "inputs": 8254,
      "incompatible": 8255,
      "inactivates": 8256,
      "ren": 8257,
      "reset": 8258,
      "refin": 8259,
      "reorder": 8260,
      "reconfiguration": 8261,
      "remin": 8262,
      "rename": 8263,
      "retain": 8264,
      "remark": 8265,
      "reload": 8266,
      "recalculated": 8267,
      "restruct": 8268,
      "regenerated": 8269,
      "resequence": 8270,
      "research": 8271,
      "reissue": 8272,
      "resale": 8273,
      "reinst": 8274,
      "resets": 8275,
      "reopened": 8276,
      "renamed": 8277,
      "retention": 8278,
      "rearran": 8279,
      "rearrange": 8280,
      "rears": 8281,
      "rehired": 8282,
      "reprints": 8283,
      "reoccurring": 8284,
      "rewall": 8285,
      "anch": 8286,
      "antom": 8287,
      "orit": 8288,
      "orch": 8289,
      "orated": 8290,
      "ortable": 8291,
      "orize": 8292,
      "orages": 8293,
      "ortages": 8294,
      "eral": 8295,
      "erature": 8296,
      "erative": 8297,
      "eristics": 8298,
      "eragents": 8299,
      "ertips": 8300,
      "ergency": 8301,
      "ename": 8302,
      "encap": 8303,
      "enrich": 8304,
      "encour": 8305,
      "ley": 8306,
      "lely": 8307,
      "leaving": 8308,
      "sees": 8309,
      "seper": 8310,
      "secur": 8311,
      "season": 8312,
      "sehold": 8313,
      "seware": 8314,
      "severity": 8315,
      "outages": 8316,
      "alone": 8317,
      "alities": 8318,
      "alization": 8319,
      "almost": 8320,
      "ctuations": 8321,
      "stay": 8322,
      "stant": 8323,
      "stack": 8324,
      "stays": 8325,
      "stamp": 8326,
      "stination": 8327,
      "storing": 8328,
      "studi": 8329,
      "storages": 8330,
      "especi": 8331,
      "entit": 8332,
      "entites": 8333,
      "itutes": 8334,
      "eden": 8335,
      "edite": 8336,
      "road": 8337,
      "roid": 8338,
      "room": 8339,
      "icult": 8340,
      "icAAA": 8341,
      "ingency": 8342,
      "tota": 8343,
      "took": 8344,
      "toff": 8345,
      "isk": 8346,
      "isible": 8347,
      "islated": 8348,
      "issors": 8349,
      "filed": 8350,
      "firewall": 8351,
      "forts": 8352,
      "forget": 8353,
      "forgets": 8354,
      "fordable": 8355,
      "elli": 8356,
      "123": 8357,
      "126": 8358,
      "1200": 8359,
      "1260": 8360,
      "ands": 8361,
      "ationInitiation": 8362,
      "arce": 8363,
      "arges": 8364,
      "argu": 8365,
      "arrears": 8366,
      "procur": 8367,
      "profic": 8368,
      "protest": 8369,
      "propose": 8370,
      "province": 8371,
      "loop": 8372,
      "losing": 8373,
      "Inde": 8374,
      "Inci": 8375,
      "Incre": 8376,
      "Inclu": 8377,
      "Instructure": 8378,
      "Intra": 8379,
      "Individual": 8380,
      "Internal": 8381,
      "Inquire": 8382,
      "Inactivate": 8383,
      "Infix": 8384,
      "Invert": 8385,
      "Included": 8386,
      "Invest": 8387,
      "polo": 8388,
      "poses": 8389,
      "polish": 8390,
      "chance": 8391,
      "champ": 8392,
      "chair": 8393,
      "mentors": 8394,
      "deselect": 8395,
      "deselected": 8396,
      "deselection": 8397,
      "deactivate": 8398,
      "deactivated": 8399,
      "deactivation": 8400,
      "decou": 8401,
      "declare": 8402,
      "declin": 8403,
      "degree": 8404,
      "aser": 8405,
      "aside": 8406,
      "assume": 8407,
      "ascending": 8408,
      "coin": 8409,
      "coach": 8410,
      "coproducts": 8411,
      "covery": 8412,
      "coins": 8413,
      "Thin": 8414,
      "Thick": 8415,
      "ntial": 8416,
      "possess": 8417,
      "yout": 8418,
      "cuts": 8419,
      "cutoff": 8420,
      "licity": 8421,
      "licence": 8422,
      "contra": 8423,
      "congest": 8424,
      "ilable": 8425,
      "illegal": 8426,
      "iline": 8427,
      "iliation": 8428,
      "ilient": 8429,
      "meal": 8430,
      "meter": 8431,
      "merely": 8432,
      "meaningful": 8433,
      "bear": 8434,
      "bered": 8435,
      "began": 8436,
      "acron": 8437,
      "acqui": 8438,
      "quote": 8439,
      "Their": 8440,
      "valents": 8441,
      "validating": 8442,
      "validat": 8443,
      "tait": 8444,
      "tagged": 8445,
      "canned": 8446,
      "cancell": 8447,
      "ersal": 8448,
      "ersand": 8449,
      "sake": 8450,
      "says": 8451,
      "saves": 8452,
      "exe": 8453,
      "exam": 8454,
      "extra": 8455,
      "exited": 8456,
      "exercise": 8457,
      "exposes": 8458,
      "Seamless": 8459,
      "counteragents": 8460,
      "urity": 8461,
      "urgent": 8462,
      "tray": 8463,
      "trad": 8464,
      "trip": 8465,
      "train": 8466,
      "true": 8467,
      "trusted": 8468,
      "olving": 8469,
      "diction": 8470,
      "divis": 8471,
      "digress": 8472,
      "directions": 8473,
      "dicted": 8474,
      "dimmed": 8475,
      "opted": 8476,
      "opposite": 8477,
      "ophy": 8478,
      "forma": 8479,
      "ums": 8480,
      "veys": 8481,
      "ads": 8482,
      "adver": 8483,
      "admission": 8484,
      "adhere": 8485,
      "adjac": 8486,
      "rile": 8487,
      "ably": 8488,
      "abstr": 8489,
      "absent": 8490,
      "ures": 8491,
      "ases": 8492,
      "finite": 8493,
      "finances": 8494,
      "finalized": 8495,
      "igation": 8496,
      "igate": 8497,
      "enterpri": 8498,
      "enterprise": 8499,
      "ulative": 8500,
      "ultim": 8501,
      "invite": 8502,
      "invites": 8503,
      "invisible": 8504,
      "ports": 8505,
      "ported": 8506,
      "portunities": 8507,
      "pling": 8508,
      "plier": 8509,
      "butable": 8510,
      "buys": 8511,
      "Clicking": 8512,
      "empower": 8513,
      "emailed": 8514,
      "emergency": 8515,
      "viability": 8516,
      "vilege": 8517,
      "virtual": 8518,
      "tionary": 8519,
      "tire": 8520,
      "tise": 8521,
      "unus": 8522,
      "unable": 8523,
      "undo": 8524,
      "unspecific": 8525,
      "unavailable": 8526,
      "undefined": 8527,
      "unrelated": 8528,
      "unblock": 8529,
      "unreleased": 8530,
      "unapplied": 8531,
      "unsupported": 8532,
      "unlisted": 8533,
      "unreserved": 8534,
      "unavailability": 8535,
      "unknown": 8536,
      "unsaved": 8537,
      "unconditional": 8538,
      "unreli": 8539,
      "undispatched": 8540,
      "resid": 8541,
      "ressing": 8542,
      "ressource": 8543,
      "resident": 8544,
      "residence": 8545,
      "resilient": 8546,
      "resolving": 8547,
      "usive": 8548,
      "terly": 8549,
      "verified": 8550,
      "vernment": 8551,
      "workbooks": 8552,
      "workforce": 8553,
      "workaround": 8554,
      "compens": 8555,
      "compression": 8556,
      "competing": 8557,
      "competency": 8558,
      "compilable": 8559,
      "compressing": 8560,
      "desire": 8561,
      "descrit": 8562,
      "descending": 8563,
      "accounted": 8564,
      "accountable": 8565,
      "followed": 8566,
      "ills": 8567,
      "shortages": 8568,
      "pertain": 8569,
      "perlinks": 8570,
      "perpet": 8571,
      "paying": 8572,
      "figures": 8573,
      "redo": 8574,
      "itemization": 8575,
      "itemizations": 8576,
      "invoke": 8577,
      "invoked": 8578,
      "Revalue": 8579,
      "Reorder": 8580,
      "Recur": 8581,
      "Retain": 8582,
      "Reorganization": 8583,
      "Regenerate": 8584,
      "Research": 8585,
      "Reposit": 8586,
      "Remember": 8587,
      "Recall": 8588,
      "Removed": 8589,
      "Rehire": 8590,
      "Retry": 8591,
      "Revision": 8592,
      "Reclassification": 8593,
      "Reevaluate": 8594,
      "Replic": 8595,
      "Recover": 8596,
      "Rejection": 8597,
      "Rearrange": 8598,
      "Revenues": 8599,
      "Refresh": 8600,
      "Retire": 8601,
      "byside": 8602,
      "Sets": 8603,
      "costly": 8604,
      "agno": 8605,
      "amation": 8606,
      "amters": 8607,
      "acting": 8608,
      "acteristics": 8609,
      "otprint": 8610,
      "usters": 8611,
      "withdrawn": 8612,
      "odd": 8613,
      "003": 8614,
      "004": 8615,
      "007": 8616,
      "008": 8617,
      "0015": 8618,
      "0014": 8619,
      "000001": 8620,
      "preselected": 8621,
      "prefer": 8622,
      "prenotes": 8623,
      "prevents": 8624,
      "predetermined": 8625,
      "prefix": 8626,
      "prevalent": 8627,
      "ignore": 8628,
      "anyone": 8629,
      "anything": 8630,
      "transactional": 8631,
      "deline": 8632,
      "Excise": 8633,
      "iff": 8634,
      "izer": 8635,
      "izen": 8636,
      "creator": 8637,
      "crepan": 8638,
      "dimensional": 8639,
      "soon": 8640,
      "social": 8641,
      "solely": 8642,
      "customizations": 8643,
      "customizing": 8644,
      "suits": 8645,
      "suffici": 8646,
      "suffix": 8647,
      "ivable": 8648,
      "iversal": 8649,
      "culture": 8650,
      "obvious": 8651,
      "observ": 8652,
      "recent": 8653,
      "recency": 8654,
      "recycle": 8655,
      "banes": 8656,
      "listpage": 8657,
      "listings": 8658,
      "matters": 8659,
      "mately": 8660,
      "salespeople": 8661,
      "postpon": 8662,
      "postitions": 8663,
      "postpone": 8664,
      "locating": 8665,
      "locale": 8666,
      "clause": 8667,
      "clients": 8668,
      "clusters": 8669,
      "oks": 8670,
      "footprint": 8671,
      "prorated": 8672,
      "ipsis": 8673,
      "ipalities": 8674,
      "cribed": 8675,
      "addressed": 8676,
      "buting": 8677,
      "doctor": 8678,
      "docx": 8679,
      "timetable": 8680,
      "owns": 8681,
      "chances": 8682,
      "disput": 8683,
      "disappear": 8684,
      "discard": 8685,
      "disaster": 8686,
      "disabilities": 8687,
      "disappears": 8688,
      "disables": 8689,
      "discover": 8690,
      "disconnected": 8691,
      "disabling": 8692,
      "disposing": 8693,
      "disassemble": 8694,
      "discovery": 8695,
      "idle": 8696,
      "ided": 8697,
      "Deselect": 8698,
      "Demo": 8699,
      "Defer": 8700,
      "Deleted": 8701,
      "Developer": 8702,
      "Debug": 8703,
      "Declare": 8704,
      "DevOps": 8705,
      "Destination": 8706,
      "imposed": 8707,
      "immers": 8708,
      "Program": 8709,
      "Provision": 8710,
      "Procure": 8711,
      "Procured": 8712,
      "Proseware": 8713,
      "Codes": 8714,
      "Cogn": 8715,
      "signer": 8716,
      "signing": 8717,
      "signals": 8718,
      "signoffs": 8719,
      "signific": 8720,
      "bom": 8721,
      "boms": 8722,
      "expensive": 8723,
      "expedited": 8724,
      "expedite": 8725,
      "thermore": 8726,
      "therapy": 8727,
      "serviceability": 8728,
      "oneous": 8729,
      "Adoption": 8730,
      "aried": 8731,
      "outlines": 8732,
      "outlets": 8733,
      "estrates": 8734,
      "asks": 8735,
      "journalize": 8736,
      "dropping": 8737,
      "alllocation": 8738,
      "Constru": 8739,
      "Concurrent": 8740,
      "Conversions": 8741,
      "Constant": 8742,
      "ulting": 8743,
      "formatted": 8744,
      "kered": 8745,
      "keholders": 8746,
      "requiring": 8747,
      "paring": 8748,
      "paramters": 8749,
      "Expire": 8750,
      "Expenditure": 8751,
      "regime": 8752,
      "archives": 8753,
      "household": 8754,
      "1070": 8755,
      "aint": 8756,
      "contingency": 8757,
      "avy": 8758,
      "Added": 8759,
      "downstream": 8760,
      "tonom": 8761,
      "precise": 8762,
      "append": 8763,
      "fair": 8764,
      "steel": 8765,
      "statistic": 8766,
      "statutory": 8767,
      "marily": 8768,
      "marital": 8769,
      "minor": 8770,
      "minal": 8771,
      "minority": 8772,
      "minimal": 8773,
      "looked": 8774,
      "versioning": 8775,
      "Fornit": 8776,
      "Accent": 8777,
      "Accord": 8778,
      "Accep": 8779,
      "Accumul": 8780,
      "hides": 8781,
      "ToUse": 8782,
      "ToCustomer": 8783,
      "Together": 8784,
      "nothing": 8785,
      "nominal": 8786,
      "legislated": 8787,
      "assigns": 8788,
      "assignee": 8789,
      "uters": 8790,
      "Goal": 8791,
      "Government": 8792,
      "variety": 8793,
      "near": 8794,
      "transit": 8795,
      "transformation": 8796,
      "transctions": 8797,
      "transitions": 8798,
      "transforms": 8799,
      "overage": 8800,
      "overloaded": 8801,
      "overpays": 8802,
      "overbooked": 8803,
      "intent": 8804,
      "intend": 8805,
      "intly": 8806,
      "intensive": 8807,
      "intends": 8808,
      "colum": 8809,
      "extent": 8810,
      "extens": 8811,
      "extensive": 8812,
      "operate": 8813,
      "specifics": 8814,
      "quotes": 8815,
      "auto": 8816,
      "authentication": 8817,
      "autonom": 8818,
      "typed": 8819,
      "checking": 8820,
      "checkpoints": 8821,
      "checkmarks": 8822,
      "subtitle": 8823,
      "subworkflow": 8824,
      "subcodes": 8825,
      "subjobs": 8826,
      "subsum": 8827,
      "subprojects": 8828,
      "submission": 8829,
      "subnodes": 8830,
      "subledgers": 8831,
      "subordinate": 8832,
      "legally": 8833,
      "Costs": 8834,
      "Sampling": 8835,
      "synced": 8836,
      "activites": 8837,
      "whichever": 8838,
      "AccountNumber": 8839,
      "SalesInvoice": 8840,
      "SalesLine": 8841,
      "SalesHeader": 8842,
      "funded": 8843,
      "Payer": 8844,
      "feed": 8845,
      "registry": 8846,
      "difficult": 8847,
      "2011": 8848,
      "2022": 8849,
      "2018": 8850,
      "2021": 8851,
      "2050": 8852,
      "Polo": 8853,
      "budgetary": 8854,
      "interview": 8855,
      "intervent": 8856,
      "interven": 8857,
      "internet": 8858,
      "interacts": 8859,
      "interconnection": 8860,
      "interconnectivity": 8861,
      "intermediate": 8862,
      "interrup": 8863,
      "interacting": 8864,
      "1100": 8865,
      "Child": 8866,
      "Cheque": 8867,
      "Fix": 8868,
      "relating": 8869,
      "relatively": 8870,
      "guided": 8871,
      "Generation": 8872,
      "Used": 8873,
      "tablecloth": 8874,
      "credit2": 8875,
      "imports": 8876,
      "etc": 8877,
      "anese": 8878,
      "aneous": 8879,
      "15th": 8880,
      "centrally": 8881,
      "commas": 8882,
      "communic": 8883,
      "demote": 8884,
      "multiply": 8885,
      "multithreading": 8886,
      "multiples": 8887,
      "multidimensional": 8888,
      "Finnish": 8889,
      "suppress": 8890,
      "dering": 8891,
      "ERROR": 8892,
      "filiations": 8893,
      "filename": 8894,
      "1300": 8895,
      "scroll": 8896,
      "scape": 8897,
      "scrapped": 8898,
      "scarce": 8899,
      "ensuring": 8900,
      "ensibility": 8901,
      "director": 8902,
      "markdown": 8903,
      "Virtual": 8904,
      "Station": 8905,
      "Studio": 8906,
      "ramp": 8907,
      "raise": 8908,
      "raised": 8909,
      "Viewer": 8910,
      "facto": 8911,
      "factoring": 8912,
      "factored": 8913,
      "spending": 8914,
      "spital": 8915,
      "spends": 8916,
      "spills": 8917,
      "Productive": 8918,
      "inesses": 8919,
      "Asset": 8920,
      "Aspect": 8921,
      "offloading": 8922,
      "148": 8923,
      "14D2": 8924,
      "associations": 8925,
      "appliances": 8926,
      "cellan": 8927,
      "Manifest": 8928,
      "Manifesting": 8929,
      "differentiated": 8930,
      "contained": 8931,
      "Workflows": 8932,
      "Workbench": 8933,
      "Workspace": 8934,
      "WorkPool": 8935,
      "WorkFH": 8936,
      "wear": 8937,
      "wegi": 8938,
      "weeks": 8939,
      "integer": 8940,
      "primarily": 8941,
      "Cue": 8942,
      "Cube": 8943,
      "collecting": 8944,
      "Customizing": 8945,
      "stands": 8946,
      "accessing": 8947,
      "accessible": 8948,
      "00020": 8949,
      "00016": 8950,
      "00027": 8951,
      "00034": 8952,
      "00047": 8953,
      "000329": 8954,
      "000148": 8955,
      "Postpone": 8956,
      "designation": 8957,
      "designers": 8958,
      "designations": 8959,
      "pons": 8960,
      "correlate": 8961,
      "caption": 8962,
      "RetailSales": 8963,
      "Retailchannel": 8964,
      "picklist": 8965,
      "compensationaction": 8966,
      "closest": 8967,
      "Permit": 8968,
      "Permis": 8969,
      "Permission": 8970,
      "effort": 8971,
      "efforts": 8972,
      "Descriptions": 8973,
      "Ann": 8974,
      "Anonymous": 8975,
      "memory": 8976,
      "manufacture": 8977,
      "wherein": 8978,
      "phones": 8979,
      "phantom": 8980,
      "Allocating": 8981,
      "businesses": 8982,
      "firming": 8983,
      "cade": 8984,
      "heads": 8985,
      "headcount": 8986,
      "additionally": 8987,
      "Unused": 8988,
      "Unlock": 8989,
      "Unprocessed": 8990,
      "Unexpected": 8991,
      "Unified": 8992,
      "Unmatched": 8993,
      "Universal": 8994,
      "holistic": 8995,
      "replies": 8996,
      "handles": 8997,
      "handbooks": 8998,
      "handler": 8999,
      "handwritten": 9000,
      "handheld": 9001,
      "helping": 9002,
      "responded": 9003,
      "requesting": 9004,
      "Invoicing": 9005,
      "standards": 9006,
      "Newly": 9007,
      "Diagno": 9008,
      "bersome": 9009,
      "Colors": 9010,
      "lie": 9011,
      "likely": 9012,
      "Enables": 9013,
      "Enrolled": 9014,
      "Enabling": 9015,
      "Enrich": 9016,
      "Encry": 9017,
      "2222": 9018,
      "2277": 9019,
      "themsel": 9020,
      "fication": 9021,
      "crucial": 9022,
      "mond": 9023,
      "partners": 9024,
      "BankRecon": 9025,
      "BankCompositeEntity": 9026,
      "BankToCustomer": 9027,
      "grated": 9028,
      "Attendees": 9029,
      "backdate": 9030,
      "backtrack": 9031,
      "backups": 9032,
      "Compa": 9033,
      "Compact": 9034,
      "Compress": 9035,
      "Compression": 9036,
      "Competency": 9037,
      "Competit": 9038,
      "Computers": 9039,
      "tedious": 9040,
      "advices": 9041,
      "advising": 9042,
      "Updated": 9043,
      "Upstream": 9044,
      "Opportunities": 9045,
      "categorized": 9046,
      "InvoiceDetails": 9047,
      "InvoiceJour": 9048,
      "arriving": 9049,
      "arrives": 9050,
      "confirming": 9051,
      "Defaulting": 9052,
      "expandable": 9053,
      "MainAccount": 9054,
      "naming": 9055,
      "summer": 9056,
      "summed": 9057,
      "sometimes": 9058,
      "mitigation": 9059,
      "basing": 9060,
      "ampersand": 9061,
      "slight": 9062,
      "TransactionDate": 9063,
      "interested": 9064,
      "Plans": 9065,
[...]
