{
  "version": "1.0",
  "truncation": null,
  "padding": null,
  "added_tokens": [
    {
      "id": 0,
      "content": "[UNK]",
      "single_word": false,
      "lstrip": false,
      "rstrip": false,
      "normalized": false,
      "special": true
    },
    {
      "id": 1,
      "content": "[PAD]",
      "single_word": false,
      "lstrip": false,
      "rstrip": false,
      "normalized": false,
      "special": true
    },
    {
      "id": 2,
      "content": "[BOS]",
      "single_word": false,
      "lstrip": false,
      "rstrip": false,
      "normalized": false,
      "special": true
    },
    {
      "id": 3,
      "content": "[EOS]",
      "single_word": false,
      "lstrip": false,
      "rstrip": false,
      "normalized": false,
      "special": true
    }
  ],
  "normalizer": null,
  "pre_tokenizer": {
    "type": "Whitespace"
  },
  "post_processor": null,
  "decoder": null,
  "model": {
    "type": "BPE",
    "dropout": null,
    "unk_token": "[UNK]",
    "continuing_subword_prefix": null,
    "end_of_word_suffix": null,
    "fuse_unk": false,
    "vocab": {
      "[UNK]": 0,
      "[PAD]": 1,
      "[BOS]": 2,
      "[EOS]": 3,
      "!": 4,
      "#": 5,
      "$": 6,
      "%": 7,
      "&": 8,
      "(": 9,
      ")": 10,
      "*": 11,
      "+": 12,
      ",": 13,
      "-": 14,
      ".": 15,
      "/": 16,
      "0": 17,
      "1": 18,
      "2": 19,
      "3": 20,
      "4": 21,
      "5": 22,
      "6": 23,
      "7": 24,
      "8": 25,
      "9": 26,
      ":": 27,
      ";": 28,
      "=": 29,
      "?": 30,
      "@": 31,
      "A": 32,
      "B": 33,
      "C": 34,
      "D": 35,
      "E": 36,
      "F": 37,
      "G": 38,
      "H": 39,
      "I": 40,
      "J": 41,
      "K": 42,
      "L": 43,
      "M": 44,
      "N": 45,
      "O": 46,
      "P": 47,
      "Q": 48,
      "R": 49,
      "S": 50,
      "T": 51,
      "U": 52,
      "V": 53,
      "W": 54,
      "X": 55,
      "Y": 56,
      "Z": 57,
      "\\": 58,
      "_": 59,
      "`": 60,
      "a": 61,
      "b": 62,
      "c": 63,
      "d": 64,
      "e": 65,
      "f": 66,
      "g": 67,
      "h": 68,
      "i": 69,
      "j": 70,
      "k": 71,
      "l": 72,
      "m": 73,
      "n": 74,
      "o": 75,
      "p": 76,
      "q": 77,
      "r": 78,
      "s": 79,
      "t": 80,
      "u": 81,
      "v": 82,
      "w": 83,
      "x": 84,
      "y": 85,
      "z": 86,
      "§": 87,
      "«": 88,
      "»": 89,
      "Å": 90,
      "Æ": 91,
      "É": 92,
      "×": 93,
      "Ø": 94,
      "å": 95,
      "æ": 96,
      "é": 97,
      "÷": 98,
      "ø": 99,
      "č": 100,
      "–": 101,
      "—": 102,
      "‘": 103,
      "’": 104,
      "“": 105,
      "”": 106,
      "†": 107,
      "‡": 108,
      "•": 109,
      "…": 110,
      "−": 111,
      "er": 112,
      "en": 113,
      "et": 114,
      "in": 115,
      "or": 116,
      "el": 117,
      "an": 118,
      "ti": 119,
      "on": 120,
      "for": 121,
      "ing": 122,
      "st": 123,
      "re": 124,
      "lt": 125,
      "ot": 126,
      "gt": 127,
      "at": 128,
      "qu": 129,
      "quot": 130,
      "al": 131,
      "pp": 132,
      "om": 133,
      "de": 134,
      "is": 135,
      "til": 136,
      "es": 137,
      "me": 138,
      "le": 139,
      "ar": 140,
      "du": 141,
      "na": 142,
      "ett": 143,
      "og": 144,
      "ver": 145,
      "ra": 146,
      "sj": 147,
      "ru": 148,
      "li": 149,
      "sk": 150,
      "av": 151,
      "sjon": 152,
      "ere": 153,
      "name": 154,
      "som": 155,
      "ne": 156,
      "ro": 157,
      "den": 158,
      "kk": 159,
      "ent": 160,
      "il": 161,
      "kt": 162,
      "se": 163,
      "di": 164,
      "ene": 165,
      "dat": 166,
      "ler": 167,
      "vis": 168,
      "opp": 169,
      "&#": 170,
      "ør": 171,
      "12": 172,
      "124": 173,
      "ut": 174,
      "ort": 175,
      "kan": 176,
      "der": 177,
      "ruk": 178,
      "te": 179,
      "and": 180,
      "på": 181,
      "ings": 182,
      "be": 183,
      "ser": 184,
      "ri": 185,
      "gi": 186,
      "ge": 187,
      "si": 188,
      "bruk": 189,
      "inn": 190,
      "la": 191,
      "det": 192,
      "vi": 193,
      "pro": 194,
      "elt": 195,
      "un": 196,
      "ur": 197,
      "ak": 198,
      "ord": 199,
      "to": 200,
      "kon": 201,
      "del": 202,
      "rett": 203,
      "ow": 204,
      "fi": 205,
      "ment": 206,
      "eller": 207,
      "med": 208,
      "data": 209,
      "ob": 210,
      "ste": 211,
      "ger": 212,
      "ende": 213,
      "asjon": 214,
      "ve": 215,
      "ok": 216,
      "ning": 217,
      "ost": 218,
      "ol": 219,
      "felt": 220,
      "sp": 221,
      "tt": 222,
      "må": 223,
      "fin": 224,
      "år": 225,
      "ower": 226,
      "gj": 227,
      "pport": 228,
      "je": 229,
      "th": 230,
      "kke": 231,
      "fl": 232,
      "ter": 233,
      "het": 234,
      "før": 235,
      "form": 236,
      "ling": 237,
      "rapport": 238,
      "fø": 239,
      "id": 240,
      "mp": 241,
      "feltet": 242,
      "ate": 243,
      "leg": 244,
      "mer": 245,
      "tit": 246,
      "ek": 247,
      "sen": 248,
      "opprett": 249,
      "res": 250,
      "tion": 251,
      "app": 252,
      "per": 253,
      "title": 254,
      "am": 255,
      "var": 256,
      "fra": 257,
      "are": 258,
      "all": 259,
      "ke": 260,
      "vil": 261,
      "Power": 262,
      "ce": 263,
      "Du": 264,
      "gende": 265,
      "lig": 266,
      "ny": 267,
      "ikke": 268,
      "gan": 269,
      "the": 270,
      "sett": 271,
      "verdi": 272,
      "men": 273,
      "elg": 274,
      "produ": 275,
      "ering": 276,
      "ved": 277,
      "over": 278,
      "tr": 279,
      "ab": 280,
      "Opp": 281,
      "hol": 282,
      "An": 283,
      "ksjon": 284,
      "gs": 285,
      "fig": 286,
      "str": 287,
      "arbe": 288,
      "pa": 289,
      "har": 290,
      "ma": 291,
      "akt": 292,
      "ans": 293,
      "kj": 294,
      "BI": 295,
      "ell": 296,
      "føl": 297,
      "ura": 298,
      "ette": 299,
      "ll": 300,
      "mo": 301,
      "ad": 302,
      "bruker": 303,
      "ft": 304,
      "post": 305,
      "ses": 306,
      "pl": 307,
      "etter": 308,
      "gjen": 309,
      "eg": 310,
      "jer": 311,
      "erer": 312,
      "Hvis": 313,
      "hand": 314,
      "ten": 315,
      "akti": 316,
      "Opprett": 317,
      "end": 318,
      "arbeid": 319,
      "um": 320,
      "ret": 321,
      "alt": 322,
      "gn": 323,
      "val": 324,
      "Velg": 325,
      "enhet": 326,
      "sam": 327,
      "likk": 328,
      "bet": 329,
      "ele": 330,
      "lik": 331,
      "riv": 332,
      "ument": 333,
      "fly": 334,
      "rå": 335,
      "øp": 336,
      "kont": 337,
      "sten": 338,
      "ard": 339,
      "Angi": 340,
      "semp": 341,
      "ic": 342,
      "defin": 343,
      "gru": 344,
      "ert": 345,
      "sal": 346,
      "bes": 347,
      "tet": 348,
      "ant": 349,
      "ual": 350,
      "so": 351,
      "inger": 352,
      "port": 353,
      "følgende": 354,
      "lin": 355,
      "lever": 356,
      "bok": 357,
      "min": 358,
      "fun": 359,
      "okument": 360,
      "Klikk": 361,
      "ska": 362,
      "con": 363,
      "pr": 364,
      "De": 365,
      "ds": 366,
      "nings": 367,
      "ag": 368,
      "når": 369,
      "dokument": 370,
      "fakt": 371,
      "Den": 372,
      "kom": 373,
      "kl": 374,
      "ren": 375,
      "met": 376,
      "angi": 377,
      "bu": 378,
      "visual": 379,
      "bruke": 380,
      "set": 381,
      "lager": 382,
      "vice": 383,
      "plan": 384,
      "dis": 385,
      "skal": 386,
      "vel": 387,
      "sy": 388,
      "model": 389,
      "att": 390,
      "lag": 391,
      "dato": 392,
      "jel": 393,
      "En": 394,
      "ho": 395,
      "kun": 396,
      "hv": 397,
      "denne": 398,
      "eksemp": 399,
      "ct": 400,
      "fil": 401,
      "as": 402,
      "brukes": 403,
      "cre": 404,
      "ty": 405,
      "ingen": 406,
      "konfig": 407,
      "net": 408,
      "ier": 409,
      "eli": 410,
      "ram": 411,
      "ster": 412,
      "legg": 413,
      "inform": 414,
      "gen": 415,
      "up": 416,
      "skje": 417,
      "Når": 418,
      "kost": 419,
      "andør": 420,
      "obje": 421,
      "Opprette": 422,
      "grupp": 423,
      "ation": 424,
      "betal": 425,
      "service": 426,
      "rem": 427,
      "rel": 428,
      "jene": 429,
      "sty": 430,
      "kob": 431,
      "man": 432,
      "par": 433,
      "objekt": 434,
      "inst": 435,
      "op": 436,
      "ba": 437,
      "kriv": 438,
      "tilling": 439,
      "erte": 440,
      "ch": 441,
      "alle": 442,
      "opprette": 443,
      "produkt": 444,
      "our": 445,
      "Kon": 446,
      "viser": 447,
      "us": 448,
      "sel": 449,
      "informasjon": 450,
      "Slik": 451,
      "nn": 452,
      "kre": 453,
      "Bruk": 454,
      "funksjon": 455,
      "Det": 456,
      "create": 457,
      "ban": 458,
      "flere": 459,
      "soft": 460,
      "icro": 461,
      "Defin": 462,
      "icrosoft": 463,
      "sl": 464,
      "så": 465,
      "inne": 466,
      "skap": 467,
      "rer": 468,
      "ordan": 469,
      "stem": 470,
      "ode": 471,
      "power": 472,
      "pne": 473,
      "Denne": 474,
      "ati": 475,
      "vare": 476,
      "stand": 477,
      "nytt": 478,
      "erna": 479,
      "roll": 480,
      "For": 481,
      "sjons": 482,
      "bi": 483,
      "Microsoft": 484,
      "dre": 485,
      "sjoner": 486,
      "bere": 487,
      "ernati": 488,
      "leverandør": 489,
      "hold": 490,
      "faktura": 491,
      "by": 492,
      "filt": 493,
      "oppdat": 494,
      "ed": 495,
      "dimen": 496,
      "ori": 497,
      "vises": 498,
      "mini": 499,
      "øy": 500,
      "proses": 501,
      "las": 502,
      "tid": 503,
      "skjema": 504,
      "fe": 505,
      "of": 506,
      "tab": 507,
      "dig": 508,
      "ni": 509,
      "dette": 510,
      "antall": 511,
      "Leg": 512,
      "no": 513,
      "Vis": 514,
      "hjel": 515,
      "hvordan": 516,
      "modell": 517,
      "kti": 518,
      "eksempel": 519,
      "konto": 520,
      "væ": 521,
      "hen": 522,
      "rapporter": 523,
      "ordre": 524,
      "00": 525,
      "produksjon": 526,
      "sert": 527,
      "sje": 528,
      "mål": 529,
      "mal": 530,
      "siden": 531,
      "ansak": 532,
      "alternati": 533,
      "skri": 534,
      "gang": 535,
      "ner": 536,
      "hver": 537,
      "arbeids": 538,
      "Til": 539,
      "po": 540,
      "pe": 541,
      "spør": 542,
      "også": 543,
      "nav": 544,
      "tte": 545,
      "gjeng": 546,
      "ac": 547,
      "format": 548,
      "bare": 549,
      "od": 550,
      "bli": 551,
      "tilord": 552,
      "utom": 553,
      "ring": 554,
      "else": 555,
      "Dette": 556,
      "standard": 557,
      "mot": 558,
      "nom": 559,
      "gistr": 560,
      "salgs": 561,
      "ust": 562,
      "sområ": 563,
      "ateg": 564,
      "lø": 565,
      "element": 566,
      "Definere": 567,
      "ningen": 568,
      "gjengeli": 569,
      "ummer": 570,
      "nett": 571,
      "ex": 572,
      "rument": 573,
      "rumentb": 574,
      "elle": 575,
      "enter": 576,
      "tre": 577,
      "frem": 578,
      "listen": 579,
      "handling": 580,
      "reg": 581,
      "holder": 582,
      "ble": 583,
      "tilgjengeli": 584,
      "disse": 585,
      "visualobjekt": 586,
      "bel": 587,
      "ult": 588,
      "detal": 589,
      "till": 590,
      "varer": 591,
      "olon": 592,
      "vise": 593,
      "mport": 594,
      "andre": 595,
      "instrumentb": 596,
      "rol": 597,
      "aktiver": 598,
      "Ut": 599,
      "ån": 600,
      "oppg": 601,
      "va": 602,
      "hjelp": 603,
      "bl": 604,
      "under": 605,
      "føre": 606,
      "gjennom": 607,
      "oc": 608,
      "ninger": 609,
      "erings": 610,
      "gren": 611,
      "fy": 612,
      "kostna": 613,
      "ces": 614,
      "Skriv": 615,
      "neden": 616,
      "appen": 617,
      "være": 618,
      "report": 619,
      "kna": 620,
      "tjene": 621,
      "legge": 622,
      "hvis": 623,
      "ven": 624,
      "konfigura": 625,
      "oppretter": 626,
      "pon": 627,
      "eres": 628,
      "mu": 629,
      "fer": 630,
      "rapporten": 631,
      "utomati": 632,
      "ale": 633,
      "ministr": 634,
      "lic": 635,
      "arbeidsområ": 636,
      "prog": 637,
      "kolon": 638,
      "stat": 639,
      "deg": 640,
      "tek": 641,
      "nedenfor": 642,
      "ator": 643,
      "bokfør": 644,
      "ull": 645,
      "kjøp": 646,
      "sjekt": 647,
      "velg": 648,
      "ark": 649,
      "art": 650,
      "lige": 651,
      "ta": 652,
      "åpne": 653,
      "nye": 654,
      "produksjons": 655,
      "kobling": 656,
      "din": 657,
      "eld": 658,
      "ure": 659,
      "inneholder": 660,
      "god": 661,
      "organ": 662,
      "trinn": 663,
      "asjonen": 664,
      "vet": 665,
      "flyt": 666,
      "gangs": 667,
      "én": 668,
      "øre": 669,
      "kker": 670,
      "vå": 671,
      "St": 672,
      "pen": 673,
      "inter": 674,
      "dem": 675,
      "jon": 676,
      "portal": 677,
      "enk": 678,
      "elen": 679,
      "stilling": 680,
      "jen": 681,
      "bestem": 682,
      "basert": 683,
      "Legg": 684,
      "automati": 685,
      "wi": 686,
      "dataene": 687,
      "øl": 688,
      "forsk": 689,
      "registr": 690,
      "urere": 691,
      "how": 692,
      "les": 693,
      "let": 694,
      "asjoner": 695,
      "knapp": 696,
      "ss": 697,
      "esi": 698,
      "ruten": 699,
      "lok": 700,
      "prosjekt": 701,
      "sjonen": 702,
      "nal": 703,
      "finn": 704,
      "ilde": 705,
      "ann": 706,
      "ress": 707,
      "agram": 708,
      "vent": 709,
      "bud": 710,
      "mid": 711,
      "beløp": 712,
      "oden": 713,
      "ned": 714,
      "kjen": 715,
      "kontroll": 716,
      "kunde": 717,
      "Føl": 718,
      "kri": 719,
      "tabell": 720,
      "dokumentasjon": 721,
      "sø": 722,
      "organis": 723,
      "isk": 724,
      "Re": 725,
      "fa": 726,
      "aly": 727,
      "lob": 728,
      "transak": 729,
      "with": 730,
      "job": 731,
      "datasett": 732,
      "slag": 733,
      "like": 734,
      "ly": 735,
      "stra": 736,
      "ategori": 737,
      "ew": 738,
      "import": 739,
      "områ": 740,
      "use": 741,
      "isjon": 742,
      "sport": 743,
      "ka": 744,
      "isering": 745,
      "ournal": 746,
      "eb": 747,
      "valgt": 748,
      "bak": 749,
      "son": 750,
      "oppsett": 751,
      "bereg": 752,
      "rom": 753,
      "gangsmå": 754,
      "brukere": 755,
      "meld": 756,
      "datak": 757,
      "blir": 758,
      "com": 759,
      "velge": 760,
      "delen": 761,
      "gjel": 762,
      "Konfig": 763,
      "ha": 764,
      "hån": 765,
      "liste": 766,
      "beho": 767,
      "In": 768,
      "oppfør": 769,
      "Pro": 770,
      "stø": 771,
      "diagram": 772,
      "ressur": 773,
      "opprettet": 774,
      "pør": 775,
      "wor": 776,
      "view": 777,
      "svar": 778,
      "ellom": 779,
      "van": 780,
      "tall": 781,
      "asjons": 782,
      "endre": 783,
      "planlegg": 784,
      "samme": 785,
      "lle": 786,
      "automatisk": 787,
      "La": 788,
      "mellom": 789,
      "administr": 790,
      "work": 791,
      "ju": 792,
      "amet": 793,
      "retnings": 794,
      "tikk": 795,
      "result": 796,
      "slik": 797,
      "gå": 798,
      "fremgangsmå": 799,
      "plas": 800,
      "Ek": 801,
      "peri": 802,
      "klu": 803,
      "full": 804,
      "navn": 805,
      "mat": 806,
      "order": 807,
      "iske": 808,
      "innstilling": 809,
      "egen": 810,
      "nø": 811,
      "App": 812,
      "oun": 813,
      "Dat": 814,
      "bin": 815,
      "mulig": 816,
      "side": 817,
      "program": 818,
      "skriv": 819,
      "utt": 820,
      "ordrer": 821,
      "gener": 822,
      "mob": 823,
      "tig": 824,
      "poster": 825,
      "onto": 826,
      "Di": 827,
      "behov": 828,
      "lan": 829,
      "dit": 830,
      "mon": 831,
      "dire": 832,
      "sign": 833,
      "sikt": 834,
      "tter": 835,
      "detaljer": 836,
      "instrumentbord": 837,
      "server": 838,
      "byg": 839,
      "log": 840,
      "utvi": 841,
      "gjør": 842,
      "tions": 843,
      "gruppe": 844,
      "ukk": 845,
      "nitt": 846,
      "roller": 847,
      "em": 848,
      "lobalt": 849,
      "knappen": 850,
      "tekst": 851,
      "tak": 852,
      "velger": 853,
      "avt": 854,
      "oppgav": 855,
      "oder": 856,
      "ron": 857,
      "sitet": 858,
      "verdier": 859,
      "from": 860,
      "noen": 861,
      "feil": 862,
      "ts": 863,
      "fores": 864,
      "vitet": 865,
      "grunn": 866,
      "angir": 867,
      "sc": 868,
      "ay": 869,
      "tem": 870,
      "pasitet": 871,
      "enheter": 872,
      "forretnings": 873,
      "kompon": 874,
      "godkjen": 875,
      "lagt": 876,
      "ringer": 877,
      "kort": 878,
      "ry": 879,
      "leggs": 880,
      "deretter": 881,
      "regn": 882,
      "kte": 883,
      "pris": 884,
      "finnes": 885,
      "10": 886,
      "analy": 887,
      "cel": 888,
      "ci": 889,
      "inklu": 890,
      "Globalt": 891,
      "ider": 892,
      "sammen": 893,
      "fordel": 894,
      "løs": 895,
      "nå": 896,
      "config": 897,
      "smål": 898,
      "diger": 899,
      "merk": 900,
      "beskri": 901,
      "retur": 902,
      "Nav": 903,
      "age": 904,
      "lings": 905,
      "rul": 906,
      "filter": 907,
      "tilgjengelig": 908,
      "get": 909,
      "hvil": 910,
      "ber": 911,
      "ID": 912,
      "oper": 913,
      "isere": 914,
      "rib": 915,
      "alog": 916,
      "unkt": 917,
      "tjenesten": 918,
      "knytt": 919,
      "adres": 920,
      "hier": 921,
      "ske": 922,
      "innhold": 923,
      "ardin": 924,
      "betalings": 925,
      "resultat": 926,
      "kategori": 927,
      "eri": 928,
      "skjer": 929,
      "add": 930,
      "datoen": 931,
      "enkelt": 932,
      "paramet": 933,
      "kapasitet": 934,
      "bil": 935,
      "ile": 936,
      "fir": 937,
      "gjøre": 938,
      "enheten": 939,
      "su": 940,
      "ubl": 941,
      "Av": 942,
      "gendefin": 943,
      "dra": 944,
      "beskriver": 945,
      "tilgang": 946,
      "nummer": 947,
      "Over": 948,
      "coun": 949,
      "aktivitet": 950,
      "manu": 951,
      "Følgende": 952,
      "ær": 953,
      "øn": 954,
      "regnskap": 955,
      "dende": 956,
      "flyten": 957,
      "beregn": 958,
      "vir": 959,
      "funksjonen": 960,
      "int": 961,
      "journal": 962,
      "web": 963,
      "legardin": 964,
      "apper": 965,
      "prosessen": 966,
      "slaget": 967,
      "definere": 968,
      "ris": 969,
      "bestilling": 970,
      "rullegardin": 971,
      "hy": 972,
      "finan": 973,
      "syn": 974,
      "nivå": 975,
      "alternativ": 976,
      "flyter": 977,
      "cont": 978,
      "item": 979,
      "person": 980,
      "dy": 981,
      "høy": 982,
      "iden": 983,
      "rab": 984,
      "brukeren": 985,
      "Gå": 986,
      "bo": 987,
      "leggsmid": 988,
      "Kont": 989,
      "gir": 990,
      "budsj": 991,
      "filen": 992,
      "try": 993,
      "Kan": 994,
      "your": 995,
      "opprettes": 996,
      "Ar": 997,
      "stre": 998,
      "egendefin": 999,
      "Åpne": 1000,
      "uelle": 1001,
      "linje": 1002,
      "ction": 1003,
      "nes": 1004,
      "valgte": 1005,
      "hierark": 1006,
      "pas": 1007,
      "kjør": 1008,
      "kontakt": 1009,
      "rukt": 1010,
      "linjer": 1011,
      "elser": 1012,
      "stør": 1013,
      "modu": 1014,
      "klar": 1015,
      "tilbak": 1016,
      "behand": 1017,
      "vari": 1018,
      "oppdatering": 1019,
      "licy": 1020,
      "fri": 1021,
      "utlig": 1022,
      "begren": 1023,
      "lad": 1024,
      "bank": 1025,
      "prosess": 1026,
      "tilgjengelige": 1027,
      "Eksemp": 1028,
      "ations": 1029,
      "aler": 1030,
      "apps": 1031,
      "ustom": 1032,
      "Apps": 1033,
      "sion": 1034,
      "eksi": 1035,
      "inkluder": 1036,
      "firma": 1037,
      "ordren": 1038,
      "sterende": 1039,
      "forespør": 1040,
      "fjer": 1041,
      "aller": 1042,
      "føres": 1043,
      "eren": 1044,
      "overfør": 1045,
      "abell": 1046,
      "Ja": 1047,
      "skjemaet": 1048,
      "way": 1049,
      "ul": 1050,
      "knyttet": 1051,
      "Akti": 1052,
      "do": 1053,
      "tillat": 1054,
      "custom": 1055,
      "itet": 1056,
      "spesi": 1057,
      "ktig": 1058,
      "eksisterende": 1059,
      "pay": 1060,
      "dokumenter": 1061,
      "spørsmål": 1062,
      "plasser": 1063,
      "uten": 1064,
      "fremgangsmåten": 1065,
      "ulike": 1066,
      "ordne": 1067,
      "navnet": 1068,
      "sent": 1069,
      "eng": 1070,
      "verdien": 1071,
      "forskjel": 1072,
      "rinn": 1073,
      "avskriv": 1074,
      "dene": 1075,
      "definerer": 1076,
      "mil": 1077,
      "flow": 1078,
      "visualisering": 1079,
      "attrib": 1080,
      "enar": 1081,
      "ktøy": 1082,
      "stri": 1083,
      "grupper": 1084,
      "cess": 1085,
      "Navn": 1086,
      "betaling": 1087,
      "Konfigurere": 1088,
      "lerret": 1089,
      "stykk": 1090,
      "visning": 1091,
      "seg": 1092,
      "kjøps": 1093,
      "mobil": 1094,
      "lo": 1095,
      "mange": 1096,
      "konfigur": 1097,
      "annen": 1098,
      "budsjett": 1099,
      "spor": 1100,
      "utform": 1101,
      "enger": 1102,
      "antallet": 1103,
      "visualobjekter": 1104,
      "kostnads": 1105,
      "iz": 1106,
      "using": 1107,
      "jø": 1108,
      "elses": 1109,
      "søk": 1110,
      "Ex": 1111,
      "dven": 1112,
      "Arbe": 1113,
      "US": 1114,
      "mva": 1115,
      "anleggsmid": 1116,
      "oppslaget": 1117,
      "bed": 1118,
      "definisjon": 1119,
      "datakil": 1120,
      "ens": 1121,
      "apport": 1122,
      "it": 1123,
      "hets": 1124,
      "filtr": 1125,
      "arbeidsområdet": 1126,
      "Le": 1127,
      "elementer": 1128,
      "organisasjonen": 1129,
      "sler": 1130,
      "miljø": 1131,
      "not": 1132,
      "nam": 1133,
      "Legge": 1134,
      "Utvi": 1135,
      "okk": 1136,
      "tikkelen": 1137,
      "user": 1138,
      "mple": 1139,
      "dimensjons": 1140,
      "dere": 1141,
      "ordet": 1142,
      "rep": 1143,
      "Endre": 1144,
      "salg": 1145,
      "atte": 1146,
      "måte": 1147,
      "betalinger": 1148,
      "rullegardinknappen": 1149,
      "Vi": 1150,
      "valut": 1151,
      "scenar": 1152,
      "rings": 1153,
      "eksport": 1154,
      "skaper": 1155,
      "gjeldende": 1156,
      "verktøy": 1157,
      "avhen": 1158,
      "dige": 1159,
      "merke": 1160,
      "Ser": 1161,
      "sere": 1162,
      "nødven": 1163,
      "publ": 1164,
      "proble": 1165,
      "finans": 1166,
      "tilbake": 1167,
      "pri": 1168,
      "funksjoner": 1169,
      "artikkelen": 1170,
      "bestemt": 1171,
      "Excel": 1172,
      "lå": 1173,
      "Be": 1174,
      "få": 1175,
      "sh": 1176,
      "sak": 1177,
      "ang": 1178,
      "ments": 1179,
      "angitt": 1180,
      "tip": 1181,
      "administrator": 1182,
      "forskjellige": 1183,
      "stedet": 1184,
      "dine": 1185,
      "Aktiver": 1186,
      "ide": 1187,
      "pur": 1188,
      "alen": 1189,
      "Data": 1190,
      "direkte": 1191,
      "Mer": 1192,
      "holde": 1193,
      "kontra": 1194,
      "kode": 1195,
      "ess": 1196,
      "heten": 1197,
      "transaksjoner": 1198,
      "størrel": 1199,
      "ken": 1200,
      "lett": 1201,
      "sikker": 1202,
      "første": 1203,
      "boksen": 1204,
      "område": 1205,
      "zure": 1206,
      "beg": 1207,
      "syste": 1208,
      "aver": 1209,
      "kolonne": 1210,
      "Eksempel": 1211,
      "hoved": 1212,
      "krivelse": 1213,
      "digere": 1214,
      "ik": 1215,
      "Inn": 1216,
      "start": 1217,
      "Bruke": 1218,
      "tillings": 1219,
      "stå": 1220,
      "heter": 1221,
      "filer": 1222,
      "konfigurasjon": 1223,
      "trinnene": 1224,
      "jobb": 1225,
      "hånds": 1226,
      "wh": 1227,
      "enn": 1228,
      "gift": 1229,
      "eksemplet": 1230,
      "åp": 1231,
      "hånd": 1232,
      "trykk": 1233,
      "Et": 1234,
      "can": 1235,
      "just": 1236,
      "arbeider": 1237,
      "20": 1238,
      "sin": 1239,
      "versjon": 1240,
      "ridis": 1241,
      "varen": 1242,
      "linjen": 1243,
      "policy": 1244,
      "accoun": 1245,
      "Produ": 1246,
      "tilpas": 1247,
      "seri": 1248,
      "beting": 1249,
      "definert": 1250,
      "hvor": 1251,
      "pan": 1252,
      "punkt": 1253,
      "sende": 1254,
      "able": 1255,
      "valg": 1256,
      "opi": 1257,
      "stribu": 1258,
      "gate": 1259,
      "dialog": 1260,
      "tilordne": 1261,
      "Her": 1262,
      "ail": 1263,
      "inv": 1264,
      "rediger": 1265,
      "last": 1266,
      "sted": 1267,
      "sales": 1268,
      "mottak": 1269,
      "aktivere": 1270,
      "far": 1271,
      "jør": 1272,
      "måter": 1273,
      "ory": 1274,
      "Lever": 1275,
      "Bet": 1276,
      "enten": 1277,
      "typer": 1278,
      "snitt": 1279,
      "behandling": 1280,
      "ligere": 1281,
      "dimensjon": 1282,
      "melding": 1283,
      "egenskap": 1284,
      "hierarki": 1285,
      "rad": 1286,
      "konfigurere": 1287,
      "Des": 1288,
      "Fin": 1289,
      "out": 1290,
      "tere": 1291,
      "innhol": 1292,
      "kunder": 1293,
      "ig": 1294,
      "anse": 1295,
      "ktron": 1296,
      "status": 1297,
      "Tabell": 1298,
      "bef": 1299,
      "flis": 1300,
      "handlings": 1301,
      "avhengi": 1302,
      "gerer": 1303,
      "cost": 1304,
      "allere": 1305,
      "krev": 1306,
      "gateway": 1307,
      "Bes": 1308,
      "Rapport": 1309,
      "md": 1310,
      "indu": 1311,
      "star": 1312,
      "skon": 1313,
      "date": 1314,
      "dimensjoner": 1315,
      "instrumentbordet": 1316,
      "planleggings": 1317,
      "tids": 1318,
      "produkter": 1319,
      "manuelt": 1320,
      "systemet": 1321,
      "Ad": 1322,
      "tim": 1323,
      "forsy": 1324,
      "ktop": 1325,
      "bankk": 1326,
      "juridis": 1327,
      "Desktop": 1328,
      "ttes": 1329,
      "faktur": 1330,
      "dag": 1331,
      "fis": 1332,
      "tillegg": 1333,
      "legger": 1334,
      "innstillinger": 1335,
      "drag": 1336,
      "rabatt": 1337,
      "da": 1338,
      "valu": 1339,
      "konom": 1340,
      "komm": 1341,
      "ange": 1342,
      "new": 1343,
      "urtig": 1344,
      "Lager": 1345,
      "programmet": 1346,
      "ønsk": 1347,
      "93": 1348,
      "ks": 1349,
      "test": 1350,
      "remi": 1351,
      "part": 1352,
      "kategorien": 1353,
      "ast": 1354,
      "sene": 1355,
      "91": 1356,
      "ff": 1357,
      "lu": 1358,
      "løp": 1359,
      "redigere": 1360,
      "atter": 1361,
      "plukk": 1362,
      "skriver": 1363,
      "Kanban": 1364,
      "AP": 1365,
      "col": 1366,
      "gin": 1367,
      "klas": 1368,
      "ance": 1369,
      "alternativer": 1370,
      "skrift": 1371,
      "søke": 1372,
      "virk": 1373,
      "På": 1374,
      "ase": 1375,
      "ties": 1376,
      "trans": 1377,
      "endringer": 1378,
      "ash": 1379,
      "relat": 1380,
      "kontoen": 1381,
      "sninger": 1382,
      "resent": 1383,
      "kunden": 1384,
      "type": 1385,
      "firmaet": 1386,
      "Plan": 1387,
      "trenger": 1388,
      "spa": 1389,
      "enhets": 1390,
      "Vise": 1391,
      "beregne": 1392,
      "ery": 1393,
      "forhånds": 1394,
      "teg": 1395,
      "skrive": 1396,
      "gjelder": 1397,
      "her": 1398,
      "ore": 1399,
      "tilkobling": 1400,
      "hvert": 1401,
      "Utvid": 1402,
      "11": 1403,
      "Hv": 1404,
      "Sal": 1405,
      "tar": 1406,
      "navi": 1407,
      "list": 1408,
      "planlegging": 1409,
      "Betal": 1410,
      "ud": 1411,
      "run": 1412,
      "gruppen": 1413,
      "visualobjektet": 1414,
      "oppgaver": 1415,
      "Merk": 1416,
      "kontrakt": 1417,
      "ente": 1418,
      "behold": 1419,
      "endring": 1420,
      "modellen": 1421,
      "emnet": 1422,
      "ML": 1423,
      "verdiene": 1424,
      "forespørsel": 1425,
      "scenari": 1426,
      "--": 1427,
      "pre": 1428,
      "Var": 1429,
      "ip": 1430,
      "ilt": 1431,
      "serte": 1432,
      "jeg": 1433,
      "rapportering": 1434,
      "lagre": 1435,
      "slut": 1436,
      "fakturaer": 1437,
      "Se": 1438,
      "distribu": 1439,
      "ført": 1440,
      "meny": 1441,
      "regler": 1442,
      "vanlig": 1443,
      "ER": 1444,
      "cal": 1445,
      "lem": 1446,
      "soli": 1447,
      "planlagt": 1448,
      "arbeidsflyt": 1449,
      "får": 1450,
      "tifi": 1451,
      "Oppdat": 1452,
      "alternativet": 1453,
      "monter": 1454,
      "Alle": 1455,
      "vindu": 1456,
      "selskap": 1457,
      "avtale": 1458,
      "Po": 1459,
      "elsen": 1460,
      "elektron": 1461,
      "generer": 1462,
      "egendefinerte": 1463,
      "feltene": 1464,
      "sette": 1465,
      "pass": 1466,
      "hel": 1467,
      "komponenter": 1468,
      "tra": 1469,
      "fungerer": 1470,
      "innebyg": 1471,
      "Azure": 1472,
      "øk": 1473,
      "ditt": 1474,
      "utføre": 1475,
      "oversikt": 1476,
      "bestillings": 1477,
      "base": 1478,
      "informasjonen": 1479,
      "arbeidsområde": 1480,
      "portalen": 1481,
      "strasjons": 1482,
      "invo": 1483,
      "skonto": 1484,
      "hendel": 1485,
      "treet": 1486,
      "neste": 1487,
      "that": 1488,
      "nytte": 1489,
      "conne": 1490,
      "aktivert": 1491,
      "avhengig": 1492,
      "sesnitt": 1493,
      "leverandører": 1494,
      "Dire": 1495,
      "return": 1496,
      "anbef": 1497,
      "dele": 1498,
      "product": 1499,
      "detalj": 1500,
      "Val": 1501,
      "tive": 1502,
      "rekke": 1503,
      "hurtig": 1504,
      "kli": 1505,
      "strukt": 1506,
      "send": 1507,
      "fakturaen": 1508,
      "beløpet": 1509,
      "adresse": 1510,
      "ck": 1511,
      "doc": 1512,
      "handel": 1513,
      "regel": 1514,
      "kolonn": 1515,
      "oen": 1516,
      "ype": 1517,
      "uttrykk": 1518,
      "manage": 1519,
      "valuta": 1520,
      "skin": 1521,
      "urer": 1522,
      "tidligere": 1523,
      "ategor": 1524,
      "Doc": 1525,
      "rec": 1526,
      "alitet": 1527,
      "tabellen": 1528,
      "støttes": 1529,
      "ressurser": 1530,
      "gående": 1531,
      "configura": 1532,
      "dri": 1533,
      "sedy": 1534,
      "følge": 1535,
      "publis": 1536,
      "15": 1537,
      "øver": 1538,
      "level": 1539,
      "bekre": 1540,
      "Tilordne": 1541,
      "grensesnitt": 1542,
      "konfigurasjons": 1543,
      "modus": 1544,
      "Arbeid": 1545,
      "oppgave": 1546,
      "hvilke": 1547,
      "Docs": 1548,
      "ikon": 1549,
      "kilde": 1550,
      "vur": 1551,
      "metoden": 1552,
      "bestemte": 1553,
      "bør": 1554,
      "he": 1555,
      "ller": 1556,
      "prosedy": 1557,
      "leverings": 1558,
      "tidsp": 1559,
      "innholdet": 1560,
      "Tabellen": 1561,
      "navig": 1562,
      "fter": 1563,
      "spe": 1564,
      "årsak": 1565,
      "godkjenning": 1566,
      "bankkonto": 1567,
      "redu": 1568,
      "Antall": 1569,
      "Definer": 1570,
      "ressurs": 1571,
      "Leverandør": 1572,
      "Gen": 1573,
      "spesifi": 1574,
      "lar": 1575,
      "senter": 1576,
      "kken": 1577,
      "medlem": 1578,
      "klokk": 1579,
      "attribut": 1580,
      "ated": 1581,
      "handle": 1582,
      "sour": 1583,
      "vær": 1584,
      "regnskaps": 1585,
      "kontroller": 1586,
      "koble": 1587,
      "progno": 1588,
      "oppføring": 1589,
      "board": 1590,
      "bre": 1591,
      "klad": 1592,
      "kopi": 1593,
      "tilf": 1594,
      "rav": 1595,
      "rader": 1596,
      "tity": 1597,
      "prosesser": 1598,
      "kolonner": 1599,
      "statu": 1600,
      "13": 1601,
      "ap": 1602,
      "configure": 1603,
      "Dis": 1604,
      "Post": 1605,
      "kler": 1606,
      "rog": 1607,
      "design": 1608,
      "process": 1609,
      "maskin": 1610,
      "tjeneste": 1611,
      "registrering": 1612,
      "komponent": 1613,
      "what": 1614,
      "bilde": 1615,
      "gro": 1616,
      "indi": 1617,
      "eslett": 1618,
      "klokkeslett": 1619,
      "regi": 1620,
      "refer": 1621,
      "linjene": 1622,
      "change": 1623,
      "pos": 1624,
      "Stand": 1625,
      "document": 1626,
      "økonom": 1627,
      "rek": 1628,
      "kontant": 1629,
      "tilordnet": 1630,
      "reports": 1631,
      "skjerm": 1632,
      "represent": 1633,
      "Bere": 1634,
      "Kom": 1635,
      "Om": 1636,
      "ref": 1637,
      "modelldre": 1638,
      "lerrets": 1639,
      "ample": 1640,
      "system": 1641,
      "malen": 1642,
      "Følg": 1643,
      "14": 1644,
      "Qu": 1645,
      "kat": 1646,
      "pagin": 1647,
      "slette": 1648,
      "purch": 1649,
      "Kost": 1650,
      "Ved": 1651,
      "num": 1652,
      "mpl": 1653,
      "stype": 1654,
      "trekk": 1655,
      "datasettet": 1656,
      "parameter": 1657,
      "Disse": 1658,
      "står": 1659,
      "kombin": 1660,
      "oppføringer": 1661,
      "materi": 1662,
      "parametere": 1663,
      "iled": 1664,
      "`-": 1665,
      "delt": 1666,
      "ist": 1667,
      "mak": 1668,
      "oss": 1669,
      "sti": 1670,
      "ware": 1671,
      "føring": 1672,
      "MF": 1673,
      "utføres": 1674,
      "fører": 1675,
      "Standard": 1676,
      "36": 1677,
      "sort": 1678,
      "spost": 1679,
      "slutt": 1680,
      "beregning": 1681,
      "16": 1682,
      "Før": 1683,
      "event": 1684,
      "ting": 1685,
      "maler": 1686,
      "diagrammet": 1687,
      "avskrivning": 1688,
      "Hva": 1689,
      "versjonen": 1690,
      "kjøre": 1691,
      "000": 1692,
      "payment": 1693,
      "namic": 1694,
      "ansatte": 1695,
      "typen": 1696,
      "ansaksjoner": 1697,
      "fast": 1698,
      "Der": 1699,
      "Kob": 1700,
      "lene": 1701,
      "inje": 1702,
      "requ": 1703,
      "templ": 1704,
      "styring": 1705,
      "items": 1706,
      "Finn": 1707,
      "tot": 1708,
      "ye": 1709,
      "forbruk": 1710,
      "visningen": 1711,
      "sider": 1712,
      "prosent": 1713,
      "agre": 1714,
      "che": 1715,
      "Service": 1716,
      "Desi": 1717,
      "skjemaer": 1718,
      "midler": 1719,
      "datakilde": 1720,
      "handlingsruten": 1721,
      "annet": 1722,
      "profil": 1723,
      "lageret": 1724,
      "Import": 1725,
      "bru": 1726,
      "dash": 1727,
      "ice": 1728,
      "vne": 1729,
      "saldo": 1730,
      "line": 1731,
      "funksjonalitet": 1732,
      "handlinger": 1733,
      "hvilken": 1734,
      "struktur": 1735,
      "statusen": 1736,
      "deling": 1737,
      "oppdatere": 1738,
      "transaksjon": 1739,
      "Sam": 1740,
      "ket": 1741,
      "egenskaper": 1742,
      "allerede": 1743,
      "Design": 1744,
      "Kun": 1745,
      "ringen": 1746,
      "yt": 1747,
      "Fra": 1748,
      "len": 1749,
      "mis": 1750,
      "tom": 1751,
      "aktiva": 1752,
      "elig": 1753,
      "selv": 1754,
      "posi": 1755,
      "oppsettet": 1756,
      "løsning": 1757,
      "inkludert": 1758,
      "anleggsmiddel": 1759,
      "prosedyren": 1760,
      "dashboard": 1761,
      "Designdetaljer": 1762,
      "Etter": 1763,
      "Gjen": 1764,
      "Med": 1765,
      "time": 1766,
      "servi": 1767,
      "nødvendig": 1768,
      "ffer": 1769,
      "mum": 1770,
      "øm": 1771,
      "integ": 1772,
      "stati": 1773,
      "varene": 1774,
      "filtre": 1775,
      "kostnader": 1776,
      "koblingen": 1777,
      "finner": 1778,
      "Registr": 1779,
      "Administr": 1780,
      "scenario": 1781,
      "purchase": 1782,
      "Nå": 1783,
      "knytte": 1784,
      "onne": 1785,
      "kanban": 1786,
      "posten": 1787,
      "API": 1788,
      "Direct": 1789,
      "est": 1790,
      "ges": 1791,
      "injer": 1792,
      "fordi": 1793,
      "rige": 1794,
      "geby": 1795,
      "remium": 1796,
      "Query": 1797,
      "fakti": 1798,
      "raden": 1799,
      "bedre": 1800,
      "delsen": 1801,
      "modeller": 1802,
      "krever": 1803,
      "kontrollen": 1804,
      "analyse": 1805,
      "juridiske": 1806,
      "group": 1807,
      "365": 1808,
      "Sh": 1809,
      "fan": 1810,
      "vend": 1811,
      "ilder": 1812,
      "opprinn": 1813,
      "lokasjon": 1814,
      "oppgaven": 1815,
      "aktiviteter": 1816,
      "USMF": 1817,
      "invoice": 1818,
      "dow": 1819,
      "lukk": 1820,
      "gjennomsnitt": 1821,
      "ponent": 1822,
      "teksten": 1823,
      "rutenett": 1824,
      "høyre": 1825,
      "solider": 1826,
      "språ": 1827,
      "endres": 1828,
      "stykkliste": 1829,
      "namics": 1830,
      "code": 1831,
      "ave": 1832,
      "riktig": 1833,
      "spris": 1834,
      "området": 1835,
      "kortet": 1836,
      "endringene": 1837,
      "wareho": 1838,
      "hele": 1839,
      "tiv": 1840,
      "via": 1841,
      "finne": 1842,
      "ekster": 1843,
      "beregnes": 1844,
      "Hver": 1845,
      "satt": 1846,
      "siste": 1847,
      "ktige": 1848,
      "mobile": 1849,
      "content": 1850,
      "customer": 1851,
      "bal": 1852,
      "etik": 1853,
      "verter": 1854,
      "rapportserver": 1855,
      "parti": 1856,
      "rollen": 1857,
      "støtter": 1858,
      "periode": 1859,
      "char": 1860,
      "injen": 1861,
      "unn": 1862,
      "kjører": 1863,
      "oppfy": 1864,
      "viktig": 1865,
      "veiled": 1866,
      "linger": 1867,
      "page": 1868,
      "admini": 1869,
      "legges": 1870,
      "kredit": 1871,
      "registrere": 1872,
      "støtte": 1873,
      "filtrere": 1874,
      "ønsker": 1875,
      "record": 1876,
      "led": 1877,
      "arch": 1878,
      "streng": 1879,
      "produksjonsordre": 1880,
      "Produkt": 1881,
      "Ver": 1882,
      "edit": 1883,
      "lis": 1884,
      "vers": 1885,
      "skju": 1886,
      "ill": 1887,
      "sern": 1888,
      "ansatt": 1889,
      "bokførings": 1890,
      "egendefinert": 1891,
      "sikkerhets": 1892,
      "begy": 1893,
      "Fly": 1894,
      "RL": 1895,
      "yl": 1896,
      "invent": 1897,
      "sklad": 1898,
      "file": 1899,
      "følger": 1900,
      "brukerne": 1901,
      "datakilder": 1902,
      "Bok": 1903,
      "ging": 1904,
      "kategor": 1905,
      "visnings": 1906,
      "production": 1907,
      "dokumentet": 1908,
      "elige": 1909,
      "innstillingene": 1910,
      "configuration": 1911,
      "serninter": 1912,
      "øres": 1913,
      "bokfører": 1914,
      "perioden": 1915,
      "identi": 1916,
      "vinduet": 1917,
      "Point": 1918,
      "inventory": 1919,
      "mar": 1920,
      "forrige": 1921,
      "avgift": 1922,
      "leggende": 1923,
      "ekom": 1924,
      "nyt": 1925,
      "Start": 1926,
      "monterings": 1927,
      "Som": 1928,
      "Spør": 1929,
      "ordrel": 1930,
      "opier": 1931,
      "pens": 1932,
      "connect": 1933,
      "Koble": 1934,
      "vendor": 1935,
      "brukt": 1936,
      "titt": 1937,
      "alleri": 1938,
      "warehouse": 1939,
      "loc": 1940,
      "forklar": 1941,
      "setter": 1942,
      "overskrift": 1943,
      "abonne": 1944,
      "relasjoner": 1945,
      "tabeller": 1946,
      "nettles": 1947,
      "kostnad": 1948,
      "demon": 1949,
      "Kontroller": 1950,
      "calc": 1951,
      "Fakt": 1952,
      "gh": 1953,
      "uni": 1954,
      "ekstra": 1955,
      "Analy": 1956,
      "tilordning": 1957,
      "utomate": 1958,
      "konfigurasjonen": 1959,
      "arbeidsområder": 1960,
      "forretningsprosess": 1961,
      "behandle": 1962,
      "fjerne": 1963,
      "klikk": 1964,
      "koden": 1965,
      "sning": 1966,
      "åde": 1967,
      "avvi": 1968,
      "kanskje": 1969,
      "konserninter": 1970,
      "ganger": 1971,
      "aktiv": 1972,
      "ick": 1973,
      "beskrivelse": 1974,
      "typ": 1975,
      "nøkk": 1976,
      "utligning": 1977,
      "representerer": 1978,
      "aktuelle": 1979,
      "mindre": 1980,
      "fullført": 1981,
      "begrensninger": 1982,
      "attributt": 1983,
      "kreves": 1984,
      "Beskrivelse": 1985,
      "relaterte": 1986,
      "Or": 1987,
      "fle": 1988,
      "eløp": 1989,
      "opplevel": 1990,
      "måten": 1991,
      "varsel": 1992,
      "ansvar": 1993,
      "hva": 1994,
      "bygge": 1995,
      "grunnlag": 1996,
      "pt": 1997,
      "one": 1998,
      "forekom": 1999,
      "ligator": 2000,
      "butikk": 2001,
      "leverandøren": 2002,
      "problemer": 2003,
      "skont": 2004,
      "sat": 2005,
      "insi": 2006,
      "skre": 2007,
      "formel": 2008,
      "bokført": 2009,
      "matris": 2010,
      "control": 2011,
      "tips": 2012,
      "drift": 2013,
      "Ho": 2014,
      "tvers": 2015,
      "delse": 2016,
      "assign": 2017,
      "adressen": 2018,
      "segment": 2019,
      "serie": 2020,
      "Finans": 2021,
      "dager": 2022,
      "fon": 2023,
      "sele": 2024,
      "tatt": 2025,
      "forf": 2026,
      "rask": 2027,
      "oppdateres": 2028,
      "formatet": 2029,
      "miljøet": 2030,
      "nota": 2031,
      "vanligvis": 2032,
      "17": 2033,
      "Fun": 2034,
      "Ne": 2035,
      "sol": 2036,
      "rute": 2037,
      "relasjon": 2038,
      "koblinger": 2039,
      "bildet": 2040,
      "tilpasse": 2041,
      "helst": 2042,
      "Sp": 2043,
      "gitt": 2044,
      "først": 2045,
      "define": 2046,
      "venstre": 2047,
      "mul": 2048,
      "Rediger": 2049,
      "nødvendige": 2050,
      "åpnes": 2051,
      "Alt": 2052,
      "Sy": 2053,
      "Tr": 2054,
      "Trinn": 2055,
      "bry": 2056,
      "when": 2057,
      "laste": 2058,
      "alte": 2059,
      "lønn": 2060,
      "orders": 2061,
      "Betalings": 2062,
      "detaljhandel": 2063,
      "Kunde": 2064,
      "XML": 2065,
      "svarer": 2066,
      "anser": 2067,
      "ansport": 2068,
      "fort": 2069,
      "tildel": 2070,
      "innkjøp": 2071,
      "fix": 2072,
      "meldingen": 2073,
      "Oversikt": 2074,
      "håndter": 2075,
      "Gener": 2076,
      "ding": 2077,
      "fisere": 2078,
      "entity": 2079,
      "lay": 2080,
      "setting": 2081,
      "eringer": 2082,
      "bokføre": 2083,
      "sykl": 2084,
      "elementet": 2085,
      "jobber": 2086,
      "merket": 2087,
      "modelldrevne": 2088,
      "Dy": 2089,
      "Kjør": 2090,
      "Premium": 2091,
      "dr": 2092,
      "rele": 2093,
      "ded": 2094,
      "avan": 2095,
      "koblet": 2096,
      "Visual": 2097,
      "spørre": 2098,
      "fullføre": 2099,
      "bekreft": 2100,
      "Share": 2101,
      "22": 2102,
      "Del": 2103,
      "Ny": 2104,
      "forvent": 2105,
      "obligator": 2106,
      "rapportene": 2107,
      "export": 2108,
      "generere": 2109,
      "grunnleggende": 2110,
      "selskapet": 2111,
      "Hoved": 2112,
      "SharePoint": 2113,
      "strøm": 2114,
      "endrer": 2115,
      "konfigurerer": 2116,
      "størrelse": 2117,
      "Funksjon": 2118,
      "både": 2119,
      "krav": 2120,
      "samsvar": 2121,
      "kontrollere": 2122,
      "plassering": 2123,
      "kolonnen": 2124,
      "kron": 2125,
      "pil": 2126,
      "slic": 2127,
      "omf": 2128,
      "vidu": 2129,
      "konsolider": 2130,
      "slett": 2131,
      "forespørsler": 2132,
      "alender": 2133,
      "template": 2134,
      "ou": 2135,
      "sek": 2136,
      "ted": 2137,
      "sikre": 2138,
      "top": 2139,
      "umn": 2140,
      "conta": 2141,
      "Fjer": 2142,
      "lat": 2143,
      "we": 2144,
      "enable": 2145,
      "tidig": 2146,
      "detail": 2147,
      "gangen": 2148,
      "aktive": 2149,
      "elefon": 2150,
      "funksjonene": 2151,
      "fyll": 2152,
      "enkel": 2153,
      "strasjon": 2154,
      "ordnede": 2155,
      "column": 2156,
      "beholdning": 2157,
      "individu": 2158,
      "Kostna": 2159,
      "By": 2160,
      "forslag": 2161,
      "visisjon": 2162,
      "utlø": 2163,
      "bety": 2164,
      "kommer": 2165,
      "slå": 2166,
      "dimension": 2167,
      "Inst": 2168,
      "Dimen": 2169,
      "bestillinger": 2170,
      "Hvordan": 2171,
      "Kj": 2172,
      "kter": 2173,
      "step": 2174,
      "meldinger": 2175,
      "variab": 2176,
      "konfigurert": 2177,
      "elektroniske": 2178,
      "språk": 2179,
      "ffe": 2180,
      "går": 2181,
      "hør": 2182,
      "ula": 2183,
      "ating": 2184,
      "lister": 2185,
      "avslut": 2186,
      "sprog": 2187,
      "førings": 2188,
      "ligne": 2189,
      "objekter": 2190,
      "spørring": 2191,
      "actions": 2192,
      "lokale": 2193,
      "importere": 2194,
      "eblikk": 2195,
      "Konfigurer": 2196,
      "tillatelser": 2197,
      "størrelsen": 2198,
      "Sett": 2199,
      "cs": 2200,
      "sjournal": 2201,
      "deler": 2202,
      "move": 2203,
      "busin": 2204,
      "øyeblikk": 2205,
      "henhold": 2206,
      "sub": 2207,
      "hylle": 2208,
      "inkluderer": 2209,
      "ization": 2210,
      "vurder": 2211,
      "DirectQuery": 2212,
      "details": 2213,
      "put": 2214,
      "skost": 2215,
      "utgi": 2216,
      "spon": 2217,
      "flytt": 2218,
      "example": 2219,
      "administrere": 2220,
      "filteret": 2221,
      "visualiseringer": 2222,
      "datakilden": 2223,
      "accounts": 2224,
      "sendes": 2225,
      "farge": 2226,
      "business": 2227,
      "Ikke": 2228,
      "ir": 2229,
      "innkjøps": 2230,
      "vedlegg": 2231,
      "Oppsett": 2232,
      "beskriv": 2233,
      "planen": 2234,
      "ånd": 2235,
      "resultatene": 2236,
      "account": 2237,
      "trekks": 2238,
      "Dynamics": 2239,
      "SS": 2240,
      "timer": 2241,
      "rece": 2242,
      "skoder": 2243,
      "eringen": 2244,
      "vedlike": 2245,
      "transport": 2246,
      "agg": 2247,
      "off": 2248,
      "overførings": 2249,
      "avskrivnings": 2250,
      "beregnede": 2251,
      "source": 2252,
      "rekvisisjon": 2253,
      "ledger": 2254,
      "abonnement": 2255,
      "fixed": 2256,
      "Lø": 2257,
      "kval": 2258,
      "kry": 2259,
      "mark": 2260,
      "ete": 2261,
      "forbin": 2262,
      "sender": 2263,
      "egn": 2264,
      "rapporterings": 2265,
      "områder": 2266,
      "diagrammer": 2267,
      "Behandle": 2268,
      "spesifikke": 2269,
      "demonstrasjons": 2270,
      "vall": 2271,
      "desk": 2272,
      "ries": 2273,
      "asse": 2274,
      "elementene": 2275,
      "component": 2276,
      "utvidelsen": 2277,
      "users": 2278,
      "Deretter": 2279,
      "desktop": 2280,
      "AX": 2281,
      "Beg": 2282,
      "OS": 2283,
      "fok": 2284,
      "sche": 2285,
      "utdrag": 2286,
      "sik": 2287,
      "hjelpe": 2288,
      "nedtrekks": 2289,
      "vanlige": 2290,
      "beregnet": 2291,
      "midlertid": 2292,
      "opprinnelige": 2293,
      "ky": 2294,
      "ran": 2295,
      "entries": 2296,
      "påvirk": 2297,
      "ject": 2298,
      "kompens": 2299,
      "update": 2300,
      "bestillingen": 2301,
      "share": 2302,
      "Hvor": 2303,
      "speci": 2304,
      "Bereg": 2305,
      "Fe": 2306,
      "Vare": 2307,
      "cy": 2308,
      "galleri": 2309,
      "ivå": 2310,
      "ral": 2311,
      "deaktiver": 2312,
      "varsler": 2313,
      "beskre": 2314,
      "klere": 2315,
      "MicrosoftDocs": 2316,
      "access": 2317,
      "bokførte": 2318,
      "intervall": 2319,
      "faktiske": 2320,
      "beskrevet": 2321,
      "Filt": 2322,
      "Lagre": 2323,
      "Res": 2324,
      "Si": 2325,
      "innsikt": 2326,
      "konverter": 2327,
      "mulighet": 2328,
      "godkjennings": 2329,
      "skjermen": 2330,
      "synlig": 2331,
      "egenskapene": 2332,
      "forsyning": 2333,
      "kommand": 2334,
      "planlagte": 2335,
      "Oppdater": 2336,
      "øverst": 2337,
      "ikonet": 2338,
      "number": 2339,
      "begynn": 2340,
      "avvik": 2341,
      "18": 2342,
      "aut": 2343,
      "glob": 2344,
      "imidlertid": 2345,
      "tiden": 2346,
      "utgift": 2347,
      "samle": 2348,
      "blokk": 2349,
      "ferdig": 2350,
      "embed": 2351,
      "løsningen": 2352,
      "mplement": 2353,
      "kommende": 2354,
      "etikett": 2355,
      "Alternati": 2356,
      "sn": 2357,
      "telefon": 2358,
      "databa": 2359,
      "kunne": 2360,
      "kontoer": 2361,
      "handlingen": 2362,
      "compan": 2363,
      "support": 2364,
      "synkron": 2365,
      "alternativene": 2366,
      "Produksjon": 2367,
      "redigerings": 2368,
      "nedtrekksdialog": 2369,
      "Li": 2370,
      "ca": 2371,
      "rene": 2372,
      "tu": 2373,
      "dek": 2374,
      "tilbud": 2375,
      "vide": 2376,
      "ally": 2377,
      "valider": 2378,
      "visuals": 2379,
      "Salgs": 2380,
      "nøkkel": 2381,
      "Sl": 2382,
      "bid": 2383,
      "mapp": 2384,
      "enummer": 2385,
      "elling": 2386,
      "forsen": 2387,
      "atch": 2388,
      "avstem": 2389,
      "stransaksjoner": 2390,
      "serviceordre": 2391,
      "lication": 2392,
      "Eksport": 2393,
      "bilag": 2394,
      "utformingen": 2395,
      "lerretsapp": 2396,
      "maksi": 2397,
      "insipp": 2398,
      "Felt": 2399,
      "God": 2400,
      "ire": 2401,
      "ine": 2402,
      "indow": 2403,
      "foret": 2404,
      "sky": 2405,
      "skode": 2406,
      "excel": 2407,
      "konfigurasjoner": 2408,
      "workflow": 2409,
      "kapasiteten": 2410,
      "eksportere": 2411,
      "angis": 2412,
      "betingelser": 2413,
      "menyen": 2414,
      "grensesnittet": 2415,
      "servic": 2416,
      "nedtrekksdialogen": 2417,
      "Må": 2418,
      "stol": 2419,
      "des": 2420,
      "differ": 2421,
      "ders": 2422,
      "appro": 2423,
      "alltid": 2424,
      "posting": 2425,
      "hjelper": 2426,
      "tilordnes": 2427,
      "bokføring": 2428,
      "organisasjon": 2429,
      "direct": 2430,
      "åpner": 2431,
      "kalender": 2432,
      "vas": 2433,
      "yper": 2434,
      "ære": 2435,
      "fore": 2436,
      "rupp": 2437,
      "gjent": 2438,
      "flytte": 2439,
      "lagret": 2440,
      "arbeidsflyten": 2441,
      "spørringer": 2442,
      "trinnet": 2443,
      "rabatter": 2444,
      "payments": 2445,
      "visualiseringen": 2446,
      "utforming": 2447,
      "definisjonen": 2448,
      "Mot": 2449,
      "sisk": 2450,
      "tilknytte": 2451,
      "arti": 2452,
      "kjent": 2453,
      "følgen": 2454,
      "metode": 2455,
      "setning": 2456,
      "operasjon": 2457,
      "Aktivere": 2458,
      "partin": 2459,
      "elektronisk": 2460,
      "sdato": 2461,
      "other": 2462,
      "ract": 2463,
      "row": 2464,
      "obb": 2465,
      "måle": 2466,
      "belast": 2467,
      "rykk": 2468,
      "sporings": 2469,
      "priori": 2470,
      "canvas": 2471,
      "forsynings": 2472,
      "forklarer": 2473,
      "types": 2474,
      "betyr": 2475,
      "DAX": 2476,
      "bar": 2477,
      "gu": 2478,
      "gra": 2479,
      "nøy": 2480,
      "utforsk": 2481,
      "urs": 2482,
      "posterings": 2483,
      "rettig": 2484,
      "asset": 2485,
      "ource": 2486,
      "operasjoner": 2487,
      "resultatet": 2488,
      "virke": 2489,
      "overføring": 2490,
      "ize": 2491,
      "based": 2492,
      "eventuelle": 2493,
      "Faktura": 2494,
      "AN": 2495,
      "Com": 2496,
      "eier": 2497,
      "vs": 2498,
      "store": 2499,
      "deles": 2500,
      "vei": 2501,
      "produktet": 2502,
      "general": 2503,
      "finanskonto": 2504,
      "klassi": 2505,
      "tidspunkt": 2506,
      "yldig": 2507,
      "Gj": 2508,
      "kart": 2509,
      "nær": 2510,
      "uelt": 2511,
      "xt": 2512,
      "senere": 2513,
      "posteres": 2514,
      "skaff": 2515,
      "dynam": 2516,
      "kontakter": 2517,
      "anleggsmidler": 2518,
      "kopiere": 2519,
      "Registrere": 2520,
      "schedu": 2521,
      "Per": 2522,
      "driv": 2523,
      "nt": 2524,
      "timal": 2525,
      "delses": 2526,
      "fire": 2527,
      "dataflyter": 2528,
      "mens": 2529,
      "postene": 2530,
      "lines": 2531,
      "oppdaterings": 2532,
      "table": 2533,
      "rolle": 2534,
      "bilder": 2535,
      "oppdateringer": 2536,
      "Områ": 2537,
      "Gjennom": 2538,
      "Automate": 2539,
      "Oper": 2540,
      "Ret": 2541,
      "cle": 2542,
      "kal": 2543,
      "lær": 2544,
      "isert": 2545,
      "leier": 2546,
      "oppmerk": 2547,
      "tema": 2548,
      "speri": 2549,
      "settings": 2550,
      "boks": 2551,
      "servicekontrakt": 2552,
      "leverandørfaktura": 2553,
      "regelen": 2554,
      "priser": 2555,
      "innholdspa": 2556,
      "strekk": 2557,
      "Arbeide": 2558,
      "anbefaler": 2559,
      "mums": 2560,
      "oppmerksom": 2561,
      "URL": 2562,
      "implement": 2563,
      "koder": 2564,
      "injene": 2565,
      "datafirmaet": 2566,
      "måned": 2567,
      "gjort": 2568,
      "koblings": 2569,
      "installer": 2570,
      "noe": 2571,
      "forskud": 2572,
      "fremgangsmåte": 2573,
      "starter": 2574,
      "attributter": 2575,
      "material": 2576,
      "chart": 2577,
      "kategorier": 2578,
      "øyeblikket": 2579,
      "Feil": 2580,
      "dom": 2581,
      "gere": 2582,
      "my": 2583,
      "sa": 2584,
      "erstat": 2585,
      "ansett": 2586,
      "datapunkt": 2587,
      "settes": 2588,
      "betalingen": 2589,
      "lokal": 2590,
      "avtaler": 2591,
      "tillatelse": 2592,
      "space": 2593,
      "sposter": 2594,
      "skontroll": 2595,
      "sats": 2596,
      "19": 2597,
      "Hvil": 2598,
      "ctions": 2599,
      "fisering": 2600,
      "ets": 2601,
      "reser": 2602,
      "respon": 2603,
      "lim": 2604,
      "opply": 2605,
      "pålog": 2606,
      "vitt": 2607,
      "besky": 2608,
      "styrer": 2609,
      "oppdatert": 2610,
      "blitt": 2611,
      "portaler": 2612,
      "budget": 2613,
      "oppføringen": 2614,
      "Fy": 2615,
      "IS": 2616,
      "Kre": 2617,
      "Siden": 2618,
      "ede": 2619,
      "effe": 2620,
      "ution": 2621,
      "ypen": 2622,
      "invi": 2623,
      "formål": 2624,
      "tilbu": 2625,
      "utgående": 2626,
      "serer": 2627,
      "resh": 2628,
      "samling": 2629,
      "definerte": 2630,
      "prinsipp": 2631,
      "Brukere": 2632,
      "spørringen": 2633,
      "enkle": 2634,
      "Konfigura": 2635,
      "svarende": 2636,
      "fordelings": 2637,
      "begge": 2638,
      "tifikat": 2639,
      "Arbeids": 2640,
      "Importere": 2641,
      "obligatorisk": 2642,
      "30": 2643,
      "apos": 2644,
      "kje": 2645,
      "you": 2646,
      "avn": 2647,
      "text": 2648,
      "liggende": 2649,
      "information": 2650,
      "open": 2651,
      "Detal": 2652,
      "fault": 2653,
      "workspace": 2654,
      "book": 2655,
      "jobben": 2656,
      "misly": 2657,
      "Spørsmål": 2658,
      "company": 2659,
      "indows": 2660,
      "Ban": 2661,
      "Noen": 2662,
      "Publ": 2663,
      "ili": 2664,
      "version": 2665,
      "gitim": 2666,
      "mentar": 2667,
      "arbeide": 2668,
      "faktor": 2669,
      "eksempler": 2670,
      "inneholde": 2671,
      "ofte": 2672,
      "ansaksjon": 2673,
      "look": 2674,
      "sporing": 2675,
      "juridisk": 2676,
      "strukturen": 2677,
      "tildelings": 2678,
      "hende": 2679,
      "os": 2680,
      "elsene": 2681,
      "ates": 2682,
      "iser": 2683,
      "tegn": 2684,
      "lags": 2685,
      "olog": 2686,
      "formelen": 2687,
      "application": 2688,
      "Tillat": 2689,
      "tilordner": 2690,
      "detaljene": 2691,
      "bakgrunn": 2692,
      "plass": 2693,
      "fullsten": 2694,
      "avtalen": 2695,
      "lastes": 2696,
      "relatert": 2697,
      "prognose": 2698,
      "fanen": 2699,
      "eksterne": 2700,
      "Bare": 2701,
      "Sel": 2702,
      "hist": 2703,
      "im": 2704,
      "ub": 2705,
      "ansen": 2706,
      "tilknyttet": 2707,
      "kket": 2708,
      "ille": 2709,
      "oppretting": 2710,
      "overvå": 2711,
      "levering": 2712,
      "setup": 2713,
      "styre": 2714,
      "bestemmer": 2715,
      "inkludere": 2716,
      "problemet": 2717,
      "ønsket": 2718,
      "lukke": 2719,
      "transfer": 2720,
      "innebygde": 2721,
      "returnerer": 2722,
      "select": 2723,
      "Byg": 2724,
      "kvalitet": 2725,
      "tilknyttede": 2726,
      "Mo": 2727,
      "Vur": 2728,
      "center": 2729,
      "itt": 2730,
      "ksi": 2731,
      "kall": 2732,
      "kvitt": 2733,
      "enti": 2734,
      "anter": 2735,
      "forme": 2736,
      "forbedre": 2737,
      "stor": 2738,
      "likt": 2739,
      "avgang": 2740,
      "separ": 2741,
      "search": 2742,
      "inndata": 2743,
      "database": 2744,
      "splan": 2745,
      "angitte": 2746,
      "arbeidsflyter": 2747,
      "registrerer": 2748,
      "kriter": 2749,
      "starte": 2750,
      "rekkefølgen": 2751,
      "management": 2752,
      "refresh": 2753,
      "Administrere": 2754,
      "konserninterne": 2755,
      "syklus": 2756,
      "AD": 2757,
      "sann": 2758,
      "entral": 2759,
      "proper": 2760,
      "datamodell": 2761,
      "keds": 2762,
      "prø": 2763,
      "planning": 2764,
      "stypen": 2765,
      "ultat": 2766,
      "tjenester": 2767,
      "ønske": 2768,
      "dialogboksen": 2769,
      "---": 2770,
      "genereres": 2771,
      "paginerte": 2772,
      "Verdi": 2773,
      "nyttig": 2774,
      "contact": 2775,
      "Er": 2776,
      "Ta": 2777,
      "hent": 2778,
      "ming": 2779,
      "mene": 2780,
      "forstå": 2781,
      "legitim": 2782,
      "skategori": 2783,
      "neark": 2784,
      "sertifikat": 2785,
      "vist": 2786,
      "modi": 2787,
      "handler": 2788,
      "endret": 2789,
      "umre": 2790,
      "lokasjoner": 2791,
      "transaksjonen": 2792,
      "beregninger": 2793,
      "oppgavene": 2794,
      "sikkerhet": 2795,
      "medlemmer": 2796,
      "Godkjen": 2797,
      "cur": 2798,
      "lere": 2799,
      "umer": 2800,
      "datat": 2801,
      "visuelle": 2802,
      "oppt": 2803,
      "dataset": 2804,
      "lign": 2805,
      "verdiavgift": 2806,
      "action": 2807,
      "salgsordre": 2808,
      "utvikler": 2809,
      "behandles": 2810,
      "ffek": 2811,
      "Planlegg": 2812,
      "navigasjons": 2813,
      "referanse": 2814,
      "skjul": 2815,
      "matrise": 2816,
      "Dimensjons": 2817,
      "Sty": 2818,
      "øke": 2819,
      "stan": 2820,
      "består": 2821,
      "project": 2822,
      "spo": 2823,
      "postere": 2824,
      "arbeidsbok": 2825,
      "mottar": 2826,
      "nivået": 2827,
      "Varenummer": 2828,
      "innebygd": 2829,
      "bred": 2830,
      "tilfeller": 2831,
      "statisti": 2832,
      "administrasjon": 2833,
      "sekven": 2834,
      "Kostnads": 2835,
      "offent": 2836,
      "Begren": 2837,
      "nøyakti": 2838,
      "Att": 2839,
      "sis": 2840,
      "tivi": 2841,
      "aramet": 2842,
      "site": 2843,
      "ablå": 2844,
      "Format": 2845,
      "lassi": 2846,
      "produksjonsordren": 2847,
      "prosjekter": 2848,
      "resultater": 2849,
      "hyller": 2850,
      "justering": 2851,
      "ytelse": 2852,
      "kreditnota": 2853,
      "ansvarlig": 2854,
      "stolpe": 2855,
      "Full": 2856,
      "slags": 2857,
      "anskaff": 2858,
      "point": 2859,
      "perioder": 2860,
      "muligheter": 2861,
      "tiple": 2862,
      "fliser": 2863,
      "remitt": 2864,
      "sendt": 2865,
      "200": 2866,
      "Mak": 2867,
      "Trykk": 2868,
      "hente": 2869,
      "imodu": 2870,
      "mes": 2871,
      "vat": 2872,
      "default": 2873,
      "skilt": 2874,
      "uthe": 2875,
      "appene": 2876,
      "enhetene": 2877,
      "samsvarer": 2878,
      "styper": 2879,
      "fem": 2880,
      "sjekk": 2881,
      "mottatt": 2882,
      "ustra": 2883,
      "fordeler": 2884,
      "merker": 2885,
      "nummeret": 2886,
      "Kontant": 2887,
      "variant": 2888,
      "flows": 2889,
      "igh": 2890,
      "kolonnene": 2891,
      "vurdere": 2892,
      "integr": 2893,
      "calcul": 2894,
      "opplevelsen": 2895,
      "databasen": 2896,
      "Common": 2897,
      "driven": 2898,
      "Vurder": 2899,
      "ving": 2900,
      "alla": 2901,
      "tilsvarende": 2902,
      "datav": 2903,
      "sig": 2904,
      "vices": 2905,
      "profiler": 2906,
      "tional": 2907,
      "metoder": 2908,
      "kostpris": 2909,
      "scri": 2910,
      "journalen": 2911,
      "region": 2912,
      "register": 2913,
      "kontantrabatt": 2914,
      "Beregn": 2915,
      "veiledningen": 2916,
      "avanserte": 2917,
      "utgifter": 2918,
      "Person": 2919,
      "ønskede": 2920,
      "Få": 2921,
      "Lok": 2922,
      "helt": 2923,
      "pet": 2924,
      "rø": 2925,
      "forslaget": 2926,
      "skj": 2927,
      "ute": 2928,
      "bruks": 2929,
      "dataflyt": 2930,
      "året": 2931,
      "function": 2932,
      "End": 2933,
      "Konto": 2934,
      "spørrings": 2935,
      "Stø": 2936,
      "lokasjonen": 2937,
      "prosjektet": 2938,
      "Inter": 2939,
      "hyll": 2940,
      "filtrering": 2941,
      "hierarkiet": 2942,
      "sources": 2943,
      "lerretsapper": 2944,
      "raskt": 2945,
      "gjentak": 2946,
      "IA": 2947,
      "Kopier": 2948,
      "Nett": 2949,
      "Skj": 2950,
      "Te": 2951,
      "bom": 2952,
      "bun": 2953,
      "bas": 2954,
      "mye": 2955,
      "oven": 2956,
      "sum": 2957,
      "æring": 2958,
      "sta": 2959,
      "deres": 2960,
      "team": 2961,
      "delete": 2962,
      "vek": 2963,
      "apply": 2964,
      "kjøres": 2965,
      "følges": 2966,
      "datoer": 2967,
      "selger": 2968,
      "contract": 2969,
      "funksjonaliteten": 2970,
      "skladden": 2971,
      "multiple": 2972,
      "Kjøp": 2973,
      "reserv": 2974,
      "prøve": 2975,
      "HT": 2976,
      "SE": 2977,
      "stil": 2978,
      "uler": 2979,
      "ence": 2980,
      "overskri": 2981,
      "minst": 2982,
      "credit": 2983,
      "optimal": 2984,
      "ativ": 2985,
      "produksjonsflyt": 2986,
      "organisasjons": 2987,
      "scenarier": 2988,
      "stående": 2989,
      "Planlegge": 2990,
      "Nei": 2991,
      "solution": 2992,
      "forbindelse": 2993,
      "100": 2994,
      "cation": 2995,
      "fall": 2996,
      "kator": 2997,
      "tas": 2998,
      "tifis": 2999,
      "state": 3000,
      "iserings": 3001,
      "gering": 3002,
      "ekst": 3003,
      "ages": 3004,
      "kommentar": 3005,
      "salgssted": 3006,
      "regneark": 3007,
      "fylle": 3008,
      "Dato": 3009,
      "logi": 3010,
      "administratorer": 3011,
      "documents": 3012,
      "gebyr": 3013,
      "slettes": 3014,
      "beskytt": 3015,
      "ologi": 3016,
      "Søk": 3017,
      "fte": 3018,
      "ugh": 3019,
      "anti": 3020,
      "query": 3021,
      "skat": 3022,
      "utter": 3023,
      "utfører": 3024,
      "innen": 3025,
      "ordnet": 3026,
      "formler": 3027,
      "paci": 3028,
      "main": 3029,
      "bokføres": 3030,
      "Enhet": 3031,
      "serviceordrer": 3032,
      "reporting": 3033,
      "beregningen": 3034,
      "innstillingen": 3035,
      "fritt": 3036,
      "lastet": 3037,
      "brev": 3038,
      "slicer": 3039,
      "individuelle": 3040,
      "fokus": 3041,
      "begynner": 3042,
      "Gi": 3043,
      "Log": 3044,
      "PA": 3045,
      "PI": 3046,
      "Slett": 3047,
      "play": 3048,
      "show": 3049,
      "visjon": 3050,
      "inngående": 3051,
      "vem": 3052,
      "find": 3053,
      "ategi": 3054,
      "overføre": 3055,
      "overordnede": 3056,
      "oppdaterte": 3057,
      "Tilbak": 3058,
      "tillatt": 3059,
      "Ingen": 3060,
      "perio": 3061,
      "generelle": 3062,
      "personer": 3063,
      "groups": 3064,
      "Organ": 3065,
      "fleksi": 3066,
      "components": 3067,
      "capaci": 3068,
      "Gjent": 3069,
      "følgesed": 3070,
      "Automati": 3071,
      "Lukk": 3072,
      "To": 3073,
      "Tot": 3074,
      "gyldig": 3075,
      "kopier": 3076,
      "land": 3077,
      "summer": 3078,
      "tal": 3079,
      "ures": 3080,
      "forhold": 3081,
      "reserver": 3082,
      "tilhør": 3083,
      "leder": 3084,
      "vere": 3085,
      "rough": 3086,
      "datar": 3087,
      "seres": 3088,
      "innte": 3089,
      "viktige": 3090,
      "planlegge": 3091,
      "lagres": 3092,
      "installa": 3093,
      "motor": 3094,
      "serveren": 3095,
      "foreslå": 3096,
      "mobilappen": 3097,
      "publisere": 3098,
      "justere": 3099,
      "hendelse": 3100,
      "værende": 3101,
      "require": 3102,
      "totale": 3103,
      "posit": 3104,
      "codes": 3105,
      "fortsette": 3106,
      "galleriet": 3107,
      "Fort": 3108,
      "Ford": 3109,
      "Vel": 3110,
      "VIA": 3111,
      "ach": 3112,
      "azure": 3113,
      "clo": 3114,
      "cast": 3115,
      "kas": 3116,
      "kilder": 3117,
      "udi": 3118,
      "yth": 3119,
      "tilstand": 3120,
      "litet": 3121,
      "innkommende": 3122,
      "ligner": 3123,
      "Anleggsmid": 3124,
      "elec": 3125,
      "genskaper": 3126,
      "Brukeren": 3127,
      "feat": 3128,
      "ummeret": 3129,
      "underliggende": 3130,
      "Prosjekt": 3131,
      "fordeling": 3132,
      "count": 3133,
      "notat": 3134,
      "verktøytips": 3135,
      "løpet": 3136,
      "Salg": 3137,
      "rekkefølge": 3138,
      "katalog": 3139,
      "rapportserveren": 3140,
      "recei": 3141,
      "forecast": 3142,
      "24": 3143,
      "ON": 3144,
      "POS": 3145,
      "Un": 3146,
      "card": 3147,
      "ies": 3148,
      "pick": 3149,
      "svare": 3150,
      "satte": 3151,
      "uell": 3152,
      "kanal": 3153,
      "situ": 3154,
      "delser": 3155,
      "gjøres": 3156,
      "alloc": 3157,
      "mail": 3158,
      "samtidig": 3159,
      "instruk": 3160,
      "baserte": 3161,
      "nose": 3162,
      "stillinger": 3163,
      "registrert": 3164,
      "fact": 3165,
      "behovet": 3166,
      "muligheten": 3167,
      "løsnings": 3168,
      "løsninger": 3169,
      "nivåer": 3170,
      "sentre": 3171,
      "verktøyet": 3172,
      "egenskapen": 3173,
      "flisen": 3174,
      "tilkoblinger": 3175,
      "designer": 3176,
      "total": 3177,
      "markeds": 3178,
      "omfatter": 3179,
      "kryss": 3180,
      "Beregne": 3181,
      "ovenfor": 3182,
      "ython": 3183,
      "clu": 3184,
      "effek": 3185,
      "ition": 3186,
      "enklere": 3187,
      "tik": 3188,
      "onic": 3189,
      "forsik": 3190,
      "reposit": 3191,
      "otek": 3192,
      "dede": 3193,
      "versjoner": 3194,
      "skom": 3195,
      "serier": 3196,
      "fravær": 3197,
      "key": 3198,
      "tronic": 3199,
      "relations": 3200,
      "ush": 3201,
      "bliotek": 3202,
      "fysisk": 3203,
      "beløpene": 3204,
      "fremgangsmåter": 3205,
      "Avskriv": 3206,
      "kjøring": 3207,
      "frigi": 3208,
      "plasserings": 3209,
      "lerretet": 3210,
      "Services": 3211,
      "she": 3212,
      "forespørselen": 3213,
      "Oppdatere": 3214,
      "hendelser": 3215,
      "anbefal": 3216,
      "klient": 3217,
      "paginated": 3218,
      "calcula": 3219,
      "innkjøpsrekvisisjon": 3220,
      "forskudds": 3221,
      "electronic": 3222,
      "21": 3223,
      "Type": 3224,
      "Windows": 3225,
      "hjør": 3226,
      "ml": 3227,
      "remove": 3228,
      "avrun": 3229,
      "visninger": 3230,
      "riktige": 3231,
      "datagateway": 3232,
      "merverdiavgift": 3233,
      "settet": 3234,
      "ellen": 3235,
      "slings": 3236,
      "formater": 3237,
      "løse": 3238,
      "beregnings": 3239,
      "utligne": 3240,
      "plasseringen": 3241,
      "stykklisten": 3242,
      "klikke": 3243,
      "Generer": 3244,
      "senteret": 3245,
      "lisen": 3246,
      "Hvilke": 3247,
      "Gjenta": 3248,
      "Vær": 3249,
      "bart": 3250,
      "batch": 3251,
      "microsoft": 3252,
      "rot": 3253,
      "topp": 3254,
      "forut": 3255,
      "ali": 3256,
      "avail": 3257,
      "kkes": 3258,
      "ktor": 3259,
      "utdata": 3260,
      "utløp": 3261,
      "deli": 3262,
      "mpan": 3263,
      "Andre": 3264,
      "map": 3265,
      "objektet": 3266,
      "installere": 3267,
      "Bruker": 3268,
      "produksjonsordrer": 3269,
      "automatic": 3270,
      "lokasjons": 3271,
      "cial": 3272,
      "adresser": 3273,
      "begrense": 3274,
      "kostnadselement": 3275,
      "policyer": 3276,
      "kladden": 3277,
      "agree": 3278,
      "mission": 3279,
      "overskriften": 3280,
      "opplysninger": 3281,
      "properties": 3282,
      "stadi": 3283,
      "Velge": 3284,
      "Pay": 3285,
      "Paramet": 3286,
      "cer": 3287,
      "kor": 3288,
      "pter": 3289,
      "ze": 3290,
      "ors": 3291,
      "neder": 3292,
      "ced": 3293,
      "plo": 3294,
      "defineres": 3295,
      "display": 3296,
      "sletter": 3297,
      "bibliotek": 3298,
      "exist": 3299,
      "arki": 3300,
      "organization": 3301,
      "Diagram": 3302,
      "inkluderes": 3303,
      "spore": 3304,
      "definisjoner": 3305,
      "publish": 3306,
      "Flytte": 3307,
      "nettleseren": 3308,
      "sningene": 3309,
      "enkelte": 3310,
      "rettigheter": 3311,
      "Fyll": 3312,
      "tildelingsgrunnlag": 3313,
      "ustrasjonen": 3314,
      "udio": 3315,
      "Under": 3316,
      "25": 3317,
      "Frem": 3318,
      "cop": 3319,
      "læring": 3320,
      "mere": 3321,
      "ple": 3322,
      "sing": 3323,
      "reisere": 3324,
      "tilby": 3325,
      "oppstår": 3326,
      "øren": 3327,
      "derfor": 3328,
      "best": 3329,
      "riter": 3330,
      "fice": 3331,
      "abeller": 3332,
      "strategi": 3333,
      "kjente": 3334,
      "gjenspe": 3335,
      "metri": 3336,
      "lagring": 3337,
      "ramme": 3338,
      "chang": 3339,
      "produktkonfigurasjons": 3340,
      "standar": 3341,
      "Form": 3342,
      "oppdaterer": 3343,
      "salgsordrer": 3344,
      "aktiverer": 3345,
      "Utligne": 3346,
      "forskj": 3347,
      "beregner": 3348,
      "Kontroll": 3349,
      "større": 3350,
      "håndtere": 3351,
      "policyen": 3352,
      "avtalegi": 3353,
      "tidsplan": 3354,
      "Poster": 3355,
      "numre": 3356,
      "rutenettet": 3357,
      "records": 3358,
      "forfall": 3359,
      "Slette": 3360,
      "tilbuds": 3361,
      "fullstendig": 3362,
      "entities": 3363,
      "Organis": 3364,
      "existing": 3365,
      "copy": 3366,
      "99": 3367,
      "Ele": 3368,
      "Regn": 3369,
      "adata": 3370,
      "dd": 3371,
      "dro": 3372,
      "ima": 3373,
      "ker": 3374,
      "rent": 3375,
      "elds": 3376,
      "rodu": 3377,
      "uring": 3378,
      "kreditt": 3379,
      "bit": 3380,
      "målet": 3381,
      "skript": 3382,
      "activi": 3383,
      "interne": 3384,
      "utvik": 3385,
      "merkings": 3386,
      "behandlings": 3387,
      "kostnadsobjekt": 3388,
      "bedt": 3389,
      "value": 3390,
      "values": 3391,
      "beholdningen": 3392,
      "øker": 3393,
      "forventet": 3394,
      "påvirker": 3395,
      "nøyaktig": 3396,
      "Attrib": 3397,
      "Regnskap": 3398,
      "23": 3399,
      "Bek": 3400,
      "CR": 3401,
      "Plas": 3402,
      "Sende": 3403,
      "Van": 3404,
      "cash": 3405,
      "idet": 3406,
      "siske": 3407,
      "etil": 3408,
      "repar": 3409,
      "ques": 3410,
      "alders": 3411,
      "profilen": 3412,
      "delte": 3413,
      "fields": 3414,
      "veg": 3415,
      "vars": 3416,
      "abili": 3417,
      "pakke": 3418,
      "egne": 3419,
      "arbeidere": 3420,
      "kundene": 3421,
      "object": 3422,
      "dimensjonen": 3423,
      "hensyn": 3424,
      "formatering": 3425,
      "analysere": 3426,
      "identifi": 3427,
      "fjern": 3428,
      "2016": 3429,
      "Finan": 3430,
      "planleggingssystemet": 3431,
      "partner": 3432,
      "Leverandører": 3433,
      "identifis": 3434,
      "klikker": 3435,
      "forsendelses": 3436,
      "Område": 3437,
      "Model": 3438,
      "offentlig": 3439,
      "SEPA": 3440,
      "Ac": 3441,
      "ES": 3442,
      "Flere": 3443,
      "Tid": 3444,
      "act": 3445,
      "dje": 3446,
      "email": 3447,
      "hu": 3448,
      "ift": 3449,
      "kår": 3450,
      "ndig": 3451,
      "null": 3452,
      "sdatoen": 3453,
      "sample": 3454,
      "tilpass": 3455,
      "tilkoblings": 3456,
      "ration": 3457,
      "sektor": 3458,
      "ordning": 3459,
      "tool": 3460,
      "field": 3461,
      "overføres": 3462,
      "arbeidet": 3463,
      "elles": 3464,
      "prøver": 3465,
      "lagrings": 3466,
      "creating": 3467,
      "kobler": 3468,
      "velges": 3469,
      "task": 3470,
      "Proses": 3471,
      "Last": 3472,
      "Kontakt": 3473,
      "fjerner": 3474,
      "Japan": 3475,
      "salgspris": 3476,
      "problem": 3477,
      "tilkoblingen": 3478,
      "preview": 3479,
      "request": 3480,
      "transaksjonene": 3481,
      "identifisere": 3482,
      "nettleser": 3483,
      "spørreskjema": 3484,
      "aggreg": 3485,
      "globale": 3486,
      "samleb": 3487,
      "HTML": 3488,
      "Fordel": 3489,
      "CS": 3490,
      "Iden": 3491,
      "agn": 3492,
      "pek": 3493,
      "pres": 3494,
      "ytter": 3495,
      "Økonom": 3496,
      "atur": 3497,
      "etting": 3498,
      "livs": 3499,
      "avori": 3500,
      "oppnå": 3501,
      "rift": 3502,
      "perform": 3503,
      "meng": 3504,
      "advan": 3505,
      "advarsel": 3506,
      "planer": 3507,
      "lagrer": 3508,
      "sområder": 3509,
      "nettadressen": 3510,
      "tredje": 3511,
      "godkjent": 3512,
      "registreres": 3513,
      "lese": 3514,
      "Intra": 3515,
      "juster": 3516,
      "generate": 3517,
      "godkjenner": 3518,
      "kapasitets": 3519,
      "aktiviteten": 3520,
      "journaler": 3521,
      "fritekst": 3522,
      "frigitt": 3523,
      "finansdimensjoner": 3524,
      "arbeideren": 3525,
      "farger": 3526,
      "plukking": 3527,
      "redusere": 3528,
      "tilfell": 3529,
      "bekreftelse": 3530,
      "pilen": 3531,
      "Fjerne": 3532,
      "bidra": 3533,
      "dynamisk": 3534,
      "invit": 3535,
      "Intrastat": 3536,
      "Beløp": 3537,
      "Hånd": 3538,
      "Journal": 3539,
      "Mva": 3540,
      "emp": 3541,
      "evalu": 3542,
      "gar": 3543,
      "hip": 3544,
      "numer": 3545,
      "rar": 3546,
      "stjene": 3547,
      "depre": 3548,
      "vertere": 3549,
      "datamaskin": 3550,
      "minne": 3551,
      "komme": 3552,
      "handlingene": 3553,
      "tabellene": 3554,
      "Navnet": 3555,
      "hvilket": 3556,
      "personal": 3557,
      "passe": 3558,
      "load": 3559,
      "innholds": 3560,
      "sending": 3561,
      "bekrefte": 3562,
      "komponentene": 3563,
      "økonomiske": 3564,
      "referer": 3565,
      "brukte": 3566,
      "down": 3567,
      "aggre": 3568,
      "kompensasjon": 3569,
      "Hvorfor": 3570,
      "relationship": 3571,
      "advanced": 3572,
      "27": 3573,
      "Avan": 3574,
      "QL": 3575,
      "king": 3576,
      "lenger": 3577,
      "møn": 3578,
      "qa": 3579,
      "review": 3580,
      "rull": 3581,
      "skan": 3582,
      "avmerkings": 3583,
      "ditional": 3584,
      "merkna": 3585,
      "files": 3586,
      "option": 3587,
      "filtrer": 3588,
      "Tilpass": 3589,
      "nettstedet": 3590,
      "exten": 3591,
      "registrerings": 3592,
      "ditnota": 3593,
      "box": 3594,
      "budsjetter": 3595,
      "varianter": 3596,
      "pane": 3597,
      "dimensjonene": 3598,
      "Betaling": 3599,
      "invoic": 3600,
      "Valut": 3601,
      "configurations": 3602,
      "kontrollerer": 3603,
      "posisjon": 3604,
      "økonomimodu": 3605,
      "unngå": 3606,
      "location": 3607,
      "forretningsprosessflyter": 3608,
      "Generelt": 3609,
      "relevan": 3610,
      "Resultat": 3611,
      "effekt": 3612,
      "standen": 3613,
      "datavis": 3614,
      "repositori": 3615,
      "Gjør": 3616,
      "IF": 3617,
      "Ju": 3618,
      "Klar": 3619,
      "OK": 3620,
      "PBI": 3621,
      "Sør": 3622,
      "SQL": 3623,
      "away": 3624,
      "cu": 3625,
      "cted": 3626,
      "kar": 3627,
      "tene": 3628,
      "iserte": 3629,
      "rule": 3630,
      "ross": 3631,
      "datamodellen": 3632,
      "spek": 3633,
      "jem": 3634,
      "postering": 3635,
      "Demon": 3636,
      "selen": 3637,
      "ative": 3638,
      "sidene": 3639,
      "kostnaden": 3640,
      "demand": 3641,
      "organisasjoner": 3642,
      "financial": 3643,
      "administratoren": 3644,
      "slutten": 3645,
      "track": 3646,
      "parameterne": 3647,
      "Importer": 3648,
      "oppfyller": 3649,
      "variabler": 3650,
      "assem": 3651,
      "Produksjons": 3652,
      "Eksportere": 3653,
      "Operations": 3654,
      "spolicy": 3655,
      "basis": 3656,
      "capacity": 3657,
      "Automatisk": 3658,
      "Demonstrasjons": 3659,
      "40": 3660,
      "Bus": 3661,
      "Fast": 3662,
      "Tekst": 3663,
      "kil": 3664,
      "oer": 3665,
      "pene": 3666,
      "envi": 3667,
      "tial": 3668,
      "deaktivert": 3669,
      "vert": 3670,
      "opplær": 3671,
      "veis": 3672,
      "rapportside": 3673,
      "resource": 3674,
      "about": 3675,
      "ksjonen": 3676,
      "strinn": 3677,
      "malt": 3678,
      "gjenbestillings": 3679,
      "komst": 3680,
      "metho": 3681,
      "metadata": 3682,
      "velse": 3683,
      "hode": 3684,
      "usage": 3685,
      "selskaper": 3686,
      "transaksjons": 3687,
      "ciation": 3688,
      "Overvå": 3689,
      "manually": 3690,
      "oppdateringen": 3691,
      "customize": 3692,
      "valutak": 3693,
      "prim": 3694,
      "betingelsene": 3695,
      "maskinvare": 3696,
      "lukking": 3697,
      "bryter": 3698,
      "layout": 3699,
      "fylles": 3700,
      "numbers": 3701,
      "partinumre": 3702,
      "modify": 3703,
      "Team": 3704,
      "environ": 3705,
      "Kategori": 3706,
      "Of": 3707,
      "Python": 3708,
      "Rel": 3709,
      "kol": 3710,
      "leng": 3711,
      "plikt": 3712,
      "scre": 3713,
      "ini": 3714,
      "orti": 3715,
      "oten": 3716,
      "deaktivere": 3717,
      "arte": 3718,
      "skil": 3719,
      "oppslag": 3720,
      "permission": 3721,
      "pack": 3722,
      "postert": 3723,
      "buil": 3724,
      "planlegger": 3725,
      "mang": 3726,
      "fylt": 3727,
      "importerer": 3728,
      "oppført": 3729,
      "bygger": 3730,
      "hierarkier": 3731,
      "Finance": 3732,
      "timeli": 3733,
      "transactions": 3734,
      "årsaker": 3735,
      "spesifikk": 3736,
      "modelldrevet": 3737,
      "faktisk": 3738,
      "butikken": 3739,
      "avansert": 3740,
      "Fjern": 3741,
      "sprogram": 3742,
      "specify": 3743,
      "etiketten": 3744,
      "approval": 3745,
      "prioritet": 3746,
      "schedule": 3747,
      "20022": 3748,
      "tilfellet": 3749,
      "relevante": 3750,
      "Em": 3751,
      "Fil": 3752,
      "Git": 3753,
      "Hand": 3754,
      "Linje": 3755,
      "Pris": 3756,
      "Word": 3757,
      "iene": 3758,
      "device": 3759,
      "tilleggs": 3760,
      "avdel": 3761,
      "unik": 3762,
      "tover": 3763,
      "delig": 3764,
      "through": 3765,
      "idere": 3766,
      "vilkår": 3767,
      "kjø": 3768,
      "lagerstyring": 3769,
      "Fores": 3770,
      "alternative": 3771,
      "utton": 3772,
      "feilmelding": 3773,
      "identit": 3774,
      "overføringen": 3775,
      "stykklister": 3776,
      "mobilappene": 3777,
      "sine": 3778,
      "products": 3779,
      "Valg": 3780,
      "økonomisk": 3781,
      "templates": 3782,
      "veiledning": 3783,
      "Spor": 3784,
      "mapping": 3785,
      "innholdspakken": 3786,
      "scrip": 3787,
      "depreciation": 3788,
      "Sørg": 3789,
      "Bud": 3790,
      "Grupp": 3791,
      "KPI": 3792,
      "Web": 3793,
      "ader": 3794,
      "if": 3795,
      "lling": 3796,
      "iness": 3797,
      "inclu": 3798,
      "skort": 3799,
      "somhet": 3800,
      "sic": 3801,
      "delvis": 3802,
      "fungere": 3803,
      "options": 3804,
      "kontoplanen": 3805,
      "reglene": 3806,
      "Inform": 3807,
      "skrives": 3808,
      "logge": 3809,
      "komponenten": 3810,
      "prisen": 3811,
      "supp": 3812,
      "begrenset": 3813,
      "transform": 3814,
      "Planlagt": 3815,
      "bankkontoen": 3816,
      "kladdel": 3817,
      "Sammen": 3818,
      "ytelsen": 3819,
      "skostna": 3820,
      "artikler": 3821,
      "lignende": 3822,
      "skjult": 3823,
      "reisereg": 3824,
      "Business": 3825,
      "Bu": 3826,
      "DF": 3827,
      "Dele": 3828,
      "EU": 3829,
      "Kunder": 3830,
      "Kopi": 3831,
      "PDF": 3832,
      "RT": 3833,
      "gis": 3834,
      "gli": 3835,
      "ko": 3836,
      "more": 3837,
      "nere": 3838,
      "pra": 3839,
      "sli": 3840,
      "uro": 3841,
      "ont": 3842,
      "recon": 3843,
      "quick": 3844,
      "meas": 3845,
      "lean": 3846,
      "utskrift": 3847,
      "rity": 3848,
      "veid": 3849,
      "overview": 3850,
      "stransaksjon": 3851,
      "lageroppsett": 3852,
      "tillinger": 3853,
      "Forstå": 3854,
      "nettver": 3855,
      "aktiveres": 3856,
      "bestemme": 3857,
      "ressursen": 3858,
      "sammendrag": 3859,
      "utenfor": 3860,
      "serien": 3861,
      "redigering": 3862,
      "mottaks": 3863,
      "Rapporter": 3864,
      "kundens": 3865,
      "klienten": 3866,
      "oppgaveveiledningen": 3867,
      "lisens": 3868,
      "ghts": 3869,
      "Generere": 3870,
      "kompensasjons": 3871,
      "Sikker": 3872,
      "global": 3873,
      "snar": 3874,
      "Gjennomgang": 3875,
      "kalk": 3876,
      "installert": 3877,
      "separat": 3878,
      "Maksi": 3879,
      "gjenspeil": 3880,
      "changes": 3881,
      "Demonstrasjonsdatafirmaet": 3882,
      "screen": 3883,
      "Nummer": 3884,
      "Prog": 3885,
      "Side": 3886,
      "automate": 3887,
      "button": 3888,
      "dt": 3889,
      "fre": 3890,
      "ukke": 3891,
      "err": 3892,
      "ender": 3893,
      "reft": 3894,
      "opptil": 3895,
      "videre": 3896,
      "urti": 3897,
      "steder": 3898,
      "lingen": 3899,
      "senhet": 3900,
      "amoun": 3901,
      "retning": 3902,
      "hodet": 3903,
      "remis": 3904,
      "motta": 3905,
      "nettopp": 3906,
      "nettadresse": 3907,
      "kostnadene": 3908,
      "used": 3909,
      "logg": 3910,
      "uller": 3911,
      "utformings": 3912,
      "fakturering": 3913,
      "distribusjon": 3914,
      "vært": 3915,
      "ekstern": 3916,
      "embedded": 3917,
      "redigeringsprogrammet": 3918,
      "tidspunktet": 3919,
      "calculation": 3920,
      "avtalegiro": 3921,
      "Bekreft": 3922,
      "invoices": 3923,
      "Teams": 3924,
      "Budsj": 3925,
      "Fakti": 3926,
      "Hent": 3927,
      "SAP": 3928,
      "ager": 3929,
      "dings": 3930,
      "favori": 3931,
      "why": 3932,
      "År": 3933,
      "ers": 3934,
      "etype": 3935,
      "rekt": 3936,
      "iseres": 3937,
      "lear": 3938,
      "rules": 3939,
      "utse": 3940,
      "urser": 3941,
      "veks": 3942,
      "spil": 3943,
      "abok": 3944,
      "elly": 3945,
      "servicevare": 3946,
      "relasjonen": 3947,
      "hverandre": 3948,
      "salgsfaktura": 3949,
      "fylling": 3950,
      "kast": 3951,
      "Datak": 3952,
      "fjernes": 3953,
      "forskjellig": 3954,
      "tilpasser": 3955,
      "costs": 3956,
      "gatewayen": 3957,
      "faktural": 3958,
      "scenariet": 3959,
      "rapporteringstre": 3960,
      "genererer": 3961,
      "regnskapsår": 3962,
      "Vedlike": 3963,
      "services": 3964,
      "Administrer": 3965,
      "etiketter": 3966,
      "konsernintern": 3967,
      "System": 3968,
      "håndtering": 3969,
      "forventede": 3970,
      "receip": 3971,
      "cycle": 3972,
      "different": 3973,
      "klassifisering": 3974,
      "curren": 3975,
      "Stykk": 3976,
      "Kontantrabatt": 3977,
      "Støtte": 3978,
      "sheet": 3979,
      "hjørne": 3980,
      "agreement": 3981,
      "ytterligere": 3982,
      "Håndtere": 3983,
      "økonomimodulen": 3984,
      "reconci": 3985,
      "28": 3986,
      "AV": 3987,
      "Hub": 3988,
      "inu": 3989,
      "tilt": 3990,
      "restri": 3991,
      "mest": 3992,
      "ruct": 3993,
      "avnet": 3994,
      "sist": 3995,
      "unit": 3996,
      "rette": 3997,
      "mode": 3998,
      "adjust": 3999,
      "additional": 4000,
      "brukergrensesnittet": 4001,
      "gjengi": 4002,
      "leveres": 4003,
      "tablå": 4004,
      "sjekker": 4005,
      "gjengis": 4006,
      "underordnede": 4007,
      "gjennomgangen": 4008,
      "Report": 4009,
      "direkti": 4010,
      "utvide": 4011,
      "sammenlig": 4012,
      "filters": 4013,
      "tilgjengelighet": 4014,
      "hierarch": 4015,
      "behandler": 4016,
      "utlignings": 4017,
      "ized": 4018,
      "dimensjonsverdier": 4019,
      "ship": 4020,
      "innebygging": 4021,
      "valutaen": 4022,
      "parameters": 4023,
      "tomt": 4024,
      "dashboards": 4025,
      "gebyrer": 4026,
      "viktigste": 4027,
      "Flytt": 4028,
      "skreditnota": 4029,
      "specifi": 4030,
      "veiviser": 4031,
      "kalles": 4032,
      "statistisk": 4033,
      "Fremgangsmå": 4034,
      "environment": 4035,
      "Office": 4036,
      "Ett": 4037,
      "On": 4038,
      "PN": 4039,
      "Port": 4040,
      "Skri": 4041,
      "Ve": 4042,
      "bran": 4043,
      "have": 4044,
      "mø": 4045,
      "save": 4046,
      "tri": 4047,
      "økt": 4048,
      "forbed": 4049,
      "real": 4050,
      "napp": 4051,
      "ogra": 4052,
      "litt": 4053,
      "avsnitt": 4054,
      "avveid": 4055,
      "didat": 4056,
      "opptak": 4057,
      "beholde": 4058,
      "sielle": 4059,
      "innkrev": 4060,
      "token": 4061,
      "konti": 4062,
      "iddel": 4063,
      "settle": 4064,
      "pakken": 4065,
      "postmelding": 4066,
      "umiddel": 4067,
      "Angir": 4068,
      "syklu": 4069,
      "serviceordren": 4070,
      "styrings": 4071,
      "back": 4072,
      "basic": 4073,
      "minimums": 4074,
      "tax": 4075,
      "leser": 4076,
      "annuller": 4077,
      "analysis": 4078,
      "kapasiteter": 4079,
      "drags": 4080,
      "finansposter": 4081,
      "banken": 4082,
      "allery": 4083,
      "Innkjøp": 4084,
      "klasse": 4085,
      "listel": 4086,
      "ategorier": 4087,
      "prognosen": 4088,
      "tittelen": 4089,
      "forretningsprosessflyt": 4090,
      "forekomst": 4091,
      "Trans": 4092,
      "dimensions": 4093,
      "Instrumentb": 4094,
      "intervallet": 4095,
      "Alternativ": 4096,
      "supported": 4097,
      "Konfigurasjons": 4098,
      "mislykkes": 4099,
      "Bygge": 4100,
      "gjentakende": 4101,
      "logikk": 4102,
      "markedsføring": 4103,
      "produktkonfigurasjonsmodell": 4104,
      "Kontrollere": 4105,
      "emplo": 4106,
      "31": 4107,
      "Dokument": 4108,
      "Svar": 4109,
      "Søke": 4110,
      "aS": 4111,
      "bon": 4112,
      "kra": 4113,
      "kur": 4114,
      "poten": 4115,
      "tett": 4116,
      "åpen": 4117,
      "tige": 4118,
      "neg": 4119,
      "utdataene": 4120,
      "silitet": 4121,
      "lage": 4122,
      "aksen": 4123,
      "menter": 4124,
      "tenant": 4125,
      "minutter": 4126,
      "print": 4127,
      "setnings": 4128,
      "parall": 4129,
      "produktene": 4130,
      "stemme": 4131,
      "Forretnings": 4132,
      "salgsmulighet": 4133,
      "sområde": 4134,
      "åndet": 4135,
      "oppgrader": 4136,
      "intercompany": 4137,
      "esiden": 4138,
      "administrert": 4139,
      "montere": 4140,
      "eriode": 4141,
      "manufact": 4142,
      "høyere": 4143,
      "tilbakes": 4144,
      "Behold": 4145,
      "årsakskoder": 4146,
      "materialer": 4147,
      "Derfor": 4148,
      "check": 4149,
      "fleste": 4150,
      "opplevelse": 4151,
      "detaljhandels": 4152,
      "sprognose": 4153,
      "vedlikehold": 4154,
      "avstemming": 4155,
      "datapunkter": 4156,
      "pålogging": 4157,
      "Detalj": 4158,
      "faktorer": 4159,
      "kvalitets": 4160,
      "bunke": 4161,
      "kommentarer": 4162,
      "motoren": 4163,
      "extension": 4164,
      "curity": 4165,
      "maskinvarest": 4166,
      "kjøper": 4167,
      "kalkuler": 4168,
      "Budsjett": 4169,
      "Euro": 4170,
      "Met": 4171,
      "OM": 4172,
      "OCR": 4173,
      "Send": 4174,
      "Test": 4175,
      "ghet": 4176,
      "kel": 4177,
      "mig": 4178,
      "pi": 4179,
      "premis": 4180,
      "ransaksjoner": 4181,
      "stikk": 4182,
      "td": 4183,
      "xml": 4184,
      "into": 4185,
      "tidige": 4186,
      "dedi": 4187,
      "arg": 4188,
      "skud": 4189,
      "security": 4190,
      "bruken": 4191,
      "årlig": 4192,
      "hetene": 4193,
      "Opplæring": 4194,
      "pakker": 4195,
      "endere": 4196,
      "endringen": 4197,
      "betwe": 4198,
      "levere": 4199,
      "buffer": 4200,
      "elimin": 4201,
      "remb": 4202,
      "Forhånds": 4203,
      "Tilordning": 4204,
      "posted": 4205,
      "salgsstedet": 4206,
      "fremdrift": 4207,
      "fremdeles": 4208,
      "jobs": 4209,
      "kampan": 4210,
      "combin": 4211,
      "Distribu": 4212,
      "avtal": 4213,
      "operasjons": 4214,
      "regnskapsperi": 4215,
      "introdu": 4216,
      "dynamics": 4217,
      "entenot": 4218,
      "Kanbaner": 4219,
      "forhåndsversjon": 4220,
      "beholdnings": 4221,
      "connection": 4222,
      "koblede": 4223,
      "oppføringene": 4224,
      "administrasjons": 4225,
      "skjule": 4226,
      "Bokfør": 4227,
      "syklust": 4228,
      "columns": 4229,
      "validering": 4230,
      "foreta": 4231,
      "servicen": 4232,
      "Detaljer": 4233,
      "Publiser": 4234,
      "hentes": 4235,
      "legitimasjon": 4236,
      "Planleggings": 4237,
      "stolpediagram": 4238,
      "beskyttet": 4239,
      "Logg": 4240,
      "allocation": 4241,
      "effektiv": 4242,
      "ality": 4243,
      "Diagrammet": 4244,
      "single": 4245,
      "agno": 4246,
      "livssyklus": 4247,
      "aggreger": 4248,
      "specific": 4249,
      "premises": 4250,
      "between": 4251,
      "..": 4252,
      "50": 4253,
      "Central": 4254,
      "Etik": 4255,
      "Mon": 4256,
      "Sette": 4257,
      "Skje": 4258,
      "fo": 4259,
      "hin": 4260,
      "mess": 4261,
      "nok": 4262,
      "sv": 4263,
      "velly": 4264,
      "yndig": 4265,
      "tisk": 4266,
      "struct": 4267,
      "atten": 4268,
      "skrav": 4269,
      "avle": 4270,
      "eregistr": 4271,
      "beste": 4272,
      "ordrene": 4273,
      "stek": 4274,
      "spunkt": 4275,
      "holdet": 4276,
      "Anbef": 4277,
      "Andro": 4278,
      "master": 4279,
      "ellings": 4280,
      "retail": 4281,
      "samt": 4282,
      "definition": 4283,
      "lagerbeholdning": 4284,
      "discount": 4285,
      "styr": 4286,
      "vareposter": 4287,
      "rolles": 4288,
      "skjemautformingen": 4289,
      "tilordningen": 4290,
      "salgsmuligheter": 4291,
      "nettside": 4292,
      "exchange": 4293,
      "faste": 4294,
      "fasen": 4295,
      "temyndig": 4296,
      "godkjenne": 4297,
      "rullegardinlisten": 4298,
      "kontaktene": 4299,
      "tillatelses": 4300,
      "bedrift": 4301,
      "punktet": 4302,
      "invol": 4303,
      "color": 4304,
      "colle": 4305,
      "Betalinger": 4306,
      "skontoen": 4307,
      "Direkte": 4308,
      "publiserer": 4309,
      "Bokføre": 4310,
      "fyllings": 4311,
      "vedlikeholde": 4312,
      "utgifts": 4313,
      "bidrar": 4314,
      "leieren": 4315,
      "strekkode": 4316,
      "ISO": 4317,
      "Selv": 4318,
      "Tilbake": 4319,
      "tilhørende": 4320,
      "nederst": 4321,
      "Android": 4322,
      "Bil": 4323,
      "IP": 4324,
      "Man": 4325,
      "Ress": 4326,
      "Str": 4327,
      "cing": 4328,
      "cap": 4329,
      "gri": 4330,
      "igjen": 4331,
      "oler": 4332,
      "pbi": 4333,
      "push": 4334,
      "sør": 4335,
      "sand": 4336,
      "uavhengig": 4337,
      "elet": 4338,
      "forløp": 4339,
      "forplikt": 4340,
      "alv": 4341,
      "rut": 4342,
      "seksjonen": 4343,
      "oppstå": 4344,
      "sertifis": 4345,
      "års": 4346,
      "frakoblet": 4347,
      "strerer": 4348,
      "admin": 4349,
      "samhandle": 4350,
      "filene": 4351,
      "genskap": 4352,
      "gruppere": 4353,
      "related": 4354,
      "produktkvitt": 4355,
      "Tilpasse": 4356,
      "salgsordren": 4357,
      "nettsted": 4358,
      "Utform": 4359,
      "blant": 4360,
      "gjennomgang": 4361,
      "ponenter": 4362,
      "godt": 4363,
      "Redigere": 4364,
      "meldings": 4365,
      "generering": 4366,
      "generell": 4367,
      "emne": 4368,
      "operasjonen": 4369,
      "operations": 4370,
      "virt": 4371,
      "trykke": 4372,
      "mobilenhet": 4373,
      "budsjettplan": 4374,
      "dimensjonsmedlem": 4375,
      "hovedkonto": 4376,
      "betinget": 4377,
      "avhengige": 4378,
      "Policy": 4379,
      "genererte": 4380,
      "passord": 4381,
      "hurtigfilteret": 4382,
      "make": 4383,
      "eventuelt": 4384,
      "saldoer": 4385,
      "tomme": 4386,
      "opprinnelig": 4387,
      "balanse": 4388,
      "unntak": 4389,
      "begyn": 4390,
      "skrevet": 4391,
      "segmenter": 4392,
      "drill": 4393,
      "Bankk": 4394,
      "antibrev": 4395,
      "inntekt": 4396,
      "Fortsett": 4397,
      "available": 4398,
      "samlebånd": 4399,
      "GitHub": 4400,
      "gjenspeiler": 4401,
      "employe": 4402,
      "Europa": 4403,
      "entenota": 4404,
      "26": 4405,
      "JS": 4406,
      "Just": 4407,
      "Lag": 4408,
      "NAV": 4409,
      "Source": 4410,
      "celle": 4411,
      "vn": 4412,
      "ves": 4413,
      "iner": 4414,
      "ints": 4415,
      "timat": 4416,
      "alg": 4417,
      "omsetning": 4418,
      "dekke": 4419,
      "ingsprogrammet": 4420,
      "proces": 4421,
      "kontekst": 4422,
      "dataflyten": 4423,
      "stede": 4424,
      "vekt": 4425,
      "formula": 4426,
      "frakt": 4427,
      "Oppg": 4428,
      "faktabok": 4429,
      "komple": 4430,
      "lagerplukk": 4431,
      "gruppene": 4432,
      "servicevarer": 4433,
      "opprettede": 4434,
      "selve": 4435,
      "Tilgang": 4436,
      "bly": 4437,
      "portals": 4438,
      "knapper": 4439,
      "ressursene": 4440,
      "plassert": 4441,
      "ound": 4442,
      "sideformat": 4443,
      "sammenligne": 4444,
      "knyttes": 4445,
      "Overstyrer": 4446,
      "personen": 4447,
      "personver": 4448,
      "mobilenheten": 4449,
      "eksporterer": 4450,
      "avhenger": 4451,
      "where": 4452,
      "valgfri": 4453,
      "dagen": 4454,
      "tific": 4455,
      "generert": 4456,
      "uttrykket": 4457,
      "kladder": 4458,
      "kredittover": 4459,
      "drille": 4460,
      "utløser": 4461,
      "krypter": 4462,
      "kommandoen": 4463,
      "autor": 4464,
      "telefonsenter": 4465,
      "assets": 4466,
      "limit": 4467,
      "pålogg": 4468,
      "prinsippet": 4469,
      "Bank": 4470,
      "overvåke": 4471,
      "Bygg": 4472,
      "kriterier": 4473,
      "features": 4474,
      "fritekstfaktura": 4475,
      "opplæringen": 4476,
      "rektang": 4477,
      "manufacturing": 4478,
      "CSS": 4479,
      "Finne": 4480,
      "Gjel": 4481,
      "Ill": 4482,
      "Ka": 4483,
      "Kriter": 4484,
      "SK": 4485,
      "SPN": 4486,
      "ful": 4487,
      "små": 4488,
      "endet": 4489,
      "engs": 4490,
      "deplo": 4491,
      "debit": 4492,
      "ish": 4493,
      "tilgangs": 4494,
      "tilstanden": 4495,
      "skift": 4496,
      "sjonene": 4497,
      "nede": 4498,
      "role": 4499,
      "illu": 4500,
      "diagno": 4501,
      "befinner": 4502,
      "laster": 4503,
      "urn": 4504,
      "produsert": 4505,
      "oversett": 4506,
      "abatt": 4507,
      "etterkalkuler": 4508,
      "sområdet": 4509,
      "experi": 4510,
      "grenser": 4511,
      "kjøpe": 4512,
      "mellomrom": 4513,
      "nøkler": 4514,
      "programmer": 4515,
      "behovs": 4516,
      "nummerskilt": 4517,
      "Overføre": 4518,
      "finance": 4519,
      "personlig": 4520,
      "plasseringer": 4521,
      "redigerer": 4522,
      "output": 4523,
      "skonti": 4524,
      "attributtet": 4525,
      "Kombin": 4526,
      "ordrelinjene": 4527,
      "tittel": 4528,
      "unike": 4529,
      "attributtene": 4530,
      "forekomster": 4531,
      "Funksjonen": 4532,
      "utløses": 4533,
      "Kjøre": 4534,
      "beskrivelser": 4535,
      "videoen": 4536,
      "dynamiske": 4537,
      "sannsynlig": 4538,
      "bredden": 4539,
      "remitterings": 4540,
      "Parametere": 4541,
      "utseendet": 4542,
      "Fremgangsmåten": 4543,
      "argument": 4544,
      "Etikett": 4545,
      "Bankkonto": 4546,
      "processes": 4547,
      "deploy": 4548,
      "32": 4549,
      "DE": 4550,
      "Kolon": 4551,
      "Ob": 4552,
      "Reg": 4553,
      "Sort": 4554,
      "classi": 4555,
      "hvem": 4556,
      "lut": 4557,
      "mappen": 4558,
      "rentenota": 4559,
      "uke": 4560,
      "erende": 4561,
      "ermin": 4562,
      "indirekte": 4563,
      "eldre": 4564,
      "ankomst": 4565,
      "fortjeneste": 4566,
      "medi": 4567,
      "oppslags": 4568,
      "ingsprosessen": 4569,
      "akse": 4570,
      "this": 4571,
      "consu": 4572,
      "setninger": 4573,
      "disable": 4574,
      "produktvarianter": 4575,
      "0000": 4576,
      "ategory": 4577,
      "fyller": 4578,
      "atorer": 4579,
      "tasten": 4580,
      "Stor": 4581,
      "faser": 4582,
      "AppSource": 4583,
      "merking": 4584,
      "Avhen": 4585,
      "trykker": 4586,
      "startdatoen": 4587,
      "raddefinisjon": 4588,
      "forhåndsdefinerte": 4589,
      "valutaer": 4590,
      "metodene": 4591,
      "year": 4592,
      "saldoen": 4593,
      "statistikk": 4594,
      "scenarioer": 4595,
      "gebyret": 4596,
      "obligatoriske": 4597,
      "transportør": 4598,
      "demonstrasjonsfirmaet": 4599,
      "sikrer": 4600,
      "histori": 4601,
      "arbeidsboken": 4602,
      "følgeseddel": 4603,
      "kopieres": 4604,
      "forsikrings": 4605,
      "delige": 4606,
      "tilbyr": 4607,
      "kredittkort": 4608,
      "Regnskaps": 4609,
      "avmerkingsboksen": 4610,
      "Skrive": 4611,
      "dedik": 4612,
      "Illustrasjonen": 4613,
      "Kriterier": 4614,
      "Egendefin": 4615,
      "Fri": 4616,
      "Jobb": 4617,
      "felles": 4618,
      "ign": 4619,
      "kø": 4620,
      "kasse": 4621,
      "nor": 4622,
      "nene": 4623,
      "prep": 4624,
      "present": 4625,
      "incom": 4626,
      "ordene": 4627,
      "tics": 4628,
      "stopp": 4629,
      "statt": 4630,
      "ater": 4631,
      "nasjon": 4632,
      "lit": 4633,
      "lient": 4634,
      "skoden": 4635,
      "avdeling": 4636,
      "ktes": 4637,
      "sed": 4638,
      "utfør": 4639,
      "utforme": 4640,
      "gig": 4641,
      "lace": 4642,
      "konvertere": 4643,
      "delings": 4644,
      "steds": 4645,
      "asjonene": 4646,
      "resour": 4647,
      "overordnet": 4648,
      "holds": 4649,
      "mas": 4650,
      "posterer": 4651,
      "egrupp": 4652,
      "beslut": 4653,
      "link": 4654,
      "consoli": 4655,
      "kostsentre": 4656,
      "created": 4657,
      "formatere": 4658,
      "tilordninger": 4659,
      "visualobjektene": 4660,
      "roles": 4661,
      "ock": 4662,
      "Studio": 4663,
      "kundebetalinger": 4664,
      "compl": 4665,
      "common": 4666,
      "lang": 4667,
      "hyper": 4668,
      "alternativsett": 4669,
      "behandlet": 4670,
      "price": 4671,
      "justeringer": 4672,
      "accounting": 4673,
      "egenskaps": 4674,
      "tillegget": 4675,
      "enhetslisten": 4676,
      "montering": 4677,
      "hendelses": 4678,
      "kildedokument": 4679,
      "navigere": 4680,
      "registreringen": 4681,
      "sortere": 4682,
      "customers": 4683,
      "oppfylt": 4684,
      "skladd": 4685,
      "Bokførings": 4686,
      "ordrelinjer": 4687,
      "ordrelinjen": 4688,
      "release": 4689,
      "Visualisering": 4690,
      "Hovedkonto": 4691,
      "kravene": 4692,
      "slicere": 4693,
      "måledata": 4694,
      "opptelling": 4695,
      "tracking": 4696,
      "Kopiere": 4697,
      "Online": 4698,
      "JSON": 4699,
      "Avhengig": 4700,
      "resources": 4701,
      "HAN": 4702,
      "Men": 4703,
      "Rol": 4704,
      "amp": 4705,
      "bri": 4706,
      "bob": 4707,
      "fler": 4708,
      "henter": 4709,
      "lån": 4710,
      "nen": 4711,
      "ph": 4712,
      "ptet": 4713,
      "sorti": 4714,
      "antity": 4715,
      "stene": 4716,
      "quantity": 4717,
      "ruter": 4718,
      "rulle": 4719,
      "entry": 4720,
      "utført": 4721,
      "kandidat": 4722,
      "behør": 4723,
      "profile": 4724,
      "toler": 4725,
      "delene": 4726,
      "stebrukere": 4727,
      "sper": 4728,
      "senheter": 4729,
      "varslings": 4730,
      "pac": 4731,
      "etterfylling": 4732,
      "samsvare": 4733,
      "betalt": 4734,
      "ich": 4735,
      "bokst": 4736,
      "bokser": 4737,
      "functions": 4738,
      "install": 4739,
      "febru": 4740,
      "active": 4741,
      "salgsdokumenter": 4742,
      "tillate": 4743,
      "ferdige": 4744,
      "tekn": 4745,
      "Stat": 4746,
      "interval": 4747,
      "ventet": 4748,
      "Refer": 4749,
      "fasilitet": 4750,
      "datasettene": 4751,
      "importert": 4752,
      "importerte": 4753,
      "plassere": 4754,
      "utvidet": 4755,
      "feilen": 4756,
      "returner": 4757,
      "draget": 4758,
      "kjørselen": 4759,
      "abellen": 4760,
      "spesielt": 4761,
      "lerretapp": 4762,
      "stykklistel": 4763,
      "kjøpsfaktura": 4764,
      "miljøer": 4765,
      "konfigurasjonspa": 4766,
      "which": 4767,
      "Leverings": 4768,
      "distribuere": 4769,
      "distribusjons": 4770,
      "navigasjon": 4771,
      "Verktøy": 4772,
      "Spore": 4773,
      "lønns": 4774,
      "avslutnings": 4775,
      "vurdering": 4776,
      "Løsning": 4777,
      "Alternativer": 4778,
      "mappe": 4779,
      "Eksporter": 4780,
      "eieren": 4781,
      "kriteriene": 4782,
      "calculate": 4783,
      "hyllen": 4784,
      "periodis": 4785,
      "situasjoner": 4786,
      "løsningsutforsk": 4787,
      "frigitte": 4788,
      "lisenser": 4789,
      "Elektron": 4790,
      "refererer": 4791,
      "PBIX": 4792,
      "slipp": 4793,
      "measure": 4794,
      "receipt": 4795,
      "veiviseren": 4796,
      "begynne": 4797,
      "februar": 4798,
      "64": 4799,
      "Bla": 4800,
      "CD": 4801,
      "Egenskaper": 4802,
      "Hurtig": 4803,
      "Jeg": 4804,
      "Nor": 4805,
      "Out": 4806,
      "RS": 4807,
      "category": 4808,
      "lot": 4809,
      "premium": 4810,
      "rate": 4811,
      "venter": 4812,
      "ins": 4813,
      "tikker": 4814,
      "stablå": 4815,
      "defe": 4816,
      "tile": 4817,
      "meg": 4818,
      "kkel": 4819,
      "dates": 4820,
      "rigere": 4821,
      "dataut": 4822,
      "oken": 4823,
      "rapportoppsett": 4824,
      "varens": 4825,
      "moder": 4826,
      "etterdat": 4827,
      "valget": 4828,
      "samhandler": 4829,
      "butikker": 4830,
      "attende": 4831,
      "skjem": 4832,
      "produktstandard": 4833,
      "Definisjon": 4834,
      "sjef": 4835,
      "arbeidsbelast": 4836,
      "løser": 4837,
      "expl": 4838,
      "grense": 4839,
      "Integ": 4840,
      "klargjør": 4841,
      "utlignes": 4842,
      "begrensningene": 4843,
      "spørsmålet": 4844,
      "kontrakter": 4845,
      "bestillingsretur": 4846,
      "Valider": 4847,
      "bankkontoutdrag": 4848,
      "reduksjon": 4849,
      "api": 4850,
      "Postere": 4851,
      "paginert": 4852,
      "ytelses": 4853,
      "Hvert": 4854,
      "local": 4855,
      "Analyser": 4856,
      "Analysere": 4857,
      "nøkkelen": 4858,
      "multi": 4859,
      "flytting": 4860,
      "video": 4861,
      "Feltet": 4862,
      "obbelt": 4863,
      "lærings": 4864,
      "servicekontrakter": 4865,
      "satsvis": 4866,
      "contacts": 4867,
      "legitimasjonen": 4868,
      "navigasjonsruten": 4869,
      "sekvens": 4870,
      "Personale": 4871,
      "Internett": 4872,
      "skatalog": 4873,
      "activity": 4874,
      "utvikling": 4875,
      "Plasser": 4876,
      "Vanlige": 4877,
      "kartet": 4878,
      "build": 4879,
      "Forespør": 4880,
      "supply": 4881,
      "Faktisk": 4882,
      "currency": 4883,
      "ISO20022": 4884,
      "HANA": 4885,
      "returneres": 4886,
      "29": 4887,
      "33": 4888,
      "500": 4889,
      "Lukke": 4890,
      "TE": 4891,
      "VA": 4892,
      "cenar": 4893,
      "central": 4894,
      "ime": 4895,
      "kla": 4896,
      "slike": 4897,
      "svært": 4898,
      "elinjer": 4899,
      "another": 4900,
      "atalog": 4901,
      "demo": 4902,
      "issu": 4903,
      "tille": 4904,
      "veri": 4905,
      "sku": 4906,
      "teste": 4907,
      "riger": 4908,
      "und": 4909,
      "ordret": 4910,
      "måneden": 4911,
      "termin": 4912,
      "rapportsiden": 4913,
      "ellinjen": 4914,
      "gjenkjen": 4915,
      "Oppretting": 4916,
      "endrings": 4917,
      "kontinu": 4918,
      "leveringer": 4919,
      "setik": 4920,
      "kobles": 4921,
      "leverandørfakturaer": 4922,
      "ministrasjon": 4923,
      "Viser": 4924,
      "Tilgjengeli": 4925,
      "formaterings": 4926,
      "Utforme": 4927,
      "ferd": 4928,
      "logger": 4929,
      "logget": 4930,
      "utviklere": 4931,
      "emner": 4932,
      "nummerserier": 4933,
      "counting": 4934,
      "aktivitets": 4935,
      "journals": 4936,
      "brukerens": 4937,
      "hierarkin": 4938,
      "Aktivitet": 4939,
      "izations": 4940,
      "søking": 4941,
      "bedded": 4942,
      "datakildene": 4943,
      "Server": 4944,
      "Datasett": 4945,
      "serial": 4946,
      "dialogboks": 4947,
      "lasting": 4948,
      "Sales": 4949,
      "help": 4950,
      "anbefalte": 4951,
      "publisert": 4952,
      "tilfelle": 4953,
      "materiale": 4954,
      "selvbet": 4955,
      "gjennomsnittlig": 4956,
      "språket": 4957,
      "ordrelinje": 4958,
      "ekstrah": 4959,
      "Analysis": 4960,
      "solgt": 4961,
      "fortsetter": 4962,
      "omfattende": 4963,
      "variabel": 4964,
      "Lønn": 4965,
      "Slutt": 4966,
      "maksimal": 4967,
      "Motta": 4968,
      "partinummer": 4969,
      "utforske": 4970,
      "domene": 4971,
      "ansettelse": 4972,
      "bakgrunns": 4973,
      "skattemyndig": 4974,
      "datarapport": 4975,
      "Anleggsmidler": 4976,
      "reparasjons": 4977,
      "question": 4978,
      "Active": 4979,
      "kolleg": 4980,
      "permissions": 4981,
      "Embedded": 4982,
      "Valgfritt": 4983,
      "hierarchy": 4984,
      "Portal": 4985,
      "umiddelbart": 4986,
      "kredittoverføring": 4987,
      "prepare": 4988,
      "Outlook": 4989,
      "Conto": 4990,
      "Les": 4991,
      "bunn": 4992,
      "cellen": 4993,
      "go": 4994,
      "has": 4995,
      "hjem": 4996,
      "its": 4997,
      "lav": 4998,
      "mber": 4999,
      "pol": 5000,
      "priv": 5001,
      "rente": 5002,
      "word": 5003,
      "endelige": 5004,
      "force": 5005,
      "stort": 5006,
      "revalu": 5007,
      "rasjon": 5008,
      "utrull": 5009,
      "måling": 5010,
      "ternal": 5011,
      "fradrag": 5012,
      "trent": 5013,
      "abeløp": 5014,
      "endar": 5015,
      "vali": 5016,
      "bokmerke": 5017,
      "klene": 5018,
      "sym": 5019,
      "bytte": 5020,
      "feed": 5021,
      "tables": 5022,
      "aces": 5023,
      "expen": 5024,
      "underlever": 5025,
      "mulige": 5026,
      "licen": 5027,
      "kontrollene": 5028,
      "behovsprognose": 5029,
      "forretningsforbindelse": 5030,
      "1099": 5031,
      "sammensatte": 5032,
      "personlige": 5033,
      "søker": 5034,
      "USD": 5035,
      "anleggsmiddelt": 5036,
      "valutabeløp": 5037,
      "startes": 5038,
      "cancel": 5039,
      "tilpasset": 5040,
      "Rapporten": 5041,
      "øverste": 5042,
      "tjenestekonto": 5043,
      "partial": 5044,
      "oppfylle": 5045,
      "ansattes": 5046,
      "aktivt": 5047,
      "matrisen": 5048,
      "Syste": 5049,
      "sharepoint": 5050,
      "Beregning": 5051,
      "begynnelsen": 5052,
      "synkronisering": 5053,
      "deknings": 5054,
      "maksimums": 5055,
      "Gjennomsnitt": 5056,
      "Konfigurasjon": 5057,
      "centers": 5058,
      "current": 5059,
      "anskaffelses": 5060,
      "Skjul": 5061,
      "periods": 5062,
      "Totalt": 5063,
      "requirements": 5064,
      "lokasjonsdirekti": 5065,
      "metrics": 5066,
      "huske": 5067,
      "performance": 5068,
      "Valuta": 5069,
      "artefakt": 5070,
      "Informasjon": 5071,
      "Builder": 5072,
      "error": 5073,
      "vellykket": 5074,
      "rollesenter": 5075,
      "komplek": 5076,
      "Gjeldende": 5077,
      "Contoso": 5078,
      "Aut": 5079,
      "Fir": 5080,
      "Op": 5081,
      "TP": 5082,
      "Tal": 5083,
      "ags": 5084,
      "bøl": 5085,
      "globalt": 5086,
      "getting": 5087,
      "gallery": 5088,
      "ia": 5089,
      "io": 5090,
      "knyt": 5091,
      "minn": 5092,
      "now": 5093,
      "ui": 5094,
      "wo": 5095,
      "ennå": 5096,
      "inde": 5097,
      "indek": 5098,
      "orer": 5099,
      "tifisere": 5100,
      "forsin": 5101,
      "omtrent": 5102,
      "devel": 5103,
      "iserer": 5104,
      "utvalg": 5105,
      "kanaler": 5106,
      "påvirke": 5107,
      "innvirk": 5108,
      "fikk": 5109,
      "opprettelse": 5110,
      "allow": 5111,
      "produserte": 5112,
      "figura": 5113,
      "strenger": 5114,
      "samhandlinger": 5115,
      "flyttes": 5116,
      "constra": 5117,
      "datoene": 5118,
      "eksemplene": 5119,
      "produktvariant": 5120,
      "rollene": 5121,
      "gangspunkt": 5122,
      "poeng": 5123,
      "grensen": 5124,
      "Stør": 5125,
      "fase": 5126,
      "stration": 5127,
      "worksheet": 5128,
      "results": 5129,
      "ordreret": 5130,
      "signat": 5131,
      "detaljert": 5132,
      "fordelinger": 5133,
      "digeringsprogrammet": 5134,
      "beros": 5135,
      "betalingsmåten": 5136,
      "address": 5137,
      "synlige": 5138,
      "rabatten": 5139,
      "Eksempler": 5140,
      "tillater": 5141,
      "spesielle": 5142,
      "konfigureres": 5143,
      "organisasjonens": 5144,
      "View": 5145,
      "fargen": 5146,
      "radnivå": 5147,
      "startet": 5148,
      "klassiske": 5149,
      "returnerte": 5150,
      "navigation": 5151,
      "bankkontoer": 5152,
      "indikator": 5153,
      "kombinasjoner": 5154,
      "sorterings": 5155,
      "avskrivningstablå": 5156,
      "Registrer": 5157,
      "editor": 5158,
      "nyttige": 5159,
      "Ord": 5160,
      "Ordre": 5161,
      "abonnementet": 5162,
      "kommando": 5163,
      "finanskontoer": 5164,
      "Retail": 5165,
      "erstatte": 5166,
      "histor": 5167,
      "messig": 5168,
      "bruksdatarapport": 5169,
      "Skjer": 5170,
      "visjons": 5171,
      "Anleggsmiddel": 5172,
      "image": 5173,
      "ability": 5174,
      "Juster": 5175,
      "scription": 5176,
      "Instrumentbord": 5177,
      "syklustelling": 5178,
      "Kapasitet": 5179,
      "Talent": 5180,
      "60": 5181,
      "EN": 5182,
      "Gje": 5183,
      "Høy": 5184,
      "Mat": 5185,
      "Not": 5186,
      "NOK": 5187,
      "Pri": 5188,
      "Unn": 5189,
      "after": 5190,
      "bøker": 5191,
      "gene": 5192,
      "han": 5193,
      "had": 5194,
      "high": 5195,
      "kle": 5196,
      "lende": 5197,
      "ences": 5198,
      "onti": 5199,
      "verdis": 5200,
      "skob": 5201,
      "skategorier": 5202,
      "utel": 5203,
      "tester": 5204,
      "sering": 5205,
      "rive": 5206,
      "konet": 5207,
      "spaces": 5208,
      "samarbeid": 5209,
      "levert": 5210,
      "leverer": 5211,
      "kostobjekter": 5212,
      "many": 5213,
      "varekort": 5214,
      "orit": 5215,
      "fee": 5216,
      "kontoene": 5217,
      "regning": 5218,
      "Utfør": 5219,
      "blan": 5220,
      "juli": 5221,
      "match": 5222,
      "forretningsforbin": 5223,
      "analyze": 5224,
      "parameteren": 5225,
      "manuelle": 5226,
      "passer": 5227,
      "overfører": 5228,
      "spesial": 5229,
      "USRT": 5230,
      "Vir": 5231,
      "varenummer": 5232,
      "mottaket": 5233,
      "bankkonti": 5234,
      "fakturert": 5235,
      "firmaets": 5236,
      "skrivebeskyttet": 5237,
      "calendar": 5238,
      "uttrykks": 5239,
      "ikoner": 5240,
      "reduserer": 5241,
      "prognoser": 5242,
      "kladd": 5243,
      "kombinasjon": 5244,
      "midlertidig": 5245,
      "elighet": 5246,
      "Directory": 5247,
      "Shell": 5248,
      "Produkter": 5249,
      "yldige": 5250,
      "vendors": 5251,
      "typene": 5252,
      "forekomsten": 5253,
      "bryte": 5254,
      "spørreskjemaet": 5255,
      "abonnementer": 5256,
      "demonstrasjonsdatafirmaet": 5257,
      "fokuser": 5258,
      "virkemåten": 5259,
      "klassifis": 5260,
      "temaer": 5261,
      "books": 5262,
      "bakgrunnen": 5263,
      "anskaffelse": 5264,
      "foreslåtte": 5265,
      "automatically": 5266,
      "forfallsdato": 5267,
      "Attributt": 5268,
      "ESC": 5269,
      "Tids": 5270,
      "justeres": 5271,
      "kompensasjonsplan": 5272,
      "Avansert": 5273,
      "mønster": 5274,
      "assembly": 5275,
      "Sporing": 5276,
      "somhetsetik": 5277,
      "learning": 5278,
      "Kontantrabattbeløp": 5279,
      "bransj": 5280,
      "Monter": 5281,
      "Skjema": 5282,
      "eregistrering": 5283,
      "Anbefalte": 5284,
      "påloggings": 5285,
      "experience": 5286,
      "incoming": 5287,
      "intervaller": 5288,
      "løsningsutforskeren": 5289,
      "utrullings": 5290,
      "AS": 5291,
      "All": 5292,
      "TI": 5293,
      "au": 5294,
      "client": 5295,
      "fol": 5296,
      "fab": 5297,
      "hopp": 5298,
      "iOS": 5299,
      "json": 5300,
      "letter": 5301,
      "non": 5302,
      "pop": 5303,
      "stillings": 5304,
      "tan": 5305,
      "tro": 5306,
      "Én": 5307,
      "ellig": 5308,
      "forts": 5309,
      "alert": 5310,
      "desi": 5311,
      "tilnær": 5312,
      "verket": 5313,
      "live": 5314,
      "rik": 5315,
      "inndel": 5316,
      "akser": 5317,
      "konse": 5318,
      "delrutenett": 5319,
      "førte": 5320,
      "forms": 5321,
      "PowerShell": 5322,
      "overfl": 5323,
      "plot": 5324,
      "eget": 5325,
      "samlet": 5326,
      "bokmerker": 5327,
      "aging": 5328,
      "visualization": 5329,
      "visualiserings": 5330,
      "asso": 5331,
      "serviceavtale": 5332,
      "parent": 5333,
      "Konsolider": 5334,
      "varesporings": 5335,
      "arbeidsområdene": 5336,
      "godkjente": 5337,
      "lokalt": 5338,
      "within": 5339,
      "working": 5340,
      "workspaces": 5341,
      "monit": 5342,
      "Avstemme": 5343,
      "aktivitetene": 5344,
      "manuell": 5345,
      "finansi": 5346,
      "finanskonti": 5347,
      "fjernet": 5348,
      "does": 5349,
      "dimensjonssett": 5350,
      "finansdimensjon": 5351,
      "Behandling": 5352,
      "Varetype": 5353,
      "delegering": 5354,
      "referere": 5355,
      "kombinere": 5356,
      "positiv": 5357,
      "balanser": 5358,
      "charts": 5359,
      "bokføringsgrupper": 5360,
      "insights": 5361,
      "Transaksjoner": 5362,
      "bryt": 5363,
      "innkjøpskategori": 5364,
      "Funksjoner": 5365,
      "konsolidering": 5366,
      "slettet": 5367,
      "Installer": 5368,
      "avslutning": 5369,
      "auth": 5370,
      "Mål": 5371,
      "implementere": 5372,
      "domen": 5373,
      "samp": 5374,
      "reservasjoner": 5375,
      "regnearket": 5376,
      "innenfor": 5377,
      "talent": 5378,
      "close": 5379,
      "receive": 5380,
      "skomponent": 5381,
      "Avskrivning": 5382,
      "Avskrivnings": 5383,
      "anbefalinger": 5384,
      "identifiserer": 5385,
      "Prosessen": 5386,
      "numeriske": 5387,
      "relationships": 5388,
      "merknader": 5389,
      "Klargjøre": 5390,
      "primære": 5391,
      "vilkårene": 5392,
      "identitet": 5393,
      "snarvei": 5394,
      "kraft": 5395,
      "servicenivå": 5396,
      "hindre": 5397,
      "structure": 5398,
      "virtuelle": 5399,
      "skjemare": 5400,
      "tjenestekontoha": 5401,
      "hadde": 5402,
      "fortsatt": 5403,
      "monitor": 5404,
      "Con": 5405,
      "FE": 5406,
      "Hu": 5407,
      "Hente": 5408,
      "Mar": 5409,
      "Meld": 5410,
      "OData": 5411,
      "ame": 5412,
      "brett": 5413,
      "cor": 5414,
      "cri": 5415,
      "celler": 5416,
      "cell": 5417,
      "gam": 5418,
      "hend": 5419,
      "lære": 5420,
      "telling": 5421,
      "two": 5422,
      "vår": 5423,
      "vant": 5424,
      "vann": 5425,
      "stoken": 5426,
      "reas": 5427,
      "tiller": 5428,
      "veren": 5429,
      "sjobb": 5430,
      "skolon": 5431,
      "eneste": 5432,
      "utgjør": 5433,
      "beh": 5434,
      "geogra": 5435,
      "inndeling": 5436,
      "obeløp": 5437,
      "stegn": 5438,
      "mption": 5439,
      "overstyre": 5440,
      "strø": 5441,
      "postadresse": 5442,
      "hoc": 5443,
      "Konverter": 5444,
      "varekortet": 5445,
      "orial": 5446,
      "fest": 5447,
      "feste": 5448,
      "kontoskjemaer": 5449,
      "henti": 5450,
      "activ": 5451,
      "expres": 5452,
      "instrumentbordene": 5453,
      "Utforsk": 5454,
      "understand": 5455,
      "poni": 5456,
      "intern": 5457,
      "importeres": 5458,
      "Laste": 5459,
      "fullføres": 5460,
      "analyser": 5461,
      "analytics": 5462,
      "bilags": 5463,
      "klargjøre": 5464,
      "firmaer": 5465,
      "plasseres": 5466,
      "betalingene": 5467,
      "utformet": 5468,
      "begrep": 5469,
      "hovedkontoen": 5470,
      "betingelse": 5471,
      "Lagerstyring": 5472,
      "skontoer": 5473,
      "kopierer": 5474,
      "rekven": 5475,
      "kontantstrøm": 5476,
      "RLS": 5477,
      "abonnements": 5478,
      "drifts": 5479,
      "raskere": 5480,
      "dril": 5481,
      "Filtre": 5482,
      "konverteres": 5483,
      "kalenderen": 5484,
      "Mottak": 5485,
      "ansettelses": 5486,
      "tilbudet": 5487,
      "Arbeidsflyt": 5488,
      "remittance": 5489,
      "Maks": 5490,
      "Endring": 5491,
      "fokusmodus": 5492,
      "inntekter": 5493,
      "feature": 5494,
      "instruksjoner": 5495,
      "instruksjonene": 5496,
      "anbefales": 5497,
      "Organisasjons": 5498,
      "aldersfordelings": 5499,
      "objects": 5500,
      "initial": 5501,
      "glidende": 5502,
      "urtigt": 5503,
      "syklusen": 5504,
      "negativ": 5505,
      "SKU": 5506,
      "fokuserer": 5507,
      "Husk": 5508,
      "expression": 5509,
      "Bo": 5510,
      "DL": 5511,
      "Eller": 5512,
      "Fa": 5513,
      "GU": 5514,
      "Ge": 5515,
      "Hen": 5516,
      "Mal": 5517,
      "Tablå": 5518,
      "ain": 5519,
      "akk": 5520,
      "bort": 5521,
      "call": 5522,
      "gr": 5523,
      "grad": 5524,
      "gyldige": 5525,
      "imp": 5526,
      "kings": 5527,
      "lk": 5528,
      "ls": 5529,
      "mi": 5530,
      "mand": 5531,
      "misjon": 5532,
      "vre": 5533,
      "erne": 5534,
      "inci": 5535,
      "ances": 5536,
      "only": 5537,
      "stoler": 5538,
      "rever": 5539,
      "ath": 5540,
      "tilstrekk": 5541,
      "tilbehør": 5542,
      "arri": 5543,
      "dupl": 5544,
      "verte": 5545,
      "versjons": 5546,
      "rutt": 5547,
      "avganger": 5548,
      "denfor": 5549,
      "oppgjør": 5550,
      "oppsummer": 5551,
      "utkast": 5552,
      "utgangspunkt": 5553,
      "kanalen": 5554,
      "provi": 5555,
      "uren": 5556,
      "urring": 5557,
      "obber": 5558,
      "gje": 5559,
      "kkede": 5560,
      "ked": 5561,
      "gsy": 5562,
      "pages": 5563,
      "etterfyllings": 5564,
      "betalte": 5565,
      "fakturere": 5566,
      "disponi": 5567,
      "kosttyper": 5568,
      "gruppering": 5569,
      "betale": 5570,
      "kreve": 5571,
      "antalls": 5572,
      "ansaksjonen": 5573,
      "arbeidssenter": 5574,
      "poengs": 5575,
      "nettportalen": 5576,
      "external": 5577,
      "eresultat": 5578,
      "muler": 5579,
      "tain": 5580,
      "Stati": 5581,
      "eside": 5582,
      "fail": 5583,
      "without": 5584,
      "Int": 5585,
      "viewing": 5586,
      "planleggingen": 5587,
      "detaljerte": 5588,
      "Navig": 5589,
      "tilgjengeligheten": 5590,
      "betalingsmåte": 5591,
      "adding": 5592,
      "utligner": 5593,
      "Eksemplene": 5594,
      "tillatte": 5595,
      "konfigurer": 5596,
      "USA": 5597,
      "tilbakemelding": 5598,
      "prices": 5599,
      "skonfigura": 5600,
      "virksom": 5601,
      "forhåndsvisning": 5602,
      "Varer": 5603,
      "oversikten": 5604,
      "hendelsen": 5605,
      "returnere": 5606,
      "header": 5607,
      "leveringsdato": 5608,
      "regnskapsåret": 5609,
      "registreringer": 5610,
      "referanser": 5611,
      "sikkerhetsroller": 5612,
      "Startdato": 5613,
      "unikt": 5614,
      "Nedenfor": 5615,
      "håndterer": 5616,
      "håndterings": 5617,
      "Kostnad": 5618,
      "sjournalen": 5619,
      "kvali": 5620,
      "markøren": 5621,
      "Filtrer": 5622,
      "Liste": 5623,
      "validerings": 5624,
      "bilaget": 5625,
      "nærmere": 5626,
      "forskudd": 5627,
      "responsi": 5628,
      "separate": 5629,
      "integrering": 5630,
      "overskrider": 5631,
      "produksjonsflytversjon": 5632,
      "statement": 5633,
      "logikken": 5634,
      "avrundings": 5635,
      "topptekst": 5636,
      "organizational": 5637,
      "standarden": 5638,
      "tasks": 5639,
      "requests": 5640,
      "pekeren": 5641,
      "datamaskinen": 5642,
      "repositorium": 5643,
      "method": 5644,
      "manglende": 5645,
      "include": 5646,
      "Program": 5647,
      "Detaljhandel": 5648,
      "livssyklustilstand": 5649,
      "grid": 5650,
      "obbeltklikk": 5651,
      "Firma": 5652,
      "cript": 5653,
      "poengsum": 5654,
      "Al": 5655,
      "Far": 5656,
      "Gyldig": 5657,
      "Og": 5658,
      "Tre": 5659,
      "ask": 5660,
      "aaS": 5661,
      "bla": 5662,
      "categori": 5663,
      "cross": 5664,
      "dan": 5665,
      "ion": 5666,
      "node": 5667,
      "oom": 5668,
      "pal": 5669,
      "pul": 5670,
      "rere": 5671,
      "twe": 5672,
      "vot": 5673,
      "ypene": 5674,
      "online": 5675,
      "foreg": 5676,
      "stak": 5677,
      "stant": 5678,
      "read": 5679,
      "resten": 5680,
      "ats": 5681,
      "aten": 5682,
      "debryter": 5683,
      "esho": 5684,
      "estimat": 5685,
      "runn": 5686,
      "avi": 5687,
      "sekun": 5688,
      "before": 5689,
      "gifter": 5690,
      "siell": 5691,
      "ordin": 5692,
      "eksten": 5693,
      "opprettholde": 5694,
      "adap": 5695,
      "postmeldinger": 5696,
      "etterfølgende": 5697,
      "validere": 5698,
      "kompet": 5699,
      "disposisjon": 5700,
      "attach": 5701,
      "slår": 5702,
      "eksempeldata": 5703,
      "formats": 5704,
      "nettet": 5705,
      "statuser": 5706,
      "godta": 5707,
      "registrerte": 5708,
      "face": 5709,
      "bakover": 5710,
      "støtt": 5711,
      "navnene": 5712,
      "langu": 5713,
      "operator": 5714,
      "knytter": 5715,
      "kategoriene": 5716,
      "ublesho": 5717,
      "moduler": 5718,
      "filtrert": 5719,
      "dimensjonshierarki": 5720,
      "verktøyene": 5721,
      "Beho": 5722,
      "tilpasses": 5723,
      "punkter": 5724,
      "valgfritt": 5725,
      "Administrasjon": 5726,
      "forsyningen": 5727,
      "lukker": 5728,
      "vanligste": 5729,
      "attributes": 5730,
      "kopiert": 5731,
      "processing": 5732,
      "maskinen": 5733,
      "indik": 5734,
      "kontantstrø": 5735,
      "forbruket": 5736,
      "profiles": 5737,
      "brudd": 5738,
      "lenge": 5739,
      "integration": 5740,
      "oppfyll": 5741,
      "avgifts": 5742,
      "monteringsordre": 5743,
      "Hovedplanlegging": 5744,
      "container": 5745,
      "dekning": 5746,
      "Salgsordre": 5747,
      "avstemme": 5748,
      "workflows": 5749,
      "artiklene": 5750,
      "opplysningene": 5751,
      "Kreditt": 5752,
      "spoeng": 5753,
      "hyllene": 5754,
      "vekslings": 5755,
      "Total": 5756,
      "tilhører": 5757,
      "installasjon": 5758,
      "installasjonen": 5759,
      "biblioteket": 5760,
      "forfallsdatoen": 5761,
      "activities": 5762,
      "Modell": 5763,
      "CSV": 5764,
      "filtreres": 5765,
      "filtrerings": 5766,
      "repositoriet": 5767,
      "IFO": 5768,
      "methods": 5769,
      "valutakurser": 5770,
      "skostnader": 5771,
      "amount": 5772,
      "innkreving": 5773,
      "maskinvarestasjon": 5774,
      "sideformaterte": 5775,
      "limitations": 5776,
      "consolid": 5777,
      "Norge": 5778,
      "læringsforløp": 5779,
      "Skjerm": 5780,
      "troublesho": 5781,
      "reason": 5782,
      "hentication": 5783,
      "troubleshoot": 5784,
      "BL": 5785,
      "Galleri": 5786,
      "Grunn": 5787,
      "Kode": 5788,
      "Knytte": 5789,
      "LCS": 5790,
      "Plukke": 5791,
      "Vil": 5792,
      "jan": 5793,
      "kvar": 5794,
      "selg": 5795,
      "uar": 5796,
      "øvre": 5797,
      "eting": 5798,
      "ante": 5799,
      "forblir": 5800,
      "tildeling": 5801,
      "levet": 5802,
      "sjust": 5803,
      "see": 5804,
      "dated": 5805,
      "visuell": 5806,
      "opport": 5807,
      "utlån": 5808,
      "gitte": 5809,
      "lavere": 5810,
      "tok": 5811,
      "målinger": 5812,
      "posterte": 5813,
      "enhetskost": 5814,
      "samlinger": 5815,
      "discoun": 5816,
      "skalender": 5817,
      "models": 5818,
      "laget": 5819,
      "Enkel": 5820,
      "betaler": 5821,
      "inneværende": 5822,
      "biter": 5823,
      "noder": 5824,
      "skriptet": 5825,
      "across": 5826,
      "elements": 5827,
      "nettbrett": 5828,
      "undersøke": 5829,
      "produksjonsmiljø": 5830,
      "interess": 5831,
      "stillingen": 5832,
      "letegn": 5833,
      "sportalen": 5834,
      "resulterer": 5835,
      "loggen": 5836,
      "prise": 5837,
      "cies": 5838,
      "fordele": 5839,
      "Avvi": 5840,
      "kontakte": 5841,
      "begrensning": 5842,
      "bankfasilitet": 5843,
      "prosessene": 5844,
      "budsjettplanlegging": 5845,
      "utformer": 5846,
      "kostnadsregnskap": 5847,
      "finansrapporter": 5848,
      "purre": 5849,
      "kontrast": 5850,
      "Bestillinger": 5851,
      "started": 5852,
      "planleggingslinjer": 5853,
      "distribusjoner": 5854,
      "hurtigfanen": 5855,
      "skjermbildet": 5856,
      "sortert": 5857,
      "positive": 5858,
      "anleggsmiddelet": 5859,
      "scenarioet": 5860,
      "illustrasjonen": 5861,
      "segmentet": 5862,
      "håndteres": 5863,
      "samsvarende": 5864,
      "konsoliderte": 5865,
      "beskrivende": 5866,
      "SSO": 5867,
      "shared": 5868,
      "Alternativet": 5869,
      "Listen": 5870,
      "belastning": 5871,
      "Gjøre": 5872,
      "installerer": 5873,
      "prinsipper": 5874,
      "Publisere": 5875,
      "fullstendige": 5876,
      "forbedrede": 5877,
      "storage": 5878,
      "Godkjenning": 5879,
      "bredde": 5880,
      "Begrensninger": 5881,
      "Formater": 5882,
      "Beregnet": 5883,
      "Lokasjon": 5884,
      "heltall": 5885,
      "Tilbakes": 5886,
      "forsikring": 5887,
      "avrunding": 5888,
      "utløpsdato": 5889,
      "Formel": 5890,
      "questions": 5891,
      "garantibrev": 5892,
      "kilden": 5893,
      "Stykkliste": 5894,
      "trig": 5895,
      "tetthet": 5896,
      "remburs": 5897,
      "administrasjonssenteret": 5898,
      "consumption": 5899,
      "nasjonale": 5900,
      "masse": 5901,
      "released": 5902,
      "bokstaver": 5903,
      "Status": 5904,
      "datautvekslings": 5905,
      "klare": 5906,
      "issues": 5907,
      "validate": 5908,
      "rollesenteret": 5909,
      "utrullingssamlebånd": 5910,
      "associ": 5911,
      "kvalifis": 5912,
      "sekund": 5913,
      "januar": 5914,
      "opportuni": 5915,
      "BAN": 5916,
      "Dobbeltklikk": 5917,
      "Egenskap": 5918,
      "Gro": 5919,
      "Hier": 5920,
      "IBAN": 5921,
      "LE": 5922,
      "Min": 5923,
      "Mul": 5924,
      "Mange": 5925,
      "One": 5926,
      "Periode": 5927,
      "Sek": 5928,
      "Ty": 5929,
      "ax": 5930,
      "cho": 5931,
      "fiske": 5932,
      "frekven": 5933,
      "hus": 5934,
      "halv": 5935,
      "ms": 5936,
      "ue": 5937,
      "usjon": 5938,
      "uken": 5939,
      "windows": 5940,
      "ående": 5941,
      "enc": 5942,
      "engen": 5943,
      "red": 5944,
      "atferd": 5945,
      "aldri": 5946,
      "eser": 5947,
      "radene": 5948,
      "racer": 5949,
      "avgangs": 5950,
      "avgjør": 5951,
      "dens": 5952,
      "oppdrag": 5953,
      "label": 5954,
      "determin": 5955,
      "aks": 5956,
      "dataView": 5957,
      "olum": 5958,
      "måtte": 5959,
      "rapportere": 5960,
      "rapporterer": 5961,
      "mprog": 5962,
      "ligh": 5963,
      "følsomhetsetik": 5964,
      "leveringen": 5965,
      "boken": 5966,
      "minste": 5967,
      "conversion": 5968,
      "prot": 5969,
      "princi": 5970,
      "attform": 5971,
      "fill": 5972,
      "mandat": 5973,
      "Fordi": 5974,
      "bili": 5975,
      "bilitet": 5976,
      "minimum": 5977,
      "nia": 5978,
      "målene": 5979,
      "Till": 5980,
      "netto": 5981,
      "enteres": 5982,
      "Utlig": 5983,
      "Utføre": 5984,
      "eringsprosessen": 5985,
      "nyeste": 5986,
      "interes": 5987,
      "Redu": 5988,
      "kage": 5989,
      "Inne": 5990,
      "svaret": 5991,
      "period": 5992,
      "skjermer": 5993,
      "rullegardinliste": 5994,
      "kjørt": 5995,
      "kjøpsfakturaen": 5996,
      "filtrene": 5997,
      "eksporterte": 5998,
      "eksporteres": 5999,
      "merkede": 6000,
      "publisering": 6001,
      "tipset": 6002,
      "gatewayer": 6003,
      "partnere": 6004,
      "forhåndsvisnings": 6005,
      "Vari": 6006,
      "solidere": 6007,
      "vinduer": 6008,
      "avhengigheter": 6009,
      "Validere": 6010,
      "hurtigbuffer": 6011,
      "kildedokumentet": 6012,
      "Antallet": 6013,
      "prognoses": 6014,
      "fastslå": 6015,
      "prosenten": 6016,
      "brutt": 6017,
      "integrasjon": 6018,
      "balla": 6019,
      "bokføringsdatoen": 6020,
      "selection": 6021,
      "Syn": 6022,
      "individual": 6023,
      "sjournaler": 6024,
      "beskrivelsen": 6025,
      "Reser": 6026,
      "operasjonene": 6027,
      "mislyktes": 6028,
      "datatypen": 6029,
      "rød": 6030,
      "tifiser": 6031,
      "deliver": 6032,
      "identifikator": 6033,
      "tilpassing": 6034,
      "Prosess": 6035,
      "Avanserte": 6036,
      "Handlinger": 6037,
      "Sikkerhet": 6038,
      "Sikkerhets": 6039,
      "veksling": 6040,
      "Datakilder": 6041,
      "reconcili": 6042,
      "regnskapsperioder": 6043,
      "message": 6044,
      "avledede": 6045,
      "pbix": 6046,
      "sandkasse": 6047,
      "algorit": 6048,
      "illustrerer": 6049,
      "etterkalkulerings": 6050,
      "ignor": 6051,
      "complete": 6052,
      "britan": 6053,
      "package": 6054,
      "moderne": 6055,
      "bølge": 6056,
      "skjemaredigeringsprogrammet": 6057,
      "foregående": 6058,
      "racersy": 6059,
      "britannia": 6060,
      "80": 6061,
      "AI": 6062,
      "CT": 6063,
      "Hjel": 6064,
      "Kort": 6065,
      "Mu": 6066,
      "MVA": 6067,
      "Pal": 6068,
      "Pil": 6069,
      "RI": 6070,
      "Slå": 6071,
      "Utt": 6072,
      "Vindu": 6073,
      "båndet": 6074,
      "cti": 6075,
      "catalog": 6076,
      "gg": 6077,
      "iP": 6078,
      "ie": 6079,
      "phy": 6080,
      "rering": 6081,
      "ues": 6082,
      "etid": 6083,
      "tiske": 6084,
      "forhandler": 6085,
      "stjer": 6086,
      "deklar": 6087,
      "isition": 6088,
      "verts": 6089,
      "sju": 6090,
      "sequ": 6091,
      "utste": 6092,
      "kant": 6093,
      "dermed": 6094,
      "påkrev": 6095,
      "beveg": 6096,
      "vite": 6097,
      "url": 6098,
      "deleg": 6099,
      "finish": 6100,
      "legal": 6101,
      "mera": 6102,
      "sensi": 6103,
      "permisjon": 6104,
      "varsl": 6105,
      "area": 6106,
      "menu": 6107,
      "abatter": 6108,
      "strengen": 6109,
      "pakk": 6110,
      "hard": 6111,
      "gjenstående": 6112,
      "ical": 6113,
      "linj": 6114,
      "consider": 6115,
      "klart": 6116,
      "betales": 6117,
      "optim": 6118,
      "banen": 6119,
      "leverandørfakturaen": 6120,
      "origin": 6121,
      "tidlig": 6122,
      "noser": 6123,
      "modelltilordning": 6124,
      "rapporteres": 6125,
      "ordreinnstillinger": 6126,
      "ansaksjons": 6127,
      "formatert": 6128,
      "formatkonfigurasjonen": 6129,
      "ext": 6130,
      "tjenestene": 6131,
      "statur": 6132,
      "godtar": 6133,
      "våre": 6134,
      "interact": 6135,
      "prosjektkontrakt": 6136,
      "vente": 6137,
      "sone": 6138,
      "compens": 6139,
      "gjelde": 6140,
      "vansk": 6141,
      "planlegges": 6142,
      "administrerte": 6143,
      "signatur": 6144,
      "utvikl": 6145,
      "tekststreng": 6146,
      "regnings": 6147,
      "returordre": 6148,
      "operation": 6149,
      "betalingsmåter": 6150,
      "Avrun": 6151,
      "Overfør": 6152,
      "intellig": 6153,
      "syntak": 6154,
      "varierer": 6155,
      "overført": 6156,
      "overføringer": 6157,
      "kjøpsdokumenter": 6158,
      "verktøylinjen": 6159,
      "fått": 6160,
      "saker": 6161,
      "størrelser": 6162,
      "Innkrev": 6163,
      "redigeres": 6164,
      "mdlet": 6165,
      "Adres": 6166,
      "klassen": 6167,
      "lagrede": 6168,
      "menyelementet": 6169,
      "heve": 6170,
      "Postering": 6171,
      "tjenestekontoen": 6172,
      "skjermbilde": 6173,
      "sortering": 6174,
      "totalt": 6175,
      "locations": 6176,
      "relasjonene": 6177,
      "Trinnene": 6178,
      "spørreskjemaer": 6179,
      "avstemm": 6180,
      "prioriter": 6181,
      "Return": 6182,
      "innholdspakker": 6183,
      "Hvilken": 6184,
      "effekter": 6185,
      "Verdien": 6186,
      "Godkjenne": 6187,
      "administrasjonsportalen": 6188,
      "kreditnotaer": 6189,
      "Endringer": 6190,
      "gjentakelses": 6191,
      "bundet": 6192,
      "reservasjon": 6193,
      "overskrifter": 6194,
      "notater": 6195,
      "availability": 6196,
      "stadium": 6197,
      "forskjell": 6198,
      "utvikle": 6199,
      "vegne": 6200,
      "abilities": 6201,
      "salgspriser": 6202,
      "Identifiser": 6203,
      "mengden": 6204,
      "stjeneste": 6205,
      "effekten": 6206,
      "datavisnings": 6207,
      "skiller": 6208,
      "avdelinger": 6209,
      "nettverks": 6210,
      "Støttede": 6211,
      "reconcile": 6212,
      "restriksjon": 6213,
      "Veiled": 6214,
      "beholdes": 6215,
      "bonus": 6216,
      "Ressurs": 6217,
      "capabilities": 6218,
      "sørge": 6219,
      "personvern": 6220,
      "dedikert": 6221,
      "CDM": 6222,
      "verify": 6223,
      "kontinuitet": 6224,
      "questionna": 6225,
      "komplekse": 6226,
      "Størrel": 6227,
      "Gjestebrukere": 6228,
      "Unngå": 6229,
      "corre": 6230,
      "gamle": 6231,
      "kontantstrømprog": 6232,
      "reconciliation": 6233,
      "compensation": 6234,
      "35": 6235,
      "Ba": 6236,
      "Delt": 6237,
      "Date": 6238,
      "Fest": 6239,
      "Fran": 6240,
      "Har": 6241,
      "Hjem": 6242,
      "Ker": 6243,
      "Mob": 6244,
      "Name": 6245,
      "Ora": 6246,
      "Prø": 6247,
      "QR": 6248,
      "RDL": 6249,
      "Tip": 6250,
      "co": 6251,
      "cut": 6252,
      "cure": 6253,
      "fisk": 6254,
      "ipp": 6255,
      "lår": 6256,
      "lave": 6257,
      "ous": 6258,
      "pir": 6259,
      "range": 6260,
      "sell": 6261,
      "tto": 6262,
      "ulas": 6263,
      "uplo": 6264,
      "eline": 6265,
      "tider": 6266,
      "stin": 6267,
      "studio": 6268,
      "omsetnings": 6269,
      "isnt": 6270,
      "tilsvarer": 6271,
      "life": 6272,
      "sklas": 6273,
      "skille": 6274,
      "avslutt": 6275,
      "sepa": 6276,
      "utvalgte": 6277,
      "utleverings": 6278,
      "utdraget": 6279,
      "sical": 6280,
      "innboksen": 6281,
      "formulas": 6282,
      "føy": 6283,
      "ville": 6284,
      "papir": 6285,
      "plu": 6286,
      "funnet": 6287,
      "faktat": 6288,
      "lagermed": 6289,
      "lagerlukking": 6290,
      "Enter": 6291,
      "servicepris": 6292,
      "stypene": 6293,
      "parts": 6294,
      "optimer": 6295,
      "chann": 6296,
      "oritet": 6297,
      "Legger": 6298,
      "notific": 6299,
      "eksempelet": 6300,
      "arbeidsflytt": 6301,
      "formatkonfigurasjon": 6302,
      "nettsiden": 6303,
      "tree": 6304,
      "Utløp": 6305,
      "vares": 6306,
      "fysiske": 6307,
      "appens": 6308,
      "koblingene": 6309,
      "søkna": 6310,
      "oppførings": 6311,
      "Prosent": 6312,
      "fullfører": 6313,
      "Appen": 6314,
      "Datat": 6315,
      "Dialog": 6316,
      "tekstboks": 6317,
      "feilmeldingen": 6318,
      "foreslår": 6319,
      "forretningsprosesser": 6320,
      "beskrive": 6321,
      "nummerserie": 6322,
      "kontakten": 6323,
      "modulen": 6324,
      "begrens": 6325,
      "sentral": 6326,
      "kostnadselementer": 6327,
      "søkeresultat": 6328,
      "tilbakeføre": 6329,
      "Bestilling": 6330,
      "Bestillings": 6331,
      "times": 6332,
      "transaction": 6333,
      "Saldo": 6334,
      "rundt": 6335,
      "distribueres": 6336,
      "Oppdatering": 6337,
      "strukturer": 6338,
      "recurring": 6339,
      "kildedokumenter": 6340,
      "leveringstid": 6341,
      "tidsperi": 6342,
      "årsakskode": 6343,
      "Quick": 6344,
      "sluttdato": 6345,
      "Først": 6346,
      "0001": 6347,
      "brutto": 6348,
      "spriser": 6349,
      "mary": 6350,
      "nettlesere": 6351,
      "Faktur": 6352,
      "relevant": 6353,
      "Visualobjektet": 6354,
      "bekreftelses": 6355,
      "konsoliderings": 6356,
      "webl": 6357,
      "beskrives": 6358,
      "rapporteringsenhet": 6359,
      "konverterer": 6360,
      "kommandoer": 6361,
      "authentication": 6362,
      "skyen": 6363,
      "approve": 6364,
      "Motkonto": 6365,
      "guide": 6366,
      "posteringsprofiler": 6367,
      "Kredit": 6368,
      "Selge": 6369,
      "impro": 6370,
      "Modu": 6371,
      "datasets": 6372,
      "Enhetspris": 6373,
      "reservert": 6374,
      "kasser": 6375,
      "standarder": 6376,
      "forskjellen": 6377,
      "Vanlig": 6378,
      "Identifisere": 6379,
      "presisjon": 6380,
      "justerings": 6381,
      "Valutak": 6382,
      "Juridis": 6383,
      "spolicyer": 6384,
      "Overvåke": 6385,
      "packages": 6386,
      "timeliste": 6387,
      "avdelingen": 6388,
      "identitets": 6389,
      "free": 6390,
      "amounts": 6391,
      "favoritt": 6392,
      "kampanje": 6393,
      "employee": 6394,
      "Sorter": 6395,
      "Storbritannia": 6396,
      "egrupper": 6397,
      "amples": 6398,
      "Systemet": 6399,
      "Optimal": 6400,
      "innvirkning": 6401,
      "historiske": 6402,
      "activate": 6403,
      "kvartal": 6404,
      "discounts": 6405,
      "physical": 6406,
      "correct": 6407,
      "Kerberos": 6408,
      "Oracle": 6409,
      "Tips": 6410,
      "channel": 6411,
      "notifications": 6412,
      "arbeidsflyttrinn": 6413,
      "AL": 6414,
      "Drive": 6415,
      "FS": 6416,
      "Hvem": 6417,
      "IDen": 6418,
      "Kry": 6419,
      "Krav": 6420,
      "Kalender": 6421,
      "Plukk": 6422,
      "RES": 6423,
      "Sk": 6424,
      "Time": 6425,
      "bor": 6426,
      "brow": 6427,
      "each": 6428,
      "jour": 6429,
      "kalt": 6430,
      "kaller": 6431,
      "nall": 6432,
      "natur": 6433,
      "pip": 6434,
      "sho": 6435,
      "xy": 6436,
      "erstatt": 6437,
      "engangs": 6438,
      "ines": 6439,
      "any": 6440,
      "tifisering": 6441,
      "ony": 6442,
      "forårsak": 6443,
      "foreløp": 6444,
      "stans": 6445,
      "stabell": 6446,
      "rest": 6447,
      "rede": 6448,
      "dekker": 6449,
      "tilknyt": 6450,
      "verer": 6451,
      "raske": 6452,
      "sjobber": 6453,
      "rukket": 6454,
      "skilde": 6455,
      "skyl": 6456,
      "sknapp": 6457,
      "ktet": 6458,
      "visuelt": 6459,
      "beholder": 6460,
      "geo": 6461,
      "lapp": 6462,
      "proxy": 6463,
      "fiks": 6464,
      "fikken": 6465,
      "fication": 6466,
      "måler": 6467,
      "måtene": 6468,
      "rapportsider": 6469,
      "titler": 6470,
      "perspek": 6471,
      "ligger": 6472,
      "nylig": 6473,
      "verdiposter": 6474,
      "overstyrer": 6475,
      "Ansett": 6476,
      "max": 6477,
      "brukernavn": 6478,
      "gjenværende": 6479,
      "links": 6480,
      "convert": 6481,
      "lagervarer": 6482,
      "velsen": 6483,
      "kostsenter": 6484,
      "styres": 6485,
      "varegebyr": 6486,
      "leverandørbetaling": 6487,
      "polic": 6488,
      "acc": 6489,
      "mottas": 6490,
      "examples": 6491,
      "fremover": 6492,
      "ocr": 6493,
      "bokføringen": 6494,
      "ullere": 6495,
      "kjøpskreditnota": 6496,
      "tap": 6497,
      "produksjonsstykklisten": 6498,
      "interaktive": 6499,
      "annullere": 6500,
      "middel": 6501,
      "organisere": 6502,
      "Profil": 6503,
      "worker": 6504,
      "workbook": 6505,
      "gått": 6506,
      "Datoen": 6507,
      "programvare": 6508,
      "behovene": 6509,
      "forretningsavtaler": 6510,
      "lagte": 6511,
      "fordels": 6512,
      "fordelspoeng": 6513,
      "configuring": 6514,
      "betalingsformat": 6515,
      "betalingsfiler": 6516,
      "Avslutt": 6517,
      "bool": 6518,
      "tilbakek": 6519,
      "payroll": 6520,
      "spørsmålene": 6521,
      "avskrivningen": 6522,
      "replace": 6523,
      "salgskreditnota": 6524,
      "finansrapport": 6525,
      "short": 6526,
      "områdekart": 6527,
      "hoveddata": 6528,
      "startdato": 6529,
      "åpnet": 6530,
      "betingelsen": 6531,
      "flisene": 6532,
      "fakturerte": 6533,
      "fakturerings": 6534,
      "dagene": 6535,
      "colla": 6536,
      "target": 6537,
      "slutter": 6538,
      "regelmessig": 6539,
      "publiserings": 6540,
      "spesifikt": 6541,
      "regnskapsfører": 6542,
      "registration": 6543,
      "systemansvarlig": 6544,
      "kombinasjons": 6545,
      "Første": 6546,
      "Gjenbestillings": 6547,
      "lukket": 6548,
      "lukkes": 6549,
      "balance": 6550,
      "kostnadskontroll": 6551,
      "Analyse": 6552,
      "forretningsprosessflyten": 6553,
      "driftsenhet": 6554,
      "Funksjonene": 6555,
      "Bytt": 6556,
      "Dimensjoner": 6557,
      "steps": 6558,
      "spørringene": 6559,
      "subscription": 6560,
      "vurderes": 6561,
      "konvertering": 6562,
      "grati": 6563,
      "satsvise": 6564,
      "offentlige": 6565,
      "Fullført": 6566,
      "imodul": 6567,
      "utheving": 6568,
      "calculated": 6569,
      "optimalisere": 6570,
      "required": 6571,
      "cloud": 6572,
      "katalogen": 6573,
      "skomponenter": 6574,
      "stadiet": 6575,
      "tidsplanen": 6576,
      "images": 6577,
      "aldersfordeling": 6578,
      "identifik": 6579,
      "Økonomimodul": 6580,
      "mengde": 6581,
      "mønstre": 6582,
      "lengre": 6583,
      "practi": 6584,
      "Vedlikeholde": 6585,
      "gjengivelse": 6586,
      "tablået": 6587,
      "effektivt": 6588,
      "svinn": 6589,
      "faktaboksen": 6590,
      "valgfrie": 6591,
      "Egendefinerte": 6592,
      "boble": 6593,
      "Elektronisk": 6594,
      "maksimale": 6595,
      "expense": 6596,
      "underleveranse": 6597,
      "forsink": 6598,
      "develop": 6599,
      "Materi": 6600,
      "Monterings": 6601,
      "tjenestekontohaver": 6602,
      "aldersfordelingsperiode": 6603,
      "GUID": 6604,
      "tweet": 6605,
      "Behov": 6606,
      "trigger": 6607,
      "Group": 6608,
      "Multi": 6609,
      "Returnerer": 6610,
      "Prøv": 6611,
      "upload": 6612,
      "REST": 6613,
      "policies": 6614,
      "practices": 6615,
      "01": 6616,
      "34": 6617,
      "CO": 6618,
      "Dan": 6619,
      "Henter": 6620,
      "Tall": 6621,
      "belt": 6622,
      "bound": 6623,
      "ctive": 6624,
      "hone": 6625,
      "imer": 6626,
      "jent": 6627,
      "mapper": 6628,
      "pin": 6629,
      "ransaksjon": 6630,
      "sap": 6631,
      "tatte": 6632,
      "tøm": 6633,
      "vplanlegging": 6634,
      "wri": 6635,
      "orde": 6636,
      "forbrukere": 6637,
      "stab": 6638,
      "quid": 6639,
      "omdi": 6640,
      "memo": 6641,
      "skopi": 6642,
      "avsender": 6643,
      "route": 6644,
      "seks": 6645,
      "oppgi": 6646,
      "utdrags": 6647,
      "size": 6648,
      "konf": 6649,
      "konstant": 6650,
      "veier": 6651,
      "veile": 6652,
      "felter": 6653,
      "spille": 6654,
      "PowerApps": 6655,
      "abel": 6656,
      "stransaksjonen": 6657,
      "plattform": 6658,
      "gjenopp": 6659,
      "retningen": 6660,
      "enhetspris": 6661,
      "samty": 6662,
      "konton": 6663,
      "kontot": 6664,
      "icon": 6665,
      "defining": 6666,
      "salget": 6667,
      "soper": 6668,
      "condi": 6669,
      "dokumentene": 6670,
      "buf": 6671,
      "visualizations": 6672,
      "lagerkost": 6673,
      "planned": 6674,
      "skala": 6675,
      "velses": 6676,
      "kostobjekt": 6677,
      "kostposter": 6678,
      "grupperes": 6679,
      "Konvertere": 6680,
      "kredi": 6681,
      "fakturaene": 6682,
      "kontoplan": 6683,
      "001": 6684,
      "produksjonen": 6685,
      "arbeidscellen": 6686,
      "mottatte": 6687,
      "løst": 6688,
      "fremtidig": 6689,
      "bland": 6690,
      "undermenyen": 6691,
      "kjøpt": 6692,
      "tastatur": 6693,
      "penge": 6694,
      "stillingene": 6695,
      "jening": 6696,
      "ventende": 6697,
      "kundeposter": 6698,
      "kundebetaling": 6699,
      "krike": 6700,
      "administrerer": 6701,
      "jul": 6702,
      "fremgangsmåtene": 6703,
      "programdata": 6704,
      "emnene": 6705,
      "tekstboksen": 6706,
      "feilsøke": 6707,
      "analyserer": 6708,
      "sammenligner": 6709,
      "tilgjengelighets": 6710,
      "Overførings": 6711,
      "webressurser": 6712,
      "variable": 6713,
      "Eksemplet": 6714,
      "ulator": 6715,
      "kjøpsfakturaer": 6716,
      "Arbeider": 6717,
      "notes": 6718,
      "names": 6719,
      "Utvikle": 6720,
      "dimensjonsmedlemmer": 6721,
      "shipp": 6722,
      "average": 6723,
      "hovedplanlegging": 6724,
      "Innhold": 6725,
      "faktureres": 6726,
      "dax": 6727,
      "løpende": 6728,
      "plukket": 6729,
      "virkningen": 6730,
      "listesiden": 6731,
      "passordet": 6732,
      "connections": 6733,
      "sendte": 6734,
      "tidsperiode": 6735,
      "reduseres": 6736,
      "Leverandørfaktura": 6737,
      "Leverandørkonto": 6738,
      "whats": 6739,
      "klokkeslettet": 6740,
      "Samhandle": 6741,
      "statiske": 6742,
      "Administratorer": 6743,
      "fanget": 6744,
      "veiledninger": 6745,
      "editing": 6746,
      "identify": 6747,
      "grunnlaget": 6748,
      "satsen": 6749,
      "forfatter": 6750,
      "Betalingsmåte": 6751,
      "Installere": 6752,
      "avsluttet": 6753,
      "Filter": 6754,
      "directquery": 6755,
      "klassifisere": 6756,
      "property": 6757,
      "henting": 6758,
      "opptellings": 6759,
      "utvikleren": 6760,
      "nøyaktige": 6761,
      "Lokasjons": 6762,
      "teams": 6763,
      "Enhetlig": 6764,
      "datarol": 6765,
      "picking": 6766,
      "innkjøpsrekvisisjoner": 6767,
      "varslinger": 6768,
      "peker": 6769,
      "bidragsy": 6770,
      "assemble": 6771,
      "timelister": 6772,
      "Linjedetaljer": 6773,
      "skortet": 6774,
      "Årsak": 6775,
      "Vedlikehold": 6776,
      "shipment": 6777,
      "møte": 6778,
      "Beholdnings": 6779,
      "migration": 6780,
      "combine": 6781,
      "Streng": 6782,
      "Oppgave": 6783,
      "rektangelet": 6784,
      "deployment": 6785,
      "classic": 6786,
      "sortiment": 6787,
      "stykklistelinje": 6788,
      "Gjennomsnittlig": 6789,
      "virksomheten": 6790,
      "Farge": 6791,
      "categories": 6792,
      "OneDrive": 6793,
      "Sekven": 6794,
      "Hjelp": 6795,
      "Mulig": 6796,
      "finished": 6797,
      "considerations": 6798,
      "questionnaire": 6799,
      "Frankrike": 6800,
      "avsluttes": 6801,
      "shortcut": 6802,
      "44": 6803,
      "Dag": 6804,
      "Day": 6805,
      "DOM": 6806,
      "GB": 6807,
      "Hy": 6808,
      "Hol": 6809,
      "IT": 6810,
      "Linjer": 6811,
      "LFE": 6812,
      "MS": 6813,
      "Mens": 6814,
      "Masse": 6815,
      "Mitt": 6816,
      "Part": 6817,
      "Rett": 6818,
      "Rek": 6819,
      "Sele": 6820,
      "Scenar": 6821,
      "SaaS": 6822,
      "Sats": 6823,
      "TO": 6824,
      "Tab": 6825,
      "aster": 6826,
      "cover": 6827,
      "cant": 6828,
      "day": 6829,
      "fj": 6830,
      "fac": 6831,
      "hub": 6832,
      "iere": 6833,
      "itions": 6834,
      "path": 6835,
      "tut": 6836,
      "wal": 6837,
      "zer": 6838,
      "Øver": 6839,
      "enhver": 6840,
      "anner": 6841,
      "forbere": 6842,
      "forstår": 6843,
      "forenkle": 6844,
      "reorder": 6845,
      "atser": 6846,
      "dese": 6847,
      "tiles": 6848,
      "tildele": 6849,
      "leger": 6850,
      "during": 6851,
      "verandør": 6852,
      "rakt": 6853,
      "avgren": 6854,
      "avgjøre": 6855,
      "avbryte": 6856,
      "need": 6857,
      "segenskaper": 6858,
      "utnytt": 6859,
      "toveis": 6860,
      "konsolidere": 6861,
      "delvise": 6862,
      "own": 6863,
      "dataflows": 6864,
      "steam": 6865,
      "vest": 6866,
      "ningene": 6867,
      "oltip": 6868,
      "formatt": 6869,
      "ekode": 6870,
      "senheten": 6871,
      "produseres": 6872,
      "figurer": 6873,
      "plans": 6874,
      "flytter": 6875,
      "Debit": 6876,
      "kompa": 6877,
      "disk": 6878,
      "skalendere": 6879,
      "modellt": 6880,
      "serviceobjekt": 6881,
      "produktinformasjon": 6882,
      "vareposten": 6883,
      "varesporing": 6884,
      "Forut": 6885,
      "Visnings": 6886,
      "ktiv": 6887,
      "arbeidssentre": 6888,
      "fremtidige": 6889,
      "tilles": 6890,
      "ocus": 6891,
      "produksjonsflyten": 6892,
      "Starte": 6893,
      "interaktiv": 6894,
      "interface": 6895,
      "demark": 6896,
      "datakon": 6897,
      "endrede": 6898,
      "resulterende": 6899,
      "fullførte": 6900,
      "matri": 6901,
      "sideoppdatering": 6902,
      "sammensatt": 6903,
      "fordelsprogram": 6904,
      "returned": 6905,
      "finanskladden": 6906,
      "dynamic": 6907,
      "høyt": 6908,
      "begrenser": 6909,
      "bankavstemming": 6910,
      "uld": 6911,
      "mobilenheter": 6912,
      "sporet": 6913,
      "søket": 6914,
      "ital": 6915,
      "Utvidelsen": 6916,
      "dimensjonsgruppe": 6917,
      "verktøytipset": 6918,
      "Innkjøps": 6919,
      "Innholdet": 6920,
      "2015": 6921,
      "valgene": 6922,
      "lastings": 6923,
      "behandlingen": 6924,
      "Rapportere": 6925,
      "Rapportserver": 6926,
      "dagens": 6927,
      "fiscal": 6928,
      "rabattdatoen": 6929,
      "klassisk": 6930,
      "forhåndsvisningen": 6931,
      "forespørsels": 6932,
      "montert": 6933,
      "bekrefter": 6934,
      "oppgaveopptak": 6935,
      "prosedyrer": 6936,
      "redusert": 6937,
      "attribute": 6938,
      "kombinerer": 6939,
      "sposten": 6940,
      "Samle": 6941,
      "stykklisteberegning": 6942,
      "eksternt": 6943,
      "støttede": 6944,
      "Flyten": 6945,
      "Spørre": 6946,
      "connecting": 6947,
      "units": 6948,
      "matriser": 6949,
      "Finansrapportering": 6950,
      "Transaksjon": 6951,
      "Transaksjons": 6952,
      "weigh": 6953,
      "subcontract": 6954,
      "deaktiveres": 6955,
      "Filtrere": 6956,
      "telefonen": 6957,
      "synkroniseres": 6958,
      "forsendelse": 6959,
      "maksimalt": 6960,
      "rows": 6961,
      "virkemåte": 6962,
      "kalendere": 6963,
      "innholdspakke": 6964,
      "erstatter": 6965,
      "responden": 6966,
      "inviter": 6967,
      "samlingen": 6968,
      "lookup": 6969,
      "modifi": 6970,
      "Begrense": 6971,
      "Attract": 6972,
      "Fullfør": 6973,
      "calculating": 6974,
      "Beregnings": 6975,
      "functionality": 6976,
      "veksel": 6977,
      "contracts": 6978,
      "statements": 6979,
      "beskyttelse": 6980,
      "landsk": 6981,
      "sheets": 6982,
      "forutsetninger": 6983,
      "Økonomi": 6984,
      "stjenester": 6985,
      "budsjetterte": 6986,
      "datavisning": 6987,
      "Klargjør": 6988,
      "Relat": 6989,
      "mangler": 6990,
      "reiseregning": 6991,
      "glidebryter": 6992,
      "serienumre": 6993,
      "veksle": 6994,
      "sammenlignet": 6995,
      "Transform": 6996,
      "pivot": 6997,
      "skudds": 6998,
      "involverer": 6999,
      "Bildet": 7000,
      "forpliktelse": 7001,
      "employees": 7002,
      "oppslagsfelt": 7003,
      "forsikringspol": 7004,
      "konfigurasjonspakke": 7005,
      "arbeidsbelastninger": 7006,
      "terminologi": 7007,
      "skattemyndighetene": 7008,
      "signaturer": 7009,
      "alerts": 7010,
      "behavi": 7011,
      "stoleranse": 7012,
      "adaptive": 7013,
      "language": 7014,
      "consolidation": 7015,
      "Grunnleggende": 7016,
      "associate": 7017,
      "delivery": 7018,
      "CTRL": 7019,
      "Vinduet": 7020,
      "hardware": 7021,
      "collabor": 7022,
      "write": 7023,
      "tutorial": 7024,
      "desember": 7025,
      "Dager": 7026,
      "ET": 7027,
      "Event": 7028,
      "IN": 7029,
      "Jav": 7030,
      "Kor": 7031,
      "Lå": 7032,
      "Lær": 7033,
      "Nø": 7034,
      "OP": 7035,
      "Peri": 7036,
      "Så": 7037,
      "Yt": 7038,
      "bol": 7039,
      "cmdlet": 7040,
      "fu": 7041,
      "gl": 7042,
      "gre": 7043,
      "hun": 7044,
      "hit": 7045,
      "hrough": 7046,
      "kalle": 7047,
      "know": 7048,
      "low": 7049,
      "mitt": 7050,
      "ose": 7051,
      "rates": 7052,
      "savtale": 7053,
      "tale": 7054,
      "ture": 7055,
      "who": 7056,
      "åtte": 7057,
      "ærer": 7058,
      "ern": 7059,
      "ansi": 7060,
      "forbruker": 7061,
      "forhand": 7062,
      "forhånd": 7063,
      "forholdet": 7064,
      "stabeller": 7065,
      "stock": 7066,
      "refun": 7067,
      "ise": 7068,
      "ary": 7069,
      "dup": 7070,
      "radi": 7071,
      "lime": 7072,
      "sklu": 7073,
      "ered": 7074,
      "erest": 7075,
      "rout": 7076,
      "entre": 7077,
      "testen": 7078,
      "pålit": 7079,
      "sige": 7080,
      "simuler": 7081,
      "urt": 7082,
      "konsek": 7083,
      "gerings": 7084,
      "gjorde": 7085,
      "flush": 7086,
      "eks": 7087,
      "resenteres": 7088,
      "appsource": 7089,
      "areal": 7090,
      "kehus": 7091,
      "ganske": 7092,
      "produsere": 7093,
      "vedkommende": 7094,
      "overlapp": 7095,
      "Ansatt": 7096,
      "mad": 7097,
      "mach": 7098,
      "aktuelt": 7099,
      "advarsler": 7100,
      "samhandling": 7101,
      "prom": 7102,
      "Deaktiver": 7103,
      "Deaktivere": 7104,
      "dokumentposter": 7105,
      "kompil": 7106,
      "render": 7107,
      "visualisere": 7108,
      "lagerstyrings": 7109,
      "lagerhåndterings": 7110,
      "kundet": 7111,
      "assig": 7112,
      "upgra": 7113,
      "relasjons": 7114,
      "relative": 7115,
      "produktlivssyklustilstand": 7116,
      "bane": 7117,
      "Forsen": 7118,
      "leverandørposter": 7119,
      "leverandørsamarbeid": 7120,
      "malstykkliste": 7121,
      "arbeidsdatoen": 7122,
      "arbeidstimer": 7123,
      "Tillegg": 7124,
      "Tilknyttet": 7125,
      "points": 7126,
      "odd": 7127,
      "trekke": 7128,
      "fremtiden": 7129,
      "Utlign": 7130,
      "tekni": 7131,
      "comp": 7132,
      "binding": 7133,
      "generelt": 7134,
      "tighet": 7135,
      "logiske": 7136,
      "utvidelser": 7137,
      "feilsøking": 7138,
      "forretningslogikk": 7139,
      "ryp": 7140,
      "ardinalitet": 7141,
      "bildene": 7142,
      "interest": 7143,
      "høye": 7144,
      "høyde": 7145,
      "Ark": 7146,
      "linjediagram": 7147,
      "kjøringen": 7148,
      "utlignet": 7149,
      "visualiseringene": 7150,
      "budsjettkontroll": 7151,
      "budsjettposter": 7152,
      "apporter": 7153,
      "filtrerte": 7154,
      "dimensjonsbasert": 7155,
      "representeres": 7156,
      "systemer": 7157,
      "Innstillinger": 7158,
      "justerer": 7159,
      "hvorfor": 7160,
      "fargene": 7161,
      "handlingsmeldinger": 7162,
      "Beskriv": 7163,
      "skonven": 7164,
      "tidslinje": 7165,
      "fakturar": 7166,
      "kommunik": 7167,
      "ksis": 7168,
      "enhetsskjema": 7169,
      "tegne": 7170,
      "menyelement": 7171,
      "arbeidsflytprosessen": 7172,
      "nestede": 7173,
      "anbefalt": 7174,
      "årsaken": 7175,
      "referansen": 7176,
      "Komponenter": 7177,
      "refusjon": 7178,
      "lineær": 7179,
      "Kunden": 7180,
      "stykklisteversjon": 7181,
      "partier": 7182,
      "sikkerhetslager": 7183,
      "forklaring": 7184,
      "overskrifts": 7185,
      "varselet": 7186,
      "byggeblokk": 7187,
      "Neste": 7188,
      "tilpassede": 7189,
      "Redigerings": 7190,
      "utløse": 7191,
      "øyeblikks": 7192,
      "rekvisisjonen": 7193,
      "Løs": 7194,
      "påvirkes": 7195,
      "tuell": 7196,
      "forsyningsordre": 7197,
      "posteringsprofil": 7198,
      "temaet": 7199,
      "erstatning": 7200,
      "limits": 7201,
      "formålet": 7202,
      "overvåkings": 7203,
      "kvittering": 7204,
      "datatyper": 7205,
      "sekvensen": 7206,
      "Kostnadsregnskap": 7207,
      "spørringsstreng": 7208,
      "Støtter": 7209,
      "Netto": 7210,
      "stille": 7211,
      "maintain": 7212,
      "Tooltip": 7213,
      "cards": 7214,
      "calculations": 7215,
      "datagatewayen": 7216,
      "strategien": 7217,
      "tilbudsforespørsel": 7218,
      "tilbudsforespørsler": 7219,
      "Element": 7220,
      "Attributter": 7221,
      "varsling": 7222,
      "forsendelsesdato": 7223,
      "invitasjonen": 7224,
      "numerisk": 7225,
      "download": 7226,
      "IFT": 7227,
      "primær": 7228,
      "kolleger": 7229,
      "kladdelinjen": 7230,
      "reiseregningen": 7231,
      "Maksimalt": 7232,
      "adjustment": 7233,
      "settlement": 7234,
      "aScript": 7235,
      "potensielle": 7236,
      "Planleggingssystemet": 7237,
      "aggregerte": 7238,
      "tillatelsessett": 7239,
      "fraktbrev": 7240,
      "kryptert": 7241,
      "remitteringsoppdrag": 7242,
      "DEMF": 7243,
      "etterdatert": 7244,
      "explore": 7245,
      "skuff": 7246,
      "privat": 7247,
      "license": 7248,
      "minnet": 7249,
      "skoblinger": 7250,
      "popup": 7251,
      "desimal": 7252,
      "authori": 7253,
      "sampling": 7254,
      "Statisti": 7255,
      "Gyldighets": 7256,
      "Tysk": 7257,
      "bility": 7258,
      "interessert": 7259,
      "Innebyg": 7260,
      "Veiledning": 7261,
      "lifecycle": 7262,
      "Vanligvis": 7263,
      "browser": 7264,
      "erstattes": 7265,
      "gratis": 7266,
      "Danmark": 7267,
      "shipping": 7268,
      "avgrenset": 7269,
      "matrix": 7270,
      "behavior": 7271,
      "JavaScript": 7272,
      "machine": 7273,
      "lagerhåndteringstid": 7274,
      "Bal": 7275,
      "CC": 7276,
      "Jo": 7277,
      "LIFO": 7278,
      "Ma": 7279,
      "Nye": 7280,
      "Nivå": 7281,
      "Punkt": 7282,
      "Parti": 7283,
      "Strekk": 7284,
      "bene": 7285,
      "ec": 7286,
      "fet": 7287,
      "frequ": 7288,
      "hom": 7289,
      "lodd": 7290,
      "ql": 7291,
      "rale": 7292,
      "sql": 7293,
      "uses": 7294,
      "vou": 7295,
      "zoom": 7296,
      "tivitet": 7297,
      "ford": 7298,
      "forretning": 7299,
      "forventer": 7300,
      "stages": 7301,
      "isen": 7302,
      "arning": 7303,
      "skatt": 7304,
      "roun": 7305,
      "sekunder": 7306,
      "rukne": 7307,
      "tekt": 7308,
      "siktig": 7309,
      "provisjon": 7310,
      "urat": 7311,
      "databehandlings": 7312,
      "sparamet": 7313,
      "førsel": 7314,
      "formlene": 7315,
      "Ansatte": 7316,
      "haring": 7317,
      "ansere": 7318,
      "kjer": 7319,
      "brukers": 7320,
      "postadressen": 7321,
      "postmeldingen": 7322,
      "bestilt": 7323,
      "kompl": 7324,
      "lagermottak": 7325,
      "lageraktiviteter": 7326,
      "upon": 7327,
      "kostregnskap": 7328,
      "serviceavtal": 7329,
      "cher": 7330,
      "produktmodell": 7331,
      "produktnummer": 7332,
      "self": 7333,
      "slog": 7334,
      "rerings": 7335,
      "varebehov": 7336,
      "varekladden": 7337,
      "Foret": 7338,
      "drevne": 7339,
      "leverandørkonto": 7340,
      "leverandørbetalinger": 7341,
      "malene": 7342,
      "salgsfakturaen": 7343,
      "nettsteds": 7344,
      "block": 7345,
      "underordnet": 7346,
      "trinnvis": 7347,
      "flytene": 7348,
      "organisator": 7349,
      "kamera": 7350,
      "sonen": 7351,
      "Konfigur": 7352,
      "Proble": 7353,
      "diagrammene": 7354,
      "automatiske": 7355,
      "administrer": 7356,
      "Ekster": 7357,
      "Application": 7358,
      "emballa": 7359,
      "analytik": 7360,
      "berør": 7361,
      "IDE": 7362,
      "resultatregnskap": 7363,
      "firm": 7364,
      "Avslut": 7365,
      "Overføring": 7366,
      "webressurs": 7367,
      "risik": 7368,
      "stream": 7369,
      "kontaktperson": 7370,
      "kontaktpersoner": 7371,
      "ways": 7372,
      "plasserer": 7373,
      "mobiloptimer": 7374,
      "tipsene": 7375,
      "purringen": 7376,
      "Merverdiavgift": 7377,
      "størrelses": 7378,
      "håndtak": 7379,
      "håndhe": 7380,
      "tilordnede": 7381,
      "planleggingslinje": 7382,
      "lists": 7383,
      "distribusjonen": 7384,
      "tification": 7385,
      "trakt": 7386,
      "hendelsene": 7387,
      "returnert": 7388,
      "levels": 7389,
      "Arbeidsområder": 7390,
      "ikonene": 7391,
      "ressursgruppe": 7392,
      "brevet": 7393,
      "grovplanlegging": 7394,
      "økonomi": 7395,
      "reklikk": 7396,
      "representere": 7397,
      "Komponent": 7398,
      "stigende": 7399,
      "position": 7400,
      "statisk": 7401,
      "gjennomsnittet": 7402,
      "sikkerhetsrolle": 7403,
      "skladder": 7404,
      "monteringsordren": 7405,
      "demonstrerer": 7406,
      "kodene": 7407,
      "ansvarlige": 7408,
      "controls": 7409,
      "forfalt": 7410,
      "detaljhandelskan": 7411,
      "Kundeemne": 7412,
      "bekreftet": 7413,
      "strømmer": 7414,
      "Funksjonalitet": 7415,
      "kolonnenavn": 7416,
      "sliceren": 7417,
      "konsolidert": 7418,
      "avslutte": 7419,
      "hylleinnhold": 7420,
      "overføringsordre": 7421,
      "overføringsordrer": 7422,
      "rapporteringsvalutabeløp": 7423,
      "demonstrasjonsdata": 7424,
      "deaktiverer": 7425,
      "Sign": 7426,
      "samlede": 7427,
      "snutt": 7428,
      "companies": 7429,
      "Liquid": 7430,
      "videoer": 7431,
      "maksimum": 7432,
      "servicek": 7433,
      "rettighets": 7434,
      "finanskontoen": 7435,
      "scheduled": 7436,
      "speriment": 7437,
      "Feilsøke": 7438,
      "same": 7439,
      "beskytte": 7440,
      "Krever": 7441,
      "history": 7442,
      "overvåking": 7443,
      "sertifikatet": 7444,
      "Styr": 7445,
      "statistiske": 7446,
      "Begrens": 7447,
      "tivity": 7448,
      "lassifisering": 7449,
      "utheve": 7450,
      "integrert": 7451,
      "kostprisen": 7452,
      "summen": 7453,
      "receiving": 7454,
      "innkjøpsrekvisisjons": 7455,
      "certific": 7456,
      "tildelingsgrunnlaget": 7457,
      "forskjeller": 7458,
      "Organisasjoner": 7459,
      "drop": 7460,
      "Plassere": 7461,
      "etilgang": 7462,
      "tilpassinger": 7463,
      "samlebåndet": 7464,
      "invitasjon": 7465,
      "strinnet": 7466,
      "gjenbestillingspunktet": 7467,
      "Overvåk": 7468,
      "skilletegn": 7469,
      "Sporings": 7470,
      "Gruppe": 7471,
      "koprodukter": 7472,
      "spiller": 7473,
      "forbedringer": 7474,
      "fremdriften": 7475,
      "Distribuer": 7476,
      "...": 7477,
      "bedriften": 7478,
      "produktkvittering": 7479,
      "Justere": 7480,
      "Lagrings": 7481,
      "rentenotaer": 7482,
      "flerdimensjon": 7483,
      "kandidater": 7484,
      "Referanse": 7485,
      "etterdaterte": 7486,
      "sjefen": 7487,
      "explorer": 7488,
      "Forespørsler": 7489,
      "ekstrahering": 7490,
      "Sluttdato": 7491,
      "reparasjonsstatus": 7492,
      "kollegene": 7493,
      "hjemm": 7494,
      "symbol": 7495,
      "matching": 7496,
      "forretningsforbindelser": 7497,
      "mønsteret": 7498,
      "snarveien": 7499,
      "Markeds": 7500,
      "Book": 7501,
      "tilstrekkelig": 7502,
      "tilbehørs": 7503,
      "hurtigbufferen": 7504,
      "prognosestillinger": 7505,
      "utviklings": 7506,
      "sklasse": 7507,
      "Kryss": 7508,
      "naturlig": 7509,
      "pipel": 7510,
      "samtykke": 7511,
      "Dayforce": 7512,
      "formatting": 7513,
      "upgrade": 7514,
      "Arki": 7515,
      "benefi": 7516,
      "1000": 7517,
      "Bi": 7518,
      "Både": 7519,
      "Dr": 7520,
      "EH": 7521,
      "Fer": 7522,
      "Gar": 7523,
      "Id": 7524,
      "Ini": 7525,
      "Item": 7526,
      "Kall": 7527,
      "Kilde": 7528,
      "Knapp": 7529,
      "List": 7530,
      "Ned": 7531,
      "OG": 7532,
      "Pag": 7533,
      "Rabatt": 7534,
      "TER": 7535,
      "br": 7536,
      "bånd": 7537,
      "cent": 7538,
      "cla": 7539,
      "fla": 7540,
      "fas": 7541,
      "hide": 7542,
      "hurtigt": 7543,
      "kende": 7544,
      "mit": 7545,
      "por": 7546,
      "place": 7547,
      "sha": 7548,
      "sær": 7549,
      "sharing": 7550,
      "tes": 7551,
      "turn": 7552,
      "uansett": 7553,
      "vinn": 7554,
      "vok": 7555,
      "vnt": 7556,
      "volum": 7557,
      "endelig": 7558,
      "ind": 7559,
      "elli": 7560,
      "andat": 7561,
      "stav": 7562,
      "station": 7563,
      "repl": 7564,
      "quality": 7565,
      "debet": 7566,
      "lib": 7567,
      "lite": 7568,
      "likter": 7569,
      "skjør": 7570,
      "avgifter": 7571,
      "nesten": 7572,
      "roid": 7573,
      "datot": 7574,
      "visse": 7575,
      "dert": 7576,
      "android": 7577,
      "rikat": 7578,
      "sir": 7579,
      "sitt": 7580,
      "innlegg": 7581,
      "innføring": 7582,
      "proje": 7583,
      "urance": 7584,
      "ake": 7585,
      "tol": 7586,
      "konsekvens": 7587,
      "delrapport": 7588,
      "rettet": 7589,
      "owner": 7590,
      "split": 7591,
      "gjeld": 7592,
      "flot": 7593,
      "rapportlerretet": 7594,
      "eksp": 7595,
      "eksperiment": 7596,
      "resol": 7597,
      "percent": 7598,
      "PowerBI": 7599,
      "Anta": 7600,
      "pair": 7601,
      "gjenopprette": 7602,
      "enda": 7603,
      "kontanter": 7604,
      "sale": 7605,
      "skaffe": 7606,
      "bulk": 7607,
      "hoder": 7608,
      "kunn": 7609,
      "assist": 7610,
      "ieren": 7611,
      "kosttype": 7612,
      "serviceavtalen": 7613,
      "parter": 7614,
      "chron": 7615,
      "Forbed": 7616,
      "skjemaene": 7617,
      "office": 7618,
      "antallene": 7619,
      "noden": 7620,
      "eksempeldataene": 7621,
      "arbeidsfly": 7622,
      "Tildelings": 7623,
      "acces": 7624,
      "standardkostnader": 7625,
      "salgslinjer": 7626,
      "salgsfakturaer": 7627,
      "exp": 7628,
      "treff": 7629,
      "bloc": 7630,
      "Star": 7631,
      "witter": 7632,
      "kundekortet": 7633,
      "oppsetts": 7634,
      "romandat": 7635,
      "views": 7636,
      "fullskjerm": 7637,
      "Apper": 7638,
      "utvidelse": 7639,
      "tekstanalyse": 7640,
      "grunnen": 7641,
      "forretningsdata": 7642,
      "analysen": 7643,
      "sug": 7644,
      "virtuell": 7645,
      "webtjeneste": 7646,
      "finanspost": 7647,
      "synkende": 7648,
      "synchron": 7649,
      "høytt": 7650,
      "Kontrollen": 7651,
      "hierarkisk": 7652,
      "kjøringer": 7653,
      "utligningen": 7654,
      "bankbehandling": 7655,
      "tillatelsene": 7656,
      "spesiell": 7657,
      "utenlandsk": 7658,
      "lerretappen": 7659,
      "lerretapper": 7660,
      "budsjettet": 7661,
      "sporede": 7662,
      "anleggsmidlet": 7663,
      "filtrerer": 7664,
      "purring": 7665,
      "purringer": 7666,
      "hovedskjemaet": 7667,
      "2013": 7668,
      "varenummeret": 7669,
      "serienummer": 7670,
      "mottaksdato": 7671,
      "raddefinisjonen": 7672,
      "Rapportutforming": 7673,
      "testing": 7674,
      "klasser": 7675,
      "listene": 7676,
      "scenariene": 7677,
      "trade": 7678,
      "klienter": 7679,
      "managed": 7680,
      "drive": 7681,
      "Arbeidsområde": 7682,
      "Arbeidsområdet": 7683,
      "regnskapsoppgjør": 7684,
      "Posterings": 7685,
      "kontantrabatten": 7686,
      "Komme": 7687,
      "Kompet": 7688,
      "deltak": 7689,
      "sorteres": 7690,
      "beregningene": 7691,
      "requisition": 7692,
      "forbruks": 7693,
      "Samsvar": 7694,
      "positions": 7695,
      "Medlem": 7696,
      "servicel": 7697,
      "Registrerer": 7698,
      "unntatt": 7699,
      "skladdel": 7700,
      "visningsnavn": 7701,
      "connectors": 7702,
      "forklaringer": 7703,
      "forekommer": 7704,
      "bryting": 7705,
      "Betalingsoppsett": 7706,
      "selskapets": 7707,
      "utløper": 7708,
      "Dimensjon": 7709,
      "SSL": 7710,
      "Begge": 7711,
      "godkjenningsprosessen": 7712,
      "blokkere": 7713,
      "blokkering": 7714,
      "servicet": 7715,
      "differansen": 7716,
      "directly": 7717,
      "belastes": 7718,
      "guid": 7719,
      "grafikken": 7720,
      "scheduling": 7721,
      "myndig": 7722,
      "reserve": 7723,
      "plassholder": 7724,
      "Erstatt": 7725,
      "stolpediagrammet": 7726,
      "messige": 7727,
      "script": 7728,
      "boms": 7729,
      "summere": 7730,
      "veksler": 7731,
      "fleksibilitet": 7732,
      "capacities": 7733,
      "følgeseddelen": 7734,
      "reservere": 7735,
      "reserveres": 7736,
      "lederen": 7737,
      "hjørnet": 7738,
      "Brukerne": 7739,
      "agreements": 7740,
      "PayPal": 7741,
      "rammeverket": 7742,
      "roduksjon": 7743,
      "identifiseres": 7744,
      "tredjeparts": 7745,
      "Beløpet": 7746,
      "merknad": 7747,
      "Resultatet": 7748,
      "Fastslå": 7749,
      "valutakur": 7750,
      "layouts": 7751,
      "building": 7752,
      "EUR": 7753,
      "prakti": 7754,
      "urtigs": 7755,
      "innkrevings": 7756,
      "sykluser": 7757,
      "tetthets": 7758,
      "negative": 7759,
      "skravene": 7760,
      "collections": 7761,
      "sertifiserings": 7762,
      "Utforming": 7763,
      "Policyer": 7764,
      "autorisert": 7765,
      "Frigi": 7766,
      "utførelse": 7767,
      "Visualiseringer": 7768,
      "Rollen": 7769,
      "sortimenter": 7770,
      "toleranse": 7771,
      "teknologi": 7772,
      "periodiske": 7773,
      "Lønns": 7774,
      "kollega": 7775,
      "anleggsmiddeltablå": 7776,
      "indeks": 7777,
      "Prioritet": 7778,
      "hoppe": 7779,
      "inndelingen": 7780,
      "overflaten": 7781,
      "finansiering": 7782,
      "hending": 7783,
      "vårt": 7784,
      "Introduksjon": 7785,
      "Galleriet": 7786,
      "levetid": 7787,
      "Avvik": 7788,
      "Tilbakestill": 7789,
      "Hierarki": 7790,
      "light": 7791,
      "principal": 7792,
      "Synkron": 7793,
      "vertsmodelldrevne": 7794,
      "vanskelig": 7795,
      "Basert": 7796,
      "improve": 7797,
      "journall": 7798,
      "identifikasjon": 7799,
      "gjenoppta": 7800,
      "blandet": 7801,
      "kompati": 7802,
      "Perio": 7803,
      "Gyldighetsdato": 7804,
      "Maskin": 7805,
      "home": 7806,
      "voucher": 7807,
      "rounding": 7808,
      "Garantibrev": 7809,
      "accessi": 7810,
      "37": 7811,
      "38": 7812,
      "46": 7813,
      "940": 7814,
      "BW": 7815,
      "DB": 7816,
      "Esti": 7817,
      "Felles": 7818,
      "Gir": 7819,
      "He": 7820,
      "Leng": 7821,
      "MT": 7822,
      "Mini": 7823,
      "SI": 7824,
      "SAN": 7825,
      "TA": 7826,
      "Tom": 7827,
      "autom": 7828,
      "dob": 7829,
      "edi": 7830,
      "hance": 7831,
      "ige": 7832,
      "kardinalitet": 7833,
      "nologi": 7834,
      "pic": 7835,
      "python": 7836,
      "rinsipp": 7837,
      "sna": 7838,
      "sgruppe": 7839,
      "sbehandling": 7840,
      "tving": 7841,
      "uadministrert": 7842,
      "window": 7843,
      "ødven": 7844,
      "enkl": 7845,
      "enhance": 7846,
      "input": 7847,
      "elat": 7848,
      "anten": 7849,
      "anførsel": 7850,
      "forbrukes": 7851,
      "fortegn": 7852,
      "forslags": 7853,
      "stod": 7854,
      "repair": 7855,
      "tildelt": 7856,
      "ogle": 7857,
      "ogrupp": 7858,
      "verk": 7859,
      "avsetnings": 7860,
      "entlig": 7861,
      "kthrough": 7862,
      "sefall": 7863,
      "distri": 7864,
      "oppdag": 7865,
      "utrul": 7866,
      "utbetaling": 7867,
      "serings": 7868,
      "sertifisering": 7869,
      "vit": 7870,
      "viz": 7871,
      "procure": 7872,
      "unødven": 7873,
      "konteksten": 7874,
      "dataflow": 7875,
      "datamodeller": 7876,
      "måneder": 7877,
      "kkefølgen": 7878,
      "formellinjen": 7879,
      "rapportvisning": 7880,
      "amme": 7881,
      "PowerPoint": 7882,
      "them": 7883,
      "overflyt": 7884,
      "overskre": 7885,
      "trer": 7886,
      "absen": 7887,
      "paid": 7888,
      "mask": 7889,
      "brukerkonto": 7890,
      "postmaler": 7891,
      "ettersom": 7892,
      "tenance": 7893,
      "umrene": 7894,
      "altegn": 7895,
      "altern": 7896,
      "samhandlings": 7897,
      "beskje": 7898,
      "bokmerket": 7899,
      "skampan": 7900,
      "kompri": 7901,
      "setningen": 7902,
      "lagerarbeid": 7903,
      "syk": 7904,
      "Enhets": 7905,
      "hos": 7906,
      "creation": 7907,
      "kostverdi": 7908,
      "relativ": 7909,
      "jeneste": 7910,
      "funksjons": 7911,
      "Definerer": 7912,
      "vareankomst": 7913,
      "Forskj": 7914,
      "bered": 7915,
      "nosen": 7916,
      "Visning": 7917,
      "sjekke": 7918,
      "arbeidsdato": 7919,
      "standardverdier": 7920,
      "nettadresser": 7921,
      "Utgående": 7922,
      "degrad": 7923,
      "produksjonsressurser": 7924,
      "forsky": 7925,
      "lesere": 7926,
      "kundedata": 7927,
      "områdene": 7928,
      "Insi": 7929,
      "Lage": 7930,
      "langt": 7931,
      "logic": 7932,
      "logging": 7933,
      "utvider": 7934,
      "feilmeldinger": 7935,
      "prisene": 7936,
      "returer": 7937,
      "Avdeling": 7938,
      "journaloppføringer": 7939,
      "identity": 7940,
      "Kanal": 7941,
      "klargjort": 7942,
      "varighet": 7943,
      "utligninger": 7944,
      "mobilapper": 7945,
      "konfigurerte": 7946,
      "sporingen": 7947,
      "definisjonene": 7948,
      "dimensjonsverdiene": 7949,
      "dimensjonshierarkier": 7950,
      "problemene": 7951,
      "Bestem": 7952,
      "hovedskjema": 7953,
      "hovedkontoer": 7954,
      "startsiden": 7955,
      "arbeiderne": 7956,
      "arbeiderens": 7957,
      "policyregel": 7958,
      "series": 7959,
      "dialogbokser": 7960,
      "mottaker": 7961,
      "Levering": 7962,
      "starten": 7963,
      "tidsav": 7964,
      "timeregistrering": 7965,
      "daglig": 7966,
      "astene": 7967,
      "plukkes": 7968,
      "plukkliste": 7969,
      "enhetsliste": 7970,
      "kontrakten": 7971,
      "prepayment": 7972,
      "Varsler": 7973,
      "arbeidsflytprosesser": 7974,
      "trace": 7975,
      "klipp": 7976,
      "publiseres": 7977,
      "150": 7978,
      "oppgaveveiledninger": 7979,
      "medlemmene": 7980,
      "designeren": 7981,
      "rekrutt": 7982,
      "kombinerte": 7983,
      "saldoavskrivning": 7984,
      "Frame": 7985,
      "anleggsmiddelgruppe": 7986,
      "scenarios": 7987,
      "fane": 7988,
      "vertering": 7989,
      "skjules": 7990,
      "bokføringsdato": 7991,
      "sikkerhetsrollen": 7992,
      "kategoriske": 7993,
      "Startside": 7994,
      "avvist": 7995,
      "aktivak": 7996,
      "forfalte": 7997,
      "rutekobling": 7998,
      "Spesi": 7999,
      "Transport": 8000,
      "drar": 8001,
      "Nytt": 8002,
      "samsvars": 8003,
      "individuelt": 8004,
      "betydelig": 8005,
      "csv": 8006,
      "vurderinger": 8007,
      "vedlikeholder": 8008,
      "avskrivningsmetoden": 8009,
      "marker": 8010,
      "påvirkere": 8011,
      "kommandol": 8012,
      "etikettene": 8013,
      "snart": 8014,
      "Livs": 8015,
      "servicetil": 8016,
      "setningene": 8017,
      "utforsker": 8018,
      "Fakturavedlegg": 8019,
      "drivst": 8020,
      "servicekontrakten": 8021,
      "ossefall": 8022,
      "sanntid": 8023,
      "sertifikater": 8024,
      "Godkjenn": 8025,
      "datatype": 8026,
      "Planlegging": 8027,
      "Dimensjonshierarkin": 8028,
      "ight": 8029,
      "rønn": 8030,
      "Kjøps": 8031,
      "HTTP": 8032,
      "overskride": 8033,
      "maintenance": 8034,
      "følgesedler": 8035,
      "markedsførings": 8036,
      "korrigere": 8037,
      "metrikk": 8038,
      "livssyklusen": 8039,
      "kildene": 8040,
      "tilleggsinformasjon": 8041,
      "scriptions": 8042,
      "skjulte": 8043,
      "koordin": 8044,
      "Maksimum": 8045,
      "Prognose": 8046,
      "learn": 8047,
      "fakturalinjer": 8048,
      "restrict": 8049,
      "avsnittene": 8050,
      "kontiene": 8051,
      "annulleringer": 8052,
      "tilbakestille": 8053,
      "rembur": 8054,
      "Forhåndsvisning": 8055,
      "messages": 8056,
      "Manuell": 8057,
      "pbiviz": 8058,
      "illustr": 8059,
      "diagnosti": 8060,
      "oversettelser": 8061,
      "Etiketten": 8062,
      "historikk": 8063,
      "dedikerte": 8064,
      "Egendefinert": 8065,
      "Bokføringsgruppe": 8066,
      "Elektroniske": 8067,
      "defekte": 8068,
      "ordretype": 8069,
      "Tilgjengelighet": 8070,
      "selvbetjening": 8071,
      "solgte": 8072,
      "licenses": 8073,
      "lokasjonsdirektiv": 8074,
      "index": 8075,
      "constraints": 8076,
      "ordreretur": 8077,
      "ordrereturer": 8078,
      "indikatorer": 8079,
      "verdisetting": 8080,
      "fabrikat": 8081,
      "geografiske": 8082,
      "begrepene": 8083,
      "driftsstans": 8084,
      "Organisasjonsstyring": 8085,
      "akkurat": 8086,
      "skonfigurasjon": 8087,
      "danning": 8088,
      "oppfylles": 8089,
      "Enkelte": 8090,
      "choose": 8091,
      "labels": 8092,
      "racersykkel": 8093,
      "Uttrykk": 8094,
      "varslet": 8095,
      "Enterprise": 8096,
      "søkeresultatene": 8097,
      "QuickBook": 8098,
      "ALT": 8099,
      "should": 8100,
      "skyldes": 8101,
      "Ansettelses": 8102,
      "walkthrough": 8103,
      "Korrigere": 8104,
      "Ytelses": 8105,
      "hittil": 8106,
      "Pagin": 8107,
      "stavlen": 8108,
      "librar": 8109,
      "guidance": 8110,
      "urtigsøk": 8111,
      "overskredet": 8112,
      "alternate": 8113,
      "beskjed": 8114,
      "QuickBooks": 8115,
      "41": 8116,
      "Char": 8117,
      "Custom": 8118,
      "Dra": 8119,
      "Fi": 8120,
      "Fle": 8121,
      "FTI": 8122,
      "Go": 8123,
      "Gren": 8124,
      "MB": 8125,
      "Pur": 8126,
      "Rad": 8127,
      "SV": 8128,
      "Sø": 8129,
      "Sje": 8130,
      "Selg": 8131,
      "Summer": 8132,
      "Tar": 8133,
      "TOM": 8134,
      "Text": 8135,
      "Twitter": 8136,
      "URI": 8137,
      "bur": 8138,
      "case": 8139,
      "criter": 8140,
      "carri": 8141,
      "hjul": 8142,
      "kelt": 8143,
      "kris": 8144,
      "okker": 8145,
      "pæ": 8146,
      "stig": 8147,
      "tur": 8148,
      "util": 8149,
      "ube": 8150,
      "want": 8151,
      "yn": 8152,
      "Øk": 8153,
      "enavn": 8154,
      "enish": 8155,
      "eted": 8156,
      "etyper": 8157,
      "inkas": 8158,
      "inspek": 8159,
      "orden": 8160,
      "elsk": 8161,
      "anim": 8162,
      "forel": 8163,
      "forsikre": 8164,
      "stam": 8165,
      "stage": 8166,
      "remain": 8167,
      "omfanget": 8168,
      "destin": 8169,
      "iso": 8170,
      "tilstan": 8171,
      "tilskud": 8172,
      "estimer": 8173,
      "mekan": 8174,
      "ledende": 8175,
      "ledere": 8176,
      "ledes": 8177,
      "due": 8178,
      "ogni": 8179,
      "liten": 8180,
      "avvise": 8181,
      "densi": 8182,
      "datal": 8183,
      "opplæring": 8184,
      "oppstod": 8185,
      "utsnitt": 8186,
      "teamet": 8187,
      "beve": 8188,
      "sier": 8189,
      "sidet": 8190,
      "videres": 8191,
      "unch": 8192,
      "fik": 8193,
      "stein": 8194,
      "ended": 8195,
      "spare": 8196,
      "årlige": 8197,
      "formid": 8198,
      "rapportelementer": 8199,
      "cep": 8200,
      "nyere": 8201,
      "verdistrøm": 8202,
      "Opprinn": 8203,
      "Anskaff": 8204,
      "figur": 8205,
      "matisk": 8206,
      "følg": 8207,
      "adress": 8208,
      "postmal": 8209,
      "sestimat": 8210,
      "plukke": 8211,
      "gjengir": 8212,
      "Opprettet": 8213,
      "valitet": 8214,
      "samarbeide": 8215,
      "råvarer": 8216,
      "kontor": 8217,
      "bestiller": 8218,
      "sets": 8219,
      "lagerplassering": 8220,
      "lagerførings": 8221,
      "lagerflytt": 8222,
      "veldig": 8223,
      "Enheter": 8224,
      "Enkelt": 8225,
      "filformat": 8226,
      "filvedlegg": 8227,
      "asing": 8228,
      "rammer": 8229,
      "servicevaren": 8230,
      "serviceoppgaver": 8231,
      "relate": 8232,
      "manip": 8233,
      "party": 8234,
      "oplas": 8235,
      "produktdimensjoner": 8236,
      "selog": 8237,
      "skaps": 8238,
      "varepost": 8239,
      "Forsy": 8240,
      "leverandørene": 8241,
      "byr": 8242,
      "navne": 8243,
      "acy": 8244,
      "salgstilbud": 8245,
      "løses": 8246,
      "hjelpeside": 8247,
      "blå": 8248,
      "blokker": 8249,
      "understre": 8250,
      "atoren": 8251,
      "kjøpet": 8252,
      "ureal": 8253,
      "penden": 8254,
      "internal": 8255,
      "annon": 8256,
      "annot": 8257,
      "nedover": 8258,
      "kundefaktura": 8259,
      "datakort": 8260,
      "Inklu": 8261,
      "retningslinjer": 8262,
      "Datam": 8263,
      "Datab": 8264,
      "bind": 8265,
      "direkt": 8266,
      "instrumentbordflis": 8267,
      "instrumentbordfliser": 8268,
      "serversiden": 8269,
      "bygd": 8270,
      "logo": 8271,
      "utvidede": 8272,
      "forretningsregler": 8273,
      "forretningsavtale": 8274,
      "godkjennes": 8275,
      "ktede": 8276,
      "sammendrags": 8277,
      "fordelte": 8278,
      "Navi": 8279,
      "betalingsdato": 8280,
      "betalingsfil": 8281,
      "betalingsdatoen": 8282,
      "betalingsbilag": 8283,
      "ilepæ": 8284,
      "enhetens": 8285,
      "webskjema": 8286,
      "rullegardinmenyen": 8287,
      "høyden": 8288,
      "kjørsel": 8289,
      "kontaktselskaper": 8290,
      "bankfil": 8291,
      "tillatelsen": 8292,
      "spesialtegn": 8293,
      "kjøpsavtale": 8294,
      "mobilapp": 8295,
      "izing": 8296,
      "dimensjonsgruppen": 8297,
      "Viktige": 8298,
      "finansdimensjonen": 8299,
      "låst": 8300,
      "låse": 8301,
      "Dataene": 8302,
      "sikkerheten": 8303,
      "kolonnedefinisjon": 8304,
      "Innføring": 8305,
      "jobbene": 8306,
      "justert": 8307,
      "tilpasninger": 8308,
      "outlook": 8309,
      "statusene": 8310,
      "costing": 8311,
      "tidslinjen": 8312,
      "forsyninger": 8313,
      "Lagerlukking": 8314,
      "plukkingen": 8315,
      "colors": 8316,
      "søkeboksen": 8317,
      "enhetsskjemaet": 8318,
      "forhåndsdefinert": 8319,
      "tilkoblingene": 8320,
      "running": 8321,
      "predi": 8322,
      "Posi": 8323,
      "bestillingslinjen": 8324,
      "returns": 8325,
      "hurtigkategorien": 8326,
      "kontrolleres": 8327,
      "kontantrabatter": 8328,
      "Kommentar": 8329,
      "trekkes": 8330,
      "Kobling": 8331,
      "Etterfyllings": 8332,
      "Gjengi": 8333,
      "lokasjonene": 8334,
      "lukkings": 8335,
      "illustra": 8336,
      "sikkerhetsgrupper": 8337,
      "ght": 8338,
      "flex": 8339,
      "skontrollen": 8340,
      "satser": 8341,
      "driftsenheter": 8342,
      "Visualobjekter": 8343,
      "Delte": 8344,
      "forventes": 8345,
      "Funksjons": 8346,
      "omfatte": 8347,
      "vurderingen": 8348,
      "sponse": 8349,
      "SSRS": 8350,
      "avskrivningsprofil": 8351,
      "demonstrasjonsdataene": 8352,
      "innsikter": 8353,
      "konverteringen": 8354,
      "mulighetene": 8355,
      "databaser": 8356,
      "synkronisere": 8357,
      "redigeringsmodus": 8358,
      "forsendelser": 8359,
      "organisasjonene": 8360,
      "forsyningsordrer": 8361,
      "nøye": 8362,
      "servicekontrakttilbud": 8363,
      "ittel": 8364,
      "splanlegg": 8365,
      "ADFS": 8366,
      "Formatere": 8367,
      "kreditnotaen": 8368,
      "regionale": 8369,
      "Lokal": 8370,
      "applying": 8371,
      "fokusere": 8372,
      "Fortell": 8373,
      "fraværs": 8374,
      "keys": 8375,
      "batches": 8376,
      "utløpsdatoen": 8377,
      "arkiverte": 8378,
      "avtalegiromandat": 8379,
      "tools": 8380,
      "Økonomisk": 8381,
      "invitasjoner": 8382,
      "evaluere": 8383,
      "evaluerings": 8384,
      "garanti": 8385,
      "basislinje": 8386,
      "opplærings": 8387,
      "gjenbestillingspunkt": 8388,
      "Kategorien": 8389,
      "Handling": 8390,
      "Foreslå": 8391,
      "included": 8392,
      "kladdelinjer": 8393,
      "reiseregninger": 8394,
      "measures": 8395,
      "nettverk": 8396,
      "snarveier": 8397,
      "errors": 8398,
      "utformingsoverflaten": 8399,
      "favoritter": 8400,
      "fakturalinje": 8401,
      "fakturalinjen": 8402,
      "parallelle": 8403,
      "Beholdning": 8404,
      "maskinvarestasjonen": 8405,
      "regnskapsperiode": 8406,
      "stekst": 8407,
      "collection": 8408,
      "Tilbakeføre": 8409,
      "Justering": 8410,
      "faktaboks": 8411,
      "sideformatert": 8412,
      "fulgt": 8413,
      "Kombinere": 8414,
      "sannsynligvis": 8415,
      "classification": 8416,
      "aksep": 8417,
      "Storage": 8418,
      "slippe": 8419,
      "insurance": 8420,
      "defekter": 8421,
      "reduksjons": 8422,
      "Forespørsel": 8423,
      "demodatafirmaet": 8424,
      "hierarkinivå": 8425,
      "artefakter": 8426,
      "sorteringsrekkefølgen": 8427,
      "bruksdatarapporten": 8428,
      "ENTER": 8429,
      "klassifiserings": 8430,
      "audit": 8431,
      "inndelinger": 8432,
      "konsepter": 8433,
      "visualiseringsruten": 8434,
      "festet": 8435,
      "impact": 8436,
      "reverse": 8437,
      "provider": 8438,
      "stakere": 8439,
      "troubleshooting": 8440,
      "sjusteringer": 8441,
      "utlåns": 8442,
      "biters": 8443,
      "interessante": 8444,
      "opportunity": 8445,
      "frekvens": 8446,
      "halvfabrikat": 8447,
      "determining": 8448,
      "påkrevd": 8449,
      "original": 8450,
      "syntaks": 8451,
      "Adresse": 8452,
      "avstemmings": 8453,
      "datavisningstilordning": 8454,
      "laveste": 8455,
      "Dialogboksen": 8456,
      "webles": 8457,
      "Juridisk": 8458,
      "tilknytning": 8459,
      "boolsk": 8460,
      "development": 8461,
      "bidragsyter": 8462,
      "Muligheten": 8463,
      "shortcuts": 8464,
      "coverage": 8465,
      "kompilerings": 8466,
      "Tyskland": 8467,
      "loddrett": 8468,
      "sparametere": 8469,
      "flerdimensjonale": 8470,
      "hjemmesiden": 8471,
      "Ferdig": 8472,
      "fasene": 8473,
      "replenish": 8474,
      "praktisk": 8475,
      "Periodis": 8476,
      "anførselstegn": 8477,
      "sykdom": 8478,
      "beredskap": 8479,
      "Insights": 8480,
      "servicetilbud": 8481,
      "Fleksi": 8482,
      "inkasso": 8483,
      "remaining": 8484,
      "Inkluder": 8485,
      "39": 8486,
      "42": 8487,
      "43": 8488,
      "48": 8489,
      "53": 8490,
      "Bak": 8491,
      "Bas": 8492,
      "Bilder": 8493,
      "CP": 8494,
      "FR": 8495,
      "Gli": 8496,
      "Hurtigt": 8497,
      "IM": 8498,
      "Kvalitet": 8499,
      "Lin": 8500,
      "Mapp": 8501,
      "Mark": 8502,
      "Open": 8503,
      "Present": 8504,
      "Plat": 8505,
      "Rute": 8506,
      "Termin": 8507,
      "Uthe": 8508,
      "WAP": 8509,
      "ai": 8510,
      "ases": 8511,
      "ben": 8512,
      "bord": 8513,
      "btt": 8514,
      "cator": 8515,
      "dde": 8516,
      "dage": 8517,
      "falle": 8518,
      "hal": 8519,
      "hem": 8520,
      "late": 8521,
      "lavt": 8522,
      "ole": 8523,
      "odata": 8524,
      "renter": 8525,
      "swi": 8526,
      "tru": 8527,
      "takt": 8528,
      "ubetalte": 8529,
      "vt": 8530,
      "wid": 8531,
      "will": 8532,
      "eldig": 8533,
      "tide": 8534,
      "foran": 8535,
      "forsøk": 8536,
      "forklare": 8537,
      "reds": 8538,
      "respek": 8539,
      "que": 8540,
      "quotes": 8541,
      "omvend": 8542,
      "dec": 8543,
      "dependen": 8544,
      "member": 8545,
      "arsler": 8546,
      "verden": 8547,
      "ruting": 8548,
      "avsetning": 8549,
      "dential": 8550,
      "div": 8551,
      "dist": 8552,
      "daterte": 8553,
      "oppbe": 8554,
      "oppdage": 8555,
      "uter": 8556,
      "utlegg": 8557,
      "utsted": 8558,
      "been": 8559,
      "ritet": 8560,
      "sielt": 8561,
      "siering": 8562,
      "lations": 8563,
      "propor": 8564,
      "delinger": 8565,
      "fiktiv": 8566,
      "medarbeideren": 8567,
      "dataimport": 8568,
      "dataregistrering": 8569,
      "there": 8570,
      "fline": 8571,
      "føringen": 8572,
      "ekunder": 8573,
      "opprettere": 8574,
      "reset": 8575,
      "varet": 8576,
      "produserer": 8577,
      "overskrive": 8578,
      "trå": 8579,
      "trend": 8580,
      "anses": 8581,
      "brukergrensesnitt": 8582,
      "brukerdefinerte": 8583,
      "umuler": 8584,
      "betrakt": 8585,
      "definitions": 8586,
      "besle": 8587,
      "antas": 8588,
      "leverand": 8589,
      "mine": 8590,
      "skapasitet": 8591,
      "dokumentoppsett": 8592,
      "fakta": 8593,
      "budet": 8594,
      "builder": 8595,
      "sykehus": 8596,
      "attere": 8597,
      "hours": 8598,
      "credential": 8599,
      "tydelig": 8600,
      "updates": 8601,
      "serviceavtaler": 8602,
      "jenesten": 8603,
      "stykker": 8604,
      "manual": 8605,
      "optional": 8606,
      "usann": 8607,
      "Brukes": 8608,
      "banner": 8609,
      "vareutlignings": 8610,
      "ernavn": 8611,
      "drevet": 8612,
      "oppdater": 8613,
      "modellkonfigurasjon": 8614,
      "ktive": 8615,
      "sjekken": 8616,
      "malappen": 8617,
      "skrifter": 8618,
      "neren": 8619,
      "Tilleggs": 8620,
      "standardverdien": 8621,
      "standardarbeidsområdet": 8622,
      "nettsteder": 8623,
      "exec": 8624,
      "Utgift": 8625,
      "Utkast": 8626,
      "gjennomgå": 8627,
      "produksjonsruten": 8628,
      "produksjonsprosessen": 8629,
      "Strukt": 8630,
      "leseren": 8631,
      "knappene": 8632,
      "esider": 8633,
      "Revalu": 8634,
      "likevel": 8635,
      "lyd": 8636,
      "lys": 8637,
      "importen": 8638,
      "importing": 8639,
      "comm": 8640,
      "comput": 8641,
      "Info": 8642,
      "administreres": 8643,
      "tikkel": 8644,
      "fullføring": 8645,
      "bins": 8646,
      "forespur": 8647,
      "scatter": 8648,
      "godkjenninger": 8649,
      "sammenhen": 8650,
      "nåværende": 8651,
      "merkes": 8652,
      "operativ": 8653,
      "betalingsmodell": 8654,
      "betalingsbeløpet": 8655,
      "betalingsbetingelser": 8656,
      "resultatgruppe": 8657,
      "parametre": 8658,
      "first": 8659,
      "webkilder": 8660,
      "kjøretid": 8661,
      "største": 8662,
      "modul": 8663,
      "sentra": 8664,
      "sentrale": 8665,
      "engelsk": 8666,
      "kjøpsavtaler": 8667,
      "kostnadsobjekter": 8668,
      "kostnadsatferd": 8669,
      "pricing": 8670,
      "angre": 8671,
      "Merkna": 8672,
      "Innstillingene": 8673,
      "betingede": 8674,
      "panelet": 8675,
      "outbound": 8676,
      "virkelighet": 8677,
      "passende": 8678,
      "password": 8679,
      "bestillingslinjer": 8680,
      "detaljvisning": 8681,
      "hurtigvisnings": 8682,
      "adresseboken": 8683,
      "publiserte": 8684,
      "reference": 8685,
      "eventuell": 8686,
      "fastsetter": 8687,
      "Finner": 8688,
      "Samarbeid": 8689,
      "integritet": 8690,
      "faner": 8691,
      "gjennomsnittlige": 8692,
      "gjennomsnittskost": 8693,
      "stykklisteberegninger": 8694,
      "balan": 8695,
      "partiet": 8696,
      "charge": 8697,
      "kreditor": 8698,
      "bokføringsoppsett": 8699,
      "bokføringsgruppen": 8700,
      "margin": 8701,
      "monteringsvarer": 8702,
      "Spørrings": 8703,
      "mindreå": 8704,
      "opplevelser": 8705,
      "ansvarsområder": 8706,
      "skrev": 8707,
      "skrevne": 8708,
      "selected": 8709,
      "forfattere": 8710,
      "Betalingsmodell": 8711,
      "Kundekonto": 8712,
      "XMLA": 8713,
      "tildeler": 8714,
      "tildelinger": 8715,
      "Dynam": 8716,
      "bekreftelser": 8717,
      "Delene": 8718,
      "piler": 8719,
      "variabelen": 8720,
      "vedlikeholds": 8721,
      "rekvisisjons": 8722,
      "special": 8723,
      "Feste": 8724,
      "auto": 8725,
      "utgiften": 8726,
      "ferdigmelding": 8727,
      "telefoner": 8728,
      "synkroniserings": 8729,
      "foretrukket": 8730,
      "foretrukne": 8731,
      "Målet": 8732,
      "differences": 8733,
      "belastningen": 8734,
      "Fakturaer": 8735,
      "speriode": 8736,
      "sperioden": 8737,
      "implementering": 8738,
      "materials": 8739,
      "erstatnings": 8740,
      "Fysisk": 8741,
      "Krev": 8742,
      "kvitterings": 8743,
      "sikkerhetskopi": 8744,
      "Dimensjonshierarki": 8745,
      "statistics": 8746,
      "Kostnadsobjekt": 8747,
      "uthevet": 8748,
      "regions": 8749,
      "utestående": 8750,
      "organisasjonshierarkiet": 8751,
      "foreslått": 8752,
      "kassen": 8753,
      "forecasts": 8754,
      "ONUS": 8755,
      "toppen": 8756,
      "kostnadselementdimensjon": 8757,
      "strategier": 8758,
      "gjenspeile": 8759,
      "changing": 8760,
      "Formelen": 8761,
      "CRONUS": 8762,
      "Access": 8763,
      "salgsprisen": 8764,
      "aggregering": 8765,
      "Resultatene": 8766,
      "sprogrammet": 8767,
      "Informasjonen": 8768,
      "transformere": 8769,
      "Planlagte": 8770,
      "nettverket": 8771,
      "Nummerserier": 8772,
      "buttons": 8773,
      "Faktiske": 8774,
      "økten": 8775,
      "realized": 8776,
      "annullerer": 8777,
      "Alternativene": 8778,
      "potensiell": 8779,
      "parallell": 8780,
      "oppgradering": 8781,
      "Metode": 8782,
      "hind": 8783,
      "steksten": 8784,
      "bedrifts": 8785,
      "fulfill": 8786,
      "diagnoselog": 8787,
      "media": 8788,
      "historikken": 8789,
      "køen": 8790,
      "normal": 8791,
      "stoppe": 8792,
      "beslutning": 8793,
      "phone": 8794,
      "tekniske": 8795,
      "Verktøytips": 8796,
      "gjenkjenning": 8797,
      "selvbetjent": 8798,
      "anleggsmiddeltransaksjoner": 8799,
      "Virt": 8800,
      "Alltid": 8801,
      "tilnærm": 8802,
[...]
