{
  "version": "1.0",
  "truncation": null,
  "padding": null,
  "added_tokens": [
    {
      "id": 0,
      "content": "[UNK]",
      "single_word": false,
      "lstrip": false,
      "rstrip": false,
      "normalized": false,
      "special": true
    },
    {
      "id": 1,
      "content": "[PAD]",
      "single_word": false,
      "lstrip": false,
      "rstrip": false,
      "normalized": false,
      "special": true
    },
    {
      "id": 2,
      "content": "[BOS]",
      "single_word": false,
      "lstrip": false,
      "rstrip": false,
      "normalized": false,
      "special": true
    },
    {
      "id": 3,
      "content": "[EOS]",
      "single_word": false,
      "lstrip": false,
      "rstrip": false,
      "normalized": false,
      "special": true
    }
  ],
  "normalizer": null,
  "pre_tokenizer": {
    "type": "Whitespace"
  },
  "post_processor": null,
  "decoder": null,
  "model": {
    "type": "BPE",
    "dropout": null,
    "unk_token": "[UNK]",
    "continuing_subword_prefix": null,
    "end_of_word_suffix": null,
    "fuse_unk": false,
    "vocab": {
      "[UNK]": 0,
      "[PAD]": 1,
      "[BOS]": 2,
      "[EOS]": 3,
      "!": 4,
      "#": 5,
      "$": 6,
      "%": 7,
      "&": 8,
      "(": 9,
      ")": 10,
      "*": 11,
      "+": 12,
      ",": 13,
      "-": 14,
      ".": 15,
      "/": 16,
      "0": 17,
      "1": 18,
      "2": 19,
      "3": 20,
      "4": 21,
      "5": 22,
      "6": 23,
      "7": 24,
      "8": 25,
      "9": 26,
      ":": 27,
      ";": 28,
      "=": 29,
      "?": 30,
      "@": 31,
      "A": 32,
      "B": 33,
      "C": 34,
      "D": 35,
      "E": 36,
      "F": 37,
      "G": 38,
      "H": 39,
      "I": 40,
      "J": 41,
      "K": 42,
      "L": 43,
      "M": 44,
      "N": 45,
      "O": 46,
      "P": 47,
      "Q": 48,
      "R": 49,
      "S": 50,
      "T": 51,
      "U": 52,
      "V": 53,
      "W": 54,
      "X": 55,
      "Y": 56,
      "Z": 57,
      "\\": 58,
      "_": 59,
      "`": 60,
      "a": 61,
      "b": 62,
      "c": 63,
      "d": 64,
      "e": 65,
      "f": 66,
      "g": 67,
      "h": 68,
      "i": 69,
      "j": 70,
      "k": 71,
      "l": 72,
      "m": 73,
      "n": 74,
      "o": 75,
      "p": 76,
      "q": 77,
      "r": 78,
      "s": 79,
      "t": 80,
      "u": 81,
      "v": 82,
      "w": 83,
      "x": 84,
      "y": 85,
      "z": 86,
      "}": 87,
      "Å": 88,
      "Æ": 89,
      "É": 90,
      "×": 91,
      "Ø": 92,
      "à": 93,
      "â": 94,
      "å": 95,
      "æ": 96,
      "ç": 97,
      "é": 98,
      "ñ": 99,
      "÷": 100,
      "ø": 101,
      "ü": 102,
      "ă": 103,
      "č": 104,
      "š": 105,
      "ų": 106,
      "Ε": 107,
      "ά": 108,
      "η": 109,
      "ι": 110,
      "κ": 111,
      "λ": 112,
      "ν": 113,
      "Р": 114,
      "а": 115,
      "з": 116,
      "и": 117,
      "й": 118,
      "к": 119,
      "н": 120,
      "р": 121,
      "с": 122,
      "у": 123,
      "ь": 124,
      "ї": 125,
      "Қ": 126,
      "қ": 127,
      "​": 128,
      "‑": 129,
      "–": 130,
      "†": 131,
      "•": 132,
      "™": 133,
      "−": 134,
      "日": 135,
      "本": 136,
      "語": 137,
      "국": 138,
      "어": 139,
      "한": 140,
      "er": 141,
      "en": 142,
      "in": 143,
      "et": 144,
      "or": 145,
      "ti": 146,
      "el": 147,
      "an": 148,
      "st": 149,
      "ing": 150,
      "on": 151,
      "at": 152,
      "gt": 153,
      "de": 154,
      "ot": 155,
      "lt": 156,
      "qu": 157,
      "re": 158,
      "quot": 159,
      "for": 160,
      "al": 161,
      "me": 162,
      "til": 163,
      "es": 164,
      "der": 165,
      "vi": 166,
      "ar": 167,
      "og": 168,
      "pr": 169,
      "sk": 170,
      "om": 171,
      "na": 172,
      "le": 173,
      "af": 174,
      "du": 175,
      "ter": 176,
      "ig": 177,
      "ra": 178,
      "tion": 179,
      "se": 180,
      "den": 181,
      "name": 182,
      "ru": 183,
      "te": 184,
      "ne": 185,
      "ere": 186,
      "ning": 187,
      "di": 188,
      "ver": 189,
      "på": 190,
      "pp": 191,
      "fø": 192,
      "ag": 193,
      "&#": 194,
      "ler": 195,
      "ser": 196,
      "12": 197,
      "ed": 198,
      "124": 199,
      "dat": 200,
      "del": 201,
      "tet": 202,
      "kan": 203,
      "op": 204,
      "li": 205,
      "si": 206,
      "lg": 207,
      "rug": 208,
      "ak": 209,
      "il": 210,
      "iv": 211,
      "un": 212,
      "men": 213,
      "det": 214,
      "ow": 215,
      "be": 216,
      "ur": 217,
      "væ": 218,
      "vis": 219,
      "pro": 220,
      "kk": 221,
      "brug": 222,
      "pret": 223,
      "ol": 224,
      "ek": 225,
      "ds": 226,
      "med": 227,
      "and": 228,
      "ort": 229,
      "ende": 230,
      "to": 231,
      "ud": 232,
      "fel": 233,
      "ang": 234,
      "ab": 235,
      "kon": 236,
      "tr": 237,
      "eller": 238,
      "ad": 239,
      "he": 240,
      "ation": 241,
      "ost": 242,
      "as": 243,
      "som": 244,
      "ste": 245,
      "ower": 246,
      "ord": 247,
      "sp": 248,
      "år": 249,
      "æn": 250,
      "lig": 251,
      "kke": 252,
      "skal": 253,
      "feltet": 254,
      "ce": 255,
      "ør": 256,
      "mo": 257,
      "inger": 258,
      "fin": 259,
      "opret": 260,
      "vær": 261,
      "fi": 262,
      "ut": 263,
      "rapp": 264,
      "ings": 265,
      "it": 266,
      "tit": 267,
      "am": 268,
      "ind": 269,
      "app": 270,
      "fig": 271,
      "ninger": 272,
      "data": 273,
      "over": 274,
      "pl": 275,
      "bej": 276,
      "kr": 277,
      "ktion": 278,
      "før": 279,
      "Power": 280,
      "res": 281,
      "the": 282,
      "sen": 283,
      "ate": 284,
      "title": 285,
      "ac": 286,
      "form": 287,
      "lag": 288,
      "Du": 289,
      "lgende": 290,
      "læ": 291,
      "fra": 292,
      "ist": 293,
      "ve": 294,
      "ved": 295,
      "fl": 296,
      "kt": 297,
      "gen": 298,
      "ok": 299,
      "is": 300,
      "arbej": 301,
      "værdi": 302,
      "må": 303,
      "ul": 304,
      "hol": 305,
      "ny": 306,
      "ob": 307,
      "øb": 308,
      "gs": 309,
      "reg": 310,
      "ikke": 311,
      "akt": 312,
      "produ": 313,
      "ura": 314,
      "nings": 315,
      "ment": 316,
      "ent": 317,
      "Opret": 318,
      "BI": 319,
      "æt": 320,
      "os": 321,
      "nd": 322,
      "rer": 323,
      "gang": 324,
      "je": 325,
      "har": 326,
      "var": 327,
      "mp": 328,
      "ly": 329,
      "bruger": 330,
      "følgende": 331,
      "ele": 332,
      "else": 333,
      "jer": 334,
      "lik": 335,
      "till": 336,
      "of": 337,
      "orter": 338,
      "dit": 339,
      "ælg": 340,
      "ces": 341,
      "vil": 342,
      "are": 343,
      "sion": 344,
      "An": 345,
      "post": 346,
      "ive": 347,
      "akti": 348,
      "rapport": 349,
      "æl": 350,
      "ap": 351,
      "hed": 352,
      "Vælg": 353,
      "sninger": 354,
      "Klik": 355,
      "tal": 356,
      "lin": 357,
      "ge": 358,
      "bet": 359,
      "val": 360,
      "mer": 361,
      "per": 362,
      "skab": 363,
      "erede": 364,
      "hv": 365,
      "lager": 366,
      "fter": 367,
      "jek": 368,
      "ast": 369,
      "age": 370,
      "din": 371,
      "dan": 372,
      "sam": 373,
      "ering": 374,
      "ær": 375,
      "figur": 376,
      "um": 377,
      "con": 378,
      "under": 379,
      "fakt": 380,
      "kl": 381,
      "defin": 382,
      "min": 383,
      "gru": 384,
      "sal": 385,
      "vælg": 386,
      "port": 387,
      "Kon": 388,
      "oply": 389,
      "ic": 390,
      "ådan": 391,
      "Hvis": 392,
      "oplysninger": 393,
      "ske": 394,
      "ual": 395,
      "ene": 396,
      "Sådan": 397,
      "des": 398,
      "dig": 399,
      "us": 400,
      "bog": 401,
      "inds": 402,
      "Til": 403,
      "fun": 404,
      "Det": 405,
      "ans": 406,
      "ard": 407,
      "our": 408,
      "elle": 409,
      "stem": 410,
      "cre": 411,
      "iser": 412,
      "ark": 413,
      "set": 414,
      "ret": 415,
      "dato": 416,
      "servi": 417,
      "arbejds": 418,
      "efter": 419,
      "sty": 420,
      "så": 421,
      "kriv": 422,
      "lige": 423,
      "eret": 424,
      "ri": 425,
      "kom": 426,
      "når": 427,
      "proces": 428,
      "tes": 429,
      "ho": 430,
      "kost": 431,
      "up": 432,
      "visual": 433,
      "Den": 434,
      "ses": 435,
      "ma": 436,
      "oprette": 437,
      "ven": 438,
      "æng": 439,
      "vn": 440,
      "giv": 441,
      "sten": 442,
      "ode": 443,
      "ty": 444,
      "model": 445,
      "ct": 446,
      "nyt": 447,
      "rå": 448,
      "redit": 449,
      "rem": 450,
      "bes": 451,
      "læg": 452,
      "delse": 453,
      "rapporter": 454,
      "kun": 455,
      "indstill": 456,
      "ordre": 457,
      "betal": 458,
      "ænd": 459,
      "eb": 460,
      "bruge": 461,
      "bi": 462,
      "plan": 463,
      "gr": 464,
      "ier": 465,
      "semp": 466,
      "grupp": 467,
      "ner": 468,
      "hand": 469,
      "køb": 470,
      "denne": 471,
      "ch": 472,
      "bil": 473,
      "let": 474,
      "tab": 475,
      "bruges": 476,
      "menter": 477,
      "ram": 478,
      "Oprette": 479,
      "Ud": 480,
      "figura": 481,
      "faktura": 482,
      "figuration": 483,
      "create": 484,
      "oc": 485,
      "service": 486,
      "Når": 487,
      "bin": 488,
      "dt": 489,
      "stand": 490,
      "hj": 491,
      "ations": 492,
      "sæt": 493,
      "flere": 494,
      "cer": 495,
      "rel": 496,
      "Ind": 497,
      "ay": 498,
      "jekt": 499,
      "minist": 500,
      "ereg": 501,
      "områ": 502,
      "funktion": 503,
      "vises": 504,
      "power": 505,
      "erne": 506,
      "bo": 507,
      "get": 508,
      "ræ": 509,
      "trol": 510,
      "ælp": 511,
      "par": 512,
      "ingen": 513,
      "ati": 514,
      "Angiv": 515,
      "alle": 516,
      "mension": 517,
      "inde": 518,
      "åb": 519,
      "sempel": 520,
      "sy": 521,
      "met": 522,
      "bli": 523,
      "elt": 524,
      "vist": 525,
      "cen": 526,
      "For": 527,
      "tast": 528,
      "reditor": 529,
      "Brug": 530,
      "ci": 531,
      "hjælp": 532,
      "ordan": 533,
      "ban": 534,
      "handl": 535,
      "fil": 536,
      "omkost": 537,
      "ige": 538,
      "ørgs": 539,
      "figurere": 540,
      "em": 541,
      "ken": 542,
      "holder": 543,
      "øj": 544,
      "len": 545,
      "ros": 546,
      "knyt": 547,
      "dis": 548,
      "erer": 549,
      "apos": 550,
      "itet": 551,
      "salgs": 552,
      "dimension": 553,
      "oku": 554,
      "poster": 555,
      "In": 556,
      "bereg": 557,
      "opg": 558,
      "måde": 559,
      "visualiser": 560,
      "ba": 561,
      "vare": 562,
      "opdat": 563,
      "nem": 564,
      "heder": 565,
      "format": 566,
      "ble": 567,
      "sted": 568,
      "oft": 569,
      "mu": 570,
      "ro": 571,
      "dette": 572,
      "00": 573,
      "tik": 574,
      "fr": 575,
      "ash": 576,
      "føre": 577,
      "skr": 578,
      "ex": 579,
      "hvor": 580,
      "købs": 581,
      "En": 582,
      "ke": 583,
      "utom": 584,
      "icros": 585,
      "icrosoft": 586,
      "all": 587,
      "prog": 588,
      "filt": 589,
      "side": 590,
      "ens": 591,
      "inter": 592,
      "kker": 593,
      "bogfør": 594,
      "ster": 595,
      "produktion": 596,
      "id": 597,
      "få": 598,
      "alt": 599,
      "doku": 600,
      "fy": 601,
      "hvordan": 602,
      "hold": 603,
      "føj": 604,
      "formul": 605,
      "Indtast": 606,
      "iver": 607,
      "forbin": 608,
      "Denne": 609,
      "flow": 610,
      "indeholder": 611,
      "pe": 612,
      "web": 613,
      "De": 614,
      "od": 615,
      "administ": 616,
      "trin": 617,
      "ashbo": 618,
      "bel": 619,
      "Microsoft": 620,
      "Der": 621,
      "lø": 622,
      "ér": 623,
      "ave": 624,
      "ningen": 625,
      "lok": 626,
      "report": 627,
      "disse": 628,
      "også": 629,
      "sel": 630,
      "øg": 631,
      "standard": 632,
      "mål": 633,
      "apps": 634,
      "ft": 635,
      "græn": 636,
      "dashbo": 637,
      "forsk": 638,
      "bud": 639,
      "eksempel": 640,
      "hver": 641,
      "kreditor": 642,
      "gangs": 643,
      "antal": 644,
      "arbejder": 645,
      "tabel": 646,
      "navn": 647,
      "ign": 648,
      "Fø": 649,
      "produkt": 650,
      "man": 651,
      "elon": 652,
      "elser": 653,
      "formular": 654,
      "jene": 655,
      "kont": 656,
      "konfiguration": 657,
      "sour": 658,
      "vælge": 659,
      "angive": 660,
      "ult": 661,
      "by": 662,
      "angiv": 663,
      "konto": 664,
      "Skriv": 665,
      "ummer": 666,
      "olon": 667,
      "utomati": 668,
      "pon": 669,
      "varer": 670,
      "åbne": 671,
      "ren": 672,
      "ej": 673,
      "ationer": 674,
      "itor": 675,
      "ure": 676,
      "oprettes": 677,
      "viser": 678,
      "felter": 679,
      "tek": 680,
      "ængel": 681,
      "oder": 682,
      "lever": 683,
      "sigt": 684,
      "regist": 685,
      "gan": 686,
      "listen": 687,
      "forskel": 688,
      "tilg": 689,
      "stat": 690,
      "arbejdsområ": 691,
      "tem": 692,
      "ator": 693,
      "eg": 694,
      "tjene": 695,
      "rek": 696,
      "være": 697,
      "ust": 698,
      "føje": 699,
      "produktions": 700,
      "imp": 701,
      "eres": 702,
      "tilgængel": 703,
      "tid": 704,
      "portal": 705,
      "Op": 706,
      "slag": 707,
      "hvis": 708,
      "wit": 709,
      "ordrer": 710,
      "com": 711,
      "kolon": 712,
      "vet": 713,
      "nye": 714,
      "ring": 715,
      "oli": 716,
      "sn": 717,
      "datas": 718,
      "pørgs": 719,
      "how": 720,
      "tions": 721,
      "automati": 722,
      "tildel": 723,
      "stø": 724,
      "skabelon": 725,
      "wor": 726,
      "organ": 727,
      "vir": 728,
      "rul": 729,
      "Konfigurere": 730,
      "indstillinger": 731,
      "aktiver": 732,
      "diag": 733,
      "lob": 734,
      "støt": 735,
      "dine": 736,
      "use": 737,
      "ateg": 738,
      "art": 739,
      "siden": 740,
      "work": 741,
      "beløb": 742,
      "seret": 743,
      "skriv": 744,
      "trans": 745,
      "elementer": 746,
      "værdier": 747,
      "remgangs": 748,
      "aly": 749,
      "ew": 750,
      "kræ": 751,
      "forbindelse": 752,
      "amet": 753,
      "forskellige": 754,
      "ager": 755,
      "enhed": 756,
      "with": 757,
      "deb": 758,
      "pas": 759,
      "co": 760,
      "van": 761,
      "iske": 762,
      "kli": 763,
      "opretter": 764,
      "budget": 765,
      "yt": 766,
      "diagram": 767,
      "ale": 768,
      "nes": 769,
      "kontrol": 770,
      "view": 771,
      "uelle": 772,
      "fyl": 773,
      "samme": 774,
      "nskab": 775,
      "felt": 776,
      "vig": 777,
      "bestem": 778,
      "gå": 779,
      "aktiv": 780,
      "bille": 781,
      "au": 782,
      "tifi": 783,
      "ærk": 784,
      "planlæg": 785,
      "ocs": 786,
      "sl": 787,
      "ategor": 788,
      "odken": 789,
      "cel": 790,
      "tig": 791,
      "føres": 792,
      "gener": 793,
      "objekt": 794,
      "Docs": 795,
      "gennem": 796,
      "kter": 797,
      "andre": 798,
      "datasæt": 799,
      "Pro": 800,
      "ts": 801,
      "ange": 802,
      "St": 803,
      "aktion": 804,
      "baseret": 805,
      "ail": 806,
      "lan": 807,
      "enk": 808,
      "gte": 809,
      "version": 810,
      "debitor": 811,
      "end": 812,
      "isk": 813,
      "adgang": 814,
      "App": 815,
      "mat": 816,
      "out": 817,
      "son": 818,
      "datak": 819,
      "net": 820,
      "nog": 821,
      "order": 822,
      "linjer": 823,
      "genskab": 824,
      "organis": 825,
      "plac": 826,
      "element": 827,
      "remgangsmåde": 828,
      "mark": 829,
      "Følgende": 830,
      "mulig": 831,
      "bed": 832,
      "enter": 833,
      "anden": 834,
      "gruppe": 835,
      "peri": 836,
      "Des": 837,
      "job": 838,
      "ressour": 839,
      "apac": 840,
      "ellem": 841,
      "beskriv": 842,
      "rere": 843,
      "tri": 844,
      "rapporten": 845,
      "wh": 846,
      "eks": 847,
      "tekst": 848,
      "lad": 849,
      "mellem": 850,
      "dem": 851,
      "oprettet": 852,
      "artik": 853,
      "følg": 854,
      "Dette": 855,
      "række": 856,
      "eri": 857,
      "sammen": 858,
      "kompon": 859,
      "program": 860,
      "la": 861,
      "automatisk": 862,
      "Gen": 863,
      "Dat": 864,
      "avn": 865,
      "brugere": 866,
      "fores": 867,
      "virk": 868,
      "telse": 869,
      "ration": 870,
      "understøt": 871,
      "Over": 872,
      "beho": 873,
      "su": 874,
      "iveau": 875,
      "snit": 876,
      "datakil": 877,
      "nu": 878,
      "elses": 879,
      "Glob": 880,
      "rol": 881,
      "result": 882,
      "tra": 883,
      "regnskab": 884,
      "appen": 885,
      "øre": 886,
      "modt": 887,
      "from": 888,
      "Udvi": 889,
      "klad": 890,
      "Globalt": 891,
      "adres": 892,
      "opslag": 893,
      "Vis": 894,
      "sc": 895,
      "teg": 896,
      "oms": 897,
      "10": 898,
      "redig": 899,
      "lægs": 900,
      "coun": 901,
      "spe": 902,
      "ktionen": 903,
      "ejl": 904,
      "vitet": 905,
      "objek": 906,
      "Hv": 907,
      "ase": 908,
      "ringer": 909,
      "godken": 910,
      "inv": 911,
      "analy": 912,
      "red": 913,
      "mod": 914,
      "hier": 915,
      "tids": 916,
      "pris": 917,
      "tilknyt": 918,
      "rekte": 919,
      "led": 920,
      "finan": 921,
      "fer": 922,
      "Ek": 923,
      "ligt": 924,
      "registrer": 925,
      "mil": 926,
      "delser": 927,
      "omkostnings": 928,
      "behov": 929,
      "pri": 930,
      "add": 931,
      "svar": 932,
      "jø": 933,
      "lo": 934,
      "Tilføj": 935,
      "bu": 936,
      "pen": 937,
      "meddel": 938,
      "bat": 939,
      "apacitet": 940,
      "Di": 941,
      "anv": 942,
      "rull": 943,
      "log": 944,
      "fordel": 945,
      "miljø": 946,
      "udvi": 947,
      "status": 948,
      "server": 949,
      "try": 950,
      "projekt": 951,
      "item": 952,
      "træ": 953,
      "løb": 954,
      "visning": 955,
      "isten": 956,
      "aver": 957,
      "mere": 958,
      "Af": 959,
      "spost": 960,
      "filer": 961,
      "rullel": 962,
      "person": 963,
      "paramet": 964,
      "delses": 965,
      "ruden": 966,
      "heds": 967,
      "dashboard": 968,
      "tjenesten": 969,
      "jen": 970,
      "dokument": 971,
      "ful": 972,
      "enheder": 973,
      "ition": 974,
      "indhold": 975,
      "Apps": 976,
      "tede": 977,
      "medarbejder": 978,
      "speci": 979,
      "alog": 980,
      "oper": 981,
      "Vi": 982,
      "hvil": 983,
      "iden": 984,
      "th": 985,
      "derefter": 986,
      "Udvid": 987,
      "tag": 988,
      "but": 989,
      "skon": 990,
      "forespørgs": 991,
      "tiv": 992,
      "hierark": 993,
      "ger": 994,
      "Ad": 995,
      "gi": 996,
      "indkøbs": 997,
      "øn": 998,
      "inst": 999,
      "ortere": 1000,
      "aktivitet": 1001,
      "retur": 1002,
      "int": 1003,
      "konfigur": 1004,
      "betalings": 1005,
      "Fremgangsmåde": 1006,
      "ligere": 1007,
      "mail": 1008,
      "ændringer": 1009,
      "slut": 1010,
      "ks": 1011,
      "ket": 1012,
      "sætning": 1013,
      "rullelisten": 1014,
      "fejl": 1015,
      "begræn": 1016,
      "funktioner": 1017,
      "sterende": 1018,
      "mon": 1019,
      "brugerdefin": 1020,
      "egenskab": 1021,
      "tilgængelige": 1022,
      "ction": 1023,
      "moms": 1024,
      "pu": 1025,
      "pun": 1026,
      "aftal": 1027,
      "betaling": 1028,
      "ændre": 1029,
      "Ar": 1030,
      "system": 1031,
      "ments": 1032,
      "ustom": 1033,
      "kapacitet": 1034,
      "resultat": 1035,
      "uden": 1036,
      "ance": 1037,
      "gem": 1038,
      "kort": 1039,
      "tage": 1040,
      "visualiseringer": 1041,
      "artikel": 1042,
      "kal": 1043,
      "mobil": 1044,
      "dimensions": 1045,
      "Navn": 1046,
      "have": 1047,
      "rator": 1048,
      "Åb": 1049,
      "nummer": 1050,
      "tilpas": 1051,
      "linje": 1052,
      "uk": 1053,
      "sektionen": 1054,
      "br": 1055,
      "anlægs": 1056,
      "afskriv": 1057,
      "lær": 1058,
      "retnings": 1059,
      "heden": 1060,
      "indstilling": 1061,
      "opslaget": 1062,
      "erings": 1063,
      "stør": 1064,
      "faktur": 1065,
      "hoved": 1066,
      "custom": 1067,
      "liste": 1068,
      "fjer": 1069,
      "your": 1070,
      "ationen": 1071,
      "iz": 1072,
      "sag": 1073,
      "oversigt": 1074,
      "Tr": 1075,
      "enkelt": 1076,
      "gør": 1077,
      "endes": 1078,
      "grupper": 1079,
      "udlig": 1080,
      "tron": 1081,
      "valgte": 1082,
      "giver": 1083,
      "oden": 1084,
      "bage": 1085,
      "sh": 1086,
      "angivet": 1087,
      "put": 1088,
      "Defin": 1089,
      "løs": 1090,
      "kor": 1091,
      "ple": 1092,
      "definition": 1093,
      "tribut": 1094,
      "using": 1095,
      "dokumenter": 1096,
      "én": 1097,
      "her": 1098,
      "opgaver": 1099,
      "dashboar": 1100,
      "virksom": 1101,
      "Gå": 1102,
      "fan": 1103,
      "Ja": 1104,
      "pay": 1105,
      "direkte": 1106,
      "detal": 1107,
      "sisterende": 1108,
      "grund": 1109,
      "frem": 1110,
      "kode": 1111,
      "mentet": 1112,
      "nogle": 1113,
      "slet": 1114,
      "høj": 1115,
      "not": 1116,
      "processen": 1117,
      "elsen": 1118,
      "kør": 1119,
      "cenar": 1120,
      "str": 1121,
      "eringer": 1122,
      "foret": 1123,
      "konom": 1124,
      "værkt": 1125,
      "administrator": 1126,
      "fal": 1127,
      "eksisterende": 1128,
      "Ex": 1129,
      "Reg": 1130,
      "do": 1131,
      "way": 1132,
      "aktioner": 1133,
      "Få": 1134,
      "give": 1135,
      "relat": 1136,
      "bank": 1137,
      "handling": 1138,
      "Arbej": 1139,
      "mærk": 1140,
      "På": 1141,
      "accoun": 1142,
      "figurer": 1143,
      "gæl": 1144,
      "ip": 1145,
      "skær": 1146,
      "eksp": 1147,
      "fakturaer": 1148,
      "konfigurere": 1149,
      "vari": 1150,
      "betalinger": 1151,
      "Mark": 1152,
      "kna": 1153,
      "modtag": 1154,
      "Åbn": 1155,
      "kre": 1156,
      "forretnings": 1157,
      "Med": 1158,
      "ant": 1159,
      "tilføje": 1160,
      "lay": 1161,
      "gøre": 1162,
      "cedu": 1163,
      "arbejdsområde": 1164,
      "stru": 1165,
      "sklad": 1166,
      "filter": 1167,
      "import": 1168,
      "ting": 1169,
      "uler": 1170,
      "afsnit": 1171,
      "nede": 1172,
      "spørgs": 1173,
      "styring": 1174,
      "får": 1175,
      "uelt": 1176,
      "ore": 1177,
      "yder": 1178,
      "måder": 1179,
      "visualisering": 1180,
      "dataf": 1181,
      "type": 1182,
      "Bog": 1183,
      "scenar": 1184,
      "kanban": 1185,
      "valut": 1186,
      "Excel": 1187,
      "Al": 1188,
      "disp": 1189,
      "cont": 1190,
      "Konfigurer": 1191,
      "søg": 1192,
      "vej": 1193,
      "dige": 1194,
      "Om": 1195,
      "tilbage": 1196,
      "gående": 1197,
      "ned": 1198,
      "kkon": 1199,
      "typer": 1200,
      "kategor": 1201,
      "sti": 1202,
      "præ": 1203,
      "procedu": 1204,
      "Administ": 1205,
      "Ser": 1206,
      "rma": 1207,
      "anmod": 1208,
      "start": 1209,
      "aller": 1210,
      "ten": 1211,
      "ordren": 1212,
      "niveau": 1213,
      "poli": 1214,
      "able": 1215,
      "ass": 1216,
      "dende": 1217,
      "hæ": 1218,
      "rele": 1219,
      "finde": 1220,
      "mange": 1221,
      "nam": 1222,
      "detail": 1223,
      "flyt": 1224,
      "enten": 1225,
      "sales": 1226,
      "ware": 1227,
      "zure": 1228,
      "opgave": 1229,
      "gende": 1230,
      "ynam": 1231,
      "time": 1232,
      "rect": 1233,
      "desig": 1234,
      "kolonne": 1235,
      "kkes": 1236,
      "følge": 1237,
      "objekter": 1238,
      "publi": 1239,
      "Her": 1240,
      "ber": 1241,
      "dere": 1242,
      "attribut": 1243,
      "tere": 1244,
      "arbejde": 1245,
      "conne": 1246,
      "omkostninger": 1247,
      "stedet": 1248,
      "vanc": 1249,
      "komponenter": 1250,
      "20": 1251,
      "økonom": 1252,
      "fuld": 1253,
      "syn": 1254,
      "fa": 1255,
      "hæng": 1256,
      "ød": 1257,
      "opdatering": 1258,
      "adresse": 1259,
      "hierarki": 1260,
      "kil": 1261,
      "no": 1262,
      "aktuelle": 1263,
      "specifi": 1264,
      "hen": 1265,
      "produkter": 1266,
      "lå": 1267,
      "prin": 1268,
      "stykli": 1269,
      "beskrives": 1270,
      "oi": 1271,
      "proble": 1272,
      "angiver": 1273,
      "overfør": 1274,
      "cost": 1275,
      "Produ": 1276,
      "Fin": 1277,
      "cal": 1278,
      "oint": 1279,
      "udføre": 1280,
      "bliver": 1281,
      "bestemt": 1282,
      "fat": 1283,
      "im": 1284,
      "yn": 1285,
      "UR": 1286,
      "igt": 1287,
      "asse": 1288,
      "beting": 1289,
      "date": 1290,
      "ekst": 1291,
      "lev": 1292,
      "opi": 1293,
      "pak": 1294,
      "injer": 1295,
      "regler": 1296,
      "vend": 1297,
      "blev": 1298,
      "delsen": 1299,
      "Ak": 1300,
      "ktur": 1301,
      "findes": 1302,
      "datoen": 1303,
      "Et": 1304,
      "tive": 1305,
      "via": 1306,
      "jeg": 1307,
      "tilla": 1308,
      "Eksempel": 1309,
      "skærm": 1310,
      "Sk": 1311,
      "indu": 1312,
      "integ": 1313,
      "skri": 1314,
      "abel": 1315,
      "Inds": 1316,
      "stå": 1317,
      "deres": 1318,
      "idi": 1319,
      "sis": 1320,
      "sikker": 1321,
      "ktop": 1322,
      "processer": 1323,
      "ev": 1324,
      "dele": 1325,
      "kken": 1326,
      "kolonner": 1327,
      "Servi": 1328,
      "cy": 1329,
      "new": 1330,
      "dialog": 1331,
      "bok": 1332,
      "ges": 1333,
      "ling": 1334,
      "uridi": 1335,
      "assi": 1336,
      "første": 1337,
      "dimensioner": 1338,
      "cere": 1339,
      "indhol": 1340,
      "emne": 1341,
      "struktur": 1342,
      "forbrug": 1343,
      "opfyl": 1344,
      "brugeren": 1345,
      "off": 1346,
      "bogføres": 1347,
      "uds": 1348,
      "ity": 1349,
      "Kontrol": 1350,
      "lærred": 1351,
      "user": 1352,
      "invoi": 1353,
      "11": 1354,
      "beg": 1355,
      "spor": 1356,
      "Bet": 1357,
      "av": 1358,
      "md": 1359,
      "ties": 1360,
      "profil": 1361,
      "Desktop": 1362,
      "designer": 1363,
      "Sal": 1364,
      "alitet": 1365,
      "sider": 1366,
      "bankkon": 1367,
      "low": 1368,
      "pre": 1369,
      "ånd": 1370,
      "elek": 1371,
      "delige": 1372,
      "col": 1373,
      "star": 1374,
      "tering": 1375,
      "dataene": 1376,
      "muligt": 1377,
      "billede": 1378,
      "redigere": 1379,
      "handlings": 1380,
      "ted": 1381,
      "udgi": 1382,
      "skrive": 1383,
      "fanen": 1384,
      "afhæng": 1385,
      "klar": 1386,
      "kunde": 1387,
      "center": 1388,
      "spørgsmål": 1389,
      "91": 1390,
      "Red": 1391,
      "sig": 1392,
      "kket": 1393,
      "placering": 1394,
      "ressourcer": 1395,
      "93": 1396,
      "fe": 1397,
      "pan": 1398,
      "--": 1399,
      "ateway": 1400,
      "regel": 1401,
      "navnet": 1402,
      "brugerdefinerede": 1403,
      "værktøj": 1404,
      "Plan": 1405,
      "nal": 1406,
      "rec": 1407,
      "elektron": 1408,
      "Redig": 1409,
      "far": 1410,
      "lede": 1411,
      "test": 1412,
      "valu": 1413,
      "relevan": 1414,
      "meddelelse": 1415,
      "Alle": 1416,
      "juridi": 1417,
      "kry": 1418,
      "mel": 1419,
      "mapp": 1420,
      "ødven": 1421,
      "ines": 1422,
      "tre": 1423,
      "omfat": 1424,
      "navig": 1425,
      "valg": 1426,
      "grænse": 1427,
      "organisation": 1428,
      "procedure": 1429,
      "Bes": 1430,
      "Rapp": 1431,
      "Val": 1432,
      "øge": 1433,
      "seri": 1434,
      "design": 1435,
      "ført": 1436,
      "holde": 1437,
      "tilgængelig": 1438,
      "næ": 1439,
      "vindu": 1440,
      "forsy": 1441,
      "list": 1442,
      "elementet": 1443,
      "typ": 1444,
      "certifi": 1445,
      "blevet": 1446,
      "ER": 1447,
      "num": 1448,
      "product": 1449,
      "handlinger": 1450,
      "feren": 1451,
      "that": 1452,
      "egenskaber": 1453,
      "URL": 1454,
      "15": 1455,
      "Azure": 1456,
      "hel": 1457,
      "Data": 1458,
      "dialogbok": 1459,
      "PI": 1460,
      "US": 1461,
      "can": 1462,
      "fung": 1463,
      "offent": 1464,
      "ine": 1465,
      "ory": 1466,
      "configuration": 1467,
      "ou": 1468,
      "abat": 1469,
      "line": 1470,
      "aktivere": 1471,
      "Kreditor": 1472,
      "doc": 1473,
      "nødven": 1474,
      "pur": 1475,
      "salg": 1476,
      "Be": 1477,
      "ding": 1478,
      "stren": 1479,
      "nul": 1480,
      "andør": 1481,
      "omkostning": 1482,
      "che": 1483,
      "config": 1484,
      "Markér": 1485,
      "valuta": 1486,
      "præsen": 1487,
      "ML": 1488,
      "gu": 1489,
      "lu": 1490,
      "aler": 1491,
      "vise": 1492,
      "skj": 1493,
      "asser": 1494,
      "funktionen": 1495,
      "Opdat": 1496,
      "what": 1497,
      "datakilde": 1498,
      "detaljer": 1499,
      "layout": 1500,
      "rabat": 1501,
      "digt": 1502,
      "process": 1503,
      "hur": 1504,
      "forløb": 1505,
      "connect": 1506,
      "lem": 1507,
      "tildele": 1508,
      "planlægning": 1509,
      "purch": 1510,
      "Un": 1511,
      "hæn": 1512,
      "kunder": 1513,
      "tilføj": 1514,
      "datab": 1515,
      "reguler": 1516,
      "rapportering": 1517,
      "område": 1518,
      "kontakt": 1519,
      "Imp": 1520,
      "Re": 1521,
      "kat": 1522,
      "les": 1523,
      "konti": 1524,
      "parametre": 1525,
      "forespørgsel": 1526,
      "gemme": 1527,
      "Bem": 1528,
      "fast": 1529,
      "mind": 1530,
      "ry": 1531,
      "aktiveret": 1532,
      "install": 1533,
      "lere": 1534,
      "sprog": 1535,
      "øver": 1536,
      "rupp": 1537,
      "arbejdsgang": 1538,
      "Ret": 1539,
      "ery": 1540,
      "tabeller": 1541,
      "bogførings": 1542,
      "supp": 1543,
      "soli": 1544,
      "change": 1545,
      "antallet": 1546,
      "montage": 1547,
      "dispon": 1548,
      "ker": 1549,
      "udfyl": 1550,
      "definere": 1551,
      "planla": 1552,
      "posteringer": 1553,
      "reports": 1554,
      "batch": 1555,
      "anvendes": 1556,
      "systemet": 1557,
      "dataflow": 1558,
      "Bemærk": 1559,
      "igen": 1560,
      "leverandør": 1561,
      "løsning": 1562,
      "mæng": 1563,
      "udtry": 1564,
      "itter": 1565,
      "varen": 1566,
      "linjen": 1567,
      "komm": 1568,
      "selv": 1569,
      "manuelt": 1570,
      "manage": 1571,
      "materi": 1572,
      "handlingsruden": 1573,
      "kryds": 1574,
      "13": 1575,
      "Lager": 1576,
      "vide": 1577,
      "skode": 1578,
      "ject": 1579,
      "relevante": 1580,
      "configure": 1581,
      "Pr": 1582,
      "tvær": 1583,
      "tity": 1584,
      "tillinger": 1585,
      "bogføre": 1586,
      "knyttet": 1587,
      "ressource": 1588,
      "Gennem": 1589,
      "datakilder": 1590,
      "Betal": 1591,
      "16": 1592,
      "firma": 1593,
      "knapp": 1594,
      "offentlige": 1595,
      "filen": 1596,
      "Bogfør": 1597,
      "bas": 1598,
      "tæl": 1599,
      "stre": 1600,
      "sition": 1601,
      "mulighed": 1602,
      "sposter": 1603,
      "inddel": 1604,
      "rapportserver": 1605,
      "ics": 1606,
      "stype": 1607,
      "sempler": 1608,
      "transaktioner": 1609,
      "understøttes": 1610,
      "kilde": 1611,
      "Var": 1612,
      "Ænd": 1613,
      "terer": 1614,
      "oprettelse": 1615,
      "gro": 1616,
      "relaterede": 1617,
      "brugerne": 1618,
      "skede": 1619,
      "interval": 1620,
      "invoice": 1621,
      "dag": 1622,
      "edit": 1623,
      "andet": 1624,
      "sed": 1625,
      "værdien": 1626,
      "geby": 1627,
      "visualiseringen": 1628,
      "angives": 1629,
      "brow": 1630,
      "dashboards": 1631,
      "14": 1632,
      "cation": 1633,
      "ype": 1634,
      "seg": 1635,
      "neden": 1636,
      "pluk": 1637,
      "formel": 1638,
      "tidligere": 1639,
      "ønskede": 1640,
      "docu": 1641,
      "purchase": 1642,
      "Ved": 1643,
      "dr": 1644,
      "rav": 1645,
      "medlem": 1646,
      "defineret": 1647,
      "ournal": 1648,
      "arbejdsområdet": 1649,
      "items": 1650,
      "eringen": 1651,
      "planlægnings": 1652,
      "Aktiv": 1653,
      "Se": 1654,
      "one": 1655,
      "ated": 1656,
      "requ": 1657,
      "priser": 1658,
      "klo": 1659,
      "aktiviteter": 1660,
      "aftale": 1661,
      "dialogboksen": 1662,
      "fri": 1663,
      "fla": 1664,
      "blive": 1665,
      "hvert": 1666,
      "scenari": 1667,
      "Fun": 1668,
      "cent": 1669,
      "onne": 1670,
      "OS": 1671,
      "hånd": 1672,
      "indi": 1673,
      "ages": 1674,
      "act": 1675,
      "Angive": 1676,
      "punkt": 1677,
      "sat": 1678,
      "øje": 1679,
      "rekt": 1680,
      "tilstand": 1681,
      "ordrel": 1682,
      "templ": 1683,
      "parameter": 1684,
      "begrænsninger": 1685,
      "Under": 1686,
      "tværs": 1687,
      "fær": 1688,
      "ide": 1689,
      "nøg": 1690,
      "opsæt": 1691,
      "indlæ": 1692,
      "indstillingen": 1693,
      "Bruger": 1694,
      "payment": 1695,
      "fungerer": 1696,
      "Fi": 1697,
      "journal": 1698,
      "usines": 1699,
      "læggende": 1700,
      "metode": 1701,
      "filtrer": 1702,
      "afskrivning": 1703,
      "wareho": 1704,
      "krydsnings": 1705,
      "usiness": 1706,
      "ender": 1707,
      "besk": 1708,
      "formularen": 1709,
      "periode": 1710,
      "Hvad": 1711,
      "Spørgs": 1712,
      "ck": 1713,
      "ider": 1714,
      "ift": 1715,
      "inje": 1716,
      "ets": 1717,
      "tige": 1718,
      "ill": 1719,
      "ulti": 1720,
      "Tilføje": 1721,
      "Design": 1722,
      "kkeslæ": 1723,
      "bankkonto": 1724,
      "Spørgsmål": 1725,
      "loc": 1726,
      "Beskriv": 1727,
      "klokkeslæ": 1728,
      "Dis": 1729,
      "lot": 1730,
      "mak": 1731,
      "afkrydsnings": 1732,
      "sport": 1733,
      "Antal": 1734,
      "administration": 1735,
      "vendor": 1736,
      "Deb": 1737,
      "kredit": 1738,
      "ta": 1739,
      "tigt": 1740,
      "vælger": 1741,
      "rip": 1742,
      "Disse": 1743,
      "Vare": 1744,
      "dynam": 1745,
      "repræsen": 1746,
      "000": 1747,
      "portalen": 1748,
      "omfatter": 1749,
      "grænsefla": 1750,
      "timer": 1751,
      "arbejdsområder": 1752,
      "regnskabs": 1753,
      "størrel": 1754,
      "slette": 1755,
      "Service": 1756,
      "char": 1757,
      "ium": 1758,
      "ref": 1759,
      "valgt": 1760,
      "understøtter": 1761,
      "kladde": 1762,
      "Rediger": 1763,
      "cul": 1764,
      "søge": 1765,
      "skoder": 1766,
      "plo": 1767,
      "ktor": 1768,
      "beregnes": 1769,
      "konfigurations": 1770,
      "komponent": 1771,
      "analyse": 1772,
      "økonomiske": 1773,
      "Sam": 1774,
      "sektor": 1775,
      "own": 1776,
      "bilag": 1777,
      "Oversigt": 1778,
      "roller": 1779,
      "Direct": 1780,
      "calcul": 1781,
      "baserede": 1782,
      "kombin": 1783,
      "Regist": 1784,
      "yderligere": 1785,
      "36": 1786,
      "Qu": 1787,
      "sere": 1788,
      "afstem": 1789,
      "visuals": 1790,
      "Definere": 1791,
      "juridiske": 1792,
      "group": 1793,
      "ik": 1794,
      "kopi": 1795,
      "produktionsordre": 1796,
      "assifi": 1797,
      "klokkeslæt": 1798,
      "Bereg": 1799,
      "samlede": 1800,
      "ick": 1801,
      "beregning": 1802,
      "allerede": 1803,
      "bogføring": 1804,
      "lokale": 1805,
      "hvilke": 1806,
      "Arbejds": 1807,
      "bag": 1808,
      "ff": 1809,
      "gateway": 1810,
      "ikon": 1811,
      "ktet": 1812,
      "arch": 1813,
      "link": 1814,
      "sideinddel": 1815,
      "muligheder": 1816,
      "godkendelse": 1817,
      "est": 1818,
      "yl": 1819,
      "remium": 1820,
      "kontra": 1821,
      "Stand": 1822,
      "tilpasse": 1823,
      "afskrivnings": 1824,
      "customer": 1825,
      "Fjer": 1826,
      "bru": 1827,
      "ili": 1828,
      "page": 1829,
      "anbe": 1830,
      "vit": 1831,
      "afslut": 1832,
      "bekræ": 1833,
      "abonne": 1834,
      "tilling": 1835,
      "control": 1836,
      "salgsordre": 1837,
      "fts": 1838,
      "kontrolelement": 1839,
      "grundlæggende": 1840,
      "content": 1841,
      "betingelser": 1842,
      "Beskrivelse": 1843,
      "gitter": 1844,
      "servic": 1845,
      "Bruge": 1846,
      "filtre": 1847,
      "API": 1848,
      "Kom": 1849,
      "websted": 1850,
      "identifi": 1851,
      "gældende": 1852,
      "warehouse": 1853,
      "workflow": 1854,
      "anlægsaktiv": 1855,
      "streng": 1856,
      "Kun": 1857,
      "Mo": 1858,
      "Point": 1859,
      "forud": 1860,
      "igiv": 1861,
      "Konfiguration": 1862,
      "modeller": 1863,
      "gruppen": 1864,
      "opgør": 1865,
      "opdatere": 1866,
      "anlægsaktiver": 1867,
      "Planlæg": 1868,
      "Fakt": 1869,
      "Lad": 1870,
      "po": 1871,
      "top": 1872,
      "licen": 1873,
      "udføres": 1874,
      "ack": 1875,
      "kræver": 1876,
      "Gener": 1877,
      "udligning": 1878,
      "dashboardet": 1879,
      "accounts": 1880,
      "prø": 1881,
      "production": 1882,
      "aster": 1883,
      "part": 1884,
      "løn": 1885,
      "finanskon": 1886,
      "nota": 1887,
      "kategori": 1888,
      "alleri": 1889,
      "assign": 1890,
      "næste": 1891,
      "Før": 1892,
      "avanc": 1893,
      "han": 1894,
      "stati": 1895,
      "oplev": 1896,
      "Opsætning": 1897,
      "invent": 1898,
      "indkøbsordre": 1899,
      "stykliste": 1900,
      "overførsel": 1901,
      "Designoplysninger": 1902,
      "tom": 1903,
      "vå": 1904,
      "pla": 1905,
      "styper": 1906,
      "brugerdefineret": 1907,
      "asserabat": 1908,
      "ves": 1909,
      "atur": 1910,
      "sikre": 1911,
      "registrering": 1912,
      "Trin": 1913,
      "bå": 1914,
      "tikker": 1915,
      "aramet": 1916,
      "terier": 1917,
      "eksempler": 1918,
      "file": 1919,
      "lageret": 1920,
      "lagersted": 1921,
      "rix": 1922,
      "typen": 1923,
      "fakturaen": 1924,
      "metoder": 1925,
      "bogført": 1926,
      "enkel": 1927,
      "365": 1928,
      "inventory": 1929,
      "fte": 1930,
      "står": 1931,
      "ekon": 1932,
      "ekom": 1933,
      "ordnede": 1934,
      "define": 1935,
      "beskr": 1936,
      "tildelt": 1937,
      "programmet": 1938,
      "browser": 1939,
      "oprin": 1940,
      "rings": 1941,
      "forslag": 1942,
      "relationer": 1943,
      "bogførte": 1944,
      "gælder": 1945,
      "afkrydsningsfeltet": 1946,
      "fæl": 1947,
      "nit": 1948,
      "redu": 1949,
      "plet": 1950,
      "exam": 1951,
      "lokation": 1952,
      "kontak": 1953,
      "Hvor": 1954,
      "ledning": 1955,
      "tages": 1956,
      "anbefal": 1957,
      "POS": 1958,
      "cur": 1959,
      "xed": 1960,
      "ded": 1961,
      "teres": 1962,
      "tegr": 1963,
      "indsæt": 1964,
      "sett": 1965,
      "rækker": 1966,
      "opdateres": 1967,
      "ponent": 1968,
      "gennemsnit": 1969,
      "rolle": 1970,
      "højre": 1971,
      "Kan": 1972,
      "tim": 1973,
      "sker": 1974,
      "fører": 1975,
      "kontoen": 1976,
      "felterne": 1977,
      "kladden": 1978,
      "sikkerheds": 1979,
      "Fra": 1980,
      "optæl": 1981,
      "cess": 1982,
      "byg": 1983,
      "output": 1984,
      "integrer": 1985,
      "event": 1986,
      "knappen": 1987,
      "17": 1988,
      "dage": 1989,
      "sign": 1990,
      "menu": 1991,
      "speri": 1992,
      "mobi": 1993,
      "skabeloner": 1994,
      "tilknytning": 1995,
      "hele": 1996,
      "mæ": 1997,
      "sele": 1998,
      "opsætning": 1999,
      "behold": 2000,
      "datamodel": 2001,
      "ategori": 2002,
      "matrix": 2003,
      "forretningsproces": 2004,
      "Føj": 2005,
      "demo": 2006,
      "deling": 2007,
      "komp": 2008,
      "kunden": 2009,
      "bestemte": 2010,
      "billedet": 2011,
      "Hvordan": 2012,
      "fjerne": 2013,
      "Or": 2014,
      "dre": 2015,
      "krav": 2016,
      "anven": 2017,
      "pågældende": 2018,
      "sides": 2019,
      "kema": 2020,
      "when": 2021,
      "objektet": 2022,
      "Debitor": 2023,
      "ffek": 2024,
      "mobile": 2025,
      "Find": 2026,
      "my": 2027,
      "master": 2028,
      "va": 2029,
      "ørges": 2030,
      "tabellen": 2031,
      "ledger": 2032,
      "træet": 2033,
      "konfigureret": 2034,
      "anmodning": 2035,
      "problemer": 2036,
      "Standard": 2037,
      "und": 2038,
      "konver": 2039,
      "business": 2040,
      "mis": 2041,
      "entity": 2042,
      "referen": 2043,
      "fore": 2044,
      "fort": 2045,
      "run": 2046,
      "steder": 2047,
      "indgående": 2048,
      "rapporterings": 2049,
      "ændres": 2050,
      "tildeles": 2051,
      "diagrammet": 2052,
      "certifikat": 2053,
      "MF": 2054,
      "Ny": 2055,
      "glob": 2056,
      "odi": 2057,
      "sol": 2058,
      "slen": 2059,
      "øm": 2060,
      "inden": 2061,
      "først": 2062,
      "Analy": 2063,
      "åbnes": 2064,
      "formularer": 2065,
      "rekvi": 2066,
      "diagrammer": 2067,
      "orders": 2068,
      "fakturering": 2069,
      "Rapport": 2070,
      "køre": 2071,
      "ystem": 2072,
      "rece": 2073,
      "sim": 2074,
      "step": 2075,
      "umn": 2076,
      "frigiv": 2077,
      "Følg": 2078,
      "beskrivelse": 2079,
      "Sh": 2080,
      "udi": 2081,
      "rund": 2082,
      "move": 2083,
      "rettig": 2084,
      "column": 2085,
      "enkelte": 2086,
      "fakti": 2087,
      "fremgangsmåde": 2088,
      "erna": 2089,
      "ating": 2090,
      "forekom": 2091,
      "almin": 2092,
      "tilst": 2093,
      "rute": 2094,
      "sid": 2095,
      "behand": 2096,
      "importere": 2097,
      "bedre": 2098,
      "ization": 2099,
      "indholds": 2100,
      "forsyning": 2101,
      "udtryk": 2102,
      "prøve": 2103,
      "XML": 2104,
      "fle": 2105,
      "klus": 2106,
      "Tilpas": 2107,
      "bogfører": 2108,
      "artikler": 2109,
      "godkendelses": 2110,
      "forespørgsler": 2111,
      "returner": 2112,
      "account": 2113,
      "hæf": 2114,
      "template": 2115,
      "størrelsen": 2116,
      "Query": 2117,
      "sidesæt": 2118,
      "Share": 2119,
      "Som": 2120,
      "Slet": 2121,
      "Vær": 2122,
      "fiel": 2123,
      "worksp": 2124,
      "nogen": 2125,
      "konfigureres": 2126,
      "stående": 2127,
      "vinduet": 2128,
      "både": 2129,
      "SharePoint": 2130,
      "Kør": 2131,
      "Res": 2132,
      "just": 2133,
      "kø": 2134,
      "pag": 2135,
      "ét": 2136,
      "lejer": 2137,
      "føjer": 2138,
      "sætte": 2139,
      "basis": 2140,
      "billeder": 2141,
      "tries": 2142,
      "punkter": 2143,
      "details": 2144,
      "Finans": 2145,
      "skrift": 2146,
      "indholdet": 2147,
      "udsnit": 2148,
      "22": 2149,
      "Premium": 2150,
      "entries": 2151,
      "ori": 2152,
      "konsoli": 2153,
      "splan": 2154,
      "årsag": 2155,
      "finans": 2156,
      "indkøb": 2157,
      "overens": 2158,
      "gange": 2159,
      "modelbaserede": 2160,
      "relation": 2161,
      "sub": 2162,
      "medarbejdere": 2163,
      "virksomhed": 2164,
      "Omkost": 2165,
      "mindre": 2166,
      "Betalings": 2167,
      "beskriver": 2168,
      "input": 2169,
      "linket": 2170,
      "områder": 2171,
      "administrere": 2172,
      "tjeneste": 2173,
      "transaktion": 2174,
      "Dimension": 2175,
      "knap": 2176,
      "scenarier": 2177,
      "skjul": 2178,
      "Fr": 2179,
      "hu": 2180,
      "lut": 2181,
      "stil": 2182,
      "reser": 2183,
      "visuelle": 2184,
      "definerer": 2185,
      "ource": 2186,
      "venstre": 2187,
      "utomate": 2188,
      "kreditorer": 2189,
      "Start": 2190,
      "kortet": 2191,
      "ørgeskema": 2192,
      "SS": 2193,
      "da": 2194,
      "fixed": 2195,
      "sions": 2196,
      "Visual": 2197,
      "hvilken": 2198,
      "mær": 2199,
      "integr": 2200,
      "vidu": 2201,
      "tro": 2202,
      "kron": 2203,
      "organisationen": 2204,
      "fordelings": 2205,
      "hvilket": 2206,
      "kører": 2207,
      "specifikke": 2208,
      "sporing": 2209,
      "Hver": 2210,
      "Ti": 2211,
      "mid": 2212,
      "sende": 2213,
      "asset": 2214,
      "klu": 2215,
      "saldo": 2216,
      "flowet": 2217,
      "anvende": 2218,
      "princi": 2219,
      "elektronisk": 2220,
      "individu": 2221,
      "repræsenterer": 2222,
      "sideinddelte": 2223,
      "example": 2224,
      "Dynam": 2225,
      "cle": 2226,
      "dning": 2227,
      "down": 2228,
      "forhold": 2229,
      "projek": 2230,
      "procent": 2231,
      "kostpris": 2232,
      "update": 2233,
      "export": 2234,
      "placeringer": 2235,
      "sche": 2236,
      "skladde": 2237,
      "afsnittet": 2238,
      "elektroniske": 2239,
      "gra": 2240,
      "multi": 2241,
      "sælg": 2242,
      "eti": 2243,
      "tip": 2244,
      "ater": 2245,
      "behandling": 2246,
      "førsel": 2247,
      "lyt": 2248,
      "oplysningerne": 2249,
      "hjælpe": 2250,
      "interne": 2251,
      "søgning": 2252,
      "Produkt": 2253,
      "users": 2254,
      "mængde": 2255,
      "Filt": 2256,
      "bør": 2257,
      "relse": 2258,
      "spørgeskema": 2259,
      "actions": 2260,
      "compan": 2261,
      "Salgs": 2262,
      "document": 2263,
      "18": 2264,
      "luk": 2265,
      "rige": 2266,
      "yde": 2267,
      "enable": 2268,
      "inform": 2269,
      "separ": 2270,
      "embed": 2271,
      "Inter": 2272,
      "component": 2273,
      "general": 2274,
      "sammenlig": 2275,
      "scrip": 2276,
      "Produktion": 2277,
      "mappe": 2278,
      "nødvendige": 2279,
      "øjebli": 2280,
      "nøgle": 2281,
      "handel": 2282,
      "Le": 2283,
      "dra": 2284,
      "går": 2285,
      "kval": 2286,
      "sendes": 2287,
      "desk": 2288,
      "datoer": 2289,
      "modtager": 2290,
      "eksportere": 2291,
      "færdig": 2292,
      "lang": 2293,
      "nen": 2294,
      "sning": 2295,
      "forven": 2296,
      "tilfæl": 2297,
      "defineres": 2298,
      "målinger": 2299,
      "source": 2300,
      "kræves": 2301,
      "Definer": 2302,
      "attributter": 2303,
      "nedenfor": 2304,
      "AX": 2305,
      "canv": 2306,
      "injen": 2307,
      "inklu": 2308,
      "tilbud": 2309,
      "posting": 2310,
      "beskre": 2311,
      "indstillingerne": 2312,
      "Administrer": 2313,
      "USMF": 2314,
      "Ændre": 2315,
      "Fjern": 2316,
      "Nu": 2317,
      "koder": 2318,
      "læng": 2319,
      "uel": 2320,
      "vne": 2321,
      "enheden": 2322,
      "otek": 2323,
      "skaf": 2324,
      "standar": 2325,
      "knytte": 2326,
      "excel": 2327,
      "forbindelser": 2328,
      "registrere": 2329,
      "share": 2330,
      "kørsel": 2331,
      "types": 2332,
      "Opdater": 2333,
      "grænsefladen": 2334,
      "ace": 2335,
      "sorter": 2336,
      "profiler": 2337,
      "appli": 2338,
      "access": 2339,
      "metoden": 2340,
      "tract": 2341,
      "personer": 2342,
      "størrelse": 2343,
      "Trans": 2344,
      "public": 2345,
      "illust": 2346,
      "oprindelige": 2347,
      "forretningsprocesforløb": 2348,
      "desktop": 2349,
      "yper": 2350,
      "ree": 2351,
      "fordi": 2352,
      "ski": 2353,
      "afsp": 2354,
      "abelon": 2355,
      "tral": 2356,
      "regne": 2357,
      "aktive": 2358,
      "serviceordre": 2359,
      "funktionalitet": 2360,
      "alterna": 2361,
      "føjes": 2362,
      "kontrolelementer": 2363,
      "datasættet": 2364,
      "rækkefølge": 2365,
      "udvikl": 2366,
      "korrekt": 2367,
      "eksport": 2368,
      "tilladelser": 2369,
      "regulering": 2370,
      "kontakter": 2371,
      "Flyt": 2372,
      "Hent": 2373,
      "ug": 2374,
      "annul": 2375,
      "stemm": 2376,
      "posterings": 2377,
      "pakke": 2378,
      "number": 2379,
      "beskrevet": 2380,
      "pil": 2381,
      "xt": 2382,
      "mes": 2383,
      "sem": 2384,
      "visningen": 2385,
      "års": 2386,
      "lagerbehold": 2387,
      "flows": 2388,
      "beløbet": 2389,
      "return": 2390,
      "ize": 2391,
      "nose": 2392,
      "kommand": 2393,
      "arametre": 2394,
      "Dynamics": 2395,
      "effek": 2396,
      "ål": 2397,
      "tikken": 2398,
      "altid": 2399,
      "opier": 2400,
      "sikr": 2401,
      "spoli": 2402,
      "holdelse": 2403,
      "dtag": 2404,
      "salgsordrer": 2405,
      "resultaterne": 2406,
      "strøm": 2407,
      "numre": 2408,
      "DirectQuery": 2409,
      "reserv": 2410,
      "canvas": 2411,
      "Hvil": 2412,
      "bal": 2413,
      "telses": 2414,
      "other": 2415,
      "skat": 2416,
      "sit": 2417,
      "cep": 2418,
      "oprettede": 2419,
      "modellen": 2420,
      "administrer": 2421,
      "leverings": 2422,
      "skabelonen": 2423,
      "meddelelser": 2424,
      "foretage": 2425,
      "politik": 2426,
      "Skift": 2427,
      "farve": 2428,
      "Gennemse": 2429,
      "brugt": 2430,
      "oplevelse": 2431,
      "trodu": 2432,
      "clo": 2433,
      "ach": 2434,
      "Tildel": 2435,
      "angivne": 2436,
      "konfigurerer": 2437,
      "skladden": 2438,
      "designeren": 2439,
      "hurtig": 2440,
      "medlemmer": 2441,
      "requi": 2442,
      "faktiske": 2443,
      "øjeblikket": 2444,
      "kul": 2445,
      "kasserabat": 2446,
      "enummer": 2447,
      "appro": 2448,
      "ændring": 2449,
      "beregnede": 2450,
      "lokalitet": 2451,
      "Projekt": 2452,
      "Dato": 2453,
      "svarende": 2454,
      "imum": 2455,
      "planlagte": 2456,
      "Understøt": 2457,
      "DAX": 2458,
      "vor": 2459,
      "ows": 2460,
      "ørg": 2461,
      "lines": 2462,
      "Kont": 2463,
      "konfigurationer": 2464,
      "aftaler": 2465,
      "flytte": 2466,
      "serie": 2467,
      "planlagt": 2468,
      "rekvisition": 2469,
      "code": 2470,
      "galleri": 2471,
      "orer": 2472,
      "asen": 2473,
      "liggende": 2474,
      "fire": 2475,
      "hvad": 2476,
      "based": 2477,
      "opdateringer": 2478,
      "trastat": 2479,
      "adressen": 2480,
      "kategorier": 2481,
      "database": 2482,
      "gebyrer": 2483,
      "Gem": 2484,
      "Sp": 2485,
      "ha": 2486,
      "you": 2487,
      "øjer": 2488,
      "tial": 2489,
      "text": 2490,
      "påkræ": 2491,
      "veje": 2492,
      "skema": 2493,
      "Udlig": 2494,
      "ceres": 2495,
      "book": 2496,
      "filtrere": 2497,
      "portaler": 2498,
      "afhængigt": 2499,
      "check": 2500,
      "sidste": 2501,
      "regneark": 2502,
      "19": 2503,
      "cast": 2504,
      "nå": 2505,
      "point": 2506,
      "rig": 2507,
      "studi": 2508,
      "afsen": 2509,
      "direct": 2510,
      "delig": 2511,
      "aktions": 2512,
      "ansæt": 2513,
      "transfer": 2514,
      "linjerne": 2515,
      "følger": 2516,
      "prisen": 2517,
      "anmodninger": 2518,
      "workspace": 2519,
      "overensstemm": 2520,
      "company": 2521,
      "Sty": 2522,
      "mit": 2523,
      "senere": 2524,
      "vedlige": 2525,
      "ditor": 2526,
      "teksten": 2527,
      "integration": 2528,
      "record": 2529,
      "Aktivér": 2530,
      "chart": 2531,
      "Registrer": 2532,
      "information": 2533,
      "Com": 2534,
      "Web": 2535,
      "ain": 2536,
      "dom": 2537,
      "ution": 2538,
      "afgang": 2539,
      "tillad": 2540,
      "definerede": 2541,
      "ribu": 2542,
      "øjle": 2543,
      "beregne": 2544,
      "tjenester": 2545,
      "importer": 2546,
      "kontrolelementet": 2547,
      "grundlag": 2548,
      "værktøjer": 2549,
      "fuldført": 2550,
      "fault": 2551,
      "Funktion": 2552,
      "beskyt": 2553,
      "statisti": 2554,
      "hæftede": 2555,
      "schedu": 2556,
      "tilfælde": 2557,
      "And": 2558,
      "cs": 2559,
      "pa": 2560,
      "enyt": 2561,
      "forfal": 2562,
      "forrige": 2563,
      "terings": 2564,
      "visninger": 2565,
      "project": 2566,
      "postering": 2567,
      "setting": 2568,
      "kunne": 2569,
      "itets": 2570,
      "beregnet": 2571,
      "hvornår": 2572,
      "fysi": 2573,
      "belast": 2574,
      "muligvis": 2575,
      "kalender": 2576,
      "synkron": 2577,
      "ekstra": 2578,
      "begyn": 2579,
      "øverste": 2580,
      "fritekst": 2581,
      "Slå": 2582,
      "ede": 2583,
      "fac": 2584,
      "enti": 2585,
      "stin": 2586,
      "tilmel": 2587,
      "tilsvarende": 2588,
      "dif": 2589,
      "kri": 2590,
      "måned": 2591,
      "tilknyttet": 2592,
      "fremhæ": 2593,
      "Arbejde": 2594,
      "udgifter": 2595,
      "værktøjsti": 2596,
      "hændelser": 2597,
      "driv": 2598,
      "ekontra": 2599,
      "skaffel": 2600,
      "Godken": 2601,
      "kvit": 2602,
      "rk": 2603,
      "erstat": 2604,
      "ogle": 2605,
      "lementer": 2606,
      "indsigt": 2607,
      "overføres": 2608,
      "overvå": 2609,
      "generer": 2610,
      "rækken": 2611,
      "beregninger": 2612,
      "resultater": 2613,
      "relateret": 2614,
      "ynseg": 2615,
      "Import": 2616,
      "ploy": 2617,
      "forecast": 2618,
      "Ban": 2619,
      "System": 2620,
      "hør": 2621,
      "land": 2622,
      "tets": 2623,
      "open": 2624,
      "udlø": 2625,
      "overføre": 2626,
      "overordnede": 2627,
      "uld": 2628,
      "ndig": 2629,
      "links": 2630,
      "konfigurationen": 2631,
      "Vise": 2632,
      "maksim": 2633,
      "kontrakt": 2634,
      "Faktura": 2635,
      "select": 2636,
      "midler": 2637,
      "At": 2638,
      "Er": 2639,
      "Fort": 2640,
      "Kopi": 2641,
      "søjle": 2642,
      "we": 2643,
      "tiden": 2644,
      "delt": 2645,
      "udgående": 2646,
      "acti": 2647,
      "værdierne": 2648,
      "styre": 2649,
      "malt": 2650,
      "cerer": 2651,
      "området": 2652,
      "klikke": 2653,
      "generere": 2654,
      "genskaber": 2655,
      "Indstillinger": 2656,
      "kommando": 2657,
      "IS": 2658,
      "Post": 2659,
      "kler": 2660,
      "nt": 2661,
      "nor": 2662,
      "search": 2663,
      "dist": 2664,
      "plu": 2665,
      "ofte": 2666,
      "grun": 2667,
      "planning": 2668,
      "organisations": 2669,
      "udvidelsen": 2670,
      "starter": 2671,
      "nødvendigt": 2672,
      "rabatter": 2673,
      "ruppe": 2674,
      "kopiere": 2675,
      "avancerede": 2676,
      "plads": 2677,
      "bygge": 2678,
      "almindelige": 2679,
      "Del": 2680,
      "Lok": 2681,
      "cl": 2682,
      "dte": 2683,
      "god": 2684,
      "sær": 2685,
      "forklar": 2686,
      "delet": 2687,
      "medtages": 2688,
      "gengiv": 2689,
      "setup": 2690,
      "table": 2691,
      "indeholde": 2692,
      "herunder": 2693,
      "payments": 2694,
      "forbrugs": 2695,
      "lærredapp": 2696,
      "support": 2697,
      "scenarie": 2698,
      "servicekontra": 2699,
      "kompens": 2700,
      "mærke": 2701,
      "application": 2702,
      "Nej": 2703,
      "Si": 2704,
      "ctions": 2705,
      "dri": 2706,
      "lac": 2707,
      "lér": 2708,
      "nene": 2709,
      "stor": 2710,
      "streg": 2711,
      "ates": 2712,
      "tional": 2713,
      "action": 2714,
      "posten": 2715,
      "valider": 2716,
      "Integ": 2717,
      "programmer": 2718,
      "kladder": 2719,
      "udgifts": 2720,
      "etiket": 2721,
      "Ho": 2722,
      "Tabel": 2723,
      "tog": 2724,
      "aft": 2725,
      "kanal": 2726,
      "tran": 2727,
      "find": 2728,
      "resh": 2729,
      "entes": 2730,
      "Udfør": 2731,
      "hjør": 2732,
      "reporting": 2733,
      "tidspunkt": 2734,
      "look": 2735,
      "ændringerne": 2736,
      "hovedet": 2737,
      "variab": 2738,
      "Administrere": 2739,
      "problem": 2740,
      "---": 2741,
      "kreditnota": 2742,
      "timations": 2743,
      "optælling": 2744,
      "30": 2745,
      "AD": 2746,
      "Hj": 2747,
      "blik": 2748,
      "eløb": 2749,
      "store": 2750,
      "destin": 2751,
      "proper": 2752,
      "dens": 2753,
      "team": 2754,
      "består": 2755,
      "tillings": 2756,
      "kommer": 2757,
      "lokationer": 2758,
      "load": 2759,
      "installer": 2760,
      "ipel": 2761,
      "navigations": 2762,
      "Rapporter": 2763,
      "disponering": 2764,
      "filtrering": 2765,
      "Omkostnings": 2766,
      "Sørg": 2767,
      "bur": 2768,
      "atch": 2769,
      "default": 2770,
      "foruds": 2771,
      "skil": 2772,
      "mentar": 2773,
      "elec": 2774,
      "MicrosoftDocs": 2775,
      "versioner": 2776,
      "fjern": 2777,
      "virksomheden": 2778,
      "styklist": 2779,
      "hurtigt": 2780,
      "video": 2781,
      "Dimensions": 2782,
      "Visualiser": 2783,
      "Hjælp": 2784,
      "Log": 2785,
      "ader": 2786,
      "ceret": 2787,
      "oven": 2788,
      "esk": 2789,
      "navne": 2790,
      "legi": 2791,
      "mode": 2792,
      "samt": 2793,
      "nemt": 2794,
      "formatet": 2795,
      "compu": 2796,
      "operations": 2797,
      "økonomisk": 2798,
      "eksterne": 2799,
      "Services": 2800,
      "starte": 2801,
      "materiale": 2802,
      "Funktionen": 2803,
      "Automate": 2804,
      "Efter": 2805,
      "svarer": 2806,
      "vs": 2807,
      "afvig": 2808,
      "mens": 2809,
      "vægt": 2810,
      "provi": 2811,
      "sområ": 2812,
      "finding": 2813,
      "indtast": 2814,
      "indows": 2815,
      "fravær": 2816,
      "måle": 2817,
      "apan": 2818,
      "stypen": 2819,
      "Inst": 2820,
      "Intrastat": 2821,
      "generelle": 2822,
      "lagt": 2823,
      "management": 2824,
      "refresh": 2825,
      "finanskonti": 2826,
      "settings": 2827,
      "rettigheder": 2828,
      "Værdi": 2829,
      "legitimations": 2830,
      "Automati": 2831,
      "Fel": 2832,
      "Køb": 2833,
      "Nogle": 2834,
      "ejer": 2835,
      "kopier": 2836,
      "sektion": 2837,
      "aget": 2838,
      "ligator": 2839,
      "formance": 2840,
      "klassifi": 2841,
      "beslut": 2842,
      "serviceordrer": 2843,
      "sources": 2844,
      "leveran": 2845,
      "fyld": 2846,
      "registreres": 2847,
      "tronic": 2848,
      "Regnskab": 2849,
      "Valg": 2850,
      "disponi": 2851,
      "Aktivere": 2852,
      "Sammen": 2853,
      "returnerer": 2854,
      "multiple": 2855,
      "værktøjstip": 2856,
      "driven": 2857,
      "hjørne": 2858,
      "electronic": 2859,
      "AN": 2860,
      "EU": 2861,
      "Gent": 2862,
      "fon": 2863,
      "sler": 2864,
      "ink": 2865,
      "anter": 2866,
      "resp": 2867,
      "modi": 2868,
      "finder": 2869,
      "contract": 2870,
      "ansvar": 2871,
      "credit": 2872,
      "relations": 2873,
      "byder": 2874,
      "periodi": 2875,
      "rollen": 2876,
      "miljøet": 2877,
      "kalkul": 2878,
      "Try": 2879,
      "definitioner": 2880,
      "datafi": 2881,
      "hente": 2882,
      "sikkerhed": 2883,
      "strukturen": 2884,
      "begge": 2885,
      "lukke": 2886,
      "Importere": 2887,
      "ikonet": 2888,
      "bekræft": 2889,
      "solution": 2890,
      "delete": 2891,
      "21": 2892,
      "Fast": 2893,
      "Japan": 2894,
      "SE": 2895,
      "`-": 2896,
      "cering": 2897,
      "iste": 2898,
      "mar": 2899,
      "mom": 2900,
      "orted": 2901,
      "stra": 2902,
      "påvirk": 2903,
      "unit": 2904,
      "unkt": 2905,
      "udrul": 2906,
      "fir": 2907,
      "Anlægs": 2908,
      "ctor": 2909,
      "rækk": 2910,
      "vigtig": 2911,
      "tegn": 2912,
      "tilknyttede": 2913,
      "mobilenhed": 2914,
      "administratorer": 2915,
      "Finan": 2916,
      "Kontrollér": 2917,
      "posi": 2918,
      "lagerbeholdning": 2919,
      "Hvilke": 2920,
      "distribu": 2921,
      "200": 2922,
      "Pu": 2923,
      "koden": 2924,
      "behandl": 2925,
      "udskriv": 2926,
      "advar": 2927,
      "apply": 2928,
      "sene": 2929,
      "formler": 2930,
      "isere": 2931,
      "obligator": 2932,
      "Oprettelse": 2933,
      "lagerstedet": 2934,
      "basi": 2935,
      "key": 2936,
      "kreditorfaktura": 2937,
      "codes": 2938,
      "markeringen": 2939,
      "buil": 2940,
      "buds": 2941,
      "penge": 2942,
      "tilladelse": 2943,
      "mæs": 2944,
      "konsolider": 2945,
      "princip": 2946,
      "semplet": 2947,
      "Gentag": 2948,
      "Tryk": 2949,
      "Publi": 2950,
      "bred": 2951,
      "hist": 2952,
      "pack": 2953,
      "sli": 2954,
      "vat": 2955,
      "aljer": 2956,
      "tema": 2957,
      "neder": 2958,
      "formål": 2959,
      "fragt": 2960,
      "enty": 2961,
      "function": 2962,
      "rette": 2963,
      "Fores": 2964,
      "leverance": 2965,
      "kolonnen": 2966,
      "bestemmer": 2967,
      "debitorer": 2968,
      "perioder": 2969,
      "omkostningsobjekt": 2970,
      "identi": 2971,
      "slettes": 2972,
      "notifi": 2973,
      "skærmbilledet": 2974,
      "connector": 2975,
      "gemmes": 2976,
      "ordrelinjer": 2977,
      "situ": 2978,
      "Mak": 2979,
      "Per": 2980,
      "Søg": 2981,
      "Tekst": 2982,
      "fase": 2983,
      "kende": 2984,
      "remove": 2985,
      "erefter": 2986,
      "abili": 2987,
      "overflyt": 2988,
      "hard": 2989,
      "elefon": 2990,
      "ansaktioner": 2991,
      "ændrer": 2992,
      "funktions": 2993,
      "frynseg": 2994,
      "allok": 2995,
      "levering": 2996,
      "regnskabet": 2997,
      "adresser": 2998,
      "indkøbsordrer": 2999,
      "integreret": 3000,
      "eventuelle": 3001,
      "Bek": 3002,
      "ID": 3003,
      "Oper": 3004,
      "Sel": 3005,
      "capac": 3006,
      "fok": 3007,
      "fremgangs": 3008,
      "greg": 3009,
      "pul": 3010,
      "ående": 3011,
      "oritet": 3012,
      "anskaffel": 3013,
      "state": 3014,
      "forstå": 3015,
      "skel": 3016,
      "datat": 3017,
      "visnings": 3018,
      "udtog": 3019,
      "advanc": 3020,
      "modu": 3021,
      "sender": 3022,
      "Tilknyt": 3023,
      "Tillad": 3024,
      "riterier": 3025,
      "meta": 3026,
      "beregningen": 3027,
      "formater": 3028,
      "Føje": 3029,
      "implementer": 3030,
      "operation": 3031,
      "skonto": 3032,
      "lærre": 3033,
      "fuldføre": 3034,
      "assem": 3035,
      "Akti": 3036,
      "Varenummer": 3037,
      "sælger": 3038,
      "Common": 3039,
      "Bekræ": 3040,
      "advanced": 3041,
      "100": 3042,
      "25": 3043,
      "HT": 3044,
      "aut": 3045,
      "fact": 3046,
      "hon": 3047,
      "map": 3048,
      "stilling": 3049,
      "vende": 3050,
      "forbedre": 3051,
      "agree": 3052,
      "ælper": 3053,
      "Tilsidesæt": 3054,
      "Format": 3055,
      "emner": 3056,
      "knyttes": 3057,
      "discoun": 3058,
      "produktionsflow": 3059,
      "gemt": 3060,
      "modtaget": 3061,
      "søger": 3062,
      "timesed": 3063,
      "pakker": 3064,
      "sporings": 3065,
      "recor": 3066,
      "documents": 3067,
      "regnskabsår": 3068,
      "individuelle": 3069,
      "ugh": 3070,
      "synkroniser": 3071,
      "BL": 3072,
      "Hu": 3073,
      "Hand": 3074,
      "Ob": 3075,
      "ien": 3076,
      "ju": 3077,
      "kam": 3078,
      "she": 3079,
      "tot": 3080,
      "eting": 3081,
      "query": 3082,
      "real": 3083,
      "teret": 3084,
      "igh": 3085,
      "læse": 3086,
      "genbes": 3087,
      "varerne": 3088,
      "brugergrænsefladen": 3089,
      "hjælper": 3090,
      "åbner": 3091,
      "cial": 3092,
      "produktionsordrer": 3093,
      "logge": 3094,
      "operationer": 3095,
      "oversigten": 3096,
      "foretages": 3097,
      "foretaget": 3098,
      "eksporter": 3099,
      "besked": 3100,
      "groups": 3101,
      "components": 3102,
      "Produktions": 3103,
      "forventede": 3104,
      "påkrævet": 3105,
      "Hoved": 3106,
      "datafirma": 3107,
      "hardware": 3108,
      "Em": 3109,
      "Peri": 3110,
      "ade": 3111,
      "bar": 3112,
      "bind": 3113,
      "sing": 3114,
      "vek": 3115,
      "anti": 3116,
      "mest": 3117,
      "meget": 3118,
      "tilføjer": 3119,
      "afdel": 3120,
      "deleg": 3121,
      "ordnet": 3122,
      "indtil": 3123,
      "senhed": 3124,
      "services": 3125,
      "modelbaseret": 3126,
      "Indkøbs": 3127,
      "salgsfaktura": 3128,
      "dokumentet": 3129,
      "kontop": 3130,
      "kontrollere": 3131,
      "organisationer": 3132,
      "butik": 3133,
      "Afskriv": 3134,
      "resultatet": 3135,
      "løsnings": 3136,
      "virksomheder": 3137,
      "juridisk": 3138,
      "ordrelinje": 3139,
      "menuen": 3140,
      "pagin": 3141,
      "Lever": 3142,
      "længere": 3143,
      "benyt": 3144,
      "call": 3145,
      "dog": 3146,
      "evalu": 3147,
      "nøj": 3148,
      "pick": 3149,
      "rerede": 3150,
      "show": 3151,
      "ægt": 3152,
      "ence": 3153,
      "repar": 3154,
      "udløb": 3155,
      "vem": 3156,
      "minimum": 3157,
      "betalingen": 3158,
      "eby": 3159,
      "bibli": 3160,
      "cern": 3161,
      "ross": 3162,
      "roid": 3163,
      "rough": 3164,
      "alloc": 3165,
      "interag": 3166,
      "webstedet": 3167,
      "generate": 3168,
      "markere": 3169,
      "datakilden": 3170,
      "fjernes": 3171,
      "mærker": 3172,
      "vejledning": 3173,
      "opgavegu": 3174,
      "demodatafirma": 3175,
      "separat": 3176,
      "vores": 3177,
      "legitimationsoplysninger": 3178,
      "records": 3179,
      "paginated": 3180,
      "Ne": 3181,
      "azure": 3182,
      "bom": 3183,
      "back": 3184,
      "kæ": 3185,
      "klik": 3186,
      "rene": 3187,
      "forb": 3188,
      "tilbuds": 3189,
      "rum": 3190,
      "eksemplet": 3191,
      "span": 3192,
      "box": 3193,
      "beregnings": 3194,
      "exist": 3195,
      "keder": 3196,
      "aktiveres": 3197,
      "ython": 3198,
      "slå": 3199,
      "udvikler": 3200,
      "hierarkier": 3201,
      "begrænset": 3202,
      "mobilappen": 3203,
      "virksomheds": 3204,
      "Marker": 3205,
      "Kontroller": 3206,
      "begre": 3207,
      "avail": 3208,
      "firmaet": 3209,
      "task": 3210,
      "yldig": 3211,
      "Kunde": 3212,
      "prøveversion": 3213,
      "overensstemmelse": 3214,
      "forfalds": 3215,
      "entities": 3216,
      "kriterier": 3217,
      "transport": 3218,
      "properties": 3219,
      "adi": 3220,
      "blok": 3221,
      "ml": 3222,
      "row": 3223,
      "sige": 3224,
      "vel": 3225,
      "sek": 3226,
      "datag": 3227,
      "opmærk": 3228,
      "akur": 3229,
      "adig": 3230,
      "titel": 3231,
      "betyder": 3232,
      "Tildele": 3233,
      "kommentar": 3234,
      "reditnota": 3235,
      "ændret": 3236,
      "Udfyld": 3237,
      "central": 3238,
      "formatering": 3239,
      "frit": 3240,
      "leveres": 3241,
      "markeret": 3242,
      "omkostningselement": 3243,
      "logon": 3244,
      "personlige": 3245,
      "detalje": 3246,
      "vejs": 3247,
      "kilder": 3248,
      "værktøjet": 3249,
      "values": 3250,
      "vindue": 3251,
      "forsynings": 3252,
      "configurations": 3253,
      "tilføjes": 3254,
      "rykker": 3255,
      "indlæses": 3256,
      "Registrere": 3257,
      "baggrun": 3258,
      "vares": 3259,
      "field": 3260,
      "troduktion": 3261,
      "existing": 3262,
      "opmærksom": 3263,
      "24": 3264,
      "Bud": 3265,
      "CS": 3266,
      "Iden": 3267,
      "cac": 3268,
      "cash": 3269,
      "fem": 3270,
      "ph": 3271,
      "ures": 3272,
      "skl": 3273,
      "skategori": 3274,
      "ighed": 3275,
      "vedhæftede": 3276,
      "vali": 3277,
      "creating": 3278,
      "styk": 3279,
      "trinnene": 3280,
      "lokations": 3281,
      "organization": 3282,
      "analyser": 3283,
      "financial": 3284,
      "registreret": 3285,
      "udvide": 3286,
      "korrekte": 3287,
      "modtagelses": 3288,
      "2016": 3289,
      "evne": 3290,
      "cyklus": 3291,
      "preview": 3292,
      "navigation": 3293,
      "listes": 3294,
      "rapportserveren": 3295,
      "gebyr": 3296,
      "scenario": 3297,
      "anvender": 3298,
      "studium": 3299,
      "fysisk": 3300,
      "bibliotek": 3301,
      "Budget": 3302,
      "sum": 3303,
      "telser": 3304,
      "tager": 3305,
      "æste": 3306,
      "stadig": 3307,
      "devi": 3308,
      "opnå": 3309,
      "genopfyl": 3310,
      "reglen": 3311,
      "produktet": 3312,
      "måling": 3313,
      "bedste": 3314,
      "sammenholdelse": 3315,
      "display": 3316,
      "niveauer": 3317,
      "bankkonti": 3318,
      "value": 3319,
      "installere": 3320,
      "material": 3321,
      "parameters": 3322,
      "opsætninger": 3323,
      "myndig": 3324,
      "globale": 3325,
      "behandle": 3326,
      "activi": 3327,
      "variabler": 3328,
      "computer": 3329,
      "Selv": 3330,
      "kontoplan": 3331,
      "23": 3332,
      "Con": 3333,
      "Derefter": 3334,
      "Fuld": 3335,
      "To": 3336,
      "ile": 3337,
      "microsoft": 3338,
      "rang": 3339,
      "telefon": 3340,
      "yklus": 3341,
      "elet": 3342,
      "online": 3343,
      "review": 3344,
      "accep": 3345,
      "målg": 3346,
      "object": 3347,
      "gangen": 3348,
      "betalt": 3349,
      "underliggende": 3350,
      "ush": 3351,
      "chang": 3352,
      "exp": 3353,
      "intern": 3354,
      "enheds": 3355,
      "perioden": 3356,
      "modtagelse": 3357,
      "Administration": 3358,
      "Kontrolelementet": 3359,
      "lærredapps": 3360,
      "feed": 3361,
      "Valut": 3362,
      "databasen": 3363,
      "mindst": 3364,
      "mære": 3365,
      "reference": 3366,
      "kvalitets": 3367,
      "Importér": 3368,
      "Sikker": 3369,
      "Person": 3370,
      "99": 3371,
      "Avanc": 3372,
      "Siden": 3373,
      "belt": 3374,
      "kator": 3375,
      "mig": 3376,
      "uplo": 3377,
      "forsikr": 3378,
      "tilhør": 3379,
      "derfor": 3380,
      "serier": 3381,
      "site": 3382,
      "about": 3383,
      "koncern": 3384,
      "sparametre": 3385,
      "overskrift": 3386,
      "resource": 3387,
      "umre": 3388,
      "iseret": 3389,
      "prognose": 3390,
      "arbejdere": 3391,
      "produktvari": 3392,
      "manual": 3393,
      "ummeret": 3394,
      "register": 3395,
      "dataset": 3396,
      "gennemgå": 3397,
      "redje": 3398,
      "primære": 3399,
      "returvare": 3400,
      "publish": 3401,
      "hierarkiet": 3402,
      "level": 3403,
      "pakken": 3404,
      "invoices": 3405,
      "udgift": 3406,
      "feat": 3407,
      "request": 3408,
      "afstemning": 3409,
      "afslutning": 3410,
      "abonnement": 3411,
      "avanceret": 3412,
      "settle": 3413,
      "projekter": 3414,
      "cloud": 3415,
      "normalt": 3416,
      "fremgangsmåder": 3417,
      "metadata": 3418,
      "Gør": 3419,
      "IO": 3420,
      "Ikke": 3421,
      "Læ": 3422,
      "Na": 3423,
      "Te": 3424,
      "clu": 3425,
      "go": 3426,
      "ion": 3427,
      "kasse": 3428,
      "nos": 3429,
      "pop": 3430,
      "tak": 3431,
      "vning": 3432,
      "ze": 3433,
      "ques": 3434,
      "ders": 3435,
      "sector": 3436,
      "rule": 3437,
      "ditional": 3438,
      "aggreg": 3439,
      "option": 3440,
      "udfører": 3441,
      "overskri": 3442,
      "sample": 3443,
      "vælges": 3444,
      "mask": 3445,
      "webside": 3446,
      "løse": 3447,
      "egående": 3448,
      "noget": 3449,
      "placeret": 3450,
      "numer": 3451,
      "kladdel": 3452,
      "punktet": 3453,
      "typisk": 3454,
      "udfyldes": 3455,
      "opsætningen": 3456,
      "Hvorfor": 3457,
      "fields": 3458,
      "inkluder": 3459,
      "Attribut": 3460,
      "Automatisk": 3461,
      "Forespørgs": 3462,
      "Operations": 3463,
      "AP": 3464,
      "Moms": 3465,
      "beret": 3466,
      "ear": 3467,
      "ton": 3468,
      "tredje": 3469,
      "station": 3470,
      "depre": 3471,
      "visse": 3472,
      "olog": 3473,
      "olle": 3474,
      "tool": 3475,
      "somheds": 3476,
      "værende": 3477,
      "efterspørgs": 3478,
      "serviceartikel": 3479,
      "ativ": 3480,
      "files": 3481,
      "føjet": 3482,
      "ultat": 3483,
      "match": 3484,
      "logik": 3485,
      "fordeling": 3486,
      "indkøbsrekvisition": 3487,
      "definitionen": 3488,
      "politikker": 3489,
      "pane": 3490,
      "farver": 3491,
      "Brugeren": 3492,
      "dynamisk": 3493,
      "Model": 3494,
      "frigivet": 3495,
      "udsnits": 3496,
      "hukomm": 3497,
      "drag": 3498,
      "annuller": 3499,
      "drift": 3500,
      "påvirker": 3501,
      "capacity": 3502,
      "Ac": 3503,
      "Luk": 3504,
      "PA": 3505,
      "scre": 3506,
      "æne": 3507,
      "elig": 3508,
      "sto": 3509,
      "debi": 3510,
      "alen": 3511,
      "limit": 3512,
      "menup": 3513,
      "handlingen": 3514,
      "kreditorfakturaer": 3515,
      "vigtige": 3516,
      "endnu": 3517,
      "godkendt": 3518,
      "projektmappe": 3519,
      "specify": 3520,
      "Definition": 3521,
      "kontaktperson": 3522,
      "øverst": 3523,
      "calculation": 3524,
      "identificere": 3525,
      "Generelt": 3526,
      "anbefales": 3527,
      "ditoren": 3528,
      "tilladt": 3529,
      "søjlediagram": 3530,
      "forbrugsdata": 3531,
      "Install": 3532,
      "nøjag": 3533,
      "Alt": 3534,
      "Da": 3535,
      "Fejl": 3536,
      "Lø": 3537,
      "Ry": 3538,
      "Side": 3539,
      "Windows": 3540,
      "celle": 3541,
      "crip": 3542,
      "email": 3543,
      "kur": 3544,
      "qa": 3545,
      "ypen": 3546,
      "øde": 3547,
      "spore": 3548,
      "vede": 3549,
      "ætninger": 3550,
      "handle": 3551,
      "metho": 3552,
      "Form": 3553,
      "opdaterings": 3554,
      "budgetplan": 3555,
      "kontroller": 3556,
      "gennemgang": 3557,
      "Overvå": 3558,
      "track": 3559,
      "tidsplan": 3560,
      "skontrol": 3561,
      "ønsker": 3562,
      "begrænse": 3563,
      "større": 3564,
      "strateg": 3565,
      "stransaktioner": 3566,
      "Medtag": 3567,
      "skladder": 3568,
      "cycle": 3569,
      "hændelse": 3570,
      "Report": 3571,
      "forespørgsels": 3572,
      "Lagersted": 3573,
      "nedenstående": 3574,
      "gitteret": 3575,
      "misly": 3576,
      "forekomst": 3577,
      "tilstanden": 3578,
      "ydeevne": 3579,
      "handels": 3580,
      "afspej": 3581,
      "Bekræft": 3582,
      "HTML": 3583,
      "depreci": 3584,
      "Ele": 3585,
      "UBL": 3586,
      "hts": 3587,
      "kationer": 3588,
      "linger": 3589,
      "more": 3590,
      "rent": 3591,
      "tæt": 3592,
      "vent": 3593,
      "vha": 3594,
      "tidige": 3595,
      "medi": 3596,
      "tilsidesæt": 3597,
      "skort": 3598,
      "rut": 3599,
      "sering": 3600,
      "kraft": 3601,
      "sendt": 3602,
      "gentag": 3603,
      "api": 3604,
      "cerings": 3605,
      "løsninger": 3606,
      "lokationen": 3607,
      "transactions": 3608,
      "registrerings": 3609,
      "fordelinger": 3610,
      "tryk": 3611,
      "fejlmeddelelse": 3612,
      "aftalen": 3613,
      "dimensionsværdier": 3614,
      "customize": 3615,
      "Bogføre": 3616,
      "vejelser": 3617,
      "problemet": 3618,
      "opfylder": 3619,
      "helst": 3620,
      "Opdatere": 3621,
      "Modtag": 3622,
      "opgørelse": 3623,
      "global": 3624,
      "køres": 3625,
      "integrerede": 3626,
      "galleriet": 3627,
      "facili": 3628,
      "Neden": 3629,
      "datagateway": 3630,
      "Git": 3631,
      "ON": 3632,
      "amo": 3633,
      "bare": 3634,
      "dæ": 3635,
      "if": 3636,
      "ies": 3637,
      "kation": 3638,
      "raf": 3639,
      "ufact": 3640,
      "meas": 3641,
      "aranti": 3642,
      "lej": 3643,
      "afrund": 3644,
      "optimer": 3645,
      "kkere": 3646,
      "udfor": 3647,
      "udført": 3648,
      "lighed": 3649,
      "måske": 3650,
      "Anvend": 3651,
      "permis": 3652,
      "mulige": 3653,
      "øger": 3654,
      "aktiverer": 3655,
      "planlægge": 3656,
      "bedt": 3657,
      "Desig": 3658,
      "beskrivelser": 3659,
      "kapacitets": 3660,
      "sags": 3661,
      "udlignes": 3662,
      "løsningen": 3663,
      "terede": 3664,
      "Sales": 3665,
      "products": 3666,
      "Begræn": 3667,
      "editor": 3668,
      "websteds": 3669,
      "Faktur": 3670,
      "partner": 3671,
      "fortsætte": 3672,
      "receiv": 3673,
      "illustration": 3674,
      "Kopiér": 3675,
      "SEPA": 3676,
      "behandles": 3677,
      "Identifi": 3678,
      "efterspørgsel": 3679,
      "screen": 3680,
      "depreciation": 3681,
      "Bil": 3682,
      "Må": 3683,
      "Man": 3684,
      "cop": 3685,
      "gj": 3686,
      "hip": 3687,
      "År": 3688,
      "eng": 3689,
      "envir": 3690,
      "anmo": 3691,
      "stræ": 3692,
      "quick": 3693,
      "forbed": 3694,
      "tille": 3695,
      "rude": 3696,
      "header": 3697,
      "oversæt": 3698,
      "overview": 3699,
      "rapportside": 3700,
      "lageropsætninger": 3701,
      "minut": 3702,
      "Konto": 3703,
      "Detail": 3704,
      "opdateret": 3705,
      "produktkonfigurations": 3706,
      "manufact": 3707,
      "Proces": 3708,
      "adgangskode": 3709,
      "demand": 3710,
      "rediger": 3711,
      "analysere": 3712,
      "Eksport": 3713,
      "prioritet": 3714,
      "through": 3715,
      "kørslen": 3716,
      "afhænger": 3717,
      "katalog": 3718,
      "installation": 3719,
      "Rettelse": 3720,
      "supported": 3721,
      "udfylde": 3722,
      "location": 3723,
      "indsætte": 3724,
      "speriode": 3725,
      "embedded": 3726,
      "require": 3727,
      "servicekontrakt": 3728,
      "kompensations": 3729,
      "Integrer": 3730,
      "respon": 3731,
      "relationship": 3732,
      "copy": 3733,
      "environ": 3734,
      "KPI": 3735,
      "On": 3736,
      "QL": 3737,
      "Rel": 3738,
      "away": 3739,
      "bre": 3740,
      "egen": 3741,
      "nere": 3742,
      "stillinger": 3743,
      "stadi": 3744,
      "forsen": 3745,
      "foregående": 3746,
      "ality": 3747,
      "skift": 3748,
      "skreditnota": 3749,
      "options": 3750,
      "ilder": 3751,
      "væg": 3752,
      "ekster": 3753,
      "måden": 3754,
      "Konver": 3755,
      "usage": 3756,
      "komme": 3757,
      "indstillet": 3758,
      "sniveau": 3759,
      "used": 3760,
      "scyklus": 3761,
      "hierarch": 3762,
      "finansi": 3763,
      "fordele": 3764,
      "trykke": 3765,
      "delsesdato": 3766,
      "forespørgslen": 3767,
      "costs": 3768,
      "skærmbillede": 3769,
      "color": 3770,
      "lotnumre": 3771,
      "Planlægge": 3772,
      "finanskonto": 3773,
      "vareg": 3774,
      "modify": 3775,
      "basic": 3776,
      "lærredet": 3777,
      "agreement": 3778,
      "27": 3779,
      "Beløb": 3780,
      "Flere": 3781,
      "Python": 3782,
      "blan": 3783,
      "cerede": 3784,
      "card": 3785,
      "rør": 3786,
      "sådan": 3787,
      "tægt": 3788,
      "ers": 3789,
      "invit": 3790,
      "forker": 3791,
      "ograf": 3792,
      "ningsp": 3793,
      "urop": 3794,
      "udfør": 3795,
      "fice": 3796,
      "overveje": 3797,
      "lagrings": 3798,
      "posterne": 3799,
      "underordnede": 3800,
      "klasse": 3801,
      "saldi": 3802,
      "arbejdsproces": 3803,
      "forbindelsen": 3804,
      "comp": 3805,
      "virt": 3806,
      "instru": 3807,
      "fejlfinding": 3808,
      "Navnet": 3809,
      "kredi": 3810,
      "policy": 3811,
      "Finance": 3812,
      "afhængig": 3813,
      "mapping": 3814,
      "tilføjet": 3815,
      "intervaller": 3816,
      "templates": 3817,
      "downlo": 3818,
      "skifte": 3819,
      "approval": 3820,
      "Android": 3821,
      "maksimale": 3822,
      "vigtigste": 3823,
      "20022": 3824,
      "seneste": 3825,
      "fokus": 3826,
      "detaljeadgang": 3827,
      "styklisten": 3828,
      "Frem": 3829,
      "Opl": 3830,
      "SQL": 3831,
      "categor": 3832,
      "møn": 3833,
      "entry": 3834,
      "ann": 3835,
      "anlæg": 3836,
      "deaktivere": 3837,
      "omsætning": 3838,
      "deligt": 3839,
      "medtage": 3840,
      "tover": 3841,
      "udgiv": 3842,
      "abeller": 3843,
      "adjust": 3844,
      "øren": 3845,
      "ams": 3846,
      "aktisk": 3847,
      "styr": 3848,
      "rembur": 3849,
      "Brugere": 3850,
      "opdaterer": 3851,
      "exten": 3852,
      "rules": 3853,
      "versionen": 3854,
      "analysis": 3855,
      "finansposter": 3856,
      "meddelelsen": 3857,
      "trække": 3858,
      "mobilenheder": 3859,
      "strin": 3860,
      "contact": 3861,
      "politikken": 3862,
      "omkostningerne": 3863,
      "placeringen": 3864,
      "arbejdsgangen": 3865,
      "bankkontoudtog": 3866,
      "licens": 3867,
      "curren": 3868,
      "curity": 3869,
      "årsagskoder": 3870,
      "alternativ": 3871,
      "numbers": 3872,
      "genereres": 3873,
      "eskabelon": 3874,
      "Hub": 3875,
      "sheet": 3876,
      "manually": 3877,
      "amoun": 3878,
      "DE": 3879,
      "Kategori": 3880,
      "Of": 3881,
      "Plac": 3882,
      "hin": 3883,
      "leder": 3884,
      "deles": 3885,
      "lister": 3886,
      "beh": 3887,
      "udskrive": 3888,
      "udbyder": 3889,
      "vedrør": 3890,
      "arbejd": 3891,
      "lægning": 3892,
      "Foret": 3893,
      "vareposter": 3894,
      "rod": 3895,
      "ategorier": 3896,
      "jobs": 3897,
      "jobbet": 3898,
      "why": 3899,
      "følgen": 3900,
      "lav": 3901,
      "Overføre": 3902,
      "godkender": 3903,
      "registrerer": 3904,
      "løbende": 3905,
      "medarbejderen": 3906,
      "faktural": 3907,
      "ized": 3908,
      "ship": 3909,
      "højde": 3910,
      "mærkater": 3911,
      "filters": 3912,
      "valutakur": 3913,
      "levere": 3914,
      "rupper": 3915,
      "planlægningssystemet": 3916,
      "licenser": 3917,
      "sperioder": 3918,
      "Ordre": 3919,
      "alternative": 3920,
      "Fortsæt": 3921,
      "kopieres": 3922,
      "Regnskabs": 3923,
      "kampag": 3924,
      "device": 3925,
      "hinanden": 3926,
      "CSS": 3927,
      "DF": 3928,
      "IF": 3929,
      "Kasserabat": 3930,
      "bly": 3931,
      "fo": 3932,
      "ifi": 3933,
      "ko": 3934,
      "ror": 3935,
      "td": 3936,
      "Økonom": 3937,
      "tider": 3938,
      "dede": 3939,
      "arning": 3940,
      "afbil": 3941,
      "security": 3942,
      "akke": 3943,
      "undtag": 3944,
      "uring": 3945,
      "token": 3946,
      "additional": 3947,
      "lign": 3948,
      "regning": 3949,
      "region": 3950,
      "tillingen": 3951,
      "opgav": 3952,
      "købsfaktura": 3953,
      "intercompany": 3954,
      "gennemgår": 3955,
      "debitoren": 3956,
      "placerings": 3957,
      "foreslå": 3958,
      "button": 3959,
      "variabel": 3960,
      "connection": 3961,
      "faste": 3962,
      "Redigere": 3963,
      "chec": 3964,
      "materialer": 3965,
      "sats": 3966,
      "tax": 3967,
      "anbefaler": 3968,
      "justere": 3969,
      "Flytte": 3970,
      "schedule": 3971,
      "fritekstfaktura": 3972,
      "gengives": 3973,
      "obligatorisk": 3974,
      "anskaffelses": 3975,
      "manufacturing": 3976,
      "31": 3977,
      "Europ": 3978,
      "Knyt": 3979,
      "Klad": 3980,
      "Men": 3981,
      "PDF": 3982,
      "lings": 3983,
      "mand": 3984,
      "mappen": 3985,
      "sager": 3986,
      "enhver": 3987,
      "inclu": 3988,
      "tidigt": 3989,
      "recon": 3990,
      "resterende": 3991,
      "forh": 3992,
      "foræl": 3993,
      "ered": 3994,
      "delte": 3995,
      "udse": 3996,
      "udledning": 3997,
      "arbejdet": 3998,
      "performance": 3999,
      "samling": 4000,
      "bili": 4001,
      "ative": 4002,
      "exchange": 4003,
      "grænser": 4004,
      "ponenter": 4005,
      "klient": 4006,
      "gennemse": 4007,
      "bran": 4008,
      "sletter": 4009,
      "allery": 4010,
      "dynamics": 4011,
      "Beregning": 4012,
      "bekræfte": 4013,
      "lagersteds": 4014,
      "undgå": 4015,
      "columns": 4016,
      "illustrer": 4017,
      "Kontakt": 4018,
      "differen": 4019,
      "Bankkon": 4020,
      "Embed": 4021,
      "changes": 4022,
      "Navig": 4023,
      "environment": 4024,
      "Kl": 4025,
      "Nummer": 4026,
      "Out": 4027,
      "Port": 4028,
      "Tal": 4029,
      "Type": 4030,
      "dnings": 4031,
      "ni": 4032,
      "pipel": 4033,
      "so": 4034,
      "save": 4035,
      "stig": 4036,
      "ån": 4037,
      "tics": 4038,
      "dedi": 4039,
      "ary": 4040,
      "lean": 4041,
      "teringer": 4042,
      "liv": 4043,
      "adgangs": 4044,
      "formlen": 4045,
      "obbelt": 4046,
      "faktorer": 4047,
      "retning": 4048,
      "komple": 4049,
      "beskeder": 4050,
      "Udskriv": 4051,
      "serviceartikler": 4052,
      "board": 4053,
      "opdaterede": 4054,
      "filteret": 4055,
      "internet": 4056,
      "lokal": 4057,
      "tilgængeligt": 4058,
      "where": 4059,
      "statussen": 4060,
      "tivt": 4061,
      "tilpasses": 4062,
      "fjerner": 4063,
      "contain": 4064,
      "sights": 4065,
      "mængder": 4066,
      "grænseflade": 4067,
      "browseren": 4068,
      "integrere": 4069,
      "bekræftelse": 4070,
      "advarsel": 4071,
      "Tilsidesætter": 4072,
      "forsikring": 4073,
      "Elek": 4074,
      "Eksportér": 4075,
      "Europa": 4076,
      "reconci": 4077,
      "Embedded": 4078,
      "28": 4079,
      "Cen": 4080,
      "Felt": 4081,
      "Lin": 4082,
      "Pay": 4083,
      "SAP": 4084,
      "Viser": 4085,
      "Word": 4086,
      "aer": 4087,
      "ads": 4088,
      "kart": 4089,
      "nær": 4090,
      "sort": 4091,
      "ule": 4092,
      "ute": 4093,
      "udel": 4094,
      "eli": 4095,
      "esed": 4096,
      "skyl": 4097,
      "sitions": 4098,
      "brugen": 4099,
      "indtægt": 4100,
      "ress": 4101,
      "posted": 4102,
      "klassi": 4103,
      "ich": 4104,
      "bogst": 4105,
      "Tilbage": 4106,
      "cies": 4107,
      "employ": 4108,
      "Introduktion": 4109,
      "experi": 4110,
      "produktkvit": 4111,
      "egn": 4112,
      "tildeling": 4113,
      "netvær": 4114,
      "perio": 4115,
      "rækkefølgen": 4116,
      "meddelelses": 4117,
      "serveren": 4118,
      "operator": 4119,
      "egenskaben": 4120,
      "kapaciteten": 4121,
      "dimensionsgruppe": 4122,
      "faser": 4123,
      "opdateringen": 4124,
      "styklister": 4125,
      "udfyldt": 4126,
      "leverandører": 4127,
      "knapper": 4128,
      "kildedokument": 4129,
      "lock": 4130,
      "opgørelser": 4131,
      "Generere": 4132,
      "overførsels": 4133,
      "receip": 4134,
      "assets": 4135,
      "validering": 4136,
      "installeret": 4137,
      "udskrives": 4138,
      "Publicer": 4139,
      "situationer": 4140,
      "overflytnings": 4141,
      "discount": 4142,
      "spanelet": 4143,
      "behøver": 4144,
      "Business": 4145,
      "Hånd": 4146,
      "OIO": 4147,
      "PBI": 4148,
      "Pri": 4149,
      "Test": 4150,
      "gning": 4151,
      "ksi": 4152,
      "kum": 4153,
      "mi": 4154,
      "sdato": 4155,
      "xml": 4156,
      "into": 4157,
      "bevæg": 4158,
      "abok": 4159,
      "kontekst": 4160,
      "overvejelser": 4161,
      "consu": 4162,
      "faktor": 4163,
      "handler": 4164,
      "produktmaster": 4165,
      "portals": 4166,
      "netto": 4167,
      "komponenten": 4168,
      "behovet": 4169,
      "scan": 4170,
      "ferent": 4171,
      "kapaciteter": 4172,
      "kaldes": 4173,
      "Åbne": 4174,
      "fane": 4175,
      "vejled": 4176,
      "anmodningen": 4177,
      "face": 4178,
      "overførslen": 4179,
      "Salg": 4180,
      "mapper": 4181,
      "Vedlige": 4182,
      "dynamiske": 4183,
      "Organ": 4184,
      "konsolidere": 4185,
      "lukning": 4186,
      "annullere": 4187,
      "årsager": 4188,
      "ansættelses": 4189,
      "Stykli": 4190,
      "vedligeholde": 4191,
      "different": 4192,
      "forudsætninger": 4193,
      "Feltet": 4194,
      "build": 4195,
      "mæssige": 4196,
      "Periodi": 4197,
      "single": 4198,
      "sekven": 4199,
      "kommentarer": 4200,
      "tæthed": 4201,
      "GitHub": 4202,
      "livscyklus": 4203,
      "26": 4204,
      "40": 4205,
      "Grupp": 4206,
      "Job": 4207,
      "PN": 4208,
      "cli": 4209,
      "fol": 4210,
      "ht": 4211,
      "kolle": 4212,
      "mber": 4213,
      "pbi": 4214,
      "sa": 4215,
      "year": 4216,
      "zone": 4217,
      "tidig": 4218,
      "ands": 4219,
      "deaktiveret": 4220,
      "deler": 4221,
      "optim": 4222,
      "akkum": 4223,
      "læser": 4224,
      "ular": 4225,
      "betwe": 4226,
      "samarbejde": 4227,
      "arbejdsprocesser": 4228,
      "styrer": 4229,
      "cher": 4230,
      "Indkøb": 4231,
      "tastatur": 4232,
      "beregner": 4233,
      "opgra": 4234,
      "sidehoved": 4235,
      "interes": 4236,
      "kreditoren": 4237,
      "combin": 4238,
      "Stat": 4239,
      "roles": 4240,
      "opslags": 4241,
      "Direkte": 4242,
      "miljøer": 4243,
      "fuldt": 4244,
      "skonfiguration": 4245,
      "mobilapps": 4246,
      "dimensionsmedlem": 4247,
      "dimensionsmedlemmer": 4248,
      "nummerserier": 4249,
      "Indstil": 4250,
      "Indsæt": 4251,
      "opfylde": 4252,
      "serien": 4253,
      "valutaer": 4254,
      "reguleringer": 4255,
      "forudbetalings": 4256,
      "Planlægnings": 4257,
      "kundens": 4258,
      "sammenligne": 4259,
      "udvikling": 4260,
      "pilen": 4261,
      "bredde": 4262,
      "timeseddel": 4263,
      "demodatafirmaet": 4264,
      "available": 4265,
      "gjort": 4266,
      "minutter": 4267,
      "OIOUBL": 4268,
      "between": 4269,
      "AV": 4270,
      "Kort": 4271,
      "Kriterier": 4272,
      "Lag": 4273,
      "Met": 4274,
      "Parametre": 4275,
      "Svar": 4276,
      "Send": 4277,
      "automate": 4278,
      "blot": 4279,
      "itial": 4280,
      "jul": 4281,
      "mang": 4282,
      "renten": 4283,
      "ølg": 4284,
      "enkl": 4285,
      "ints": 4286,
      "etype": 4287,
      "dering": 4288,
      "print": 4289,
      "skoden": 4290,
      "didat": 4291,
      "opstår": 4292,
      "lic": 4293,
      "simp": 4294,
      "ekal": 4295,
      "ørge": 4296,
      "datapunkter": 4297,
      "acts": 4298,
      "forms": 4299,
      "iserede": 4300,
      "aktivet": 4301,
      "sætter": 4302,
      "salgsordren": 4303,
      "formaterings": 4304,
      "role": 4305,
      "transform": 4306,
      "elementerne": 4307,
      "redigerings": 4308,
      "tilknytninger": 4309,
      "omkostningsobjekter": 4310,
      "træk": 4311,
      "Afstem": 4312,
      "taget": 4313,
      "nummeret": 4314,
      "release": 4315,
      "flyttes": 4316,
      "specifik": 4317,
      "henhold": 4318,
      "Skabelon": 4319,
      "skriver": 4320,
      "fungere": 4321,
      "oub": 4322,
      "Behandle": 4323,
      "chef": 4324,
      "dataflows": 4325,
      "Betaling": 4326,
      "Bogføring": 4327,
      "centre": 4328,
      "håndtering": 4329,
      "Antallet": 4330,
      "calculate": 4331,
      "abonnements": 4332,
      "demofirmaet": 4333,
      "Spor": 4334,
      "skemaer": 4335,
      "rækkeniveau": 4336,
      "ISO": 4337,
      "ovenfor": 4338,
      "benytte": 4339,
      "allocation": 4340,
      "produktkonfigurationsmodel": 4341,
      "instruktion": 4342,
      "Central": 4343,
      "elimin": 4344,
      "employe": 4345,
      "Status": 4346,
      "Din": 4347,
      "Kredit": 4348,
      "Mu": 4349,
      "Mon": 4350,
      "Poli": 4351,
      "Und": 4352,
      "cap": 4353,
      "cted": 4354,
      "kar": 4355,
      "læn": 4356,
      "pligt": 4357,
      "sand": 4358,
      "ving": 4359,
      "elige": 4360,
      "deploy": 4361,
      "reserver": 4362,
      "skre": 4363,
      "edet": 4364,
      "trel": 4365,
      "asæt": 4366,
      "ples": 4367,
      "senheder": 4368,
      "flet": 4369,
      "genveje": 4370,
      "offl": 4371,
      "kla": 4372,
      "Detaljer": 4373,
      "efterkalkul": 4374,
      "processes": 4375,
      "gren": 4376,
      "graf": 4377,
      "oci": 4378,
      "relationen": 4379,
      "centr": 4380,
      "varekort": 4381,
      "forbindelses": 4382,
      "vigtigt": 4383,
      "debitorbetalinger": 4384,
      "marketing": 4385,
      "understøtte": 4386,
      "Eksempler": 4387,
      "personal": 4388,
      "Virk": 4389,
      "Adgang": 4390,
      "begrænsning": 4391,
      "kald": 4392,
      "detalj": 4393,
      "accounting": 4394,
      "Medarbejder": 4395,
      "specific": 4396,
      "Planlagt": 4397,
      "skjult": 4398,
      "Bogførings": 4399,
      "indikator": 4400,
      "satte": 4401,
      "rektang": 4402,
      "make": 4403,
      "kreditkort": 4404,
      "workflows": 4405,
      "tomt": 4406,
      "konverteres": 4407,
      "Analysis": 4408,
      "tilstrækk": 4409,
      "tips": 4410,
      "script": 4411,
      "Andre": 4412,
      "firm": 4413,
      "Teams": 4414,
      "afspejler": 4415,
      "Online": 4416,
      "hierarchy": 4417,
      "extension": 4418,
      "dedik": 4419,
      "Dashbo": 4420,
      "Egenskaber": 4421,
      "Fær": 4422,
      "Id": 4423,
      "NAV": 4424,
      "Str": 4425,
      "car": 4426,
      "evn": 4427,
      "gri": 4428,
      "mal": 4429,
      "pos": 4430,
      "prem": 4431,
      "små": 4432,
      "etil": 4433,
      "orti": 4434,
      "ante": 4435,
      "stjene": 4436,
      "skom": 4437,
      "omd": 4438,
      "rations": 4439,
      "føl": 4440,
      "kanaler": 4441,
      "admin": 4442,
      "skalender": 4443,
      "amle": 4444,
      "indbetaling": 4445,
      "sent": 4446,
      "ises": 4447,
      "Angiver": 4448,
      "conver": 4449,
      "styrings": 4450,
      "vendende": 4451,
      "gruppere": 4452,
      "parall": 4453,
      "åben": 4454,
      "formatkonfiguration": 4455,
      "frat": 4456,
      "progno": 4457,
      "rulle": 4458,
      "budgetter": 4459,
      "bestemme": 4460,
      "følgesed": 4461,
      "understøttelse": 4462,
      "roll": 4463,
      "this": 4464,
      "tilpasning": 4465,
      "administratoren": 4466,
      "variant": 4467,
      "struct": 4468,
      "adressekart": 4469,
      "cally": 4470,
      "colle": 4471,
      "valgfri": 4472,
      "strenge": 4473,
      "skjule": 4474,
      "montageordre": 4475,
      "selvom": 4476,
      "segmenter": 4477,
      "Varedisponering": 4478,
      "kombination": 4479,
      "sideinddelt": 4480,
      "customers": 4481,
      "indsættes": 4482,
      "signatur": 4483,
      "Resultat": 4484,
      "stille": 4485,
      "spørgeskemaet": 4486,
      "afspil": 4487,
      "skatalog": 4488,
      "administreret": 4489,
      "Understøttede": 4490,
      "regnearket": 4491,
      "provider": 4492,
      "sområde": 4493,
      "histor": 4494,
      "veksl": 4495,
      "begreber": 4496,
      "measure": 4497,
      "evnen": 4498,
      "Bu": 4499,
      "ST": 4500,
      "Source": 4501,
      "git": 4502,
      "snings": 4503,
      "tende": 4504,
      "error": 4505,
      "antity": 4506,
      "quantity": 4507,
      "napp": 4508,
      "neg": 4509,
      "dirig": 4510,
      "ops": 4511,
      "udveksl": 4512,
      "ostpris": 4513,
      "consoli": 4514,
      "faktabok": 4515,
      "ources": 4516,
      "main": 4517,
      "modeltilknytning": 4518,
      "nyttige": 4519,
      "køber": 4520,
      "serviceaftale": 4521,
      "ceniveau": 4522,
      "købsordre": 4523,
      "formula": 4524,
      "planlægger": 4525,
      "genererede": 4526,
      "Datak": 4527,
      "Overførsel": 4528,
      "modtage": 4529,
      "Visning": 4530,
      "finance": 4531,
      "Eksp": 4532,
      "aktivitets": 4533,
      "mailadresse": 4534,
      "tilpasninger": 4535,
      "related": 4536,
      "Arbejd": 4537,
      "contacts": 4538,
      "Server": 4539,
      "detailudledning": 4540,
      "betingelse": 4541,
      "avne": 4542,
      "navigere": 4543,
      "selvstudium": 4544,
      "Pris": 4545,
      "intervallet": 4546,
      "browsere": 4547,
      "taste": 4548,
      "current": 4549,
      "integrering": 4550,
      "frigivne": 4551,
      "Udligne": 4552,
      "domæne": 4553,
      "begynde": 4554,
      "særlige": 4555,
      "stregkode": 4556,
      "Visualiseringer": 4557,
      "disponible": 4558,
      "total": 4559,
      "Hovedkonto": 4560,
      "produktvarianter": 4561,
      "tracking": 4562,
      "Office": 4563,
      "bogstaver": 4564,
      "premises": 4565,
      "29": 4566,
      "HAN": 4567,
      "JS": 4568,
      "Skal": 4569,
      "Yder": 4570,
      "dy": 4571,
      "gallery": 4572,
      "hor": 4573,
      "hent": 4574,
      "last": 4575,
      "rate": 4576,
      "introdu": 4577,
      "anvend": 4578,
      "forsøger": 4579,
      "tilgang": 4580,
      "lgængel": 4581,
      "aksen": 4582,
      "mende": 4583,
      "toler": 4584,
      "konet": 4585,
      "konst": 4586,
      "ligger": 4587,
      "overordnet": 4588,
      "resources": 4589,
      "holdet": 4590,
      "bogmærke": 4591,
      "session": 4592,
      "maint": 4593,
      "lægges": 4594,
      "Ingen": 4595,
      "0000": 4596,
      "sidehovedet": 4597,
      "leveret": 4598,
      "produktionsordren": 4599,
      "coming": 4600,
      "complet": 4601,
      "which": 4602,
      "rækkedefinition": 4603,
      "Overfør": 4604,
      "ledte": 4605,
      "finanspost": 4606,
      "behovsprog": 4607,
      "indkøbsordren": 4608,
      "egenskaberne": 4609,
      "mobilapp": 4610,
      "hovedkonto": 4611,
      "foretager": 4612,
      "tilbagevendende": 4613,
      "startdato": 4614,
      "startsiden": 4615,
      "centers": 4616,
      "help": 4617,
      "kontaktpersoner": 4618,
      "baggrund": 4619,
      "kontrakter": 4620,
      "Fjerne": 4621,
      "abonnementer": 4622,
      "foruddefinerede": 4623,
      "gennemsnitlige": 4624,
      "Fran": 4625,
      "Tids": 4626,
      "projektet": 4627,
      "Filtre": 4628,
      "ydeevnen": 4629,
      "inkludere": 4630,
      "sorterings": 4631,
      "balan": 4632,
      "balance": 4633,
      "afsendelse": 4634,
      "importerer": 4635,
      "overvåge": 4636,
      "Bank": 4637,
      "godkende": 4638,
      "forklarer": 4639,
      "Tabellen": 4640,
      "pengestrøm": 4641,
      "Aktiver": 4642,
      "juster": 4643,
      "reparations": 4644,
      "opgaveguide": 4645,
      "nosti": 4646,
      "Oply": 4647,
      "category": 4648,
      "currency": 4649,
      "Portal": 4650,
      "internettet": 4651,
      "Elektron": 4652,
      "experience": 4653,
      "rentenot": 4654,
      "ISO20022": 4655,
      "adressekartotek": 4656,
      "Bed": 4657,
      "Doku": 4658,
      "Etik": 4659,
      "Kur": 4660,
      "Kapacitet": 4661,
      "Not": 4662,
      "RT": 4663,
      "bølg": 4664,
      "eu": 4665,
      "hentes": 4666,
      "møde": 4667,
      "push": 4668,
      "rics": 4669,
      "vand": 4670,
      "eten": 4671,
      "arte": 4672,
      "skategorier": 4673,
      "igang": 4674,
      "ragt": 4675,
      "pport": 4676,
      "undet": 4677,
      "bevares": 4678,
      "profile": 4679,
      "udlå": 4680,
      "oken": 4681,
      "anset": 4682,
      "created": 4683,
      "givet": 4684,
      "tables": 4685,
      "funktionerne": 4686,
      "Forb": 4687,
      "Fordel": 4688,
      "expl": 4689,
      "peci": 4690,
      "selve": 4691,
      "egne": 4692,
      "automatically": 4693,
      "tildeler": 4694,
      "transaktions": 4695,
      "billed": 4696,
      "endar": 4697,
      "AppSource": 4698,
      "Datasæt": 4699,
      "redigering": 4700,
      "redigerer": 4701,
      "price": 4702,
      "logget": 4703,
      "Afslut": 4704,
      "izations": 4705,
      "udligninger": 4706,
      "højere": 4707,
      "skærmen": 4708,
      "procedurer": 4709,
      "publicere": 4710,
      "evt": 4711,
      "prep": 4712,
      "relevant": 4713,
      "rapporteringstræ": 4714,
      "rykkere": 4715,
      "arbejdsgange": 4716,
      "Retur": 4717,
      "Vari": 4718,
      "håndtere": 4719,
      "referer": 4720,
      "Quick": 4721,
      "partnere": 4722,
      "tomme": 4723,
      "returneres": 4724,
      "Slette": 4725,
      "stillede": 4726,
      "Time": 4727,
      "Filtrer": 4728,
      "tilladte": 4729,
      "begynder": 4730,
      "Anlægsaktiver": 4731,
      "Anlægsaktiv": 4732,
      "principal": 4733,
      "temaer": 4734,
      "Maks": 4735,
      "assembly": 4736,
      "udforske": 4737,
      "checks": 4738,
      "Færdig": 4739,
      "HANA": 4740,
      "Yderligere": 4741,
      "Oplysninger": 4742,
      "Etiket": 4743,
      "33": 4744,
      "CR": 4745,
      "Galleri": 4746,
      "Hur": 4747,
      "Kode": 4748,
      "Shel": 4749,
      "Slut": 4750,
      "cations": 4751,
      "cross": 4752,
      "ffe": 4753,
      "garanti": 4754,
      "hal": 4755,
      "ir": 4756,
      "jan": 4757,
      "kår": 4758,
      "premium": 4759,
      "ringen": 4760,
      "uar": 4761,
      "yg": 4762,
      "øv": 4763,
      "viste": 4764,
      "arrang": 4765,
      "ternal": 4766,
      "dates": 4767,
      "unde": 4768,
      "unktet": 4769,
      "dets": 4770,
      "medmindre": 4771,
      "overblik": 4772,
      "krig": 4773,
      "former": 4774,
      "issu": 4775,
      "Tilmel": 4776,
      "functions": 4777,
      "grupperede": 4778,
      "letter": 4779,
      "tasten": 4780,
      "allow": 4781,
      "interaktioner": 4782,
      "Derfor": 4783,
      "standardomkostninger": 4784,
      "common": 4785,
      "automatic": 4786,
      "debit": 4787,
      "klienten": 4788,
      "tighed": 4789,
      "ressourcen": 4790,
      "tidspunktet": 4791,
      "fordelsk": 4792,
      "Afhæng": 4793,
      "noter": 4794,
      "modtages": 4795,
      "præc": 4796,
      "calendar": 4797,
      "injerne": 4798,
      "Skjul": 4799,
      "tilføjelses": 4800,
      "mængden": 4801,
      "selvbet": 4802,
      "Ændring": 4803,
      "Debit": 4804,
      "sikkerhedsroller": 4805,
      "behandlet": 4806,
      "Tilpasse": 4807,
      "principp": 4808,
      "sharepoint": 4809,
      "spolitik": 4810,
      "books": 4811,
      "Funktioner": 4812,
      "udløser": 4813,
      "Tilknytning": 4814,
      "listesystem": 4815,
      "activity": 4816,
      "Nedenfor": 4817,
      "permissions": 4818,
      "requirements": 4819,
      "varegeby": 4820,
      "Organis": 4821,
      "akkumuler": 4822,
      "detaljerede": 4823,
      "JSON": 4824,
      "Frankrig": 4825,
      "Shell": 4826,
      "januar": 4827,
      "..": 4828,
      "Giv": 4829,
      "Kal": 4830,
      "Kolon": 4831,
      "Liste": 4832,
      "Nul": 4833,
      "SK": 4834,
      "Sælg": 4835,
      "SPN": 4836,
      "cek": 4837,
      "feb": 4838,
      "gø": 4839,
      "helt": 4840,
      "ls": 4841,
      "word": 4842,
      "ysi": 4843,
      "tisk": 4844,
      "timat": 4845,
      "andel": 4846,
      "another": 4847,
      "qui": 4848,
      "fors": 4849,
      "force": 4850,
      "tile": 4851,
      "unik": 4852,
      "udsted": 4853,
      "spunkt": 4854,
      "fik": 4855,
      "ingsforløb": 4856,
      "PowerShell": 4857,
      "holds": 4858,
      "produceret": 4859,
      "brugerens": 4860,
      "vilkår": 4861,
      "rapportlayout": 4862,
      "dinds": 4863,
      "eneste": 4864,
      "Tilla": 4865,
      "retail": 4866,
      "arbejdsgangs": 4867,
      "arbejdscenter": 4868,
      "arbejdsbelast": 4869,
      "salgsmuligheder": 4870,
      "base": 4871,
      "expen": 4872,
      "købsordrer": 4873,
      "Enheds": 4874,
      "kontant": 4875,
      "Opsætte": 4876,
      "working": 4877,
      "worksheet": 4878,
      "counting": 4879,
      "omkostningssteder": 4880,
      "faktureret": 4881,
      "Meddel": 4882,
      "Administrator": 4883,
      "specificere": 4884,
      "image": 4885,
      "skærmbilleder": 4886,
      "opfyldt": 4887,
      "profilen": 4888,
      "kryp": 4889,
      "helag": 4890,
      "omkostningsposter": 4891,
      "Prog": 4892,
      "håndteres": 4893,
      "local": 4894,
      "place": 4895,
      "optællings": 4896,
      "eventuelt": 4897,
      "anvendt": 4898,
      "fleste": 4899,
      "Tilgængel": 4900,
      "separate": 4901,
      "sortering": 4902,
      "spolitikker": 4903,
      "Udlign": 4904,
      "maksimum": 4905,
      "Felter": 4906,
      "Købs": 4907,
      "disponibel": 4908,
      "funktionsmåde": 4909,
      "frynsegode": 4910,
      "Aktivitet": 4911,
      "binding": 4912,
      "interagere": 4913,
      "baggrunden": 4914,
      "æstebrugere": 4915,
      "betalte": 4916,
      "Personale": 4917,
      "question": 4918,
      "overskrifter": 4919,
      "maskin": 4920,
      "indkøbsrekvisitioner": 4921,
      "afrundings": 4922,
      "kreditover": 4923,
      "remburs": 4924,
      "vedrører": 4925,
      "Kasserabatbeløb": 4926,
      "receipt": 4927,
      "edetaljer": 4928,
      "febru": 4929,
      "gøres": 4930,
      "50": 4931,
      "Dr": 4932,
      "Faktisk": 4933,
      "Henter": 4934,
      "IG": 4935,
      "Kræ": 4936,
      "Li": 4937,
      "Lær": 4938,
      "Min": 4939,
      "eget": 4940,
      "fej": 4941,
      "iOS": 4942,
      "noder": 4943,
      "nolog": 4944,
      "stik": 4945,
      "telsen": 4946,
      "ym": 4947,
      "endere": 4948,
      "orit": 4949,
      "stam": 4950,
      "rede": 4951,
      "forpligt": 4952,
      "ledes": 4953,
      "levet": 4954,
      "ditions": 4955,
      "kandidat": 4956,
      "akken": 4957,
      "uni": 4958,
      "assen": 4959,
      "somkost": 4960,
      "spær": 4961,
      "vært": 4962,
      "indlej": 4963,
      "istik": 4964,
      "Vælge": 4965,
      "lagervarer": 4966,
      "constra": 4967,
      "klen": 4968,
      "arkiv": 4969,
      "arbejdsprocessen": 4970,
      "hoc": 4971,
      "lets": 4972,
      "Udgi": 4973,
      "partial": 4974,
      "nemmere": 4975,
      "eksempeldata": 4976,
      "angivelse": 4977,
      "passer": 4978,
      "Stati": 4979,
      "sammenkæ": 4980,
      "avnet": 4981,
      "redigeres": 4982,
      "Diag": 4983,
      "sposteringer": 4984,
      "gemmer": 4985,
      "dimensionshierarki": 4986,
      "oversigtspanelet": 4987,
      "mærkning": 4988,
      "tilbageføre": 4989,
      "2015": 4990,
      "overført": 4991,
      "Produkter": 4992,
      "Indstilling": 4993,
      "skrivebeskyt": 4994,
      "fecycle": 4995,
      "cancel": 4996,
      "Retail": 4997,
      "supply": 4998,
      "varenummer": 4999,
      "drill": 5000,
      "ordrelinjen": 5001,
      "færdige": 5002,
      "indlæse": 5003,
      "vendors": 5004,
      "Beregne": 5005,
      "gatewayen": 5006,
      "Planlægning": 5007,
      "konvertere": 5008,
      "udio": 5009,
      "procentdel": 5010,
      "reservation": 5011,
      "reservationer": 5012,
      "byggede": 5013,
      "servicekontrakter": 5014,
      "etiketten": 5015,
      "Valgfrit": 5016,
      "inkass": 5017,
      "eksporteres": 5018,
      "interagerer": 5019,
      "forfaldsdato": 5020,
      "tilhører": 5021,
      "features": 5022,
      "dersfordel": 5023,
      "numeriske": 5024,
      "inkluderet": 5025,
      "kontrollerer": 5026,
      "valutakurser": 5027,
      "forhind": 5028,
      "Talent": 5029,
      "container": 5030,
      "anvendte": 5031,
      "prepare": 5032,
      "Afhængigt": 5033,
      "selvbetjen": 5034,
      "01": 5035,
      "32": 5036,
      "500": 5037,
      "Ba": 5038,
      "EUR": 5039,
      "IC": 5040,
      "Ju": 5041,
      "Multi": 5042,
      "Ræ": 5043,
      "Så": 5044,
      "Sende": 5045,
      "Vej": 5046,
      "cor": 5047,
      "gyl": 5048,
      "gyldig": 5049,
      "host": 5050,
      "wo": 5051,
      "ente": 5052,
      "incoming": 5053,
      "devel": 5054,
      "otaler": 5055,
      "rest": 5056,
      "forfat": 5057,
      "tilli": 5058,
      "leg": 5059,
      "leads": 5060,
      "teste": 5061,
      "proc": 5062,
      "adskil": 5063,
      "spil": 5064,
      "ital": 5065,
      "titlen": 5066,
      "datapunkt": 5067,
      "activ": 5068,
      "mption": 5069,
      "dann": 5070,
      "samlet": 5071,
      "ærm": 5072,
      "bogmærker": 5073,
      "ansøg": 5074,
      "hout": 5075,
      "vender": 5076,
      "rapporterne": 5077,
      "gruppering": 5078,
      "ramme": 5079,
      "disable": 5080,
      "webportalen": 5081,
      "administrerede": 5082,
      "Ops": 5083,
      "diagnosti": 5084,
      "within": 5085,
      "planlægges": 5086,
      "Studio": 5087,
      "markøren": 5088,
      "muligheden": 5089,
      "1099": 5090,
      "analytics": 5091,
      "address": 5092,
      "lov": 5093,
      "does": 5094,
      "layou": 5095,
      "associ": 5096,
      "synlig": 5097,
      "guiden": 5098,
      "opsætnings": 5099,
      "anbefalinger": 5100,
      "rekvisitions": 5101,
      "fleks": 5102,
      "fleksi": 5103,
      "hæftet": 5104,
      "Omkostning": 5105,
      "grad": 5106,
      "Salgsordre": 5107,
      "udviklere": 5108,
      "Understøttelse": 5109,
      "Integration": 5110,
      "virksomhedens": 5111,
      "styklistel": 5112,
      "afvigelse": 5113,
      "entydige": 5114,
      "Valuta": 5115,
      "Avanceret": 5116,
      "requests": 5117,
      "Installér": 5118,
      "ningspipel": 5119,
      "Bankkonto": 5120,
      "Dan": 5121,
      "Dit": 5122,
      "Fil": 5123,
      "Mat": 5124,
      "OData": 5125,
      "RE": 5126,
      "Tip": 5127,
      "Vindu": 5128,
      "bene": 5129,
      "bart": 5130,
      "cat": 5131,
      "fang": 5132,
      "free": 5133,
      "fasen": 5134,
      "has": 5135,
      "ie": 5136,
      "kse": 5137,
      "kne": 5138,
      "kvar": 5139,
      "kations": 5140,
      "non": 5141,
      "nom": 5142,
      "ærer": 5143,
      "stek": 5144,
      "atte": 5145,
      "atform": 5146,
      "revi": 5147,
      "prak": 5148,
      "learning": 5149,
      "afvi": 5150,
      "rukne": 5151,
      "opstå": 5152,
      "ases": 5153,
      "aces": 5154,
      "vejen": 5155,
      "målet": 5156,
      "ulle": 5157,
      "betragt": 5158,
      "perform": 5159,
      "samhandels": 5160,
      "understand": 5161,
      "styret": 5162,
      "ventet": 5163,
      "ændrings": 5164,
      "getting": 5165,
      "metrics": 5166,
      "formulardesigner": 5167,
      "without": 5168,
      "objektlisten": 5169,
      "mellemrum": 5170,
      "objektrel": 5171,
      "Tilføjelse": 5172,
      "fulde": 5173,
      "bry": 5174,
      "oversigts": 5175,
      "fald": 5176,
      "Reguler": 5177,
      "bankfacili": 5178,
      "mærket": 5179,
      "Områ": 5180,
      "ynlig": 5181,
      "strukturer": 5182,
      "forbruget": 5183,
      "Valider": 5184,
      "serial": 5185,
      "omkostningstyper": 5186,
      "gui": 5187,
      "detaljerne": 5188,
      "processing": 5189,
      "ryd": 5190,
      "bogføringsgrupper": 5191,
      "kommunik": 5192,
      "nøgler": 5193,
      "Firma": 5194,
      "charts": 5195,
      "Beregn": 5196,
      "betingelserne": 5197,
      "reduktion": 5198,
      "datamodellen": 5199,
      "receive": 5200,
      "sidst": 5201,
      "indholdspakke": 5202,
      "indholdspakken": 5203,
      "købe": 5204,
      "kvalitet": 5205,
      "leveringsdato": 5206,
      "close": 5207,
      "achine": 5208,
      "ansættelse": 5209,
      "domæn": 5210,
      "statistiske": 5211,
      "vægtet": 5212,
      "leverancer": 5213,
      "Fastgør": 5214,
      "udrulningspipel": 5215,
      "slicer": 5216,
      "pulje": 5217,
      "modulet": 5218,
      "genbestillings": 5219,
      "hardwarestation": 5220,
      "afdelinger": 5221,
      "afdelingen": 5222,
      "Afskrivnings": 5223,
      "Leverings": 5224,
      "sklassifi": 5225,
      "Sikkerhed": 5226,
      "koncerninterne": 5227,
      "method": 5228,
      "Designe": 5229,
      "forkert": 5230,
      "Fremhæ": 5231,
      "udseende": 5232,
      "instruktioner": 5233,
      "offline": 5234,
      "structure": 5235,
      "layoutet": 5236,
      "praksis": 5237,
      "Beg": 5238,
      "Jeg": 5239,
      "LCS": 5240,
      "Pluk": 5241,
      "Ty": 5242,
      "celler": 5243,
      "fler": 5244,
      "high": 5245,
      "lende": 5246,
      "lave": 5247,
      "pages": 5248,
      "slinjen": 5249,
      "two": 5250,
      "ui": 5251,
      "ins": 5252,
      "orte": 5253,
      "eligt": 5254,
      "ancer": 5255,
      "rever": 5256,
      "refer": 5257,
      "forkla": 5258,
      "argu": 5259,
      "priv": 5260,
      "afledte": 5261,
      "ruter": 5262,
      "direkt": 5263,
      "edat": 5264,
      "akter": 5265,
      "best": 5266,
      "udnyt": 5267,
      "ason": 5268,
      "steg": 5269,
      "stemer": 5270,
      "ligner": 5271,
      "indtaste": 5272,
      "dataudveksl": 5273,
      "active": 5274,
      "holdelses": 5275,
      "area": 5276,
      "stemmer": 5277,
      "efterfølgende": 5278,
      "bidra": 5279,
      "ocent": 5280,
      "sætnings": 5281,
      "parts": 5282,
      "Forretnings": 5283,
      "Forskel": 5284,
      "cirk": 5285,
      "external": 5286,
      "konfigurationsp": 5287,
      "rente": 5288,
      "budgetstyring": 5289,
      "markering": 5290,
      "Udvidelsen": 5291,
      "invol": 5292,
      "analyze": 5293,
      "tilknyttes": 5294,
      "prices": 5295,
      "adding": 5296,
      "butikker": 5297,
      "butikken": 5298,
      "parametrene": 5299,
      "skonti": 5300,
      "mobilenheden": 5301,
      "udligne": 5302,
      "fremdat": 5303,
      "modtagelsen": 5304,
      "beros": 5305,
      "attributes": 5306,
      "abeløb": 5307,
      "signa": 5308,
      "dialogboks": 5309,
      "USA": 5310,
      "ryp": 5311,
      "Procent": 5312,
      "Gennemgang": 5313,
      "Varetype": 5314,
      "journals": 5315,
      "position": 5316,
      "oplevelsen": 5317,
      "reducere": 5318,
      "konvertering": 5319,
      "rettigheds": 5320,
      "workspaces": 5321,
      "transaktionen": 5322,
      "saldoen": 5323,
      "standards": 5324,
      "kørsels": 5325,
      "importeres": 5326,
      "statistisk": 5327,
      "genererer": 5328,
      "Lokations": 5329,
      "kompensation": 5330,
      "storage": 5331,
      "destinations": 5332,
      "styklisteskabelon": 5333,
      "afvigelser": 5334,
      "sområder": 5335,
      "ability": 5336,
      "delegering": 5337,
      "callcenter": 5338,
      "baggrunds": 5339,
      "genopfyldning": 5340,
      "Avancerede": 5341,
      "upload": 5342,
      "krafttræ": 5343,
      "Årsag": 5344,
      "lignende": 5345,
      "include": 5346,
      "illustrerer": 5347,
      "Outlook": 5348,
      "obbeltklik": 5349,
      "skyldes": 5350,
      "klassiske": 5351,
      "periods": 5352,
      "consumption": 5353,
      "client": 5354,
      "kolleger": 5355,
      "enklatur": 5356,
      "indbetalingskort": 5357,
      "Elektronisk": 5358,
      "igangværende": 5359,
      "IGV": 5360,
      "Diagram": 5361,
      "Juster": 5362,
      "Vinduet": 5363,
      "forklares": 5364,
      "34": 5365,
      "64": 5366,
      "CD": 5367,
      "Far": 5368,
      "Mob": 5369,
      "Mod": 5370,
      "RS": 5371,
      "Ver": 5372,
      "Vig": 5373,
      "aven": 5374,
      "bob": 5375,
      "block": 5376,
      "cing": 5377,
      "foku": 5378,
      "gerne": 5379,
      "ia": 5380,
      "ire": 5381,
      "json": 5382,
      "sortere": 5383,
      "uanset": 5384,
      "erv": 5385,
      "endelige": 5386,
      "insights": 5387,
      "initial": 5388,
      "ortet": 5389,
      "tivitet": 5390,
      "ande": 5391,
      "stlige": 5392,
      "onlin": 5393,
      "deci": 5394,
      "reason": 5395,
      "arti": 5396,
      "sky": 5397,
      "skulle": 5398,
      "afdeling": 5399,
      "opkræ": 5400,
      "akse": 5401,
      "unkter": 5402,
      "before": 5403,
      "url": 5404,
      "ekriterier": 5405,
      "medfører": 5406,
      "medtaget": 5407,
      "stede": 5408,
      "lagring": 5409,
      "lære": 5410,
      "Annul": 5411,
      "klasser": 5412,
      "ængde": 5413,
      "serviceordren": 5414,
      "Indlæ": 5415,
      "åbn": 5416,
      "salgsdokumenter": 5417,
      "formatere": 5418,
      "ensation": 5419,
      "formulare": 5420,
      "Opg": 5421,
      "snøg": 5422,
      "Overvej": 5423,
      "results": 5424,
      "tilknytte": 5425,
      "registreringer": 5426,
      "sposten": 5427,
      "special": 5428,
      "View": 5429,
      "slutdato": 5430,
      "monitor": 5431,
      "anlægsaktivet": 5432,
      "fremtidige": 5433,
      "skladdel": 5434,
      "valutabeløb": 5435,
      "proceduren": 5436,
      "specifikt": 5437,
      "betinget": 5438,
      "lukket": 5439,
      "tilføjelse": 5440,
      "bogføringsdefinitioner": 5441,
      "Gennemsnit": 5442,
      "Betalinger": 5443,
      "stream": 5444,
      "satser": 5445,
      "Brugerdefinerede": 5446,
      "administrationsport": 5447,
      "afskrivningsprofil": 5448,
      "beholdning": 5449,
      "kompeten": 5450,
      "fortol": 5451,
      "certifikater": 5452,
      "importerede": 5453,
      "huske": 5454,
      "funktionaliteten": 5455,
      "ballag": 5456,
      "fysiske": 5457,
      "udløses": 5458,
      "frynsegoder": 5459,
      "forbedrede": 5460,
      "tasks": 5461,
      "activities": 5462,
      "Conto": 5463,
      "objects": 5464,
      "expres": 5465,
      "feature": 5466,
      "settlement": 5467,
      "Læg": 5468,
      "godt": 5469,
      "menupunkt": 5470,
      "cript": 5471,
      "anmoder": 5472,
      "ekstern": 5473,
      "udførelse": 5474,
      "amount": 5475,
      "released": 5476,
      "Montage": 5477,
      "efterkalkulations": 5478,
      "tilstrækkelig": 5479,
      "Builder": 5480,
      "Eksportere": 5481,
      "referere": 5482,
      "Batch": 5483,
      "Grund": 5484,
      "Har": 5485,
      "Høj": 5486,
      "Lu": 5487,
      "RL": 5488,
      "ftet": 5489,
      "hvem": 5490,
      "irapportering": 5491,
      "lingen": 5492,
      "label": 5493,
      "sage": 5494,
      "tel": 5495,
      "usion": 5496,
      "uoverensstemm": 5497,
      "vur": 5498,
      "vou": 5499,
      "øbe": 5500,
      "erende": 5501,
      "stoken": 5502,
      "only": 5503,
      "tilbyder": 5504,
      "estimat": 5505,
      "vidi": 5506,
      "sket": 5507,
      "after": 5508,
      "ivot": 5509,
      "unity": 5510,
      "visuelt": 5511,
      "ordret": 5512,
      "spek": 5513,
      "fici": 5514,
      "indb": 5515,
      "fly": 5516,
      "ulere": 5517,
      "ældre": 5518,
      "lagermedarbejder": 5519,
      "Konsoli": 5520,
      "rite": 5521,
      "kommende": 5522,
      "visualization": 5523,
      "models": 5524,
      "ordresporing": 5525,
      "betales": 5526,
      "planen": 5527,
      "planned": 5528,
      "lettere": 5529,
      "ræk": 5530,
      "Formel": 5531,
      "Enhed": 5532,
      "bogføringen": 5533,
      "websteder": 5534,
      "manag": 5535,
      "tjenest": 5536,
      "aktivering": 5537,
      "transl": 5538,
      "viewing": 5539,
      "Stor": 5540,
      "elements": 5541,
      "markerede": 5542,
      "period": 5543,
      "lade": 5544,
      "understøttede": 5545,
      "prissætning": 5546,
      "omkostningselementer": 5547,
      "omkostningsregnskab": 5548,
      "priori": 5549,
      "Disp": 5550,
      "løbet": 5551,
      "slutningen": 5552,
      "momsgruppe": 5553,
      "tilpasser": 5554,
      "faktureres": 5555,
      "hovedkonti": 5556,
      "niveauet": 5557,
      "syntak": 5558,
      "henti": 5559,
      "hensyn": 5560,
      "Indstillingen": 5561,
      "afhængige": 5562,
      "tilgængelighed": 5563,
      "vinduer": 5564,
      "detaljeret": 5565,
      "bogføringsdato": 5566,
      "udtrykket": 5567,
      "dags": 5568,
      "segment": 5569,
      "filtreres": 5570,
      "kombinere": 5571,
      "ikoner": 5572,
      "opgørelsen": 5573,
      "Første": 5574,
      "fælles": 5575,
      "Hvornår": 5576,
      "orial": 5577,
      "indkøbskategori": 5578,
      "fordelingsbasis": 5579,
      "Hvert": 5580,
      "individual": 5581,
      "download": 5582,
      "Transaktioner": 5583,
      "sikrer": 5584,
      "påkrævede": 5585,
      "fritekstfakturaer": 5586,
      "tilmelding": 5587,
      "teams": 5588,
      "navigationsruden": 5589,
      "målepunkter": 5590,
      "ansvarlig": 5591,
      "obligatoriske": 5592,
      "nederst": 5593,
      "identitet": 5594,
      "assemble": 5595,
      "Formatér": 5596,
      "Handlinger": 5597,
      "Objekt": 5598,
      "eksporterer": 5599,
      "cachelag": 5600,
      "organizational": 5601,
      "Selvom": 5602,
      "tilhørende": 5603,
      "hukommelse": 5604,
      "Active": 5605,
      "Ryd": 5606,
      "kurve": 5607,
      "ventende": 5608,
      "Identificer": 5609,
      "virtuelle": 5610,
      "afhængigheder": 5611,
      "Foretag": 5612,
      "kampagne": 5613,
      "komplekse": 5614,
      "konsoliderede": 5615,
      "andsynlig": 5616,
      "serienumre": 5617,
      "følsomheds": 5618,
      "consolid": 5619,
      "faktaboksen": 5620,
      "hentning": 5621,
      "fordelskunde": 5622,
      "tilføjelsesprogrammet": 5623,
      "somkostninger": 5624,
      "legal": 5625,
      "Danmark": 5626,
      "udrulningspipelines": 5627,
      "dataudvekslings": 5628,
      "IGVF": 5629,
      "35": 5630,
      "Dobbeltklik": 5631,
      "Løn": 5632,
      "Mail": 5633,
      "Masse": 5634,
      "Mål": 5635,
      "Rabat": 5636,
      "Syn": 5637,
      "Søge": 5638,
      "Tit": 5639,
      "bon": 5640,
      "cri": 5641,
      "hos": 5642,
      "henter": 5643,
      "hav": 5644,
      "kspe": 5645,
      "soft": 5646,
      "sér": 5647,
      "sørge": 5648,
      "tur": 5649,
      "vin": 5650,
      "write": 5651,
      "yndig": 5652,
      "zon": 5653,
      "eren": 5654,
      "ermin": 5655,
      "inu": 5656,
      "stort": 5657,
      "stoc": 5658,
      "aterede": 5659,
      "forbliver": 5660,
      "alg": 5661,
      "prom": 5662,
      "see": 5663,
      "sekun": 5664,
      "need": 5665,
      "erekspe": 5666,
      "delvis": 5667,
      "deliver": 5668,
      "konsigna": 5669,
      "finis": 5670,
      "appar": 5671,
      "applik": 5672,
      "appens": 5673,
      "send": 5674,
      "især": 5675,
      "måneder": 5676,
      "holdt": 5677,
      "varens": 5678,
      "brugernavn": 5679,
      "Anmod": 5680,
      "geograf": 5681,
      "undergitter": 5682,
      "icing": 5683,
      "bogen": 5684,
      "stykke": 5685,
      "kostprisen": 5686,
      "lægge": 5687,
      "grupperet": 5688,
      "Udføre": 5689,
      "sym": 5690,
      "metri": 5691,
      "baser": 5692,
      "varekladden": 5693,
      "varesporing": 5694,
      "muler": 5695,
      "ext": 5696,
      "Enk": 5697,
      "Enter": 5698,
      "manuel": 5699,
      "rekven": 5700,
      "transaction": 5701,
      "generel": 5702,
      "beskrivende": 5703,
      "demon": 5704,
      "returvarer": 5705,
      "egenskabs": 5706,
      "faner": 5707,
      "mærkat": 5708,
      "dispo": 5709,
      "søgeres": 5710,
      "Skærm": 5711,
      "profiles": 5712,
      "valgmuligheder": 5713,
      "valgfrit": 5714,
      "nævn": 5715,
      "dock": 5716,
      "firmaer": 5717,
      "Kombin": 5718,
      "ekonto": 5719,
      "gennemsnitsk": 5720,
      "Analysér": 5721,
      "faktisk": 5722,
      "forekomster": 5723,
      "subscrip": 5724,
      "førsels": 5725,
      "langsom": 5726,
      "posteringsprofiler": 5727,
      "importeret": 5728,
      "Funktionerne": 5729,
      "belastning": 5730,
      "erstattes": 5731,
      "udgiftsrapport": 5732,
      "positive": 5733,
      "package": 5734,
      "entydigt": 5735,
      "connectors": 5736,
      "situation": 5737,
      "Maksim": 5738,
      "moduler": 5739,
      "timesedler": 5740,
      "summar": 5741,
      "Selvstudium": 5742,
      "kontoplanen": 5743,
      "stopp": 5744,
      "limitations": 5745,
      "methods": 5746,
      "mislykke": 5747,
      "relationships": 5748,
      "downloa": 5749,
      "IFO": 5750,
      "udelu": 5751,
      "PBIX": 5752,
      "dedikeret": 5753,
      "Kalender": 5754,
      "SKU": 5755,
      "dindstillinger": 5756,
      "Program": 5757,
      "inkasso": 5758,
      "Vejledning": 5759,
      "tillid": 5760,
      "activate": 5761,
      "administrationsportalen": 5762,
      "hentication": 5763,
      "80": 5764,
      "Benyt": 5765,
      "Date": 5766,
      "Fan": 5767,
      "Geby": 5768,
      "Hvem": 5769,
      "Line": 5770,
      "Part": 5771,
      "Sted": 5772,
      "TI": 5773,
      "TO": 5774,
      "VI": 5775,
      "Vur": 5776,
      "avan": 5777,
      "bærer": 5778,
      "cut": 5779,
      "fre": 5780,
      "gne": 5781,
      "høje": 5782,
      "jedetaljer": 5783,
      "kendes": 5784,
      "opport": 5785,
      "invi": 5786,
      "indirekte": 5787,
      "anmode": 5788,
      "ath": 5789,
      "aldersfordel": 5790,
      "arabat": 5791,
      "practi": 5792,
      "teringen": 5793,
      "igive": 5794,
      "påmin": 5795,
      "dated": 5796,
      "opt": 5797,
      "opdele": 5798,
      "liation": 5799,
      "akser": 5800,
      "ekter": 5801,
      "ekode": 5802,
      "udgiver": 5803,
      "tric": 5804,
      "across": 5805,
      "lagerekspe": 5806,
      "vedhæftet": 5807,
      "gendan": 5808,
      "producerede": 5809,
      "underleverandør": 5810,
      "indstille": 5811,
      "isering": 5812,
      "planer": 5813,
      "banken": 5814,
      "kendt": 5815,
      "salgspriser": 5816,
      "dimensionen": 5817,
      "varedisponering": 5818,
      "produktionen": 5819,
      "løser": 5820,
      "målings": 5821,
      "versions": 5822,
      "markeres": 5823,
      "bedst": 5824,
      "tribu": 5825,
      "primær": 5826,
      "udvidet": 5827,
      "statusser": 5828,
      "average": 5829,
      "Afrund": 5830,
      "medarbejderens": 5831,
      "aktiviteten": 5832,
      "læringsforløb": 5833,
      "hovedkontoen": 5834,
      "udlignings": 5835,
      "short": 5836,
      "note": 5837,
      "notes": 5838,
      "tenant": 5839,
      "designe": 5840,
      "overfører": 5841,
      "images": 5842,
      "kolonnerne": 5843,
      "klargør": 5844,
      "farven": 5845,
      "typiske": 5846,
      "certific": 5847,
      "Kreditorfaktura": 5848,
      "batches": 5849,
      "parameteren": 5850,
      "nøglen": 5851,
      "filtrerings": 5852,
      "Directory": 5853,
      "afstemnings": 5854,
      "opgørelses": 5855,
      "kontakte": 5856,
      "Kanban": 5857,
      "selection": 5858,
      "behandler": 5859,
      "Værkt": 5860,
      "hub": 5861,
      "langu": 5862,
      "forventet": 5863,
      "posteringsprofil": 5864,
      "årsafslutning": 5865,
      "skattem": 5866,
      "lokalitets": 5867,
      "Spore": 5868,
      "Websted": 5869,
      "tilmelde": 5870,
      "fremhævning": 5871,
      "Godkendelse": 5872,
      "overvågning": 5873,
      "Lokation": 5874,
      "skilde": 5875,
      "Visualiseringen": 5876,
      "ovenstående": 5877,
      "modifi": 5878,
      "implementering": 5879,
      "Objek": 5880,
      "slået": 5881,
      "cyklusoptælling": 5882,
      "Sikkerheds": 5883,
      "overskriften": 5884,
      "returvareordre": 5885,
      "kasseappar": 5886,
      "questions": 5887,
      "kladdelinjer": 5888,
      "inkluderer": 5889,
      "berettig": 5890,
      "annulleres": 5891,
      "debitering": 5892,
      "Overvåg": 5893,
      "Begrænsninger": 5894,
      "stadie": 5895,
      "compensation": 5896,
      "Knytte": 5897,
      "reconciliation": 5898,
      "employee": 5899,
      "Undgå": 5900,
      "skrevet": 5901,
      "convert": 5902,
      "gitre": 5903,
      "nappen": 5904,
      "negativ": 5905,
      "complete": 5906,
      "udlån": 5907,
      "Slutdato": 5908,
      "halv": 5909,
      "Enhedspris": 5910,
      "februar": 5911,
      "forhindre": 5912,
      "direktør": 5913,
      "practices": 5914,
      "Gr": 5915,
      "Gyldig": 5916,
      "Net": 5917,
      "Ora": 5918,
      "One": 5919,
      "Sek": 5920,
      "TP": 5921,
      "aa": 5922,
      "ax": 5923,
      "ask": 5924,
      "case": 5925,
      "cryp": 5926,
      "fab": 5927,
      "fail": 5928,
      "hy": 5929,
      "hån": 5930,
      "jo": 5931,
      "ms": 5932,
      "ook": 5933,
      "inode": 5934,
      "ances": 5935,
      "att": 5936,
      "read": 5937,
      "derne": 5938,
      "vider": 5939,
      "nav": 5940,
      "sepa": 5941,
      "kant": 5942,
      "sibili": 5943,
      "skalendere": 5944,
      "indbyggede": 5945,
      "vegne": 5946,
      "brugers": 5947,
      "rapportens": 5948,
      "lagersteder": 5949,
      "ical": 5950,
      "stykker": 5951,
      "hoot": 5952,
      "visualizations": 5953,
      "nyttigt": 5954,
      "lægnings": 5955,
      "Udløb": 5956,
      "eregist": 5957,
      "Brugerne": 5958,
      "købsaftale": 5959,
      "købsaftaler": 5960,
      "interaktion": 5961,
      "fået": 5962,
      "arbejderen": 5963,
      "produktlivscyklus": 5964,
      "kontoskemaer": 5965,
      "datasets": 5966,
      "worker": 5967,
      "pass": 5968,
      "celinjer": 5969,
      "score": 5970,
      "prise": 5971,
      "spostering": 5972,
      "filerne": 5973,
      "betalingsmåde": 5974,
      "udenland": 5975,
      "gemte": 5976,
      "falds": 5977,
      "forretningsprocesser": 5978,
      "attributten": 5979,
      "tillade": 5980,
      "boksen": 5981,
      "omfattende": 5982,
      "organisationens": 5983,
      "salgskreditnota": 5984,
      "Beho": 5985,
      "kunderne": 5986,
      "disponerings": 5987,
      "leverandøren": 5988,
      "Ændringer": 5989,
      "gebyret": 5990,
      "lotnummer": 5991,
      "størrelser": 5992,
      "kombinations": 5993,
      "Standar": 5994,
      "Konfigurations": 5995,
      "examples": 5996,
      "fortsætter": 5997,
      "Analyse": 5998,
      "faktureringsklassifi": 5999,
      "indholdspakker": 6000,
      "splaner": 6001,
      "splanlægning": 6002,
      "fordelingsgrundlag": 6003,
      "Filter": 6004,
      "returnerede": 6005,
      "effektivt": 6006,
      "facet": 6007,
      "Godkend": 6008,
      "kommandoer": 6009,
      "plukkes": 6010,
      "classifi": 6011,
      "kreditnotaer": 6012,
      "destination": 6013,
      "indtastning": 6014,
      "klassificering": 6015,
      "periodiser": 6016,
      "distribution": 6017,
      "bredden": 6018,
      "datatype": 6019,
      "authentication": 6020,
      "produktionsflowversion": 6021,
      "Handling": 6022,
      "tilbudsanmodning": 6023,
      "availability": 6024,
      "forfaldsdatoen": 6025,
      "physi": 6026,
      "validate": 6027,
      "telefoner": 6028,
      "Formular": 6029,
      "Designer": 6030,
      "ified": 6031,
      "nærmere": 6032,
      "indtægter": 6033,
      "Vedligehold": 6034,
      "manglende": 6035,
      "længe": 6036,
      "Virksomheds": 6037,
      "grid": 6038,
      "opsummer": 6039,
      "præcis": 6040,
      "akkumulerings": 6041,
      "levetid": 6042,
      "correct": 6043,
      "afvikl": 6044,
      "cirkel": 6045,
      "opkrævning": 6046,
      "voucher": 6047,
      "Oracle": 6048,
      "physical": 6049,
      "44": 6050,
      "Che": 6051,
      "El": 6052,
      "Egenskab": 6053,
      "Finde": 6054,
      "God": 6055,
      "Gruppe": 6056,
      "Gæstebrugere": 6057,
      "Kunder": 6058,
      "Pal": 6059,
      "Rul": 6060,
      "Ruden": 6061,
      "Su": 6062,
      "Scenar": 6063,
      "bans": 6064,
      "cho": 6065,
      "cant": 6066,
      "gl": 6067,
      "gamle": 6068,
      "hus": 6069,
      "hone": 6070,
      "ipp": 6071,
      "icon": 6072,
      "ify": 6073,
      "lår": 6074,
      "lod": 6075,
      "masse": 6076,
      "node": 6077,
      "pin": 6078,
      "plik": 6079,
      "ron": 6080,
      "spr": 6081,
      "sandsynlig": 6082,
      "tar": 6083,
      "uge": 6084,
      "windows": 6085,
      "elinjer": 6086,
      "any": 6087,
      "stjer": 6088,
      "ont": 6089,
      "atter": 6090,
      "formen": 6091,
      "forgren": 6092,
      "omfang": 6093,
      "afgange": 6094,
      "delen": 6095,
      "delvist": 6096,
      "lil": 6097,
      "live": 6098,
      "size": 6099,
      "determin": 6100,
      "beholder": 6101,
      "konf": 6102,
      "troub": 6103,
      "splac": 6104,
      "spital": 6105,
      "året": 6106,
      "ligne": 6107,
      "cember": 6108,
      "oprettelsen": 6109,
      "ingsprocessen": 6110,
      "titler": 6111,
      "indgår": 6112,
      "PowerApps": 6113,
      "måler": 6114,
      "Anvende": 6115,
      "tale": 6116,
      "talent": 6117,
      "lagerpluk": 6118,
      "defining": 6119,
      "descrip": 6120,
      "uses": 6121,
      "fundet": 6122,
      "max": 6123,
      "bidrag": 6124,
      "Udforsk": 6125,
      "knytter": 6126,
      "salgsmulighed": 6127,
      "Integr": 6128,
      "visualiserings": 6129,
      "formats": 6130,
      "købsordren": 6131,
      "alte": 6132,
      "webbrowser": 6133,
      "øgning": 6134,
      "forskelle": 6135,
      "kreditorposter": 6136,
      "kreditorbetalinger": 6137,
      "manuelle": 6138,
      "formulardesigneren": 6139,
      "slags": 6140,
      "budgetterede": 6141,
      "aktivt": 6142,
      "planlægningen": 6143,
      "generering": 6144,
      "objektformular": 6145,
      "Desuden": 6146,
      "sammensatte": 6147,
      "programdata": 6148,
      "virkning": 6149,
      "regnskabsperioder": 6150,
      "scal": 6151,
      "tidspunkter": 6152,
      "Dialog": 6153,
      "projektmappen": 6154,
      "mails": 6155,
      "tilpasset": 6156,
      "fakturarabat": 6157,
      "modtagne": 6158,
      "præci": 6159,
      "startdatoen": 6160,
      "komponenterne": 6161,
      "værktøjslinjen": 6162,
      "hændelses": 6163,
      "leshoot": 6164,
      "udtryks": 6165,
      "kildedokumenter": 6166,
      "Varer": 6167,
      "indlæst": 6168,
      "refusion": 6169,
      "calculated": 6170,
      "afstemme": 6171,
      "tilpassede": 6172,
      "Komponenter": 6173,
      "identificeres": 6174,
      "anvendelse": 6175,
      "referencer": 6176,
      "Rapporten": 6177,
      "lejeren": 6178,
      "Frigiv": 6179,
      "Startdato": 6180,
      "shared": 6181,
      "Transaktion": 6182,
      "hurtigere": 6183,
      "approve": 6184,
      "kvittering": 6185,
      "Kopiere": 6186,
      "Rapportering": 6187,
      "ejeren": 6188,
      "udskrivning": 6189,
      "statement": 6190,
      "datatyper": 6191,
      "løsningsoversigten": 6192,
      "forberede": 6193,
      "CSV": 6194,
      "genopfyldnings": 6195,
      "myndigheder": 6196,
      "målgruppe": 6197,
      "migration": 6198,
      "Forespørgsel": 6199,
      "driftsenhed": 6200,
      "Fejlfinding": 6201,
      "mislykkes": 6202,
      "tilsidesætte": 6203,
      "datagatewayen": 6204,
      "downloade": 6205,
      "shipment": 6206,
      "Kladde": 6207,
      "branch": 6208,
      "egnelse": 6209,
      "vejledningen": 6210,
      "Stykliste": 6211,
      "pbix": 6212,
      "flette": 6213,
      "konstant": 6214,
      "behovsprognose": 6215,
      "justeringer": 6216,
      "rentenotaer": 6217,
      "pecifi": 6218,
      "Returner": 6219,
      "Hurtig": 6220,
      "issues": 6221,
      "questionna": 6222,
      "selvbetjening": 6223,
      "Modkonto": 6224,
      "algorit": 6225,
      "Enkelt": 6226,
      "VIA": 6227,
      "tribute": 6228,
      "shortcut": 6229,
      "Værktøj": 6230,
      "attach": 6231,
      "troubleshoot": 6232,
      "BAN": 6233,
      "Gro": 6234,
      "Hæn": 6235,
      "Hier": 6236,
      "IBAN": 6237,
      "Juridi": 6238,
      "Ker": 6239,
      "Kopier": 6240,
      "Link": 6241,
      "Po": 6242,
      "Sort": 6243,
      "Va": 6244,
      "bland": 6245,
      "cover": 6246,
      "frekven": 6247,
      "kass": 6248,
      "lab": 6249,
      "lene": 6250,
      "ous": 6251,
      "sø": 6252,
      "sap": 6253,
      "sho": 6254,
      "sorti": 6255,
      "ues": 6256,
      "wind": 6257,
      "who": 6258,
      "tiget": 6259,
      "stæn": 6260,
      "ats": 6261,
      "def": 6262,
      "december": 6263,
      "fortry": 6264,
      "prist": 6265,
      "omdirig": 6266,
      "nap": 6267,
      "terne": 6268,
      "sekunder": 6269,
      "names": 6270,
      "ruten": 6271,
      "datar": 6272,
      "lidende": 6273,
      "lifecycle": 6274,
      "behandlings": 6275,
      "bemyndig": 6276,
      "udgang": 6277,
      "udgør": 6278,
      "årlige": 6279,
      "indførsels": 6280,
      "dataforbindelser": 6281,
      "overl": 6282,
      "genvejs": 6283,
      "aktuelt": 6284,
      "ville": 6285,
      "rapportsider": 6286,
      "lagerlukning": 6287,
      "dance": 6288,
      "samles": 6289,
      "samtidigt": 6290,
      "undersøge": 6291,
      "anslå": 6292,
      "komplet": 6293,
      "kostpriser": 6294,
      "betale": 6295,
      "ændringen": 6296,
      "købskreditnota": 6297,
      "chann": 6298,
      "indeks": 6299,
      "fill": 6300,
      "kendte": 6301,
      "varekortet": 6302,
      "hvorfor": 6303,
      "købsdokumenter": 6304,
      "interact": 6305,
      "interaktive": 6306,
      "formulas": 6307,
      "webressourcer": 6308,
      "webtjeneste": 6309,
      "lokalt": 6310,
      "grænsen": 6311,
      "kreditorkonto": 6312,
      "many": 6313,
      "registration": 6314,
      "produktionsmiljø": 6315,
      "snummer": 6316,
      "workbook": 6317,
      "beløbene": 6318,
      "Stør": 6319,
      "placere": 6320,
      "placeres": 6321,
      "markerer": 6322,
      "lagte": 6323,
      "resulterer": 6324,
      "count": 6325,
      "tilknytningen": 6326,
      "træder": 6327,
      "rulleliste": 6328,
      "personale": 6329,
      "mailen": 6330,
      "momsgrupper": 6331,
      "ændrede": 6332,
      "fremviser": 6333,
      "ways": 6334,
      "bankstyring": 6335,
      "varianter": 6336,
      "importen": 6337,
      "publicerer": 6338,
      "started": 6339,
      "valutaen": 6340,
      "guide": 6341,
      "layouts": 6342,
      "hændelsen": 6343,
      "reguleres": 6344,
      "Referen": 6345,
      "dataflowet": 6346,
      "øjeblik": 6347,
      "bankkontoen": 6348,
      "afslutte": 6349,
      "afsluttet": 6350,
      "Modt": 6351,
      "Først": 6352,
      "beskrive": 6353,
      "sperioden": 6354,
      "Ord": 6355,
      "steps": 6356,
      "årsagskode": 6357,
      "Dimensioner": 6358,
      "spørgeskemaer": 6359,
      "scripts": 6360,
      "skilt": 6361,
      "skifter": 6362,
      "message": 6363,
      "administrerer": 6364,
      "afsendelsesdato": 6365,
      "fremhæve": 6366,
      "særlig": 6367,
      "gengivelse": 6368,
      "Omkostningsregnskab": 6369,
      "periodisering": 6370,
      "straks": 6371,
      "positiv": 6372,
      "distributions": 6373,
      "advarsler": 6374,
      "mæssigt": 6375,
      "packages": 6376,
      "slip": 6377,
      "identify": 6378,
      "notifikationer": 6379,
      "abilities": 6380,
      "statements": 6381,
      "author": 6382,
      "discounts": 6383,
      "synkronisering": 6384,
      "totaler": 6385,
      "Afskrivning": 6386,
      "cache": 6387,
      "biblioteket": 6388,
      "målgrupper": 6389,
      "produktvariant": 6390,
      "Sideinddel": 6391,
      "strategi": 6392,
      "Identificere": 6393,
      "eksternt": 6394,
      "invitation": 6395,
      "mønstre": 6396,
      "amounts": 6397,
      "fakturalinjer": 6398,
      "foreslåede": 6399,
      "netværks": 6400,
      "operatorer": 6401,
      "Håndtering": 6402,
      "opgrader": 6403,
      "capabilities": 6404,
      "Dashboard": 6405,
      "Streng": 6406,
      "omdøb": 6407,
      "prognosen": 6408,
      "følgeseddel": 6409,
      "dyb": 6410,
      "Bedste": 6411,
      "Dokument": 6412,
      "fejlen": 6413,
      "Statisti": 6414,
      "catalog": 6415,
      "kvartal": 6416,
      "Forskellige": 6417,
      "CDM": 6418,
      "artiklen": 6419,
      "stock": 6420,
      "delivery": 6421,
      "finished": 6422,
      "aaS": 6423,
      "hånden": 6424,
      "eregistrer": 6425,
      "Eller": 6426,
      "Godkende": 6427,
      "target": 6428,
      "lille": 6429,
      "Hierark": 6430,
      "labor": 6431,
      "should": 6432,
      "channel": 6433,
      "Effek": 6434,
      "FR": 6435,
      "GU": 6436,
      "Linje": 6437,
      "MS": 6438,
      "Ofte": 6439,
      "Paramet": 6440,
      "ced": 6441,
      "cmd": 6442,
      "dninger": 6443,
      "iP": 6444,
      "itions": 6445,
      "pivot": 6446,
      "rt": 6447,
      "sin": 6448,
      "still": 6449,
      "ture": 6450,
      "ue": 6451,
      "wal": 6452,
      "xy": 6453,
      "enab": 6454,
      "introduktion": 6455,
      "tis": 6456,
      "tilt": 6457,
      "timere": 6458,
      "quid": 6459,
      "replace": 6460,
      "foreløb": 6461,
      "tiles": 6462,
      "tilgange": 6463,
      "vior": 6464,
      "videre": 6465,
      "arr": 6466,
      "skolon": 6467,
      "during": 6468,
      "igger": 6469,
      "racer": 6470,
      "seks": 6471,
      "verify": 6472,
      "lerende": 6473,
      "eds": 6474,
      "kanbans": 6475,
      "opdelt": 6476,
      "opbevares": 6477,
      "lication": 6478,
      "sikonet": 6479,
      "beha": 6480,
      "visor": 6481,
      "ekoder": 6482,
      "spunktet": 6483,
      "fiscal": 6484,
      "dataView": 6485,
      "genvejen": 6486,
      "isnt": 6487,
      "nyere": 6488,
      "varighed": 6489,
      "posteringen": 6490,
      "linj": 6491,
      "geo": 6492,
      "definitions": 6493,
      "mini": 6494,
      "ansøger": 6495,
      "arbejdsdatoen": 6496,
      "arbejdstimer": 6497,
      "upgra": 6498,
      "servicepris": 6499,
      "Indgående": 6500,
      "parti": 6501,
      "parentes": 6502,
      "Angivelse": 6503,
      "systemer": 6504,
      "købsfakturaer": 6505,
      "idler": 6506,
      "peger": 6507,
      "Deaktiver": 6508,
      "navnene": 6509,
      "ultater": 6510,
      "Opgra": 6511,
      "objektpost": 6512,
      "Appen": 6513,
      "netop": 6514,
      "eksler": 6515,
      "tekststreng": 6516,
      "Datat": 6517,
      "foreslår": 6518,
      "trade": 6519,
      "godkendte": 6520,
      "behovs": 6521,
      "logo": 6522,
      "logistik": 6523,
      "personlig": 6524,
      "betalingskladde": 6525,
      "brød": 6526,
      "største": 6527,
      "stric": 6528,
      "mærkninger": 6529,
      "policies": 6530,
      "favor": 6531,
      "noser": 6532,
      "Betegnelse": 6533,
      "Saldo": 6534,
      "startes": 6535,
      "recur": 6536,
      "designet": 6537,
      "heltal": 6538,
      "Kreditorkonto": 6539,
      "strengen": 6540,
      "Redu": 6541,
      "installationen": 6542,
      "tabellerne": 6543,
      "Gennemgå": 6544,
      "ultimo": 6545,
      "locations": 6546,
      "Samlet": 6547,
      "calculations": 6548,
      "kombinationer": 6549,
      "Arbejdsområdet": 6550,
      "controls": 6551,
      "identificerer": 6552,
      "kategorien": 6553,
      "statisk": 6554,
      "bån": 6555,
      "eksemplerne": 6556,
      "reducerer": 6557,
      "rollecenter": 6558,
      "almindelig": 6559,
      "tilstande": 6560,
      "finansregnskabet": 6561,
      "SSO": 6562,
      "dax": 6563,
      "scriptet": 6564,
      "sorteres": 6565,
      "returnere": 6566,
      "Registrering": 6567,
      "Systemet": 6568,
      "plukli": 6569,
      "udgiftsrapporten": 6570,
      "installerer": 6571,
      "forudsig": 6572,
      "contracts": 6573,
      "bekræftelses": 6574,
      "margen": 6575,
      "allokere": 6576,
      "Indkøbsordrer": 6577,
      "opgaveguider": 6578,
      "forbundet": 6579,
      "berettiget": 6580,
      "matching": 6581,
      "udsnitsværktøj": 6582,
      "nøjagtige": 6583,
      "gentagelses": 6584,
      "Nedenstående": 6585,
      "receivable": 6586,
      "oversættelser": 6587,
      "forkerte": 6588,
      "mønster": 6589,
      "DEMF": 6590,
      "lavere": 6591,
      "afbildning": 6592,
      "reconcile": 6593,
      "Linjedetaljer": 6594,
      "bevægelser": 6595,
      "ekalkul": 6596,
      "Politik": 6597,
      "deployment": 6598,
      "mobilappsene": 6599,
      "refererer": 6600,
      "Tilmeld": 6601,
      "expense": 6602,
      "Drive": 6603,
      "associate": 6604,
      "Materi": 6605,
      "argument": 6606,
      "fokuser": 6607,
      "formulareditoren": 6608,
      "Contoso": 6609,
      "expression": 6610,
      "viditets": 6611,
      "Konsolider": 6612,
      "Dispon": 6613,
      "syntaks": 6614,
      "consolidation": 6615,
      "software": 6616,
      "Gebyr": 6617,
      "certificate": 6618,
      "OneDrive": 6619,
      "Behov": 6620,
      "questionnaire": 6621,
      "Kerberos": 6622,
      "GUID": 6623,
      "behavior": 6624,
      "60": 6625,
      "AI": 6626,
      "Byg": 6627,
      "Dist": 6628,
      "Dage": 6629,
      "Delt": 6630,
      "GB": 6631,
      "Garanti": 6632,
      "Hol": 6633,
      "IP": 6634,
      "Ikrafttræ": 6635,
      "Krav": 6636,
      "Linjer": 6637,
      "Mom": 6638,
      "Og": 6639,
      "QR": 6640,
      "bun": 6641,
      "dl": 6642,
      "dne": 6643,
      "day": 6644,
      "each": 6645,
      "ffer": 6646,
      "ilt": 6647,
      "kn": 6648,
      "ric": 6649,
      "rates": 6650,
      "vplanlægning": 6651,
      "ære": 6652,
      "østlige": 6653,
      "ander": 6654,
      "attribute": 6655,
      "restric": 6656,
      "forme": 6657,
      "forbrugere": 6658,
      "memo": 6659,
      "member": 6660,
      "skyder": 6661,
      "skrav": 6662,
      "afgøre": 6663,
      "igin": 6664,
      "sequ": 6665,
      "nedet": 6666,
      "agere": 6667,
      "datam": 6668,
      "ople": 6669,
      "opdeling": 6670,
      "opsum": 6671,
      "simuler": 6672,
      "oller": 6673,
      "udby": 6674,
      "udvalgte": 6675,
      "udgive": 6676,
      "adap": 6677,
      "sparamet": 6678,
      "ameri": 6679,
      "datavisning": 6680,
      "plans": 6681,
      "føring": 6682,
      "acc": 6683,
      "fradrag": 6684,
      "værdiposter": 6685,
      "brugergrænseflade": 6686,
      "elever": 6687,
      "elseditor": 6688,
      "aktiske": 6689,
      "samprodukter": 6690,
      "samtidig": 6691,
      "confirm": 6692,
      "givne": 6693,
      "serviceaftaler": 6694,
      "bound": 6695,
      "salgspris": 6696,
      "salgstilbud": 6697,
      "dimensionerne": 6698,
      "varepost": 6699,
      "formateret": 6700,
      "interface": 6701,
      "webressource": 6702,
      "ignor": 6703,
      "kontot": 6704,
      "registrerede": 6705,
      "rekrut": 6706,
      "Optæl": 6707,
      "støtte": 6708,
      "kræve": 6709,
      "budgetplanlægning": 6710,
      "bestemmes": 6711,
      "lande": 6712,
      "debitorposter": 6713,
      "debitorbetaling": 6714,
      "Application": 6715,
      "ressourcek": 6716,
      "tekstfelt": 6717,
      "ladde": 6718,
      "Genopfyl": 6719,
      "regnskaber": 6720,
      "projektkontrakt": 6721,
      "Afvig": 6722,
      "dokumentation": 6723,
      "konfigurer": 6724,
      "betalingsbilag": 6725,
      "nummerserie": 6726,
      "fakturere": 6727,
      "fakturerings": 6728,
      "fjernet": 6729,
      "sagn": 6730,
      "payroll": 6731,
      "bankafstemning": 6732,
      "Arbejder": 6733,
      "variable": 6734,
      "søges": 6735,
      "assig": 6736,
      "connections": 6737,
      "fuldfør": 6738,
      "impro": 6739,
      "tillader": 6740,
      "Beting": 6741,
      "collabor": 6742,
      "omfatte": 6743,
      "designere": 6744,
      "typograf": 6745,
      "rabatdatoen": 6746,
      "hurtige": 6747,
      "connecting": 6748,
      "udfylder": 6749,
      "tæller": 6750,
      "editing": 6751,
      "drig": 6752,
      "indlæsning": 6753,
      "filtreret": 6754,
      "dynamic": 6755,
      "0001": 6756,
      "calculating": 6757,
      "gateways": 6758,
      "kontrast": 6759,
      "forslaget": 6760,
      "bygget": 6761,
      "referencen": 6762,
      "almindeligt": 6763,
      "Ressource": 6764,
      "Reserv": 6765,
      "subcontract": 6766,
      "clear": 6767,
      "gratis": 6768,
      "kvalifi": 6769,
      "standardindstillinger": 6770,
      "Transform": 6771,
      "publiceret": 6772,
      "Hvilken": 6773,
      "Projektstyring": 6774,
      "Kontant": 6775,
      "skemaet": 6776,
      "beskyttelse": 6777,
      "belastningen": 6778,
      "pladsholder": 6779,
      "classi": 6780,
      "godkendes": 6781,
      "drifts": 6782,
      "etiketter": 6783,
      "videoen": 6784,
      "leverancen": 6785,
      "Sammenkæ": 6786,
      "respek": 6787,
      "units": 6788,
      "konsolideret": 6789,
      "histori": 6790,
      "identitets": 6791,
      "notifications": 6792,
      "abilitet": 6793,
      "synkroniseres": 6794,
      "Husk": 6795,
      "sheets": 6796,
      "ight": 6797,
      "genbestilling": 6798,
      "butiks": 6799,
      "evaluering": 6800,
      "picking": 6801,
      "reparation": 6802,
      "forbere": 6803,
      "Forespørgsler": 6804,
      "driftsenheder": 6805,
      "Alterna": 6806,
      "skontrolenhed": 6807,
      "optimeret": 6808,
      "permission": 6809,
      "Fakturering": 6810,
      "opgaveregistrer": 6811,
      "eredskab": 6812,
      "difference": 6813,
      "Klar": 6814,
      "combine": 6815,
      "Sporing": 6816,
      "centrale": 6817,
      "stjeneste": 6818,
      "fratræ": 6819,
      "maintain": 6820,
      "Færdigmel": 6821,
      "Administratorer": 6822,
      "Liquid": 6823,
      "skrivebeskyttet": 6824,
      "develop": 6825,
      "styklistelinje": 6826,
      "REST": 6827,
      "flerdimension": 6828,
      "reverse": 6829,
      "involver": 6830,
      "rettighedssæt": 6831,
      "Farve": 6832,
      "boble": 6833,
      "onlineb": 6834,
      "ballage": 6835,
      "Lukke": 6836,
      "demonst": 6837,
      "subscription": 6838,
      "Fanen": 6839,
      "avance": 6840,
      "skattemyndig": 6841,
      "udenlandsk": 6842,
      "pecifikke": 6843,
      "båndet": 6844,
      "Cer": 6845,
      "Custom": 6846,
      "Dele": 6847,
      "Day": 6848,
      "Down": 6849,
      "Ejer": 6850,
      "Esc": 6851,
      "Flow": 6852,
      "Næste": 6853,
      "OP": 6854,
      "Præ": 6855,
      "Rem": 6856,
      "Rute": 6857,
      "Skr": 6858,
      "TE": 6859,
      "Tek": 6860,
      "Tjene": 6861,
      "VID": 6862,
      "bul": 6863,
      "bånd": 6864,
      "kasser": 6865,
      "lassifi": 6866,
      "machine": 6867,
      "pi": 6868,
      "rows": 6869,
      "sus": 6870,
      "tru": 6871,
      "twe": 6872,
      "tving": 6873,
      "ulære": 6874,
      "veksler": 6875,
      "engang": 6876,
      "intrastat": 6877,
      "stabel": 6878,
      "ature": 6879,
      "deaktiveres": 6880,
      "quality": 6881,
      "forbruger": 6882,
      "forholdet": 6883,
      "algs": 6884,
      "meste": 6885,
      "tiller": 6886,
      "tilbag": 6887,
      "afrun": 6888,
      "raph": 6889,
      "tegenskaber": 6890,
      "dition": 6891,
      "direc": 6892,
      "opdeles": 6893,
      "lit": 6894,
      "væk": 6895,
      "proxy": 6896,
      "udover": 6897,
      "trigger": 6898,
      "spart": 6899,
      "oprettelses": 6900,
      "appdesigneren": 6901,
      "datavisninger": 6902,
      "førsler": 6903,
      "formet": 6904,
      "holdes": 6905,
      "aktuel": 6906,
      "produk": 6907,
      "varet": 6908,
      "Anskaffel": 6909,
      "samlinger": 6910,
      "figuring": 6911,
      "conversion": 6912,
      "configuring": 6913,
      "ansaktion": 6914,
      "datointerval": 6915,
      "arbejdscelle": 6916,
      "arbejdscentre": 6917,
      "modelkonfiguration": 6918,
      "nyttig": 6919,
      "grupperes": 6920,
      "billing": 6921,
      "Udvis": 6922,
      "syd": 6923,
      "Forbin": 6924,
      "salgsordrelinje": 6925,
      "opgaven": 6926,
      "vareudligning": 6927,
      "route": 6928,
      "exe": 6929,
      "prognos": 6930,
      "ensar": 6931,
      "websider": 6932,
      "sell": 6933,
      "produktoplysninger": 6934,
      "kontinu": 6935,
      "byr": 6936,
      "urement": 6937,
      "tekn": 6938,
      "leverer": 6939,
      "forskellig": 6940,
      "nyeste": 6941,
      "skrives": 6942,
      "klikker": 6943,
      "budgetposter": 6944,
      "budgettering": 6945,
      "tekstfeltet": 6946,
      "foresp": 6947,
      "finanskladde": 6948,
      "udvides": 6949,
      "trækkes": 6950,
      "Afsen": 6951,
      "Virt": 6952,
      "returned": 6953,
      "betalingsforslag": 6954,
      "afskrivningen": 6955,
      "shap": 6956,
      "shandel": 6957,
      "shipp": 6958,
      "slettet": 6959,
      "kørt": 6960,
      "foretrukne": 6961,
      "modtagelser": 6962,
      "forretningslogik": 6963,
      "anmodnings": 6964,
      "times": 6965,
      "publicerings": 6966,
      "økonomi": 6967,
      "fuldføres": 6968,
      "oioub": 6969,
      "skrifts": 6970,
      "tree": 6971,
      "lukkes": 6972,
      "forløbet": 6973,
      "fastgør": 6974,
      "fastgøre": 6975,
      "ressourcegruppe": 6976,
      "dagen": 6977,
      "Vedhæftede": 6978,
      "afstemmes": 6979,
      "Arbejdsgang": 6980,
      "brugte": 6981,
      "servicetil": 6982,
      "forudbetalinger": 6983,
      "points": 6984,
      "license": 6985,
      "plade": 6986,
      "matrixen": 6987,
      "demodata": 6988,
      "Nye": 6989,
      "Betalingsmåde": 6990,
      "Interval": 6991,
      "Interager": 6992,
      "lagerbeholdningen": 6993,
      "effektiv": 6994,
      "required": 6995,
      "Gemme": 6996,
      "rigshandel": 6997,
      "afsendelses": 6998,
      "directquery": 6999,
      "vedligeholdelse": 7000,
      "Indstillingerne": 7001,
      "lookup": 7002,
      "kopierer": 7003,
      "beslutter": 7004,
      "beslutning": 7005,
      "beslutninger": 7006,
      "Valgfri": 7007,
      "Sammenlign": 7008,
      "momskoder": 7009,
      "rækkerne": 7010,
      "nederste": 7011,
      "ordrelinjerne": 7012,
      "overflytning": 7013,
      "funktionsmåden": 7014,
      "allokering": 7015,
      "skontoen": 7016,
      "lærreds": 7017,
      "juli": 7018,
      "veksel": 7019,
      "Indkøbsordre": 7020,
      "udløbsdato": 7021,
      "kriterierne": 7022,
      "ilep": 7023,
      "levels": 7024,
      "numerisk": 7025,
      "kladdelinjen": 7026,
      "Attributter": 7027,
      "limits": 7028,
      "Rykkere": 7029,
      "afrunding": 7030,
      "receiving": 7031,
      "forbedringer": 7032,
      "finansiering": 7033,
      "adjustment": 7034,
      "Økonomiske": 7035,
      "Økonomirapportering": 7036,
      "bilitet": 7037,
      "pipeline": 7038,
      "produktkvittering": 7039,
      "same": 7040,
      "interess": 7041,
      "Planlægningssystemet": 7042,
      "licit": 7043,
      "simple": 7044,
      "Mulighed": 7045,
      "Politikker": 7046,
      "sandkasse": 7047,
      "signaturer": 7048,
      "historiske": 7049,
      "Datakilder": 7050,
      "Noter": 7051,
      "Forberede": 7052,
      "explore": 7053,
      "listesystemet": 7054,
      "Nulstil": 7055,
      "Sælge": 7056,
      "arbejdsbelastninger": 7057,
      "ditionstid": 7058,
      "Udgifts": 7059,
      "Række": 7060,
      "gyldige": 7061,
      "forfatter": 7062,
      "rekvisitionslinjer": 7063,
      "Fremhæv": 7064,
      "edata": 7065,
      "Annuller": 7066,
      "Grundlæggende": 7067,
      "managed": 7068,
      "Synkron": 7069,
      "geografiske": 7070,
      "disposition": 7071,
      "docking": 7072,
      "mislykkedes": 7073,
      "DateTime": 7074,
      "Lineær": 7075,
      "aldersfordelte": 7076,
      "Virksomhedsadministration": 7077,
      "spring": 7078,
      "Modtage": 7079,
      "Sideinddelte": 7080,
      "recurring": 7081,
      "anderledes": 7082,
      "Certifi": 7083,
      "prognoses": 7084,
      "oioubl": 7085,
      "servicetilbud": 7086,
      "37": 7087,
      "AS": 7088,
      "Book": 7089,
      "CC": 7090,
      "Dag": 7091,
      "Fok": 7092,
      "Ge": 7093,
      "Hard": 7094,
      "LE": 7095,
      "Listen": 7096,
      "LIFO": 7097,
      "Mit": 7098,
      "Nøg": 7099,
      "OK": 7100,
      "OCR": 7101,
      "PR": 7102,
      "Sag": 7103,
      "Sæt": 7104,
      "Tab": 7105,
      "Tid": 7106,
      "aser": 7107,
      "bol": 7108,
      "boms": 7109,
      "beredskab": 7110,
      "categori": 7111,
      "frequ": 7112,
      "hun": 7113,
      "kig": 7114,
      "mart": 7115,
      "pic": 7116,
      "path": 7117,
      "sningen": 7118,
      "stillings": 7119,
      "tation": 7120,
      "tut": 7121,
      "ålet": 7122,
      "enance": 7123,
      "inen": 7124,
      "orlov": 7125,
      "tivi": 7126,
      "tiver": 7127,
      "tiske": 7128,
      "anim": 7129,
      "stabeller": 7130,
      "debet": 7131,
      "ote": 7132,
      "otte": 7133,
      "repl": 7134,
      "reorder": 7135,
      "tillæg": 7136,
      "vision": 7137,
      "praktisk": 7138,
      "skreditor": 7139,
      "omsætnings": 7140,
      "ledt": 7141,
      "igheden": 7142,
      "påli": 7143,
      "lip": 7144,
      "sites": 7145,
      "sible": 7146,
      "ilde": 7147,
      "oltip": 7148,
      "medføre": 7149,
      "uddann": 7150,
      "absen": 7151,
      "mods": 7152,
      "fix": 7153,
      "indfly": 7154,
      "oversk": 7155,
      "overløb": 7156,
      "them": 7157,
      "formålet": 7158,
      "vedhæ": 7159,
      "vedkommende": 7160,
      "iso": 7161,
      "ulator": 7162,
      "lyn": 7163,
      "bety": 7164,
      "indsen": 7165,
      "serviceniveau": 7166,
      "procesjob": 7167,
      "hove": 7168,
      "venter": 7169,
      "given": 7170,
      "indstilles": 7171,
      "ierer": 7172,
      "tablet": 7173,
      "Udgående": 7174,
      "sætninger": 7175,
      "bool": 7176,
      "indek": 7177,
      "Forbrug": 7178,
      "handlere": 7179,
      "emnet": 7180,
      "salgsaftale": 7181,
      "Insights": 7182,
      "rout": 7183,
      "001": 7184,
      "sideskabelon": 7185,
      "sideopdatering": 7186,
      "interest": 7187,
      "administrations": 7188,
      "self": 7189,
      "standardværdier": 7190,
      "kreditorkort": 7191,
      "kreditorsamarbejde": 7192,
      "manager": 7193,
      "forskelligt": 7194,
      "produktionsflowet": 7195,
      "produktionsstyklisten": 7196,
      "virke": 7197,
      "cell": 7198,
      "cellen": 7199,
      "genereret": 7200,
      "generelt": 7201,
      "enkle": 7202,
      "debitorfakturaer": 7203,
      "adgangen": 7204,
      "Generer": 7205,
      "Datab": 7206,
      "understøttet": 7207,
      "Udvikl": 7208,
      "tidslinje": 7209,
      "logiske": 7210,
      "fordeles": 7211,
      "projektmapper": 7212,
      "Afdeling": 7213,
      "full": 7214,
      "ønningsp": 7215,
      "retningslinjer": 7216,
      "hovedformular": 7217,
      "Tran": 7218,
      "fremmøde": 7219,
      "Regel": 7220,
      "arbejdsområdeoplevelse": 7221,
      "søgekriterier": 7222,
      "publiceres": 7223,
      "henblik": 7224,
      "skærms": 7225,
      "prepayment": 7226,
      "panel": 7227,
      "panelet": 7228,
      "valuation": 7229,
      "lists": 7230,
      "USRT": 7231,
      "Opdatering": 7232,
      "whats": 7233,
      "connectorer": 7234,
      "Unified": 7235,
      "sproget": 7236,
      "ruppen": 7237,
      "Rette": 7238,
      "Prøv": 7239,
      "formellinjen": 7240,
      "planlægningslinjer": 7241,
      "størrelses": 7242,
      "charge": 7243,
      "abonnementet": 7244,
      "anlægsaktivgruppe": 7245,
      "oplevelser": 7246,
      "reduceres": 7247,
      "sikkerhedsrolle": 7248,
      "drevet": 7249,
      "Analysere": 7250,
      "submit": 7251,
      "tjenesteprincipal": 7252,
      "Frynseg": 7253,
      "saldoafskrivning": 7254,
      "companies": 7255,
      "Interface": 7256,
      "effekt": 7257,
      "directly": 7258,
      "aktionsmeddelelser": 7259,
      "scheduling": 7260,
      "forfaldne": 7261,
      "erstatte": 7262,
      "erstatning": 7263,
      "Systemadministrator": 7264,
      "midlertidigt": 7265,
      "Attract": 7266,
      "Erstat": 7267,
      "plukket": 7268,
      "destinationer": 7269,
      "måleenhed": 7270,
      "Værdien": 7271,
      "first": 7272,
      "building": 7273,
      "konsoliderings": 7274,
      "fragtbre": 7275,
      "functionality": 7276,
      "agreements": 7277,
      "Periode": 7278,
      "bindinger": 7279,
      "spanel": 7280,
      "forsyningsordre": 7281,
      "sklasse": 7282,
      "validere": 7283,
      "Tooltip": 7284,
      "feedback": 7285,
      "cloudmiljøet": 7286,
      "maskine": 7287,
      "udsnitsværktøjer": 7288,
      "hukommelses": 7289,
      "stoler": 7290,
      "menupunkter": 7291,
      "Løste": 7292,
      "tidsplanen": 7293,
      "forespørgselsstreng": 7294,
      "Lagersteds": 7295,
      "media": 7296,
      "tilsidesætter": 7297,
      "forsendelses": 7298,
      "anlægsk": 7299,
      "Foretage": 7300,
      "netværk": 7301,
      "Lagrings": 7302,
      "mangler": 7303,
      "chefen": 7304,
      "Dashboar": 7305,
      "cards": 7306,
      "parallelle": 7307,
      "prognoser": 7308,
      "maintenance": 7309,
      "reparationsstatus": 7310,
      "Kapacitets": 7311,
      "Fordelings": 7312,
      "explorer": 7313,
      "Etiketten": 7314,
      "Galleriet": 7315,
      "princippet": 7316,
      "Minimum": 7317,
      "kandidater": 7318,
      "benefi": 7319,
      "betragtning": 7320,
      "samhandelsaftaler": 7321,
      "Regulering": 7322,
      "bankfacilitets": 7323,
      "Tysk": 7324,
      "fremdateret": 7325,
      "Indlæs": 7326,
      "uoverensstemmelser": 7327,
      "tjenestekonto": 7328,
      "criter": 7329,
      "konsignations": 7330,
      "Vurder": 7331,
      "højeste": 7332,
      "tricitet": 7333,
      "kasseapparat": 7334,
      "Græn": 7335,
      "sibility": 7336,
      "lodret": 7337,
      "Integrere": 7338,
      "Dialogboksen": 7339,
      "Sortér": 7340,
      "Vareg": 7341,
      "blandt": 7342,
      "udgangspunkt": 7343,
      "overlapp": 7344,
      "øjebliks": 7345,
      "cmdlet": 7346,
      "upgrade": 7347,
      "Distribu": 7348,
      "members": 7349,
      "udbydere": 7350,
      "Dayforce": 7351,
      "shipping": 7352,
      "Fokus": 7353,
      "Hardware": 7354,
      "categories": 7355,
      "tutorial": 7356,
      "indflydelse": 7357,
      "ønningspoint": 7358,
      "As": 7359,
      "Akt": 7360,
      "Bel": 7361,
      "Clo": 7362,
      "DB": 7363,
      "DK": 7364,
      "Just": 7365,
      "Knappen": 7366,
      "Mi": 7367,
      "Mens": 7368,
      "Mange": 7369,
      "Niveau": 7370,
      "RV": 7371,
      "Sele": 7372,
      "Script": 7373,
      "Træk": 7374,
      "Uds": 7375,
      "bri": 7376,
      "bøger": 7377,
      "fale": 7378,
      "hour": 7379,
      "hide": 7380,
      "ikken": 7381,
      "kle": 7382,
      "kning": 7383,
      "klyn": 7384,
      "natur": 7385,
      "pot": 7386,
      "pres": 7387,
      "ral": 7388,
      "ransaktioner": 7389,
      "sine": 7390,
      "tér": 7391,
      "ugen": 7392,
      "umer": 7393,
      "ubetalte": 7394,
      "will": 7395,
      "zo": 7396,
      "Én": 7397,
      "engangs": 7398,
      "infok": 7399,
      "ether": 7400,
      "orden": 7401,
      "ordet": 7402,
      "anse": 7403,
      "ants": 7404,
      "antra": 7405,
      "stel": 7406,
      "stod": 7407,
      "onboard": 7408,
      "realtid": 7409,
      "forv": 7410,
      "forkalkul": 7411,
      "forretning": 7412,
      "alinjer": 7413,
      "arter": 7414,
      "sku": 7415,
      "skortet": 7416,
      "ledende": 7417,
      "ledere": 7418,
      "afal": 7419,
      "afgangs": 7420,
      "afgi": 7421,
      "afmærkning": 7422,
      "due": 7423,
      "segenskab": 7424,
      "opstod": 7425,
      "simalt": 7426,
      "ake": 7427,
      "ived": 7428,
      "owner": 7429,
      "bemærkninger": 7430,
      "android": 7431,
      "udskrift": 7432,
      "ordin": 7433,
      "sper": 7434,
      "ligheden": 7435,
      "platform": 7436,
      "sending": 7437,
      "senest": 7438,
      "acces": 7439,
      "osing": 7440,
      "varierer": 7441,
      "Anven": 7442,
      "Ansæt": 7443,
      "underordnet": 7444,
      "klassen": 7445,
      "sale": 7446,
      "Tildeling": 7447,
      "Tilknytte": 7448,
      "creation": 7449,
      "arbejdstid": 7450,
      "såsom": 7451,
      "lægger": 7452,
      "ordreantal": 7453,
      "chron": 7454,
      "ocus": 7455,
      "sætningen": 7456,
      "party": 7457,
      "salgsordrelinjen": 7458,
      "Inden": 7459,
      "varebehov": 7460,
      "varesporings": 7461,
      "iddel": 7462,
      "løses": 7463,
      "arbejderens": 7464,
      "forskellen": 7465,
      "witter": 7466,
      "tildelinger": 7467,
      "klienter": 7468,
      "budgettet": 7469,
      "debitorfaktura": 7470,
      "debitorens": 7471,
      "debitorkort": 7472,
      "beskrivelsen": 7473,
      "Dataf": 7474,
      "trace": 7475,
      "godkendelser": 7476,
      "invo": 7477,
      "svaret": 7478,
      "Afsender": 7479,
      "sposterne": 7480,
      "dashboardfelter": 7481,
      "dokumentposter": 7482,
      "identity": 7483,
      "there": 7484,
      "tagelse": 7485,
      "hierarkinode": 7486,
      "returordre": 7487,
      "betalingsfiler": 7488,
      "momsgruppen": 7489,
      "betalingstoler": 7490,
      "kalder": 7491,
      "fakturerede": 7492,
      "izing": 7493,
      "sagen": 7494,
      "Regler": 7495,
      "gælde": 7496,
      "Marketing": 7497,
      "forretningsregler": 7498,
      "forretningsmæssige": 7499,
      "flytter": 7500,
      "publicer": 7501,
      "berør": 7502,
      "synligt": 7503,
      "betingelsen": 7504,
      "betingede": 7505,
      "Kontrollere": 7506,
      "spores": 7507,
      "tilgængeligheden": 7508,
      "næst": 7509,
      "forsyninger": 7510,
      "certificering": 7511,
      "montageelementer": 7512,
      "batchjob": 7513,
      "tværgående": 7514,
      "grovplanlægning": 7515,
      "drop": 7516,
      "scenarios": 7517,
      "afkrydsningsfelt": 7518,
      "charges": 7519,
      "refunder": 7520,
      "Beregnings": 7521,
      "Arbejdsområde": 7522,
      "Arbejdsområder": 7523,
      "afslutningen": 7524,
      "toplan": 7525,
      "statistik": 7526,
      "integrerer": 7527,
      "kravene": 7528,
      "rapporteringsenhed": 7529,
      "certifikatet": 7530,
      "XMLA": 7531,
      "køindikator": 7532,
      "årsagen": 7533,
      "tjenesteprincip": 7534,
      "sælges": 7535,
      "sammenlignet": 7536,
      "eksporterede": 7537,
      "Transaktions": 7538,
      "eksportjob": 7539,
      "administreres": 7540,
      "politikregel": 7541,
      "requisition": 7542,
      "Understøtter": 7543,
      "rekvisitionen": 7544,
      "Registrerer": 7545,
      "Registrerings": 7546,
      "grundlaget": 7547,
      "scheduled": 7548,
      "pair": 7549,
      "synkronisere": 7550,
      "indsigter": 7551,
      "kontrakttilbud": 7552,
      "forklaring": 7553,
      "forklaringer": 7554,
      "property": 7555,
      "styklistekalkul": 7556,
      "indtaster": 7557,
      "periodiske": 7558,
      "udrulningen": 7559,
      "Finanskladde": 7560,
      "notifikations": 7561,
      "Kundeemne": 7562,
      "modtagelsesdato": 7563,
      "biblioteker": 7564,
      "acceptere": 7565,
      "Valutakur": 7566,
      "gennemgås": 7567,
      "Læs": 7568,
      "populære": 7569,
      "tredjeparts": 7570,
      "Overvåge": 7571,
      "strategier": 7572,
      "gentagne": 7573,
      "Modtagelse": 7574,
      "optimering": 7575,
      "Begræns": 7576,
      "Processen": 7577,
      "Relaterede": 7578,
      "stadier": 7579,
      "finansielle": 7580,
      "fokustilstand": 7581,
      "Placer": 7582,
      "IFT": 7583,
      "forældelses": 7584,
      "illustreres": 7585,
      "forsikringspoli": 7586,
      "Prioritet": 7587,
      "nettoværdi": 7588,
      "tastaturgenveje": 7589,
      "skonfigurationer": 7590,
      "formateringsindstillinger": 7591,
      "Afstemme": 7592,
      "employees": 7593,
      "reserveret": 7594,
      "grafik": 7595,
      "omdøbe": 7596,
      "parallel": 7597,
      "tolerance": 7598,
      "sorteringsrækkefølgen": 7599,
      "QuickBook": 7600,
      "udstedelse": 7601,
      "kreditoverførsel": 7602,
      "indlejrede": 7603,
      "procurement": 7604,
      "spild": 7605,
      "objektrelation": 7606,
      "Område": 7607,
      "stegn": 7608,
      "konfigurationspakke": 7609,
      "standardsalgs": 7610,
      "Mobil": 7611,
      "Version": 7612,
      "Vigtig": 7613,
      "labels": 7614,
      "Titel": 7615,
      "havde": 7616,
      "turn": 7617,
      "sekund": 7618,
      "gennemsnitskostpris": 7619,
      "lagerekspeditionstid": 7620,
      "language": 7621,
      "berettigelse": 7622,
      "join": 7623,
      "classification": 7624,
      "præcision": 7625,
      "Returnerer": 7626,
      "shortcuts": 7627,
      "Disponi": 7628,
      "Hold": 7629,
      "Ikrafttrædelsesdato": 7630,
      "bunden": 7631,
      "nedetid": 7632,
      "classic": 7633,
      "respektive": 7634,
      "historikken": 7635,
      "onlinebu": 7636,
      "skattemyndigheder": 7637,
      "Rembur": 7638,
      "engangskreditor": 7639,
      "kontinuitets": 7640,
      "tivity": 7641,
      "Transport": 7642,
      "criteria": 7643,
      "Cloud": 7644,
      "antrabat": 7645,
      "QuickBooks": 7646,
      "940": 7647,
      "AR": 7648,
      "Aut": 7649,
      "Bag": 7650,
      "CO": 7651,
      "CP": 7652,
      "EN": 7653,
      "Fav": 7654,
      "HR": 7655,
      "IN": 7656,
      "Køre": 7657,
      "Kostpris": 7658,
      "MB": 7659,
      "MT": 7660,
      "Me": 7661,
      "Off": 7662,
      "Pl": 7663,
      "Rek": 7664,
      "SV": 7665,
      "SaaS": 7666,
      "Tom": 7667,
      "Text": 7668,
      "Vægt": 7669,
      "autom": 7670,
      "ctive": 7671,
      "dvs": 7672,
      "dobbelt": 7673,
      "hyper": 7674,
      "kabelon": 7675,
      "melse": 7676,
      "mast": 7677,
      "ose": 7678,
      "python": 7679,
      "pile": 7680,
      "ql": 7681,
      "sanalyse": 7682,
      "sql": 7683,
      "tv": 7684,
      "tas": 7685,
      "tene": 7686,
      "zip": 7687,
      "Øver": 7688,
      "æs": 7689,
      "endet": 7690,
      "origin": 7691,
      "ellig": 7692,
      "anske": 7693,
      "stab": 7694,
      "standen": 7695,
      "stages": 7696,
      "atser": 7697,
      "otal": 7698,
      "rej": 7699,
      "repair": 7700,
      "foran": 7701,
      "forbruges": 7702,
      "aldrig": 7703,
      "tillægs": 7704,
      "ska": 7705,
      "skæ": 7706,
      "lear": 7707,
      "afgør": 7708,
      "afregning": 7709,
      "afbry": 7710,
      "dub": 7711,
      "termin": 7712,
      "teamet": 7713,
      "lidt": 7714,
      "libr": 7715,
      "sive": 7716,
      "unding": 7717,
      "mening": 7718,
      "bevare": 7719,
      "befinder": 7720,
      "urance": 7721,
      "væsent": 7722,
      "tovejs": 7723,
      "asp": 7724,
      "asing": 7725,
      "fiks": 7726,
      "rapporte": 7727,
      "itann": 7728,
      "indvirkning": 7729,
      "plot": 7730,
      "kring": 7731,
      "resol": 7732,
      "ish": 7733,
      "brugerkonto": 7734,
      "likviditets": 7735,
      "rapporttemaer": 7736,
      "skabet": 7737,
      "lagerstatus": 7738,
      "lageraktiviteter": 7739,
      "lagerleverance": 7740,
      "dinalitet": 7741,
      "consider": 7742,
      "faktat": 7743,
      "minder": 7744,
      "stemme": 7745,
      "sets": 7746,
      "retninger": 7747,
      "rettelser": 7748,
      "arbejdsbyr": 7749,
      "hospital": 7750,
      "visualisere": 7751,
      "købt": 7752,
      "tablets": 7753,
      "fakturasammenholdelse": 7754,
      "serviceopgaver": 7755,
      "sættes": 7756,
      "Indholdet": 7757,
      "boler": 7758,
      "indeholdt": 7759,
      "syv": 7760,
      "Forsy": 7761,
      "Forbed": 7762,
      "disere": 7763,
      "salgsfakturaer": 7764,
      "rounding": 7765,
      "filtrerede": 7766,
      "sidef": 7767,
      "internal": 7768,
      "internt": 7769,
      "appsource": 7770,
      "kreditorbetaling": 7771,
      "kreditorfakturaen": 7772,
      "kontantrabat": 7773,
      "leveringer": 7774,
      "portalbruger": 7775,
      "Optimer": 7776,
      "comm": 7777,
      "automatiske": 7778,
      "views": 7779,
      "slår": 7780,
      "Streg": 7781,
      "markerings": 7782,
      "Genbes": 7783,
      "Overordnet": 7784,
      "sug": 7785,
      "regnskabsperiode": 7786,
      "scatter": 7787,
      "analytik": 7788,
      "Ekster": 7789,
      "registreringen": 7790,
      "udvidelser": 7791,
      "persons": 7792,
      "enhederne": 7793,
      "indholdskode": 7794,
      "operativ": 7795,
      "Adres": 7796,
      "intellig": 7797,
      "betalingsmetode": 7798,
      "betalingsmetoder": 7799,
      "slutter": 7800,
      "fejlmeddelelser": 7801,
      "begrænser": 7802,
      "montag": 7803,
      "Ark": 7804,
      "dimensionshierarkier": 7805,
      "britann": 7806,
      "udligner": 7807,
      "fantas": 7808,
      "højt": 7809,
      "bankfil": 7810,
      "eksperi": 7811,
      "ydere": 7812,
      "synlige": 7813,
      "hentet": 7814,
      "låse": 7815,
      "costing": 7816,
      "reglerne": 7817,
      "skærmlæser": 7818,
      "siderne": 7819,
      "startet": 7820,
      "omkostningskontrolenhed": 7821,
      "alerts": 7822,
      "mindste": 7823,
      "installations": 7824,
      "supplerende": 7825,
      "tain": 7826,
      "kladdeposteringer": 7827,
      "brut": 7828,
      "Kunden": 7829,
      "forudbetaling": 7830,
      "licenses": 7831,
      "Generér": 7832,
      "outputtet": 7833,
      "rapporteringsvalutabeløb": 7834,
      "forekommer": 7835,
      "godkendelsesprocessen": 7836,
      "orienter": 7837,
      "SSL": 7838,
      "SSRS": 7839,
      "middel": 7840,
      "sælge": 7841,
      "Produktkvittering": 7842,
      "sammenligning": 7843,
      "modtagermoms": 7844,
      "langs": 7845,
      "længst": 7846,
      "standarder": 7847,
      "standarden": 7848,
      "udviklet": 7849,
      "semner": 7850,
      "kommandol": 7851,
      "kasserabatten": 7852,
      "Datoen": 7853,
      "csv": 7854,
      "paid": 7855,
      "kalenderen": 7856,
      "Fakturaer": 7857,
      "Fortæl": 7858,
      "weigh": 7859,
      "Posterne": 7860,
      "kanalen": 7861,
      "videoer": 7862,
      "provision": 7863,
      "sektioner": 7864,
      "klassificere": 7865,
      "ansvarlige": 7866,
      "positions": 7867,
      "behandlingen": 7868,
      "konsolidering": 7869,
      "history": 7870,
      "entydig": 7871,
      "puljer": 7872,
      "regnskabsåret": 7873,
      "Levering": 7874,
      "virksomhedsdata": 7875,
      "begreb": 7876,
      "forsyningsordrer": 7877,
      "Fuldfør": 7878,
      "accepterer": 7879,
      "tools": 7880,
      "nøjagtigt": 7881,
      "sporede": 7882,
      "Overvågning": 7883,
      "Bekræftelse": 7884,
      "dækker": 7885,
      "measures": 7886,
      "Billed": 7887,
      "Måned": 7888,
      "Konvertere": 7889,
      "finanskontoen": 7890,
      "blanket": 7891,
      "Placering": 7892,
      "vedrørende": 7893,
      "udseendet": 7894,
      "PayPal": 7895,
      "klassisk": 7896,
      "overflytningsordre": 7897,
      "forudsætningerne": 7898,
      "Periodiske": 7899,
      "sidehovedets": 7900,
      "interesseret": 7901,
      "opslagsfelt": 7902,
      "Sporings": 7903,
      "læns": 7904,
      "rektanglet": 7905,
      "pengestrømme": 7906,
      "Aktivering": 7907,
      "Variant": 7908,
      "arrangere": 7909,
      "principper": 7910,
      "varegebyrer": 7911,
      "Organisations": 7912,
      "Tilgængelighed": 7913,
      "kreditoverførsler": 7914,
      "constraints": 7915,
      "nomenklatur": 7916,
      "laveste": 7917,
      "insurance": 7918,
      "RLS": 7919,
      "Storbritann": 7920,
      "kurvediagram": 7921,
      "følsomhedsmærkater": 7922,
      "filtreringsruden": 7923,
      "fabri": 7924,
      "hypp": 7925,
      "Udløbsdato": 7926,
      "Scenarie": 7927,
      "algoritme": 7928,
      "bemyndigelse": 7929,
      "Statistiske": 7930,
      "sparametrene": 7931,
      "amerikan": 7932,
      "bulk": 7933,
      "spartner": 7934,
      "absence": 7935,
      "øjebliksbillede": 7936,
      "potenti": 7937,
      "onboarding": 7938,
      "Offent": 7939,
      "mastere": 7940,
      "Storbritannien": 7941,
      "Ab": 7942,
      "Dine": 7943,
      "FTI": 7944,
      "Gateway": 7945,
      "Kar": 7946,
      "Kost": 7947,
      "List": 7948,
      "Pil": 7949,
      "Plukke": 7950,
      "RD": 7951,
      "Sorter": 7952,
      "Seg": 7953,
      "Tast": 7954,
      "Tabeller": 7955,
      "Twitter": 7956,
      "Uden": 7957,
      "Udel": 7958,
      "ca": 7959,
      "cla": 7960,
      "eur": 7961,
      "hrough": 7962,
      "maler": 7963,
      "ns": 7964,
      "nate": 7965,
      "odet": 7966,
      "ps": 7967,
      "pol": 7968,
      "rf": 7969,
      "rs": 7970,
      "range": 7971,
      "sul": 7972,
      "stillingen": 7973,
      "takt": 7974,
      "util": 7975,
      "want": 7976,
      "ydelser": 7977,
      "åde": 7978,
      "era": 7979,
      "ernate": 7980,
      "enish": 7981,
      "ette": 7982,
      "etch": 7983,
      "ority": 7984,
      "antages": 7985,
      "stage": 7986,
      "resten": 7987,
      "remain": 7988,
      "forts": 7989,
      "viz": 7990,
      "pricing": 7991,
      "skør": 7992,
      "omenklatur": 7993,
      "nation": 7994,
      "lead": 7995,
      "afvist": 7996,
      "afvise": 7997,
      "rap": 7998,
      "seditoren": 7999,
      "dent": 8000,
      "denser": 8001,
      "dential": 8002,
      "ruder": 8003,
      "div": 8004,
      "verden": 8005,
      "påvirke": 8006,
      "datot": 8007,
      "opbyg": 8008,
      "optimere": 8009,
      "sio": 8010,
      "detyper": 8011,
      "bevar": 8012,
      "behør": 8013,
      "olu": 8014,
      "ollen": 8015,
      "stest": 8016,
      "spæn": 8017,
      "split": 8018,
      "its": 8019,
      "apport": 8020,
      "ktions": 8021,
      "PowerPoint": 8022,
      "flu": 8023,
      "flush": 8024,
      "værdiregulering": 8025,
      "produceres": 8026,
      "brugergruppe": 8027,
      "likter": 8028,
      "Antag": 8029,
      "percent": 8030,
      "perspek": 8031,
      "lagerværdi": 8032,
      "lagerkonto": 8033,
      "samle": 8034,
      "underrapporten": 8035,
      "desuden": 8036,
      "indsam": 8037,
      "Tilknyttet": 8038,
      "funds": 8039,
      "Detal": 8040,
      "ansatte": 8041,
      "credential": 8042,
      "arkiver": 8043,
      "efterhånden": 8044,
      "home": 8045,
      "maj": 8046,
      "tykke": 8047,
      "bestilt": 8048,
      "rapportere": 8049,
      "kundes": 8050,
      "ordresporings": 8051,
      "Udrul": 8052,
      "sættet": 8053,
      "Indsigt": 8054,
      "index": 8055,
      "Forstå": 8056,
      "Foruds": 8057,
      "dimensionstypen": 8058,
      "Intel": 8059,
      "formatting": 8060,
      "hvorfra": 8061,
      "købsfakturaen": 8062,
      "købsreturvare": 8063,
      "alternate": 8064,
      "Derudover": 8065,
      "løst": 8066,
      "målingen": 8067,
      "produktkonfiguration": 8068,
      "produktbogførings": 8069,
      "kontor": 8070,
      "kontog": 8071,
      "konfigurationsnøg": 8072,
      "kontoudtog": 8073,
      "rentek": 8074,
      "teknolog": 8075,
      "tilgode": 8076,
      "produktionsjob": 8077,
      "produktionsressourcer": 8078,
      "impact": 8079,
      "witch": 8080,
      "tildelte": 8081,
      "krævede": 8082,
      "passende": 8083,
      "feltværdier": 8084,
      "Procedu": 8085,
      "sammenholde": 8086,
      "sammensat": 8087,
      "lader": 8088,
      "virker": 8089,
      "tragt": 8090,
      "spedit": 8091,
      "tidsperiode": 8092,
      "prisgrupper": 8093,
      "logic": 8094,
      "udvidelse": 8095,
      "trykker": 8096,
      "projektfaktura": 8097,
      "than": 8098,
      "aktiviteterne": 8099,
      "slutbrugere": 8100,
      "dimensionsbaseret": 8101,
      "nummerplade": 8102,
      "dokumenterer": 8103,
      "Java": 8104,
      "payable": 8105,
      "fremtidig": 8106,
      "højrek": 8107,
      "stransaktion": 8108,
      "bankdata": 8109,
      "Arbejdere": 8110,
      "antæne": 8111,
      "importing": 8112,
      "Allok": 8113,
      "fuldstæn": 8114,
      "synchron": 8115,
      "novem": 8116,
      "produkterne": 8117,
      "startede": 8118,
      "kundeemner": 8119,
      "farves": 8120,
      "Vali": 8121,
      "series": 8122,
      "serienummer": 8123,
      "tilgængeligheds": 8124,
      "offentlig": 8125,
      "nødvendig": 8126,
      "lukker": 8127,
      "kontaktoplysninger": 8128,
      "selvstudi": 8129,
      "datakilderne": 8130,
      "scenariet": 8131,
      "håndtag": 8132,
      "færre": 8133,
      "færdigt": 8134,
      "opsættes": 8135,
      "indlæser": 8136,
      "filtrerer": 8137,
      "warehousing": 8138,
      "repræsenteres": 8139,
      "afskrivningsprofiler": 8140,
      "anbefale": 8141,
      "servicek": 8142,
      "Kommentar": 8143,
      "identifikation": 8144,
      "foruddefineret": 8145,
      "lønstruktur": 8146,
      "styklisteversion": 8147,
      "oprindeligt": 8148,
      "fortløbende": 8149,
      "running": 8150,
      "solgte": 8151,
      "Rapportdata": 8152,
      "rettighed": 8153,
      "rutebinding": 8154,
      "flex": 8155,
      "justering": 8156,
      "splanlægnings": 8157,
      "finansmodulet": 8158,
      "transaktionerne": 8159,
      "skjules": 8160,
      "nøglefaktorer": 8161,
      "udviklings": 8162,
      "messag": 8163,
      "spolitikken": 8164,
      "reservere": 8165,
      "kasserabatter": 8166,
      "rigtige": 8167,
      "Styring": 8168,
      "statistics": 8169,
      "tilmeld": 8170,
      "Godkendelses": 8171,
      "overvåg": 8172,
      "midlertidige": 8173,
      "særskilt": 8174,
      "kommerci": 8175,
      "Dimensionshierarkinode": 8176,
      "påvirkes": 8177,
      "keys": 8178,
      "keyboard": 8179,
      "anskaffelse": 8180,
      "implementere": 8181,
      "HTTP": 8182,
      "maps": 8183,
      "Object": 8184,
      "realiseret": 8185,
      "realized": 8186,
      "benyttes": 8187,
      "udløber": 8188,
      "blokering": 8189,
      "materials": 8190,
      "myndighed": 8191,
      "Contain": 8192,
      "Fuldført": 8193,
      "uploa": 8194,
      "uploade": 8195,
      "aggregering": 8196,
      "Forespørgselseditor": 8197,
      "tredjepart": 8198,
      "udsnitsværktøjet": 8199,
      "hukommelsen": 8200,
      "nøjagtig": 8201,
      "webstedsindstillinger": 8202,
      "servicekontrakttilbud": 8203,
      "forsendelse": 8204,
      "invitationer": 8205,
      "rembursen": 8206,
      "undtagelser": 8207,
      "regionale": 8208,
      "opgavek": 8209,
      "buttons": 8210,
      "forhån": 8211,
      "forældede": 8212,
      "Naviger": 8213,
      "Output": 8214,
      "niker": 8215,
      "stigende": 8216,
      "midt": 8217,
      "scanner": 8218,
      "pbiviz": 8219,
      "redigeringstilstand": 8220,
      "reserveres": 8221,
      "skjulte": 8222,
      "dedikerede": 8223,
      "skomponenter": 8224,
      "collection": 8225,
      "collections": 8226,
      "historik": 8227,
      "rentenota": 8228,
      "bølge": 8229,
      "vandret": 8230,
      "forsink": 8231,
      "Kræv": 8232,
      "adskiller": 8233,
      "Begge": 8234,
      "privat": 8235,
      "bidrager": 8236,
      "kørselstidspunktet": 8237,
      "Opgave": 8238,
      "skladdelinjer": 8239,
      "Gennemsnitlig": 8240,
      "indbakke": 8241,
      "applikation": 8242,
      "Maksimum": 8243,
      "downloadet": 8244,
      "udelukk": 8245,
      "Programmet": 8246,
      "password": 8247,
      "sandsynligvis": 8248,
      "maximum": 8249,
      "Group": 8250,
      "Hændelse": 8251,
      "Juridisk": 8252,
      "Posi": 8253,
      "window": 8254,
      "defekter": 8255,
      "adaptive": 8256,
      "involveret": 8257,
      "raphic": 8258,
      "prognosestillinger": 8259,
      "replenish": 8260,
      "Fokustilstand": 8261,
      "Udsnit": 8262,
      "present": 8263,
      "forventes": 8264,
      "SVG": 8265,
      "faktatypen": 8266,
      "fabrikat": 8267,
      "remaining": 8268,
      "fortsat": 8269,
      "credentials": 8270,
      "JavaScript": 8271,
      "november": 8272,
      "Container": 8273,
      "forhånds": 8274,
      "replenishment": 8275,
      "38": 8276,
      "39": 8277,
      "41": 8278,
      "43": 8279,
      "57": 8280,
      "BW": 8281,
      "CT": 8282,
      "DPR": 8283,
      "Fæl": 8284,
      "Gu": 8285,
      "GDPR": 8286,
      "Item": 8287,
      "Kass": 8288,
      "MD": 8289,
      "MR": 8290,
      "Mil": 8291,
      "OT": 8292,
      "Tre": 8293,
      "Uplo": 8294,
      "Vil": 8295,
      "``": 8296,
      "bort": 8297,
      "bring": 8298,
      "glidende": 8299,
      "ite": 8300,
      "ids": 8301,
      "ias": 8302,
      "ities": 8303,
      "pac": 8304,
      "rød": 8305,
      "svare": 8306,
      "tjek": 8307,
      "uafhængigt": 8308,
      "wid": 8309,
      "Øn": 8310,
      "ødt": 8311,
      "endelig": 8312,
      "oritter": 8313,
      "tikk": 8314,
      "elsk": 8315,
      "quote": 8316,
      "quotes": 8317,
      "tilsagn": 8318,
      "vid": 8319,
      "omkring": 8320,
      "tester": 8321,
      "ppe": 8322,
      "ppet": 8323,
      "oplac": 8324,
      "optional": 8325,
      "ival": 8326,
      "dete": 8327,
      "been": 8328,
      "bemærke": 8329,
      "udvælg": 8330,
      "udforsk": 8331,
      "udbud": 8332,
      "udbetaling": 8333,
      "udfol": 8334,
      "spare": 8335,
      "årlig": 8336,
      "været": 8337,
      "amorti": 8338,
      "indgå": 8339,
      "apporter": 8340,
      "dataskabelon": 8341,
      "theme": 8342,
      "læses": 8343,
      "ister": 8344,
      "genvej": 8345,
      "ningsprocessen": 8346,
      "Opretter": 8347,
      "jem": 8348,
      "haring": 8349,
      "brugerkontoen": 8350,
      "rapportsiden": 8351,
      "rapportdesign": 8352,
      "taler": 8353,
      "tallet": 8354,
      "lagerniveau": 8355,
      "context": 8356,
      "klare": 8357,
      "mine": 8358,
      "anses": 8359,
      "rettet": 8360,
      "arbejdscellen": 8361,
      "styres": 8362,
      "ritet": 8363,
      "risi": 8364,
      "komst": 8365,
      "kompri": 8366,
      "procesforløb": 8367,
      "upon": 8368,
      "besvare": 8369,
      "betaler": 8370,
      "Udarbejd": 8371,
      "fakturadata": 8372,
      "serviceobjekt": 8373,
      "serviceaftal": 8374,
      "ayout": 8375,
      "åbent": 8376,
      "salgsproces": 8377,
      "salgsordrelinjer": 8378,
      "Initial": 8379,
      "beregn": 8380,
      "musen": 8381,
      "frigive": 8382,
      "keden": 8383,
      "altegn": 8384,
      "Deaktivere": 8385,
      "trinnet": 8386,
      "Dernæst": 8387,
      "selskab": 8388,
      "standardomkostning": 8389,
      "kreditorsystem": 8390,
      "produktmodel": 8391,
      "produktnummer": 8392,
      "portalens": 8393,
      "comple": 8394,
      "automatisere": 8395,
      "skabelonapps": 8396,
      "debatch": 8397,
      "budgetplanlægnings": 8398,
      "auto": 8399,
      "audit": 8400,
      "objektliste": 8401,
      "gennemsyn": 8402,
      "gennemtving": 8403,
      "outbound": 8404,
      "markeds": 8405,
      "muliggør": 8406,
      "sammenlæg": 8407,
      "suc": 8408,
      "nuværende": 8409,
      "Visuelle": 8410,
      "tegne": 8411,
      "tidszone": 8412,
      "omkostningssted": 8413,
      "fordelingen": 8414,
      "træffe": 8415,
      "fulgt": 8416,
      "medarbejders": 8417,
      "medarbejdernes": 8418,
      "medarbejderfravær": 8419,
      "indkøbsrekvisitionslinjer": 8420,
      "ønsket": 8421,
      "betalingsdato": 8422,
      "betalingsformat": 8423,
      "betalingsbetingelser": 8424,
      "fejlbe": 8425,
      "fejlmeddelelsen": 8426,
      "begrænsnings": 8427,
      "momsbeløb": 8428,
      "systemadministrator": 8429,
      "tilpasnings": 8430,
      "sagsplanlægnings": 8431,
      "udlignet": 8432,
      "korre": 8433,
      "fremtiden": 8434,
      "faldende": 8435,
      "Omd": 8436,
      "kolonnedefinition": 8437,
      "kolonneoverskrifter": 8438,
      "fuldskærms": 8439,
      "overførsler": 8440,
      "betingelses": 8441,
      "tilladelsen": 8442,
      "integritet": 8443,
      "cykler": 8444,
      "klargjort": 8445,
      "Redigering": 8446,
      "næsten": 8447,
      "Kreditorer": 8448,
      "regulerings": 8449,
      "kontaktvirksomheder": 8450,
      "Importer": 8451,
      "kontiene": 8452,
      "fasttab": 8453,
      "bogføringsdatoen": 8454,
      "kildedokumentet": 8455,
      "drive": 8456,
      "planlægningslinjen": 8457,
      "håndterer": 8458,
      "punktdiagram": 8459,
      "grænseflader": 8460,
      "søgefeltet": 8461,
      "kombineres": 8462,
      "kopierede": 8463,
      "Beregnet": 8464,
      "bagud": 8465,
      "bekræftet": 8466,
      "gitterlinjer": 8467,
      "Komponent": 8468,
      "Modu": 8469,
      "alleriet": 8470,
      "sikkerhedsgrupper": 8471,
      "Fragt": 8472,
      "Frame": 8473,
      "selected": 8474,
      "rapporteringsenheder": 8475,
      "godkendelsesanmodninger": 8476,
      "Ressour": 8477,
      "subject": 8478,
      "mindreår": 8479,
      "fordelingsnøgle": 8480,
      "etime": 8481,
      "Filtrere": 8482,
      "lukningen": 8483,
      "nøglecenter": 8484,
      "Learning": 8485,
      "færdigheder": 8486,
      "færdigmel": 8487,
      "forventer": 8488,
      "længde": 8489,
      "effekten": 8490,
      "sikring": 8491,
      "lokaliteter": 8492,
      "havender": 8493,
      "Styr": 8494,
      "Funktions": 8495,
      "beskyttet": 8496,
      "pause": 8497,
      "fremhæver": 8498,
      "forecasts": 8499,
      "forecasting": 8500,
      "udløse": 8501,
      "organisationsindholdspakke": 8502,
      "byggesten": 8503,
      "stregkoder": 8504,
      "validerings": 8505,
      "variables": 8506,
      "installeres": 8507,
      "provisions": 8508,
      "leverancelinjer": 8509,
      "applying": 8510,
      "builder": 8511,
      "Publicere": 8512,
      "funktionsmåder": 8513,
      "IDE": 8514,
      "capacities": 8515,
      "Tilladt": 8516,
      "serviceskabelon": 8517,
      "løsningsoversigt": 8518,
      "evaluere": 8519,
      "udløbs": 8520,
      "tilbudsanmodninger": 8521,
      "slås": 8522,
      "centraliserede": 8523,
      "lokationsprofil": 8524,
      "analyserer": 8525,
      "udvidede": 8526,
      "devices": 8527,
      "målgruppen": 8528,
      "kvalitetsordre": 8529,
      "Personer": 8530,
      "udgiften": 8531,
      "Name": 8532,
      "Reporting": 8533,
      "lejere": 8534,
      "Måle": 8535,
      "Manuel": 8536,
      "engelsk": 8537,
      "anmodet": 8538,
      "break": 8539,
      "forsendelser": 8540,
      "blandede": 8541,
      "undtagen": 8542,
      "tokens": 8543,
      "brancher": 8544,
      "lagerstedsarbejde": 8545,
      "pipelines": 8546,
      "pipelinen": 8547,
      "produktkvitteringer": 8548,
      "sekvenser": 8549,
      "Gruppering": 8550,
      "kolleg": 8551,
      "optimerede": 8552,
      "Metoder": 8553,
      "Afstemning": 8554,
      "Eksemplerne": 8555,
      "rektangler": 8556,
      "firmas": 8557,
      "carri": 8558,
      "styringsprocesser": 8559,
      "rullemenuen": 8560,
      "Resultaterne": 8561,
      "afspille": 8562,
      "negative": 8563,
      "introduction": 8564,
      "behovsprognoser": 8565,
      "justeres": 8566,
      "Kursu": 8567,
      "artef": 8568,
      "refereres": 8569,
      "øvrige": 8570,
      "Organisationer": 8571,
      "...": 8572,
      "maskinen": 8573,
      "forpligtelse": 8574,
      "unities": 8575,
      "arkiverede": 8576,
      "skrivebeskyttede": 8577,
      "Baseret": 8578,
      "gyldigt": 8579,
      "procenten": 8580,
      "fleksibilitet": 8581,
      "Integrationsenhed": 8582,
      "steknolog": 8583,
      "understanding": 8584,
      "bankfacilitet": 8585,
      "guidance": 8586,
      "private": 8587,
      "kompetenceniveau": 8588,
      "fortolk": 8589,
      "indbakken": 8590,
      "Målinger": 8591,
      "zoner": 8592,
      "søgeresultat": 8593,
      "søgeresultater": 8594,
      "opportunities": 8595,
      "Websteds": 8596,
      "afvikling": 8597,
      "choose": 8598,
      "determining": 8599,
      "konflikter": 8600,
      "splaceringen": 8601,
      "troubleshooting": 8602,
      "coverage": 8603,
      "frekvens": 8604,
      "indførselscertifikat": 8605,
      "Hierarki": 8606,
      "Effektivitet": 8607,
      "arrival": 8608,
      "rekrutterings": 8609,
      "Afvigelse": 8610,
      "improve": 8611,
      "Sammenkæd": 8612,
      "development": 8613,
      "flerdimensionelle": 8614,
      "Download": 8615,
      "Skrive": 8616,
      "Tjenesten": 8617,
      "tilbagekal": 8618,
      "Anskaffelses": 8619,
      "exec": 8620,
      "springe": 8621,
      "Geo": 8622,
      "kigge": 8623,
      "pålidelig": 8624,
      "hoveder": 8625,
      "Tyskland": 8626,
      "konsignationslager": 8627,
      "hours": 8628,
      "sperformance": 8629,
      "Dataflow": 8630,
      "forsikringspolice": 8631,
      "Favoritter": 8632,
      "Platform": 8633,
      "skabe": 8634,
      "considerations": 8635,
      "Arkiv": 8636,
      "weighted": 8637,
      "Tastatur": 8638,
      "Udenrigshandel": 8639,
      "tilgodehavender": 8640,
      "Proceduren": 8641,
      "speditør": 8642,
      "Validere": 8643,
      "anbefalede": 8644,
      "opgavekø": 8645,
      "Positive": 8646,
      "Fælles": 8647,
      "Guiden": 8648,
      "packs": 8649,
      "widget": 8650,
      "3D": 8651,
      "48": 8652,
      "51": 8653,
      "52": 8654,
      "53": 8655,
      "DS": 8656,
      "ET": 8657,
      "Evalu": 8658,
      "FI": 8659,
      "Fac": 8660,
      "He": 8661,
      "IVisual": 8662,
      "Kilde": 8663,
      "Lev": 8664,
      "ME": 8665,
      "Mind": 8666,
      "Machine": 8667,
      "Navne": 8668,
      "OD": 8669,
      "Push": 8670,
      "SI": 8671,
      "Sy": 8672,
      "Sø": 8673,
      "Sen": 8674,
      "Vand": 8675,
      "ame": 8676,
      "cator": 8677,
      "df": 8678,
      "dob": 8679,
      "fam": 8680,
      "idt": 8681,
      "juni": 8682,
      "kast": 8683,
      "kerne": 8684,
      "mø": 8685,
      "mmel": 8686,
      "milep": 8687,
      "ome": 8688,
      "pdf": 8689,
      "rens": 8690,
      "sfeltet": 8691,
      "switch": 8692,
      "sharing": 8693,
      "tte": 8694,
      "v4": 8695,
      "yring": 8696,
      "enavn": 8697,
      "encl": 8698,
      "encryp": 8699,
      "enumer": 8700,
      "ethvert": 8701,
      "ores": 8702,
      "timel": 8703,
      "eliste": 8704,
      "ellip": 8705,
      "anførsel": 8706,
      "stop": 8707,
      "depen": 8708,
      "forhandler": 8709,
      "alias": 8710,
      "tilby": 8711,
      "esom": 8712,
      "eskeder": 8713,
      "dermed": 8714,
      "arå": 8715,
      "ogni": 8716,
      "prere": 8717,
      "prop": 8718,
      "praktiske": 8719,
      "skopi": 8720,
      "terms": 8721,
      "radi": 8722,
      "rative": 8723,
      "testen": 8724,
      "tech": 8725,
      "neds": 8726,
      "agent": 8727,
      "sert": 8728,
      "opbygge": 8729,
      "opbevar": 8730,
      "unch": 8731,
      "detype": 8732,
      "tober": 8733,
      "udste": 8734,
      "hemmel": 8735,
      "ordres": 8736,
      "spati": 8737,
      "ligste": 8738,
      "moderne": 8739,
      "ingsniveau": 8740,
      "datamodeller": 8741,
      "dataprovider": 8742,
      "overskre": 8743,
      "plat": 8744,
      "PowerBI": 8745,
      "reset": 8746,
      "acqui": 8747,
      "kthrough": 8748,
      "værdistrøm": 8749,
      "måneden": 8750,
      "regres": 8751,
      "osv": 8752,
      "varelse": 8753,
      "lyd": 8754,
      "lykke": 8755,
      "brugergrupper": 8756,
      "ofil": 8757,
      "office": 8758,
      "gev": 8759,
      "merge": 8760,
      "lagerantal": 8761,
      "lagerprocesser": 8762,
      "lagerregulering": 8763,
      "lagerbevægelser": 8764,
      "conformance": 8765,
      "conditional": 8766,
      "Konti": 8767,
      "ico": 8768,
      "descan": 8769,
      "bogholder": 8770,
      "indsamle": 8771,
      "ansat": 8772,
      "arbejdsskabelon": 8773,
      "vente": 8774,
      "venligt": 8775,
      "ventede": 8776,
      "modeltilknytninger": 8777,
      "besøg": 8778,
      "rapporteret": 8779,
      "bills": 8780,
      "serviceordrelinjer": 8781,
      "relative": 8782,
      "Indhold": 8783,
      "parter": 8784,
      "åbnet": 8785,
      "Forventet": 8786,
      "Forfalds": 8787,
      "emballage": 8788,
      "diserede": 8789,
      "salgsbehov": 8790,
      "salgsprocesser": 8791,
      "Info": 8792,
      "varemodtagelses": 8793,
      "opdater": 8794,
      "kede": 8795,
      "filtering": 8796,
      "interaktiv": 8797,
      "webformular": 8798,
      "website": 8799,
      "trinvis": 8800,
      "trinvise": 8801,
      "konton": 8802,
      "kontanter": 8803,
      "rename": 8804,
      "temaf": 8805,
      "atoren": 8806,
      "Open": 8807,
      "kolonnes": 8808,
      "automatiseret": 8809,
      "tildelingen": 8810,
      "budgetmidler": 8811,
      "generated": 8812,
      "generating": 8813,
      "gennemført": 8814,
      "matric": 8815,
      "outlook": 8816,
      "whether": 8817,
      "virkningen": 8818,
      "Overvejelser": 8819,
      "resultere": 8820,
      "resulterende": 8821,
      "regnskabskalender": 8822,
      "milli": 8823,
      "priority": 8824,
      "svarmuligheder": 8825,
      "logger": 8826,
      "logføring": 8827,
      "trækker": 8828,
      "træks": 8829,
      "dashboardfelt": 8830,
      "dokumentlayout": 8831,
      "specielle": 8832,
      "specialtegn": 8833,
      "slutpunktet": 8834,
      "punktop": 8835,
      "resultatgrupper": 8836,
      "kalde": 8837,
      "kaldet": 8838,
      "dimensionsværdi": 8839,
      "Definerer": 8840,
[...]
