{
  "version": "1.0",
  "truncation": null,
  "padding": null,
  "added_tokens": [
    {
      "id": 0,
      "content": "[UNK]",
      "single_word": false,
      "lstrip": false,
      "rstrip": false,
      "normalized": false,
      "special": true
    },
    {
      "id": 1,
      "content": "[PAD]",
      "single_word": false,
      "lstrip": false,
      "rstrip": false,
      "normalized": false,
      "special": true
    },
    {
      "id": 2,
      "content": "[BOS]",
      "single_word": false,
      "lstrip": false,
      "rstrip": false,
      "normalized": false,
      "special": true
    },
    {
      "id": 3,
      "content": "[EOS]",
      "single_word": false,
      "lstrip": false,
      "rstrip": false,
      "normalized": false,
      "special": true
    }
  ],
  "normalizer": null,
  "pre_tokenizer": {
    "type": "Whitespace"
  },
  "post_processor": null,
  "decoder": null,
  "model": {
    "type": "BPE",
    "dropout": null,
    "unk_token": "[UNK]",
    "continuing_subword_prefix": null,
    "end_of_word_suffix": null,
    "fuse_unk": false,
    "vocab": {
      "[UNK]": 0,
      "[PAD]": 1,
      "[BOS]": 2,
      "[EOS]": 3,
      "!": 4,
      "#": 5,
      "$": 6,
      "%": 7,
      "&": 8,
      "(": 9,
      ")": 10,
      "*": 11,
      "+": 12,
      ",": 13,
      "-": 14,
      ".": 15,
      "/": 16,
      "0": 17,
      "1": 18,
      "2": 19,
      "3": 20,
      "4": 21,
      "5": 22,
      "6": 23,
      "7": 24,
      "8": 25,
      "9": 26,
      ":": 27,
      ";": 28,
      "=": 29,
      "?": 30,
      "@": 31,
      "A": 32,
      "B": 33,
      "C": 34,
      "D": 35,
      "E": 36,
      "F": 37,
      "G": 38,
      "H": 39,
      "I": 40,
      "J": 41,
      "K": 42,
      "L": 43,
      "M": 44,
      "N": 45,
      "O": 46,
      "P": 47,
      "Q": 48,
      "R": 49,
      "S": 50,
      "T": 51,
      "U": 52,
      "V": 53,
      "W": 54,
      "X": 55,
      "Y": 56,
      "Z": 57,
      "\\": 58,
      "^": 59,
      "_": 60,
      "`": 61,
      "a": 62,
      "b": 63,
      "c": 64,
      "d": 65,
      "e": 66,
      "f": 67,
      "g": 68,
      "h": 69,
      "i": 70,
      "j": 71,
      "k": 72,
      "l": 73,
      "m": 74,
      "n": 75,
      "o": 76,
      "p": 77,
      "q": 78,
      "r": 79,
      "s": 80,
      "t": 81,
      "u": 82,
      "v": 83,
      "w": 84,
      "x": 85,
      "y": 86,
      "z": 87,
      "{": 88,
      "}": 89,
      "~": 90,
      "§": 91,
      "©": 92,
      "®": 93,
      "°": 94,
      "²": 95,
      "×": 96,
      "ï": 97,
      "÷": 98,
      "‑": 99,
      "–": 100,
      "—": 101,
      "‘": 102,
      "’": 103,
      "“": 104,
      "”": 105,
      "†": 106,
      "‡": 107,
      "•": 108,
      "…": 109,
      "−": 110,
      "✅": 111,
      "✔": 112,
      "❌": 113,
      "": 114,
      "️": 115,
      "😁": 116,
      "th": 117,
      "in": 118,
      "er": 119,
      "on": 120,
      "&#": 121,
      "ti": 122,
      "the": 123,
      "re": 124,
      "an": 125,
      "or": 126,
      "en": 127,
      "le": 128,
      "12": 129,
      "124": 130,
      "es": 131,
      "at": 132,
      "tion": 133,
      "al": 134,
      "ro": 135,
      "ing": 136,
      "ed": 137,
      "is": 138,
      "to": 139,
      "ic": 140,
      "ent": 141,
      "ou": 142,
      "se": 143,
      "gt": 144,
      "ct": 145,
      "and": 146,
      "ar": 147,
      "qu": 148,
      "st": 149,
      "lt": 150,
      "for": 151,
      "ot": 152,
      "ation": 153,
      "ap": 154,
      "fi": 155,
      "el": 156,
      "it": 157,
      "of": 158,
      "ac": 159,
      "lo": 160,
      "ag": 161,
      "de": 162,
      "as": 163,
      "he": 164,
      "pro": 165,
      "per": 166,
      "am": 167,
      "ate": 168,
      "ment": 169,
      "ol": 170,
      "In": 171,
      "et": 172,
      "quot": 173,
      "ch": 174,
      "us": 175,
      "ty": 176,
      "id": 177,
      "The": 178,
      "il": 179,
      "co": 180,
      "ex": 181,
      "ab": 182,
      "em": 183,
      "con": 184,
      "os": 185,
      "91": 186,
      "93": 187,
      "ad": 188,
      "br": 189,
      "ction": 190,
      "you": 191,
      "res": 192,
      "age": 193,
      "pe": 194,
      "ur": 195,
      "ow": 196,
      "ess": 197,
      "up": 198,
      "pl": 199,
      "ce": 200,
      "ri": 201,
      "tle": 202,
      "si": 203,
      "un": 204,
      "title": 205,
      "nt": 206,
      "apos": 207,
      "that": 208,
      "ect": 209,
      "eld": 210,
      "ver": 211,
      "ay": 212,
      "be": 213,
      "val": 214,
      "md": 215,
      "lect": 216,
      "Pro": 217,
      "me": 218,
      "der": 219,
      "ter": 220,
      "field": 221,
      "form": 222,
      "are": 223,
      "ve": 224,
      "ci": 225,
      "ew": 226,
      "ut": 227,
      "ort": 228,
      "mp": 229,
      "ick": 230,
      "ject": 231,
      "od": 232,
      "able": 233,
      "ta": 234,
      "lick": 235,
      "valu": 236,
      "fol": 237,
      "Re": 238,
      "ith": 239,
      "00": 240,
      "ount": 241,
      "low": 242,
      "tr": 243,
      "ly": 244,
      "set": 245,
      "perty": 246,
      "ice": 247,
      "vi": 248,
      "ul": 249,
      "can": 250,
      "di": 251,
      "um": 252,
      "op": 253,
      "with": 254,
      "port": 255,
      "sion": 256,
      "by": 257,
      "end": 258,
      "Ex": 259,
      "ame": 260,
      "ure": 261,
      "li": 262,
      "select": 263,
      "ob": 264,
      "Se": 265,
      "ang": 266,
      "ity": 267,
      "cess": 268,
      "Con": 269,
      "ated": 270,
      "ma": 271,
      "ple": 272,
      "wh": 273,
      "ist": 274,
      "sh": 275,
      "td": 276,
      "ind": 277,
      "value": 278,
      "reate": 279,
      "lement": 280,
      "count": 281,
      "ers": 282,
      "ser": 283,
      "our": 284,
      "Click": 285,
      "De": 286,
      "cal": 287,
      "est": 288,
      "Th": 289,
      "ample": 290,
      "ork": 291,
      "cri": 292,
      "ine": 293,
      "rom": 294,
      "follow": 295,
      "ata": 296,
      "po": 297,
      "For": 298,
      "su": 299,
      "les": 300,
      "int": 301,
      "bo": 302,
      "your": 303,
      "object": 304,
      "ties": 305,
      "vent": 306,
      "this": 307,
      "not": 308,
      "Co": 309,
      "oc": 310,
      "type": 311,
      "peci": 312,
      "iz": 313,
      "au": 314,
      "so": 315,
      "element": 316,
      "ans": 317,
      "from": 318,
      "ext": 319,
      "ication": 320,
      "requ": 321,
      "du": 322,
      "AP": 323,
      "ical": 324,
      "chang": 325,
      "Set": 326,
      "item": 327,
      "out": 328,
      "following": 329,
      "ok": 330,
      "Ad": 331,
      "dis": 332,
      "cur": 333,
      "ell": 334,
      "mo": 335,
      "ill": 336,
      "ber": 337,
      "enter": 338,
      "cl": 339,
      "action": 340,
      "if": 341,
      "vice": 342,
      "let": 343,
      "St": 344,
      "comp": 345,
      "This": 346,
      "tain": 347,
      "ig": 348,
      "str": 349,
      "To": 350,
      "API": 351,
      "property": 352,
      "Create": 353,
      "essage": 354,
      "crip": 355,
      "ail": 356,
      "ther": 357,
      "work": 358,
      "ates": 359,
      "unction": 360,
      "ase": 361,
      "vid": 362,
      "example": 363,
      "but": 364,
      "ord": 365,
      "date": 366,
      "speci": 367,
      "inter": 368,
      "all": 369,
      "tom": 370,
      "art": 371,
      "fer": 372,
      "fig": 373,
      "Ac": 374,
      "ack": 375,
      "enti": 376,
      "tem": 377,
      "data": 378,
      "app": 379,
      "oper": 380,
      "cont": 381,
      "Property": 382,
      "num": 383,
      "use": 384,
      "man": 385,
      "Can": 386,
      "def": 387,
      "onical": 388,
      "add": 389,
      "des": 390,
      "perties": 391,
      "name": 392,
      "eb": 393,
      "view": 394,
      "pres": 395,
      "using": 396,
      "ros": 397,
      "ustom": 398,
      "red": 399,
      "formation": 400,
      "mm": 401,
      "own": 402,
      "Add": 403,
      "ting": 404,
      "ments": 405,
      "ror": 406,
      "appl": 407,
      "will": 408,
      "order": 409,
      "list": 410,
      "time": 411,
      "change": 412,
      "mod": 413,
      "ach": 414,
      "ard": 415,
      "ations": 416,
      "ance": 417,
      "thod": 418,
      "account": 419,
      "folder": 420,
      "col": 421,
      "number": 422,
      "ave": 423,
      "av": 424,
      "user": 425,
      "indow": 426,
      "bu": 427,
      "information": 428,
      "box": 429,
      "ke": 430,
      "file": 431,
      "Canonical": 432,
      "how": 433,
      "urn": 434,
      "one": 435,
      "arch": 436,
      "ension": 437,
      "Pid": 438,
      "message": 439,
      "pre": 440,
      "vel": 441,
      "loc": 442,
      "ust": 443,
      "gr": 444,
      "ory": 445,
      "ace": 446,
      "oft": 447,
      "method": 448,
      "im": 449,
      "Cell": 450,
      "event": 451,
      "roup": 452,
      "code": 453,
      "ne": 454,
      "ress": 455,
      "ree": 456,
      "when": 457,
      "cord": 458,
      "ant": 459,
      "trans": 460,
      "fo": 461,
      "duct": 462,
      "function": 463,
      "provid": 464,
      "ents": 465,
      "cre": 466,
      "icros": 467,
      "page": 468,
      "icrosoft": 469,
      "Fi": 470,
      "tions": 471,
      "Select": 472,
      "Un": 473,
      "has": 474,
      "No": 475,
      "no": 476,
      "par": 477,
      "Sh": 478,
      "Microsoft": 479,
      "get": 480,
      "Ch": 481,
      "new": 482,
      "click": 483,
      "look": 484,
      "ll": 485,
      "ld": 486,
      "vo": 487,
      "open": 488,
      "If": 489,
      "contain": 490,
      "request": 491,
      "nal": 492,
      "pon": 493,
      "10": 494,
      "custom": 495,
      "play": 496,
      "ual": 497,
      "act": 498,
      "ati": 499,
      "properties": 500,
      "config": 501,
      "MAPI": 502,
      "report": 503,
      "Vi": 504,
      "ht": 505,
      "used": 506,
      "Ap": 507,
      "ence": 508,
      "ask": 509,
      "upport": 510,
      "row": 511,
      "ast": 512,
      "operation": 513,
      "Section": 514,
      "Get": 515,
      "line": 516,
      "ces": 517,
      "Yes": 518,
      "comm": 519,
      "led": 520,
      "nd": 521,
      "ass": 522,
      "group": 523,
      "You": 524,
      "ere": 525,
      "ff": 526,
      "WS": 527,
      "any": 528,
      "curre": 529,
      "View": 530,
      "pay": 531,
      "ton": 532,
      "do": 533,
      "ales": 534,
      "section": 535,
      "Tr": 536,
      "application": 537,
      "Ed": 538,
      "ub": 539,
      "ource": 540,
      "gn": 541,
      "point": 542,
      "Tag": 543,
      "As": 544,
      "model": 545,
      "create": 546,
      "20": 547,
      "ret": 548,
      "ault": 549,
      "Wh": 550,
      "bal": 551,
      "ould": 552,
      "only": 553,
      "ener": 554,
      "Name": 555,
      "have": 556,
      "ating": 557,
      "format": 558,
      "ens": 559,
      "mail": 560,
      "On": 561,
      "Web": 562,
      "xed": 563,
      "process": 564,
      "service": 565,
      "Window": 566,
      "Man": 567,
      "sto": 568,
      "error": 569,
      "atus": 570,
      "respon": 571,
      "clu": 572,
      "Exchange": 573,
      "button": 574,
      "uration": 575,
      "che": 576,
      "down": 577,
      "EWS": 578,
      "ition": 579,
      "pos": 580,
      "cript": 581,
      "Item": 582,
      "product": 583,
      "ary": 584,
      "specifi": 585,
      "olo": 586,
      "ck": 587,
      "ron": 588,
      "PidTag": 589,
      "Ser": 590,
      "ip": 591,
      "support": 592,
      "sing": 593,
      "ument": 594,
      "ies": 595,
      "inst": 596,
      "min": 597,
      "read": 598,
      "ich": 599,
      "cription": 600,
      "text": 601,
      "lete": 602,
      "ry": 603,
      "items": 604,
      "fe": 605,
      "Op": 606,
      "table": 607,
      "endor": 608,
      "voice": 609,
      "Windows": 610,
      "loy": 611,
      "pr": 612,
      "Form": 613,
      "Res": 614,
      "Ret": 615,
      "Des": 616,
      "other": 617,
      "Ty": 618,
      "sp": 619,
      "ages": 620,
      "ID": 621,
      "att": 622,
      "ML": 623,
      "lection": 624,
      "specif": 625,
      "sy": 626,
      "identi": 627,
      "access": 628,
      "ule": 629,
      "sub": 630,
      "amet": 631,
      "reg": 632,
      "defin": 633,
      "tif": 634,
      "og": 635,
      "ite": 636,
      "which": 637,
      "project": 638,
      "ved": 639,
      "tic": 640,
      "ger": 641,
      "was": 642,
      "doc": 643,
      "return": 644,
      "ful": 645,
      "ari": 646,
      "atch": 647,
      "soci": 648,
      "tive": 649,
      "values": 650,
      "requi": 651,
      "ices": 652,
      "An": 653,
      "sign": 654,
      "rect": 655,
      "must": 656,
      "rol": 657,
      "put": 658,
      "version": 659,
      "DO": 660,
      "ge": 661,
      "Id": 662,
      "ality": 663,
      "more": 664,
      "contains": 665,
      "pand": 666,
      "agement": 667,
      "load": 668,
      "ath": 669,
      "record": 670,
      "Def": 671,
      "about": 672,
      "Po": 673,
      "imp": 674,
      "run": 675,
      "inclu": 676,
      "ization": 677,
      "lin": 678,
      "ep": 679,
      "task": 680,
      "ue": 681,
      "transaction": 682,
      "ous": 683,
      "we": 684,
      "repres": 685,
      "should": 686,
      "Go": 687,
      "ator": 688,
      "lobal": 689,
      "display": 690,
      "default": 691,
      "ape": 692,
      "ning": 693,
      "rop": 694,
      "Au": 695,
      "stem": 696,
      "stru": 697,
      "pi": 698,
      "En": 699,
      "over": 700,
      "tional": 701,
      "see": 702,
      "Type": 703,
      "then": 704,
      "fore": 705,
      "Dis": 706,
      "paramet": 707,
      "ish": 708,
      "tings": 709,
      "ility": 710,
      "templ": 711,
      "state": 712,
      "dim": 713,
      "te": 714,
      "avail": 715,
      "bas": 716,
      "dimension": 717,
      "Im": 718,
      "call": 719,
      "Out": 720,
      "ote": 721,
      "selected": 722,
      "identifi": 723,
      "provider": 724,
      "current": 725,
      "Use": 726,
      "tact": 727,
      "configuration": 728,
      "cost": 729,
      "icates": 730,
      "urch": 731,
      "sociated": 732,
      "web": 733,
      "cul": 734,
      "mis": 735,
      "tification": 736,
      "ble": 737,
      "Global": 738,
      "ark": 739,
      "post": 740,
      "Account": 741,
      "ournal": 742,
      "ion": 743,
      "peri": 744,
      "Comp": 745,
      "ign": 746,
      "Ent": 747,
      "cy": 748,
      "rece": 749,
      "ear": 750,
      "start": 751,
      "response": 752,
      "hand": 753,
      "struct": 754,
      "been": 755,
      "Trans": 756,
      "Rem": 757,
      "Data": 758,
      "Access": 759,
      "drop": 760,
      "tree": 761,
      "address": 762,
      "Er": 763,
      "available": 764,
      "urchase": 765,
      "User": 766,
      "refer": 767,
      "lient": 768,
      "payment": 769,
      "13": 770,
      "Up": 771,
      "ray": 772,
      "ound": 773,
      "status": 774,
      "its": 775,
      "lter": 776,
      "head": 777,
      "ize": 778,
      "cep": 779,
      "alog": 780,
      "back": 781,
      "string": 782,
      "ild": 783,
      "ain": 784,
      "avi": 785,
      "ols": 786,
      "Work": 787,
      "Config": 788,
      "Holo": 789,
      "ced": 790,
      "Error": 791,
      "ures": 792,
      "show": 793,
      "cel": 794,
      "Str": 795,
      "sales": 796,
      "When": 797,
      "invoice": 798,
      "Script": 799,
      "pid": 800,
      "Function": 801,
      "fir": 802,
      "objects": 803,
      "nam": 804,
      "location": 805,
      "App": 806,
      "vendor": 807,
      "ribut": 808,
      "main": 809,
      "control": 810,
      "ado": 811,
      "content": 812,
      "ploy": 813,
      "ADO": 814,
      "way": 815,
      "typ": 816,
      "management": 817,
      "collection": 818,
      "store": 819,
      "ier": 820,
      "ane": 821,
      "rig": 822,
      "tab": 823,
      "ight": 824,
      "OS": 825,
      "ware": 826,
      "ban": 827,
      "000": 828,
      "ial": 829,
      "older": 830,
      "ulti": 831,
      "acti": 832,
      "check": 833,
      "Az": 834,
      "fin": 835,
      "ult": 836,
      "flow": 837,
      "gener": 838,
      "document": 839,
      "At": 840,
      "gu": 841,
      "into": 842,
      "Project": 843,
      "Cont": 844,
      "Vis": 845,
      "anti": 846,
      "leg": 847,
      "amount": 848,
      "Message": 849,
      "Open": 850,
      "Action": 851,
      "Qu": 852,
      "Return": 853,
      "``": 854,
      "gg": 855,
      "Info": 856,
      "nect": 857,
      "option": 858,
      "Ob": 859,
      "key": 860,
      "created": 861,
      "WebView": 862,
      "Outlook": 863,
      "device": 864,
      "ateg": 865,
      "ir": 866,
      "Image": 867,
      "endar": 868,
      "olic": 869,
      "very": 870,
      "valid": 871,
      "tail": 872,
      "customer": 873,
      "Properties": 874,
      "need": 875,
      "Pl": 876,
      "Record": 877,
      "Dev": 878,
      "atial": 879,
      "istr": 880,
      "velop": 881,
      "ER": 882,
      "ventory": 883,
      "search": 884,
      "gram": 885,
      "specified": 886,
      "represents": 887,
      "ffer": 888,
      "11": 889,
      "New": 890,
      "sc": 891,
      "Per": 892,
      "Path": 893,
      "window": 894,
      "perform": 895,
      "cial": 896,
      "ierarch": 897,
      "calcul": 898,
      "step": 899,
      "ash": 900,
      "server": 901,
      "such": 902,
      "ove": 903,
      "top": 904,
      "lock": 905,
      "based": 906,
      "ources": 907,
      "system": 908,
      "each": 909,
      "ouse": 910,
      "duction": 911,
      "Off": 912,
      "String": 913,
      "face": 914,
      "gh": 915,
      "eting": 916,
      "Expand": 917,
      "com": 918,
      "mem": 919,
      "asset": 920,
      "tax": 921,
      "Start": 922,
      "Folder": 923,
      "Contain": 924,
      "template": 925,
      "journal": 926,
      "command": 927,
      "Col": 928,
      "ding": 929,
      "Requ": 930,
      "mission": 931,
      "Mod": 932,
      "fter": 933,
      "these": 934,
      "aged": 935,
      "ho": 936,
      "tical": 937,
      "specific": 938,
      "antity": 939,
      "sol": 940,
      "Doc": 941,
      "ec": 942,
      "rel": 943,
      "ccess": 944,
      "Inter": 945,
      "ive": 946,
      "gan": 947,
      "lookup": 948,
      "Run": 949,
      "UR": 950,
      "cell": 951,
      "client": 952,
      "enable": 953,
      "XML": 954,
      "Lid": 955,
      "PidLid": 956,
      "Ar": 957,
      "ts": 958,
      "mailbox": 959,
      "atab": 960,
      "files": 961,
      "result": 962,
      "Val": 963,
      "ange": 964,
      "class": 965,
      "mess": 966,
      "also": 967,
      "plan": 968,
      "structure": 969,
      "ile": 970,
      "ream": 971,
      "Object": 972,
      "Custom": 973,
      "dialog": 974,
      "Speci": 975,
      "vari": 976,
      "Att": 977,
      "Lens": 978,
      "mark": 979,
      "Provid": 980,
      "HoloLens": 981,
      "Service": 982,
      "Description": 983,
      "types": 984,
      "15": 985,
      "ister": 986,
      "off": 987,
      "pers": 988,
      "16": 989,
      "Loc": 990,
      "ra": 991,
      "ancial": 992,
      "detail": 993,
      "vers": 994,
      "crib": 995,
      "pect": 996,
      "ditional": 997,
      "Address": 998,
      "Sales": 999,
      "ax": 1000,
      "ixed": 1001,
      "cipi": 1002,
      "iv": 1003,
      "changes": 1004,
      "shows": 1005,
      "ak": 1006,
      "allow": 1007,
      "Returns": 1008,
      "ted": 1009,
      "ze": 1010,
      "Al": 1011,
      "Bo": 1012,
      "net": 1013,
      "Pay": 1014,
      "job": 1015,
      "ren": 1016,
      "appro": 1017,
      "notification": 1018,
      "ccessful": 1019,
      "DA": 1020,
      "Gener": 1021,
      "vices": 1022,
      "thro": 1023,
      "settings": 1024,
      "leted": 1025,
      "update": 1026,
      "events": 1027,
      "does": 1028,
      "specifies": 1029,
      "orders": 1030,
      "Edge": 1031,
      "feat": 1032,
      "OM": 1033,
      "pri": 1034,
      "avig": 1035,
      "Ti": 1036,
      "required": 1037,
      "reference": 1038,
      "multi": 1039,
      "InfoPath": 1040,
      "ubl": 1041,
      "ierarchy": 1042,
      "parameter": 1043,
      "ee": 1044,
      "dex": 1045,
      "differ": 1046,
      "transactions": 1047,
      "cent": 1048,
      "aph": 1049,
      "log": 1050,
      "Imp": 1051,
      "Using": 1052,
      "email": 1053,
      "Unity": 1054,
      "ugh": 1055,
      "tim": 1056,
      "details": 1057,
      "Table": 1058,
      "uring": 1059,
      "Event": 1060,
      "mit": 1061,
      "depre": 1062,
      "hether": 1063,
      "umn": 1064,
      "nection": 1065,
      "Azure": 1066,
      "Time": 1067,
      "Sy": 1068,
      "remo": 1069,
      "Tools": 1070,
      "atabase": 1071,
      "source": 1072,
      "curren": 1073,
      "upd": 1074,
      "book": 1075,
      "mac": 1076,
      "vis": 1077,
      "lose": 1078,
      "through": 1079,
      "map": 1080,
      "Enter": 1081,
      "first": 1082,
      "bit": 1083,
      "array": 1084,
      "heet": 1085,
      "direct": 1086,
      "olicy": 1087,
      "ater": 1088,
      "entity": 1089,
      "Jav": 1090,
      "dist": 1091,
      "purchase": 1092,
      "ized": 1093,
      "US": 1094,
      "iti": 1095,
      "ution": 1096,
      "stand": 1097,
      "contact": 1098,
      "ause": 1099,
      "Oper": 1100,
      "Bu": 1101,
      "house": 1102,
      "ify": 1103,
      "lines": 1104,
      "Contains": 1105,
      "apping": 1106,
      "HT": 1107,
      "cle": 1108,
      "ong": 1109,
      "ended": 1110,
      "tore": 1111,
      "Product": 1112,
      "om": 1113,
      "develop": 1114,
      "redit": 1115,
      "Sp": 1116,
      "whether": 1117,
      "exist": 1118,
      "successful": 1119,
      "Cost": 1120,
      "Associated": 1121,
      "Update": 1122,
      "Cre": 1123,
      "wo": 1124,
      "ched": 1125,
      "ifi": 1126,
      "level": 1127,
      "supported": 1128,
      "part": 1129,
      "want": 1130,
      "identifier": 1131,
      "ling": 1132,
      "Shape": 1133,
      "DAO": 1134,
      "roll": 1135,
      "users": 1136,
      "ability": 1137,
      "ciation": 1138,
      "Ext": 1139,
      "14": 1140,
      "Cal": 1141,
      "profile": 1142,
      "Core": 1143,
      "attach": 1144,
      "Java": 1145,
      "17": 1146,
      "enu": 1147,
      "link": 1148,
      "WebView2": 1149,
      "cap": 1150,
      "ene": 1151,
      "char": 1152,
      "ull": 1153,
      "calendar": 1154,
      "rule": 1155,
      "filter": 1156,
      "indicates": 1157,
      "fl": 1158,
      "wr": 1159,
      "entry": 1160,
      "dio": 1161,
      "pointer": 1162,
      "TR": 1163,
      "macro": 1164,
      "JavaScript": 1165,
      "Or": 1166,
      "Text": 1167,
      "categ": 1168,
      "dget": 1169,
      "und": 1170,
      "messages": 1171,
      "Not": 1172,
      "discount": 1173,
      "dispid": 1174,
      "company": 1175,
      "Sub": 1176,
      "ery": 1177,
      "elements": 1178,
      "defined": 1179,
      "Be": 1180,
      "Fin": 1181,
      "Request": 1182,
      "Pr": 1183,
      "quantity": 1184,
      "Code": 1185,
      "ribu": 1186,
      "same": 1187,
      "Excel": 1188,
      "Status": 1189,
      "eli": 1190,
      "Comm": 1191,
      "DevTools": 1192,
      "find": 1193,
      "site": 1194,
      "auto": 1195,
      "curity": 1196,
      "period": 1197,
      "ules": 1198,
      "cover": 1199,
      "Lo": 1200,
      "tag": 1201,
      "pression": 1202,
      "two": 1203,
      "shape": 1204,
      "ganization": 1205,
      "cribes": 1206,
      "different": 1207,
      "All": 1208,
      "LL": 1209,
      "aging": 1210,
      "groups": 1211,
      "Js": 1212,
      "ead": 1213,
      "aring": 1214,
      "permission": 1215,
      "meeting": 1216,
      "cor": 1217,
      "day": 1218,
      "may": 1219,
      "ph": 1220,
      "arget": 1221,
      "workflow": 1222,
      "interface": 1223,
      "acking": 1224,
      "steps": 1225,
      "200": 1226,
      "ey": 1227,
      "inventory": 1228,
      "Report": 1229,
      "actions": 1230,
      "It": 1231,
      "assign": 1232,
      "chron": 1233,
      "ession": 1234,
      "Display": 1235,
      "Line": 1236,
      "ffect": 1237,
      "Visual": 1238,
      "Find": 1239,
      "SE": 1240,
      "SO": 1241,
      "just": 1242,
      "now": 1243,
      "nchron": 1244,
      "where": 1245,
      "import": 1246,
      "implement": 1247,
      "vious": 1248,
      "ded": 1249,
      "ribute": 1250,
      "aces": 1251,
      "connect": 1252,
      "Store": 1253,
      "place": 1254,
      "viron": 1255,
      "Ver": 1256,
      "holo": 1257,
      "vity": 1258,
      "resources": 1259,
      "Field": 1260,
      "Edm": 1261,
      "Configure": 1262,
      "Count": 1263,
      "ayou": 1264,
      "card": 1265,
      "eng": 1266,
      "accounts": 1267,
      "Di": 1268,
      "How": 1269,
      "ia": 1270,
      "0000": 1271,
      "extension": 1272,
      "ative": 1273,
      "single": 1274,
      "hierarchy": 1275,
      "cons": 1276,
      "specify": 1277,
      "curs": 1278,
      "ager": 1279,
      "Appl": 1280,
      "Edit": 1281,
      "price": 1282,
      "istration": 1283,
      "Is": 1284,
      "ys": 1285,
      "Ind": 1286,
      "uses": 1287,
      "some": 1288,
      "Server": 1289,
      "financial": 1290,
      "person": 1291,
      "pan": 1292,
      "space": 1293,
      "returned": 1294,
      "match": 1295,
      "ender": 1296,
      "provides": 1297,
      "Hand": 1298,
      "ai": 1299,
      "edit": 1300,
      "methods": 1301,
      "subs": 1302,
      "Recordset": 1303,
      "ili": 1304,
      "graph": 1305,
      "install": 1306,
      "ose": 1307,
      "ences": 1308,
      "vide": 1309,
      "Group": 1310,
      "ide": 1311,
      "mon": 1312,
      "make": 1313,
      "Post": 1314,
      "0x": 1315,
      "CS": 1316,
      "Emp": 1317,
      "recipi": 1318,
      "reak": 1319,
      "local": 1320,
      "associated": 1321,
      "Auto": 1322,
      "Date": 1323,
      "Det": 1324,
      "Key": 1325,
      "Note": 1326,
      "pass": 1327,
      "fies": 1328,
      "column": 1329,
      "parameters": 1330,
      "ified": 1331,
      "ribution": 1332,
      "sample": 1333,
      "script": 1334,
      "register": 1335,
      "POS": 1336,
      "TP": 1337,
      "word": 1338,
      "ank": 1339,
      "expression": 1340,
      "ending": 1341,
      "design": 1342,
      "applications": 1343,
      "bet": 1344,
      "Vendor": 1345,
      "them": 1346,
      "anban": 1347,
      "compon": 1348,
      "configure": 1349,
      "Provider": 1350,
      "multiple": 1351,
      "nel": 1352,
      "Extension": 1353,
      "arg": 1354,
      "Contact": 1355,
      "Managed": 1356,
      "chema": 1357,
      "spatial": 1358,
      "depreciation": 1359,
      "fixed": 1360,
      "expand": 1361,
      "under": 1362,
      "Office": 1363,
      "tically": 1364,
      "ayout": 1365,
      "Me": 1366,
      "than": 1367,
      "Settings": 1368,
      "folders": 1369,
      "reporting": 1370,
      "Format": 1371,
      "Mail": 1372,
      "Pre": 1373,
      "Pane": 1374,
      "input": 1375,
      "another": 1376,
      "complete": 1377,
      "reports": 1378,
      "production": 1379,
      "ries": 1380,
      "previous": 1381,
      "resource": 1382,
      "Default": 1383,
      "Enable": 1384,
      "State": 1385,
      "render": 1386,
      "vironment": 1387,
      "pack": 1388,
      "ven": 1389,
      "ors": 1390,
      "experi": 1391,
      "before": 1392,
      "tasks": 1393,
      "Task": 1394,
      "cause": 1395,
      "database": 1396,
      "ense": 1397,
      "round": 1398,
      "Search": 1399,
      "build": 1400,
      "File": 1401,
      "ght": 1402,
      "policy": 1403,
      "inal": 1404,
      "stream": 1405,
      "agree": 1406,
      "position": 1407,
      "ished": 1408,
      "bers": 1409,
      "menu": 1410,
      "sed": 1411,
      "fields": 1412,
      "ula": 1413,
      "```": 1414,
      "Indicates": 1415,
      "fy": 1416,
      "apter": 1417,
      "ute": 1418,
      "overview": 1419,
      "Page": 1420,
      "itions": 1421,
      "navig": 1422,
      "names": 1423,
      "cast": 1424,
      "ves": 1425,
      "atform": 1426,
      "header": 1427,
      "URL": 1428,
      "go": 1429,
      "mapping": 1430,
      "rele": 1431,
      "Share": 1432,
      "bank": 1433,
      "elivery": 1434,
      "From": 1435,
      "Mo": 1436,
      "Delete": 1437,
      "Setup": 1438,
      "graphic": 1439,
      "CD": 1440,
      "ler": 1441,
      "proced": 1442,
      "board": 1443,
      "Accounts": 1444,
      "mapi": 1445,
      "UE": 1446,
      "codes": 1447,
      "matically": 1448,
      "image": 1449,
      "ward": 1450,
      "que": 1451,
      "require": 1452,
      "ft": 1453,
      "after": 1454,
      "angu": 1455,
      "inte": 1456,
      "cr": 1457,
      "employ": 1458,
      "options": 1459,
      "With": 1460,
      "fr": 1461,
      "Example": 1462,
      "include": 1463,
      "By": 1464,
      "bility": 1465,
      "icate": 1466,
      "ternal": 1467,
      "What": 1468,
      "charact": 1469,
      "We": 1470,
      "they": 1471,
      "Reg": 1472,
      "ross": 1473,
      "Cur": 1474,
      "Over": 1475,
      "appe": 1476,
      "setup": 1477,
      "statement": 1478,
      "dimensions": 1479,
      "18": 1480,
      "BOM": 1481,
      "cure": 1482,
      "cannot": 1483,
      "2013": 1484,
      "definition": 1485,
      "Le": 1486,
      "connection": 1487,
      "budget": 1488,
      "related": 1489,
      "itial": 1490,
      "Mixed": 1491,
      "invo": 1492,
      "ise": 1493,
      "Change": 1494,
      "products": 1495,
      "Lin": 1496,
      "elp": 1497,
      "Employ": 1498,
      "orage": 1499,
      "ower": 1500,
      "rie": 1501,
      "rowser": 1502,
      "ween": 1503,
      "right": 1504,
      "appear": 1505,
      "ring": 1506,
      "year": 1507,
      "issu": 1508,
      "canonical": 1509,
      "mode": 1510,
      "bug": 1511,
      "imum": 1512,
      "host": 1513,
      "Par": 1514,
      "Save": 1515,
      "aun": 1516,
      "lear": 1517,
      "program": 1518,
      "beh": 1519,
      "setting": 1520,
      "igh": 1521,
      "there": 1522,
      "description": 1523,
      "veloper": 1524,
      "functions": 1525,
      "Value": 1526,
      "between": 1527,
      "22": 1528,
      "Main": 1529,
      "ale": 1530,
      "rules": 1531,
      "percent": 1532,
      "Spatial": 1533,
      "100": 1534,
      "RT": 1535,
      "publ": 1536,
      "target": 1537,
      "ider": 1538,
      "posting": 1539,
      "warehouse": 1540,
      "32": 1541,
      "ST": 1542,
      "block": 1543,
      "dep": 1544,
      "returns": 1545,
      "Customer": 1546,
      "existing": 1547,
      "Ab": 1548,
      "Close": 1549,
      "Num": 1550,
      "enari": 1551,
      "ques": 1552,
      "appoint": 1553,
      "old": 1554,
      "There": 1555,
      "Remote": 1556,
      "mdlet": 1557,
      "like": 1558,
      "Stu": 1559,
      "Specifies": 1560,
      "AL": 1561,
      "Purchase": 1562,
      "ired": 1563,
      "deploy": 1564,
      "because": 1565,
      "procedure": 1566,
      "size": 1567,
      "ways": 1568,
      "Support": 1569,
      "next": 1570,
      "processing": 1571,
      "LE": 1572,
      "MCD": 1573,
      "pare": 1574,
      "sched": 1575,
      "sequ": 1576,
      "Entry": 1577,
      "features": 1578,
      "Studio": 1579,
      "session": 1580,
      "tal": 1581,
      "organization": 1582,
      "ics": 1583,
      "delete": 1584,
      "unit": 1585,
      "within": 1586,
      "operations": 1587,
      "added": 1588,
      "Fixed": 1589,
      "Define": 1590,
      "represent": 1591,
      "Move": 1592,
      "List": 1593,
      "nc": 1594,
      "non": 1595,
      "spect": 1596,
      "iter": 1597,
      "System": 1598,
      "CoreWebView2": 1599,
      "Cl": 1600,
      "Gr": 1601,
      "NE": 1602,
      "credit": 1603,
      "io": 1604,
      "iness": 1605,
      "ouch": 1606,
      "usiness": 1607,
      "additional": 1608,
      "lectron": 1609,
      "functionality": 1610,
      "ledger": 1611,
      "aunch": 1612,
      "ese": 1613,
      "exp": 1614,
      "Connect": 1615,
      "color": 1616,
      "After": 1617,
      "annel": 1618,
      "Inst": 1619,
      "admin": 1620,
      "Retail": 1621,
      "Point": 1622,
      "Pointer": 1623,
      "General": 1624,
      "aterial": 1625,
      "flag": 1626,
      "lectronic": 1627,
      "Che": 1628,
      "repl": 1629,
      "side": 1630,
      "Reality": 1631,
      "kanban": 1632,
      "mary": 1633,
      "Repres": 1634,
      "19": 1635,
      "ason": 1636,
      "export": 1637,
      "guments": 1638,
      "raw": 1639,
      "updated": 1640,
      "UI": 1641,
      "index": 1642,
      "obile": 1643,
      "lists": 1644,
      "performance": 1645,
      "Import": 1646,
      "HTML": 1647,
      "Sample": 1648,
      "Size": 1649,
      "sible": 1650,
      "legate": 1651,
      "ship": 1652,
      "move": 1653,
      "ception": 1654,
      "results": 1655,
      "Do": 1656,
      "cop": 1657,
      "APIs": 1658,
      "Respon": 1659,
      "Show": 1660,
      "base": 1661,
      "ient": 1662,
      "ml": 1663,
      "environment": 1664,
      "Read": 1665,
      "Notification": 1666,
      "templates": 1667,
      "Tem": 1668,
      "gin": 1669,
      "sent": 1670,
      "sole": 1671,
      "Items": 1672,
      "TRUE": 1673,
      "30": 1674,
      "ving": 1675,
      "entries": 1676,
      "active": 1677,
      "output": 1678,
      "Model": 1679,
      "Docs": 1680,
      "notifications": 1681,
      "Check": 1682,
      "Email": 1683,
      "IN": 1684,
      "reality": 1685,
      "exec": 1686,
      "applic": 1687,
      "points": 1688,
      "gging": 1689,
      "successfully": 1690,
      "Number": 1691,
      "64": 1692,
      "break": 1693,
      "fact": 1694,
      "being": 1695,
      "tern": 1696,
      "less": 1697,
      "Filter": 1698,
      "Chapter": 1699,
      "includes": 1700,
      "receip": 1701,
      "commands": 1702,
      "Document": 1703,
      "Creating": 1704,
      "batch": 1705,
      "sty": 1706,
      "umer": 1707,
      "forecast": 1708,
      "category": 1709,
      "65": 1710,
      "Call": 1711,
      "ME": 1712,
      "thor": 1713,
      "their": 1714,
      "query": 1715,
      "requests": 1716,
      "cept": 1717,
      "Direct": 1718,
      "Sc": 1719,
      "ied": 1720,
      "ived": 1721,
      "amer": 1722,
      "sim": 1723,
      "discover": 1724,
      "achine": 1725,
      "transfer": 1726,
      "ready": 1727,
      "ilities": 1728,
      "Cop": 1729,
      "ever": 1730,
      "ally": 1731,
      "arguments": 1732,
      "Invoice": 1733,
      "called": 1734,
      "records": 1735,
      "Build": 1736,
      "help": 1737,
      "receiv": 1738,
      "recipient": 1739,
      "50": 1740,
      "End": 1741,
      "pane": 1742,
      "ref": 1743,
      "Process": 1744,
      "balance": 1745,
      "print": 1746,
      "Attach": 1747,
      "ible": 1748,
      "ict": 1749,
      "formula": 1750,
      "curring": 1751,
      "ensation": 1752,
      "Application": 1753,
      "Log": 1754,
      "case": 1755,
      "during": 1756,
      "sound": 1757,
      "sets": 1758,
      "legal": 1759,
      "distribution": 1760,
      "Bank": 1761,
      "schema": 1762,
      "rem": 1763,
      "aced": 1764,
      "download": 1765,
      "ributes": 1766,
      "Location": 1767,
      "network": 1768,
      "currency": 1769,
      "automatically": 1770,
      "Index": 1771,
      "cond": 1772,
      "Identi": 1773,
      "scenari": 1774,
      "member": 1775,
      "invoices": 1776,
      "lab": 1777,
      "sure": 1778,
      "orig": 1779,
      "orial": 1780,
      "security": 1781,
      "Inventory": 1782,
      "uni": 1783,
      "term": 1784,
      "changed": 1785,
      "generated": 1786,
      "Array": 1787,
      "Implement": 1788,
      "development": 1789,
      "permissions": 1790,
      "SD": 1791,
      "Send": 1792,
      "ush": 1793,
      "verage": 1794,
      "ually": 1795,
      "thentic": 1796,
      "Payment": 1797,
      "anguage": 1798,
      "Fr": 1799,
      "cmdlet": 1800,
      "lp": 1801,
      "ories": 1802,
      "ely": 1803,
      "exchange": 1804,
      "dition": 1805,
      "ordin": 1806,
      "Configuration": 1807,
      "Control": 1808,
      "feature": 1809,
      "hologram": 1810,
      "component": 1811,
      "Templ": 1812,
      "And": 1813,
      "RE": 1814,
      "last": 1815,
      "Rece": 1816,
      "context": 1817,
      "25": 1818,
      "pa": 1819,
      "internal": 1820,
      "providers": 1821,
      "instance": 1822,
      "firm": 1823,
      "panel": 1824,
      "About": 1825,
      "Copy": 1826,
      "MF": 1827,
      "Ph": 1828,
      "bel": 1829,
      "icon": 1830,
      "ody": 1831,
      "creating": 1832,
      "calculation": 1833,
      "amera": 1834,
      "mixed": 1835,
      "material": 1836,
      "resh": 1837,
      "Repl": 1838,
      "clar": 1839,
      "running": 1840,
      "Remove": 1841,
      "Content": 1842,
      "Element": 1843,
      "Fe": 1844,
      "bar": 1845,
      "browser": 1846,
      "test": 1847,
      "uter": 1848,
      "ifest": 1849,
      "Print": 1850,
      "agreement": 1851,
      "send": 1852,
      "what": 1853,
      "Acti": 1854,
      "displayed": 1855,
      "write": 1856,
      "Employee": 1857,
      "Represents": 1858,
      "Source": 1859,
      "mb": 1860,
      "ynam": 1861,
      "orld": 1862,
      "tools": 1863,
      "without": 1864,
      "worker": 1865,
      "apps": 1866,
      "Chang": 1867,
      "Management": 1868,
      "supports": 1869,
      "Design": 1870,
      "standard": 1871,
      "Head": 1872,
      "IP": 1873,
      "Lear": 1874,
      "met": 1875,
      "ss": 1876,
      "lex": 1877,
      "sive": 1878,
      "vities": 1879,
      "Version": 1880,
      "Dim": 1881,
      "Row": 1882,
      "cash": 1883,
      "lap": 1884,
      "vate": 1885,
      "ased": 1886,
      "provide": 1887,
      "See": 1888,
      "retrie": 1889,
      "enefi": 1890,
      "experience": 1891,
      "AR": 1892,
      "Led": 1893,
      "Orig": 1894,
      "Publ": 1895,
      "delivery": 1896,
      "path": 1897,
      "were": 1898,
      "ames": 1899,
      "lip": 1900,
      "accounting": 1901,
      "Resource": 1902,
      "started": 1903,
      "Ledger": 1904,
      "DE": 1905,
      "tes": 1906,
      "ither": 1907,
      "transport": 1908,
      "creen": 1909,
      "avior": 1910,
      "Perform": 1911,
      "Operations": 1912,
      "applicable": 1913,
      "Journal": 1914,
      "ake": 1915,
      "cing": 1916,
      "artic": 1917,
      "izing": 1918,
      "Setting": 1919,
      "Stream": 1920,
      "versions": 1921,
      "Defin": 1922,
      "activity": 1923,
      "Visio": 1924,
      "enabled": 1925,
      "Book": 1926,
      "jobs": 1927,
      "Command": 1928,
      "Dimension": 1929,
      "Cash": 1930,
      "Fl": 1931,
      "mobile": 1932,
      "anced": 1933,
      "ference": 1934,
      "bugging": 1935,
      "Describes": 1936,
      "total": 1937,
      "describes": 1938,
      "desired": 1939,
      "cycle": 1940,
      "Allow": 1941,
      "copy": 1942,
      "Response": 1943,
      "Net": 1944,
      "Pos": 1945,
      "clo": 1946,
      "high": 1947,
      "tool": 1948,
      "chor": 1949,
      "manager": 1950,
      "assets": 1951,
      "Runtime": 1952,
      "removed": 1953,
      "Mark": 1954,
      "ire": 1955,
      "sheet": 1956,
      "workspace": 1957,
      "synchron": 1958,
      "including": 1959,
      "Calendar": 1960,
      "Mailbox": 1961,
      "receipt": 1962,
      "31": 1963,
      "AT": 1964,
      "giv": 1965,
      "nown": 1966,
      "zer": 1967,
      "enumer": 1968,
      "bytes": 1969,
      "short": 1970,
      "strong": 1971,
      "attribute": 1972,
      "Sty": 1973,
      "bound": 1974,
      "ses": 1975,
      "als": 1976,
      "via": 1977,
      "apply": 1978,
      "currence": 1979,
      "Power": 1980,
      "affect": 1981,
      "faces": 1982,
      "stant": 1983,
      "These": 1984,
      "node": 1985,
      "payments": 1986,
      "Valid": 1987,
      "package": 1988,
      "Layout": 1989,
      "Map": 1990,
      "either": 1991,
      "ances": 1992,
      "second": 1993,
      "platform": 1994,
      "termin": 1995,
      "ared": 1996,
      "attachment": 1997,
      "SharePoint": 1998,
      "ON": 1999,
      "Pri": 2000,
      "Ro": 2001,
      "devices": 2002,
      "adjust": 2003,
      "ulation": 2004,
      "Transport": 2005,
      "planning": 2006,
      "versation": 2007,
      "subscription": 2008,
      "integr": 2009,
      "Client": 2010,
      "One": 2011,
      "Part": 2012,
      "bl": 2013,
      "close": 2014,
      "free": 2015,
      "ned": 2016,
      "sur": 2017,
      "isition": 2018,
      "ster": 2019,
      "oting": 2020,
      "ases": 2021,
      "cogn": 2022,
      "abilities": 2023,
      "cribe": 2024,
      "both": 2025,
      "HTTP": 2026,
      "consider": 2027,
      "ysical": 2028,
      "sti": 2029,
      "recurring": 2030,
      "Security": 2031,
      "authentic": 2032,
      "errors": 2033,
      "ailed": 2034,
      "month": 2035,
      "ALSE": 2036,
      "below": 2037,
      "BA": 2038,
      "Ctr": 2039,
      "FALSE": 2040,
      "inv": 2041,
      "ermin": 2042,
      "Additional": 2043,
      "managed": 2044,
      "Manage": 2045,
      "Ctrl": 2046,
      "CC": 2047,
      "Credit": 2048,
      "DLL": 2049,
      "Ware": 2050,
      "bin": 2051,
      "could": 2052,
      "mand": 2053,
      "range": 2054,
      "recomm": 2055,
      "utorial": 2056,
      "define": 2057,
      "Sharing": 2058,
      "members": 2059,
      "Autodiscover": 2060,
      "Ho": 2061,
      "sort": 2062,
      "root": 2063,
      "delegate": 2064,
      "resol": 2065,
      "pose": 2066,
      "many": 2067,
      "modify": 2068,
      "configur": 2069,
      "Lock": 2070,
      "oucher": 2071,
      "24": 2072,
      "Gu": 2073,
      "Pers": 2074,
      "known": 2075,
      "ner": 2076,
      "tocol": 2077,
      "ulator": 2078,
      "Connection": 2079,
      "occurs": 2080,
      "computer": 2081,
      "DOM": 2082,
      "question": 2083,
      "21": 2084,
      "uments": 2085,
      "tract": 2086,
      "light": 2087,
      "follows": 2088,
      "ocus": 2089,
      "provided": 2090,
      "full": 2091,
      "tech": 2092,
      "OSC": 2093,
      "Calcul": 2094,
      "behavior": 2095,
      "appointment": 2096,
      "Am": 2097,
      "ken": 2098,
      "mal": 2099,
      "ites": 2100,
      "declar": 2101,
      "ends": 2102,
      "ically": 2103,
      "rows": 2104,
      "Typ": 2105,
      "posted": 2106,
      "receive": 2107,
      "assigned": 2108,
      "character": 2109,
      "iteria": 2110,
      "Navig": 2111,
      "Rel": 2112,
      "ibility": 2113,
      "sav": 2114,
      "cho": 2115,
      "channel": 2116,
      "who": 2117,
      "handler": 2118,
      "ADOX": 2119,
      "correct": 2120,
      "deleted": 2121,
      "brary": 2122,
      "Develop": 2123,
      "aster": 2124,
      "Assign": 2125,
      "zero": 2126,
      "..": 2127,
      "Down": 2128,
      "Mem": 2129,
      "Next": 2130,
      "initial": 2131,
      "restr": 2132,
      "developer": 2133,
      "usy": 2134,
      "Prop": 2135,
      "Production": 2136,
      "take": 2137,
      "compensation": 2138,
      "possible": 2139,
      "finished": 2140,
      "solid": 2141,
      "allows": 2142,
      "updates": 2143,
      "Warehouse": 2144,
      "01": 2145,
      "review": 2146,
      "asy": 2147,
      "Int": 2148,
      "tracking": 2149,
      "Storage": 2150,
      "curement": 2151,
      "Are": 2152,
      "Mon": 2153,
      "Multi": 2154,
      "Render": 2155,
      "ees": 2156,
      "hour": 2157,
      "utions": 2158,
      "thread": 2159,
      "real": 2160,
      "iting": 2161,
      "coordin": 2162,
      "shown": 2163,
      "ift": 2164,
      "letter": 2165,
      "entities": 2166,
      "Plan": 2167,
      "Play": 2168,
      "solution": 2169,
      "times": 2170,
      "USMF": 2171,
      "engine": 2172,
      "SDK": 2173,
      "OK": 2174,
      "Rule": 2175,
      "ground": 2176,
      "external": 2177,
      "completed": 2178,
      "stored": 2179,
      "currently": 2180,
      "Quick": 2181,
      "Collection": 2182,
      "Load": 2183,
      "lapse": 2184,
      "Style": 2185,
      "Fig": 2186,
      "Pack": 2187,
      "Press": 2188,
      "001": 2189,
      "settle": 2190,
      "matic": 2191,
      "variable": 2192,
      "pected": 2193,
      "appropri": 2194,
      "Learn": 2195,
      "Figure": 2196,
      "Io": 2197,
      "ade": 2198,
      "cer": 2199,
      "spe": 2200,
      "save": 2201,
      "amp": 2202,
      "optional": 2203,
      "while": 2204,
      "Step": 2205,
      "ails": 2206,
      "Unit": 2207,
      "projects": 2208,
      "Generate": 2209,
      "IoT": 2210,
      "Hub": 2211,
      "QL": 2212,
      "rection": 2213,
      "profiles": 2214,
      "Console": 2215,
      "ardware": 2216,
      "included": 2217,
      "identifiers": 2218,
      "remote": 2219,
      "Your": 2220,
      "business": 2221,
      "machine": 2222,
      "pop": 2223,
      "three": 2224,
      "activities": 2225,
      "Amount": 2226,
      "Mess": 2227,
      "SQL": 2228,
      "til": 2229,
      "ature": 2230,
      "attern": 2231,
      "Inspect": 2232,
      "constant": 2233,
      "ular": 2234,
      "made": 2235,
      "registration": 2236,
      "configurations": 2237,
      "40": 2238,
      "Other": 2239,
      "PO": 2240,
      "bill": 2241,
      "world": 2242,
      "iscal": 2243,
      "Recipi": 2244,
      "Reference": 2245,
      "trast": 2246,
      "master": 2247,
      "Active": 2248,
      "Manager": 2249,
      "guid": 2250,
      "topic": 2251,
      "Specify": 2252,
      "Finance": 2253,
      "matching": 2254,
      "given": 2255,
      "restric": 2256,
      "Job": 2257,
      "PA": 2258,
      "rate": 2259,
      "separ": 2260,
      "itor": 2261,
      "across": 2262,
      "services": 2263,
      "documents": 2264,
      "identifies": 2265,
      "calculated": 2266,
      "remove": 2267,
      "23": 2268,
      "Back": 2269,
      "Card": 2270,
      "Categ": 2271,
      "language": 2272,
      "sum": 2273,
      "tutorial": 2274,
      "uary": 2275,
      "reason": 2276,
      "anal": 2277,
      "left": 2278,
      "ico": 2279,
      "Information": 2280,
      "forms": 2281,
      "sharing": 2282,
      "payable": 2283,
      "clude": 2284,
      "Services": 2285,
      "pidtag": 2286,
      "controls": 2287,
      "documentation": 2288,
      "memory": 2289,
      "Color": 2290,
      "allowed": 2291,
      "Financial": 2292,
      "Overview": 2293,
      "unique": 2294,
      "imm": 2295,
      "vanced": 2296,
      "lean": 2297,
      "alled": 2298,
      "fill": 2299,
      "covery": 2300,
      "emp": 2301,
      "conver": 2302,
      "tics": 2303,
      "team": 2304,
      "Internet": 2305,
      "standing": 2306,
      "categories": 2307,
      "Register": 2308,
      "TE": 2309,
      "aze": 2310,
      "assi": 2311,
      "Invalid": 2312,
      "pool": 2313,
      "intended": 2314,
      "occur": 2315,
      "most": 2316,
      "manage": 2317,
      "customers": 2318,
      "attributes": 2319,
      "tection": 2320,
      "named": 2321,
      "Query": 2322,
      "physical": 2323,
      "issues": 2324,
      "sequence": 2325,
      "FI": 2326,
      "Su": 2327,
      "UM": 2328,
      "Wr": 2329,
      "center": 2330,
      "gre": 2331,
      "js": 2332,
      "launch": 2333,
      "might": 2334,
      "nai": 2335,
      "lease": 2336,
      "esh": 2337,
      "Profile": 2338,
      "press": 2339,
      "Fir": 2340,
      "tables": 2341,
      "costs": 2342,
      "structures": 2343,
      "adox": 2344,
      "ggle": 2345,
      "SOAP": 2346,
      "requirements": 2347,
      "Flag": 2348,
      "60": 2349,
      "DB": 2350,
      "MI": 2351,
      "ech": 2352,
      "already": 2353,
      "isn": 2354,
      "ride": 2355,
      "divid": 2356,
      "working": 2357,
      "respond": 2358,
      "handle": 2359,
      "collections": 2360,
      "Quantity": 2361,
      "attachments": 2362,
      "scenarios": 2363,
      "appropriate": 2364,
      "Database": 2365,
      "Make": 2366,
      "PI": 2367,
      "So": 2368,
      "inf": 2369,
      "ency": 2370,
      "asure": 2371,
      "idd": 2372,
      "begin": 2373,
      "note": 2374,
      "Appro": 2375,
      "posit": 2376,
      "roller": 2377,
      "cursor": 2378,
      "frame": 2379,
      "Original": 2380,
      "3D": 2381,
      "365": 2382,
      "Dist": 2383,
      "Names": 2384,
      "SS": 2385,
      "Tab": 2386,
      "layout": 2387,
      "ql": 2388,
      "ture": 2389,
      "atalog": 2390,
      "limit": 2391,
      "indic": 2392,
      "Under": 2393,
      "Getting": 2394,
      "instead": 2395,
      "installed": 2396,
      "rigger": 2397,
      "days": 2398,
      "argument": 2399,
      "First": 2400,
      "ather": 2401,
      "body": 2402,
      "draw": 2403,
      "gress": 2404,
      "iod": 2405,
      "ufact": 2406,
      "ende": 2407,
      "ache": 2408,
      "shap": 2409,
      "interest": 2410,
      "creates": 2411,
      "Uni": 2412,
      "displays": 2413,
      "ength": 2414,
      "Paramet": 2415,
      "Install": 2416,
      "style": 2417,
      "receivable": 2418,
      "Header": 2419,
      "Jap": 2420,
      "OR": 2421,
      "evalu": 2422,
      "ms": 2423,
      "sa": 2424,
      "max": 2425,
      "sert": 2426,
      "disable": 2427,
      "ipp": 2428,
      "Optional": 2429,
      "guide": 2430,
      "olicies": 2431,
      "Period": 2432,
      "developing": 2433,
      "nchronous": 2434,
      "However": 2435,
      "ysis": 2436,
      "parent": 2437,
      "article": 2438,
      "Japan": 2439,
      "Batch": 2440,
      "Here": 2441,
      "Sk": 2442,
      "equ": 2443,
      "ming": 2444,
      "confirm": 2445,
      "istory": 2446,
      "numer": 2447,
      "container": 2448,
      "submit": 2449,
      "general": 2450,
      "variant": 2451,
      "2003": 2452,
      "navigation": 2453,
      "public": 2454,
      "declaration": 2455,
      "Git": 2456,
      "Sched": 2457,
      "Test": 2458,
      "UID": 2459,
      "aint": 2460,
      "benefi": 2461,
      "dit": 2462,
      "thing": 2463,
      "rent": 2464,
      "rot": 2465,
      "roid": 2466,
      "edback": 2467,
      "Inbox": 2468,
      "Input": 2469,
      "models": 2470,
      "Transaction": 2471,
      "personal": 2472,
      "0x0000": 2473,
      "CSS": 2474,
      "release": 2475,
      "percentage": 2476,
      "EN": 2477,
      "Electronic": 2478,
      "MD": 2479,
      "Policy": 2480,
      "fication": 2481,
      "hold": 2482,
      "debug": 2483,
      "Exec": 2484,
      "External": 2485,
      "counting": 2486,
      "contin": 2487,
      "Only": 2488,
      "generate": 2489,
      "URI": 2490,
      "Requested": 2491,
      "passed": 2492,
      "Current": 2493,
      "expense": 2494,
      "Position": 2495,
      "authentication": 2496,
      "Bl": 2497,
      "UN": 2498,
      "camera": 2499,
      "ktop": 2500,
      "xml": 2501,
      "try": 2502,
      "lients": 2503,
      "Adding": 2504,
      "locations": 2505,
      "Actions": 2506,
      "Order": 2507,
      "Method": 2508,
      "rendering": 2509,
      "employee": 2510,
      "Network": 2511,
      "Cap": 2512,
      "Sta": 2513,
      "null": 2514,
      "pages": 2515,
      "rt": 2516,
      "aptive": 2517,
      "acing": 2518,
      "debugging": 2519,
      "ceed": 2520,
      "life": 2521,
      "collapse": 2522,
      "2016": 2523,
      "formats": 2524,
      "Holographic": 2525,
      "Organization": 2526,
      "Mode": 2527,
      "employees": 2528,
      "original": 2529,
      "99": 2530,
      "Tot": 2531,
      "ie": 2532,
      "screen": 2533,
      "erved": 2534,
      "remain": 2535,
      "demo": 2536,
      "idth": 2537,
      "Review": 2538,
      "sump": 2539,
      "approval": 2540,
      "visual": 2541,
      "Operator": 2542,
      "empty": 2543,
      "AN": 2544,
      "Dri": 2545,
      "Non": 2546,
      "Port": 2547,
      "Site": 2548,
      "itive": 2549,
      "quality": 2550,
      "itch": 2551,
      "adient": 2552,
      "Depre": 2553,
      "contents": 2554,
      "Budget": 2555,
      "columns": 2556,
      "Person": 2557,
      "Area": 2558,
      "trastat": 2559,
      "Ag": 2560,
      "But": 2561,
      "zone": 2562,
      "allocation": 2563,
      "fix": 2564,
      "expl": 2565,
      "Ref": 2566,
      "Debug": 2567,
      "grid": 2568,
      "Node": 2569,
      "ffic": 2570,
      "requires": 2571,
      "Platform": 2572,
      "versal": 2573,
      "previously": 2574,
      "NET": 2575,
      "Android": 2576,
      "affected": 2577,
      "sumption": 2578,
      "FF": 2579,
      "Mapping": 2580,
      "Sn": 2581,
      "TI": 2582,
      "electronic": 2583,
      "hardware": 2584,
      "later": 2585,
      "pur": 2586,
      "pick": 2587,
      "pattern": 2588,
      "sup": 2589,
      "aries": 2590,
      "acy": 2591,
      "debit": 2592,
      "cope": 2593,
      "consolid": 2594,
      "adata": 2595,
      "notes": 2596,
      "examples": 2597,
      "commun": 2598,
      "2017": 2599,
      "stop": 2600,
      "references": 2601,
      "scene": 2602,
      "solutions": 2603,
      "cells": 2604,
      "Attribute": 2605,
      "Box": 2606,
      "Subs": 2607,
      "Before": 2608,
      "characters": 2609,
      "Act": 2610,
      "DS": 2611,
      "Fill": 2612,
      "Li": 2613,
      "Master": 2614,
      "average": 2615,
      "dates": 2616,
      "her": 2617,
      "here": 2618,
      "kes": 2619,
      "voucher": 2620,
      "ination": 2621,
      "invalid": 2622,
      "ont": 2623,
      "ority": 2624,
      "ouble": 2625,
      "Initial": 2626,
      "Intrastat": 2627,
      "Export": 2628,
      "applied": 2629,
      "modified": 2630,
      "requested": 2631,
      "common": 2632,
      "runtime": 2633,
      "Author": 2634,
      "maintain": 2635,
      "Column": 2636,
      "deprec": 2637,
      "registered": 2638,
      "still": 2639,
      "BI": 2640,
      "Bind": 2641,
      "Full": 2642,
      "Right": 2643,
      "dri": 2644,
      "king": 2645,
      "lf": 2646,
      "sk": 2647,
      "Device": 2648,
      "Tool": 2649,
      "Functions": 2650,
      "needs": 2651,
      "Performance": 2652,
      "Sheet": 2653,
      "ral": 2654,
      "would": 2655,
      "Inte": 2656,
      "expected": 2657,
      "webview": 2658,
      "Payments": 2659,
      "directly": 2660,
      "contacts": 2661,
      "MIME": 2662,
      "Dynam": 2663,
      "Hierarchy": 2664,
      "focus": 2665,
      "policies": 2666,
      "ensi": 2667,
      "storage": 2668,
      "conversation": 2669,
      "utes": 2670,
      "izer": 2671,
      "lets": 2672,
      "images": 2673,
      "Online": 2674,
      "posed": 2675,
      "vendors": 2676,
      "Offset": 2677,
      "capabilities": 2678,
      "Handling": 2679,
      "components": 2680,
      "Publish": 2681,
      "Fact": 2682,
      "Fast": 2683,
      "Ge": 2684,
      "Pass": 2685,
      "Sol": 2686,
      "Us": 2687,
      "found": 2688,
      "semb": 2689,
      "upload": 2690,
      "measure": 2691,
      "uman": 2692,
      "shared": 2693,
      "apped": 2694,
      "Cancel": 2695,
      "owner": 2696,
      "domain": 2697,
      "Company": 2698,
      "Place": 2699,
      "Apply": 2700,
      "Preview": 2701,
      "EntryId": 2702,
      "holograms": 2703,
      "saved": 2704,
      "hours": 2705,
      "dividual": 2706,
      "AD": 2707,
      "Center": 2708,
      "Each": 2709,
      "LI": 2710,
      "None": 2711,
      "PW": 2712,
      "WP": 2713,
      "XLL": 2714,
      "don": 2715,
      "ilt": 2716,
      "lon": 2717,
      "well": 2718,
      "arant": 2719,
      "come": 2720,
      "uting": 2721,
      "ulate": 2722,
      "requisition": 2723,
      "module": 2724,
      "Char": 2725,
      "containing": 2726,
      "WSL": 2727,
      "pointed": 2728,
      "processes": 2729,
      "Anchor": 2730,
      "links": 2731,
      "holographic": 2732,
      "recipients": 2733,
      "Details": 2734,
      "label": 2735,
      "56": 2736,
      "Bas": 2737,
      "Ju": 2738,
      "Launch": 2739,
      "Vari": 2740,
      "away": 2741,
      "around": 2742,
      "fri": 2743,
      "lay": 2744,
      "stical": 2745,
      "trigger": 2746,
      "ux": 2747,
      "redu": 2748,
      "arning": 2749,
      "promp": 2750,
      "Include": 2751,
      "Developer": 2752,
      "strings": 2753,
      "Devices": 2754,
      "journals": 2755,
      "Modify": 2756,
      "Fields": 2757,
      "appears": 2758,
      "Implementing": 2759,
      "26": 2760,
      "COM": 2761,
      "Min": 2762,
      "Max": 2763,
      "Of": 2764,
      "clients": 2765,
      "ore": 2766,
      "vc": 2767,
      "icense": 2768,
      "until": 2769,
      "Context": 2770,
      "temp": 2771,
      "manip": 2772,
      "basic": 2773,
      "istrator": 2774,
      "hoto": 2775,
      "Events": 2776,
      "Phone": 2777,
      "integration": 2778,
      "Types": 2779,
      "Total": 2780,
      "Fab": 2781,
      "Target": 2782,
      "ainst": 2783,
      "gaze": 2784,
      "wise": 2785,
      "tice": 2786,
      "always": 2787,
      "ision": 2788,
      "sever": 2789,
      "means": 2790,
      "author": 2791,
      "manifest": 2792,
      "manufact": 2793,
      "located": 2794,
      "registr": 2795,
      "Complete": 2796,
      "headers": 2797,
      "omet": 2798,
      "Determin": 2799,
      "Curren": 2800,
      "Guid": 2801,
      "Navigation": 2802,
      "longer": 2803,
      "ISO": 2804,
      "Schema": 2805,
      "catalog": 2806,
      "effect": 2807,
      "ten": 2808,
      "recogn": 2809,
      "icing": 2810,
      "selection": 2811,
      "against": 2812,
      "determ": 2813,
      "above": 2814,
      "sight": 2815,
      "true": 2816,
      "uling": 2817,
      "direction": 2818,
      "straint": 2819,
      "Toggle": 2820,
      "processed": 2821,
      "stores": 2822,
      "spaces": 2823,
      "statements": 2824,
      "Transactions": 2825,
      "calculate": 2826,
      "criteria": 2827,
      "questionnai": 2828,
      "Recipient": 2829,
      "determine": 2830,
      "28": 2831,
      "Break": 2832,
      "Day": 2833,
      "Delivery": 2834,
      "Rout": 2835,
      "UT": 2836,
      "ric": 2837,
      "retail": 2838,
      "enco": 2839,
      "arri": 2840,
      "stu": 2841,
      "abling": 2842,
      "areas": 2843,
      "00000": 2844,
      "library": 2845,
      "Deploy": 2846,
      "audio": 2847,
      "Adaptive": 2848,
      "moved": 2849,
      "manually": 2850,
      "desktop": 2851,
      "recordset": 2852,
      "calls": 2853,
      "coming": 2854,
      "Local": 2855,
      "Linux": 2856,
      "Template": 2857,
      "shapes": 2858,
      "Button": 2859,
      "ometry": 2860,
      "Currency": 2861,
      "Block": 2862,
      "history": 2863,
      "those": 2864,
      "individual": 2865,
      "reposit": 2866,
      "atures": 2867,
      "room": 2868,
      "oud": 2869,
      "agg": 2870,
      "child": 2871,
      "unding": 2872,
      "Protocol": 2873,
      "optim": 2874,
      "built": 2875,
      "ensure": 2876,
      "definitions": 2877,
      "tificate": 2878,
      "Permission": 2879,
      "offline": 2880,
      "Sync": 2881,
      "Bevel": 2882,
      "20022": 2883,
      "Connected": 2884,
      "Category": 2885,
      "maximum": 2886,
      "Av": 2887,
      "Business": 2888,
      "PC": 2889,
      "Win": 2890,
      "mar": 2891,
      "token": 2892,
      "agent": 2893,
      "simp": 2894,
      "Exception": 2895,
      "lier": 2896,
      "ryp": 2897,
      "Options": 2898,
      "Transfer": 2899,
      "Arch": 2900,
      "Tables": 2901,
      "capture": 2902,
      "password": 2903,
      "Extensions": 2904,
      "Meeting": 2905,
      "navigate": 2906,
      "integer": 2907,
      "depend": 2908,
      "administration": 2909,
      "coordinate": 2910,
      "pooler": 2911,
      "idden": 2912,
      "Stati": 2913,
      "Integr": 2914,
      "simple": 2915,
      "MS": 2916,
      "fail": 2917,
      "kam": 2918,
      "lid": 2919,
      "sw": 2920,
      "ues": 2921,
      "orer": 2922,
      "forward": 2923,
      "progress": 2924,
      "exception": 2925,
      "consumption": 2926,
      "rikam": 2927,
      "Reason": 2928,
      "ditions": 2929,
      "interval": 2930,
      "numbers": 2931,
      "parti": 2932,
      "party": 2933,
      "signed": 2934,
      "recording": 2935,
      "callback": 2936,
      "performed": 2937,
      "relation": 2938,
      "various": 2939,
      "primary": 2940,
      "agreements": 2941,
      "learn": 2942,
      "Templates": 2943,
      "Fabrikam": 2944,
      "27": 2945,
      "Bal": 2946,
      "He": 2947,
      "IS": 2948,
      "MRT": 2949,
      "Oc": 2950,
      "PU": 2951,
      "Pin": 2952,
      "RDS": 2953,
      "cryp": 2954,
      "mouse": 2955,
      "mesh": 2956,
      "ume": 2957,
      "arrow": 2958,
      "plans": 2959,
      "unity": 2960,
      "Expl": 2961,
      "shad": 2962,
      "due": 2963,
      "Sets": 2964,
      "compati": 2965,
      "criptions": 2966,
      "interfaces": 2967,
      "Shift": 2968,
      "opened": 2969,
      "Once": 2970,
      "Manifest": 2971,
      "positions": 2972,
      "feedback": 2973,
      "background": 2974,
      "amounts": 2975,
      "validation": 2976,
      "phone": 2977,
      "connected": 2978,
      "Enabled": 2979,
      "Level": 2980,
      "appointments": 2981,
      "schedule": 2982,
      "Changed": 2983,
      "recommend": 2984,
      "Dynamics": 2985,
      "Free": 2986,
      "SI": 2987,
      "Sent": 2988,
      "sin": 2989,
      "organ": 2990,
      "route": 2991,
      "icit": 2992,
      "ottom": 2993,
      "units": 2994,
      "describ": 2995,
      "Tracking": 2996,
      "Resol": 2997,
      "defines": 2998,
      "caller": 2999,
      "messaging": 3000,
      "persist": 3001,
      "visible": 3002,
      "building": 3003,
      "issue": 3004,
      "Flags": 3005,
      "endees": 3006,
      "rtual": 3007,
      "several": 3008,
      "ISO20022": 3009,
      "Avail": 3010,
      "MRTK": 3011,
      "Ali": 3012,
      "Clear": 3013,
      "Let": 3014,
      "Last": 3015,
      "OLE": 3016,
      "UWP": 3017,
      "dest": 3018,
      "every": 3019,
      "incre": 3020,
      "ention": 3021,
      "edia": 3022,
      "ison": 3023,
      "self": 3024,
      "agn": 3025,
      "agr": 3026,
      "demand": 3027,
      "ntax": 3028,
      "Protection": 3029,
      "dig": 3030,
      "ourse": 3031,
      "sugg": 3032,
      "izations": 3033,
      "classi": 3034,
      "redenti": 3035,
      "uster": 3036,
      "Shell": 3037,
      "Chin": 3038,
      "received": 3039,
      "earlier": 3040,
      "cepts": 3041,
      "Class": 3042,
      "0x0000000": 3043,
      "Mac": 3044,
      "cut": 3045,
      "cision": 3046,
      "hierarch": 3047,
      "ium": 3048,
      "uch": 3049,
      "ersive": 3050,
      "ormal": 3051,
      "enish": 3052,
      "ently": 3053,
      "fil": 3054,
      "again": 3055,
      "present": 3056,
      "preview": 3057,
      "Cho": 3058,
      "ffec": 3059,
      "activ": 3060,
      "checkbox": 3061,
      "keyboard": 3062,
      "planned": 3063,
      "Operation": 3064,
      "DisplayName": 3065,
      "pansion": 3066,
      "administrator": 3067,
      "Elements": 3068,
      "safe": 3069,
      "Depreciation": 3070,
      "Sql": 3071,
      "ges": 3072,
      "gest": 3073,
      "long": 3074,
      "length": 3075,
      "ration": 3076,
      "arison": 3077,
      "delet": 3078,
      "etch": 3079,
      "ily": 3080,
      "ople": 3081,
      "cessary": 3082,
      "vely": 3083,
      "actual": 3084,
      "MLOperator": 3085,
      "Verify": 3086,
      "video": 3087,
      "0x00000": 3088,
      "released": 3089,
      "RemoteSystem": 3090,
      "Activity": 3091,
      "closed": 3092,
      "Host": 3093,
      "techn": 3094,
      "choose": 3095,
      "analysis": 3096,
      "repository": 3097,
      "80": 3098,
      "Anal": 3099,
      "Human": 3100,
      "Red": 3101,
      "Top": 3102,
      "TNE": 3103,
      "failed": 3104,
      "vant": 3105,
      "replace": 3106,
      "ately": 3107,
      "reserved": 3108,
      "ply": 3109,
      "uted": 3110,
      "locate": 3111,
      "responding": 3112,
      "weight": 3113,
      "systems": 3114,
      "Container": 3115,
      "Creates": 3116,
      "editor": 3117,
      "execution": 3118,
      "Attachment": 3119,
      "Identifi": 3120,
      "Frame": 3121,
      "metadata": 3122,
      "developers": 3123,
      "Schedule": 3124,
      "TNEF": 3125,
      "Menu": 3126,
      "Now": 3127,
      "RF": 3128,
      "Tax": 3129,
      "even": 3130,
      "flo": 3131,
      "few": 3132,
      "global": 3133,
      "lar": 3134,
      "mer": 3135,
      "ines": 3136,
      "iction": 3137,
      "quis": 3138,
      "stati": 3139,
      "Procurement": 3140,
      "Com": 3141,
      "entire": 3142,
      "necessary": 3143,
      "partic": 3144,
      "Appoint": 3145,
      "Forms": 3146,
      "Disable": 3147,
      "mises": 3148,
      "starting": 3149,
      "Apps": 3150,
      "needed": 3151,
      "Provides": 3152,
      "clear": 3153,
      "Issu": 3154,
      "words": 3155,
      "Maintain": 3156,
      "Gradient": 3157,
      "labor": 3158,
      "Charact": 3159,
      "63": 3160,
      "Sw": 3161,
      "Te": 3162,
      "done": 3163,
      "dynam": 3164,
      "ection": 3165,
      "turn": 3166,
      "ins": 3167,
      "ital": 3168,
      "chors": 3169,
      "copi": 3170,
      "ember": 3171,
      "track": 3172,
      "Settle": 3173,
      "operator": 3174,
      "Asy": 3175,
      "prise": 3176,
      "Formula": 3177,
      "loaded": 3178,
      "pidlid": 3179,
      "enables": 3180,
      "classes": 3181,
      "Submit": 3182,
      "configured": 3183,
      "Link": 3184,
      "publish": 3185,
      "Notifications": 3186,
      "materials": 3187,
      "asynchronous": 3188,
      "Inspector": 3189,
      "GitHub": 3190,
      "Geometry": 3191,
      "sembly": 3192,
      "copied": 3193,
      "Spe": 3194,
      "Tok": 3195,
      "push": 3196,
      "quer": 3197,
      "expansion": 3198,
      "constraint": 3199,
      "cip": 3200,
      "ework": 3201,
      "byte": 3202,
      "Admin": 3203,
      "workers": 3204,
      "special": 3205,
      "impro": 3206,
      "Vide": 3207,
      "Gets": 3208,
      "minimum": 3209,
      "Restr": 3210,
      "syntax": 3211,
      "subject": 3212,
      "Enti": 3213,
      "Objects": 3214,
      "partment": 3215,
      "eliver": 3216,
      "SON": 3217,
      "important": 3218,
      "consist": 3219,
      "venue": 3220,
      "retrieve": 3221,
      "FastTab": 3222,
      "Basic": 3223,
      "stud": 3224,
      "MTP": 3225,
      "busy": 3226,
      "cti": 3227,
      "ctive": 3228,
      "dr": 3229,
      "fiscal": 3230,
      "native": 3231,
      "ping": 3232,
      "pace": 3233,
      "sn": 3234,
      "sources": 3235,
      "tect": 3236,
      "yper": 3237,
      "inside": 3238,
      "alty": 3239,
      "profi": 3240,
      "amework": 3241,
      "vert": 3242,
      "adding": 3243,
      "nolog": 3244,
      "Channel": 3245,
      "struction": 3246,
      "starts": 3247,
      "offset": 3248,
      "doesn": 3249,
      "ShapeSheet": 3250,
      "cru": 3251,
      "deployment": 3252,
      "Domain": 3253,
      "Month": 3254,
      "icode": 3255,
      "immersive": 3256,
      "Refresh": 3257,
      "PWA": 3258,
      "ffective": 3259,
      "AC": 3260,
      "AS": 3261,
      "Fax": 3262,
      "Sign": 3263,
      "gment": 3264,
      "power": 3265,
      "spooler": 3266,
      "reat": 3267,
      "alse": 3268,
      "force": 3269,
      "cies": 3270,
      "002": 3271,
      "endpoint": 3272,
      "entered": 3273,
      "Stand": 3274,
      "worksheet": 3275,
      "interaction": 3276,
      "aving": 3277,
      "premises": 3278,
      "transl": 3279,
      "posal": 3280,
      "fee": 3281,
      "runs": 3282,
      "Transform": 3283,
      "Working": 3284,
      "AzSql": 3285,
      "directory": 3286,
      "corresponding": 3287,
      "extensions": 3288,
      "monitor": 3289,
      "programming": 3290,
      "Therefore": 3291,
      "scheduling": 3292,
      "replaced": 3293,
      "refresh": 3294,
      "pair": 3295,
      "Mapi": 3296,
      "settlement": 3297,
      "Archive": 3298,
      "Align": 3299,
      "Fol": 3300,
      "Ger": 3301,
      "Jun": 3302,
      "JSON": 3303,
      "Lun": 3304,
      "OP": 3305,
      "Used": 3306,
      "bon": 3307,
      "cus": 3308,
      "fic": 3309,
      "fut": 3310,
      "ness": 3311,
      "olean": 3312,
      "slip": 3313,
      "estion": 3314,
      "altern": 3315,
      "prop": 3316,
      "They": 3317,
      "emulator": 3318,
      "bruary": 3319,
      "obtain": 3320,
      "series": 3321,
      "clus": 3322,
      "listed": 3323,
      "antum": 3324,
      "practi": 3325,
      "Any": 3326,
      "addresses": 3327,
      "Modified": 3328,
      "logon": 3329,
      "parts": 3330,
      "Common": 3331,
      "subscribe": 3332,
      "going": 3333,
      "Registration": 3334,
      "Supported": 3335,
      "origin": 3336,
      "synchronization": 3337,
      "fficient": 3338,
      "Determines": 3339,
      "aggreg": 3340,
      "Explorer": 3341,
      "Appointment": 3342,
      "Video": 3343,
      "Follow": 3344,
      "Camera": 3345,
      "Kanban": 3346,
      "bed": 3347,
      "ek": 3348,
      "ough": 3349,
      "quick": 3350,
      "plit": 3351,
      "verse": 3352,
      "utdown": 3353,
      "opath": 3354,
      "comparison": 3355,
      "works": 3356,
      "views": 3357,
      "PidName": 3358,
      "Unicode": 3359,
      "getting": 3360,
      "commer": 3361,
      "Result": 3362,
      "week": 3363,
      "override": 3364,
      "Offline": 3365,
      "variance": 3366,
      "Price": 3367,
      "installation": 3368,
      "anguages": 3369,
      "EntryID": 3370,
      "Dimensions": 3371,
      "Allowed": 3372,
      "separate": 3373,
      "infopath": 3374,
      "Universal": 3375,
      "Standard": 3376,
      "future": 3377,
      "MR": 3378,
      "Push": 3379,
      "Sort": 3380,
      "frequ": 3381,
      "sender": 3382,
      "uct": 3383,
      "online": 3384,
      "anchor": 3385,
      "roub": 3386,
      "stage": 3387,
      "console": 3388,
      "upl": 3389,
      "sho": 3390,
      "Deleted": 3391,
      "Then": 3392,
      "Advanced": 3393,
      "ification": 3394,
      "erequis": 3395,
      "sections": 3396,
      "Upd": 3397,
      "Workflow": 3398,
      "ErrorInvalid": 3399,
      "Opening": 3400,
      "keys": 3401,
      "home": 3402,
      "relative": 3403,
      "marked": 3404,
      "Contacts": 3405,
      "experiences": 3406,
      "February": 3407,
      "binary": 3408,
      "Messages": 3409,
      "Statistical": 3410,
      "Lunar": 3411,
      "rouble": 3412,
      "Cr": 3413,
      "Css": 3414,
      "Failed": 3415,
      "Fore": 3416,
      "GUID": 3417,
      "Rm": 3418,
      "Session": 3419,
      "SProp": 3420,
      "best": 3421,
      "hidden": 3422,
      "ias": 3423,
      "kit": 3424,
      "sm": 3425,
      "erm": 3426,
      "role": 3427,
      "lters": 3428,
      "asing": 3429,
      "Insight": 3430,
      "odes": 3431,
      "virtual": 3432,
      "Adjust": 3433,
      "Accept": 3434,
      "creation": 3435,
      "Files": 3436,
      "balances": 3437,
      "Retrie": 3438,
      "Environment": 3439,
      "Remo": 3440,
      "scale": 3441,
      "AzureRm": 3442,
      "discounts": 3443,
      "implements": 3444,
      "scenario": 3445,
      "Public": 3446,
      "Developing": 3447,
      "particular": 3448,
      "Character": 3449,
      "Token": 3450,
      "roublesho": 3451,
      "33": 3452,
      "Effect": 3453,
      "IMLOperator": 3454,
      "Machine": 3455,
      "Pick": 3456,
      "Tim": 3457,
      "Width": 3458,
      "aw": 3459,
      "dll": 3460,
      "four": 3461,
      "mask": 3462,
      "ped": 3463,
      "ustr": 3464,
      "inder": 3465,
      "tip": 3466,
      "ansi": 3467,
      "plate": 3468,
      "Release": 3469,
      "Cons": 3470,
      "shot": 3471,
      "complex": 3472,
      "interact": 3473,
      "imation": 3474,
      "identify": 3475,
      "availability": 3476,
      "Reminder": 3477,
      "calculations": 3478,
      "Started": 3479,
      "Reporting": 3480,
      "designer": 3481,
      "Scale": 3482,
      "technolog": 3483,
      "Download": 3484,
      "Actual": 3485,
      "29": 3486,
      "35": 3487,
      "Browser": 3488,
      "Jan": 3489,
      "TA": 3490,
      "Year": 3491,
      "Zone": 3492,
      "itu": 3493,
      "procurement": 3494,
      "Insert": 3495,
      "exact": 3496,
      "abl": 3497,
      "trade": 3498,
      "lying": 3499,
      "commit": 3500,
      "calling": 3501,
      "raft": 3502,
      "flags": 3503,
      "enumeration": 3504,
      "shortcut": 3505,
      "Validate": 3506,
      "Messaging": 3507,
      "ippet": 3508,
      "arantee": 3509,
      "manufacturing": 3510,
      "enishment": 3511,
      "Choose": 3512,
      "study": 3513,
      "Body": 3514,
      "Stop": 3515,
      "eas": 3516,
      "false": 3517,
      "ian": 3518,
      "men": 3519,
      "sour": 3520,
      "sites": 3521,
      "once": 3522,
      "produ": 3523,
      "olume": 3524,
      "chart": 3525,
      "conditions": 3526,
      "angle": 3527,
      "indicate": 3528,
      "extended": 3529,
      "clicking": 3530,
      "Viewing": 3531,
      "formatting": 3532,
      "Resources": 3533,
      "typically": 3534,
      "aneous": 3535,
      "0001": 3536,
      "guarantee": 3537,
      "Controller": 3538,
      "Starting": 3539,
      "Boolean": 3540,
      "implemented": 3541,
      "Weather": 3542,
      "depending": 3543,
      "MCDRemoteSystem": 3544,
      "Room": 3545,
      "surface": 3546,
      "invok": 3547,
      "disabled": 3548,
      "remaining": 3549,
      "questionnaire": 3550,
      "Route": 3551,
      "Balance": 3552,
      "destination": 3553,
      "Busy": 3554,
      "Mis": 3555,
      "NU": 3556,
      "SMTP": 3557,
      "Tit": 3558,
      "VAT": 3559,
      "cs": 3560,
      "cases": 3561,
      "dw": 3562,
      "del": 3563,
      "duration": 3564,
      "font": 3565,
      "license": 3566,
      "tp": 3567,
      "ube": 3568,
      "yet": 3569,
      "incoming": 3570,
      "atory": 3571,
      "ission": 3572,
      "toge": 3573,
      "itect": 3574,
      "acity": 3575,
      "determin": 3576,
      "Recogn": 3577,
      "Exp": 3578,
      "Expi": 3579,
      "Forward": 3580,
      "izard": 3581,
      "intercompany": 3582,
      "grant": 3583,
      "fully": 3584,
      "Eng": 3585,
      "Completed": 3586,
      "Struct": 3587,
      "activate": 3588,
      "locked": 3589,
      "removal": 3590,
      "USD": 3591,
      "periods": 3592,
      "Left": 3593,
      "Memory": 3594,
      "certificate": 3595,
      "restrictions": 3596,
      "Some": 3597,
      "Distribution": 3598,
      "benefit": 3599,
      "Drive": 3600,
      "Portal": 3601,
      "ConnectedDevices": 3602,
      "described": 3603,
      "queries": 3604,
      "NULL": 3605,
      "together": 3606,
      "CT": 3607,
      "FO": 3608,
      "High": 3609,
      "My": 3610,
      "Match": 3611,
      "Pull": 3612,
      "PST": 3613,
      "Rot": 3614,
      "Sim": 3615,
      "Termin": 3616,
      "cache": 3617,
      "holder": 3618,
      "wa": 3619,
      "ert": 3620,
      "protocol": 3621,
      "ested": 3622,
      "igno": 3623,
      "controll": 3624,
      "collabor": 3625,
      "usted": 3626,
      "Selecting": 3627,
      "ensor": 3628,
      "stock": 3629,
      "aining": 3630,
      "Worker": 3631,
      "ird": 3632,
      "combin": 3633,
      "Begin": 3634,
      "implementation": 3635,
      "Shared": 3636,
      "Lines": 3637,
      "EmailAddress": 3638,
      "breakpoint": 3639,
      "receiving": 3640,
      "icture": 3641,
      "Received": 3642,
      "Designer": 3643,
      "Definition": 3644,
      "recommended": 3645,
      "Parameters": 3646,
      "Title": 3647,
      "Benefi": 3648,
      "CO": 3649,
      "Dem": 3650,
      "Ow": 3651,
      "Sur": 3652,
      "Sum": 3653,
      "Screen": 3654,
      "microsoft": 3655,
      "sche": 3656,
      "anies": 3657,
      "leave": 3658,
      "alf": 3659,
      "filters": 3660,
      "eline": 3661,
      "accept": 3662,
      "loss": 3663,
      "quotation": 3664,
      "usage": 3665,
      "ilar": 3666,
      "core": 3667,
      "addition": 3668,
      "advanced": 3669,
      "Program": 3670,
      "izes": 3671,
      "workspaces": 3672,
      "controller": 3673,
      "Shdw": 3674,
      "rowse": 3675,
      "buttons": 3676,
      "Output": 3677,
      "Attributes": 3678,
      "Providers": 3679,
      "exists": 3680,
      "charges": 3681,
      "automatic": 3682,
      "Automatic": 3683,
      "samples": 3684,
      "argin": 3685,
      "speech": 3686,
      "Understanding": 3687,
      "Parameter": 3688,
      "Toolkit": 3689,
      "encoded": 3690,
      "sourcing": 3691,
      "Enumer": 3692,
      "Fiscal": 3693,
      "Language": 3694,
      "Ur": 3695,
      "Vo": 3696,
      "languages": 3697,
      "scan": 3698,
      "sale": 3699,
      "uled": 3700,
      "initi": 3701,
      "inspect": 3702,
      "letion": 3703,
      "attemp": 3704,
      "fied": 3705,
      "prox": 3706,
      "cook": 3707,
      "ews": 3708,
      "Conversation": 3709,
      "Debugging": 3710,
      "Audit": 3711,
      "ceptions": 3712,
      "Records": 3713,
      "Module": 3714,
      "writ": 3715,
      "Editor": 3716,
      "understanding": 3717,
      "underlying": 3718,
      "depth": 3719,
      "terms": 3720,
      "cmdlets": 3721,
      "blank": 3722,
      "considered": 3723,
      "Rendering": 3724,
      "json": 3725,
      "MDN": 3726,
      "Subscription": 3727,
      "Letter": 3728,
      "Entity": 3729,
      "January": 3730,
      "Alt": 3731,
      "Base": 3732,
      "Cache": 3733,
      "HR": 3734,
      "Pan": 3735,
      "Please": 3736,
      "VS": 3737,
      "land": 3738,
      "pull": 3739,
      "vs": 3740,
      "warning": 3741,
      "ones": 3742,
      "theme": 3743,
      "recurrence": 3744,
      "edi": 3745,
      "qui": 3746,
      "quisition": 3747,
      "embed": 3748,
      "pli": 3749,
      "tra": 3750,
      "Secure": 3751,
      "Condition": 3752,
      "Delegate": 3753,
      "audit": 3754,
      "illustr": 3755,
      "CreateItem": 3756,
      "html": 3757,
      "Track": 3758,
      "readability": 3759,
      "Reset": 3760,
      "otherwise": 3761,
      "IDs": 3762,
      "Discovery": 3763,
      "Accounting": 3764,
      "ImageCss": 3765,
      "Folders": 3766,
      "distance": 3767,
      "levels": 3768,
      "ributions": 3769,
      "coverage": 3770,
      "MCDConnectedDevices": 3771,
      "sounds": 3772,
      "Changes": 3773,
      "Collections": 3774,
      "ceeded": 3775,
      "Snap": 3776,
      "Users": 3777,
      "prompt": 3778,
      "manipulation": 3779,
      "erequisites": 3780,
      "--": 3781,
      "36": 3782,
      "Cer": 3783,
      "Hold": 3784,
      "ODB": 3785,
      "Sto": 3786,
      "ks": 3787,
      "soft": 3788,
      "ened": 3789,
      "abs": 3790,
      "contract": 3791,
      "unknown": 3792,
      "lectric": 3793,
      "share": 3794,
      "complet": 3795,
      "useful": 3796,
      "ached": 3797,
      "buffer": 3798,
      "Try": 3799,
      "poses": 3800,
      "prin": 3801,
      "sociate": 3802,
      "headset": 3803,
      "iring": 3804,
      "comes": 3805,
      "cards": 3806,
      "editing": 3807,
      "Posting": 3808,
      "factor": 3809,
      "Scene": 3810,
      "downloaded": 3811,
      "Home": 3812,
      "Calculate": 3813,
      "Monitor": 3814,
      "Skill": 3815,
      "continu": 3816,
      "purpose": 3817,
      "Height": 3818,
      "Criteria": 3819,
      "itecture": 3820,
      "collaboration": 3821,
      "Url": 3822,
      "ODBC": 3823,
      "34": 3824,
      "98": 3825,
      "Cor": 3826,
      "Double": 3827,
      "Evalu": 3828,
      "FT": 3829,
      "May": 3830,
      "PR": 3831,
      "Pare": 3832,
      "Qual": 3833,
      "Word": 3834,
      "credenti": 3835,
      "fast": 3836,
      "hol": 3837,
      "know": 3838,
      "mits": 3839,
      "por": 3840,
      "packing": 3841,
      "sl": 3842,
      "scope": 3843,
      "inser": 3844,
      "erve": 3845,
      "alias": 3846,
      "station": 3847,
      "proper": 3848,
      "condition": 3849,
      "archive": 3850,
      "region": 3851,
      "loads": 3852,
      "Compon": 3853,
      "ashboard": 3854,
      "cellaneous": 3855,
      "PidLidTask": 3856,
      "learning": 3857,
      "representing": 3858,
      "Graph": 3859,
      "adjustments": 3860,
      "correctly": 3861,
      "Execute": 3862,
      "Library": 3863,
      "deprecated": 3864,
      "layer": 3865,
      "agraph": 3866,
      "hierarchies": 3867,
      "gesture": 3868,
      "dynamic": 3869,
      "commerce": 3870,
      "lectricity": 3871,
      "Bus": 3872,
      "Cy": 3873,
      "Case": 3874,
      "DI": 3875,
      "DL": 3876,
      "Den": 3877,
      "Electricity": 3878,
      "HD": 3879,
      "LCS": 3880,
      "NO": 3881,
      "Sender": 3882,
      "Tal": 3883,
      "dat": 3884,
      "jection": 3885,
      "pin": 3886,
      "rates": 3887,
      "though": 3888,
      "third": 3889,
      "insert": 3890,
      "instruction": 3891,
      "reject": 3892,
      "toler": 3893,
      "api": 3894,
      "takes": 3895,
      "lower": 3896,
      "ulas": 3897,
      "cancel": 3898,
      "serial": 3899,
      "autom": 3900,
      "ferred": 3901,
      "applies": 3902,
      "responses": 3903,
      "social": 3904,
      "handling": 3905,
      "backup": 3906,
      "gged": 3907,
      "FolderId": 3908,
      "Required": 3909,
      "vision": 3910,
      "calendars": 3911,
      "Reports": 3912,
      "SEPA": 3913,
      "scripts": 3914,
      "More": 3915,
      "Override": 3916,
      "Leg": 3917,
      "blocks": 3918,
      "breakpoints": 3919,
      "batches": 3920,
      "highlight": 3921,
      "DLLs": 3922,
      "resolution": 3923,
      "variables": 3924,
      "guides": 3925,
      "occurred": 3926,
      "Write": 3927,
      "benefits": 3928,
      "consolidation": 3929,
      "friends": 3930,
      "activated": 3931,
      "constraints": 3932,
      "improve": 3933,
      "Talent": 3934,
      "110": 3935,
      "CE": 3936,
      "Course": 3937,
      "bs": 3938,
      "ca": 3939,
      "double": 3940,
      "fac": 3941,
      "fam": 3942,
      "sending": 3943,
      "ernel": 3944,
      "reb": 3945,
      "proble": 3946,
      "chapter": 3947,
      "concepts": 3948,
      "braries": 3949,
      "peat": 3950,
      "Replace": 3951,
      "Confirm": 3952,
      "cloud": 3953,
      "manual": 3954,
      "Unified": 3955,
      "Chart": 3956,
      "Compensation": 3957,
      "Remoting": 3958,
      "comment": 3959,
      "XML56": 3960,
      "priority": 3961,
      "USB": 3962,
      "Look": 3963,
      "persona": 3964,
      "CSOM": 3965,
      "expressions": 3966,
      "RTF": 3967,
      "sequences": 3968,
      "Identifies": 3969,
      "Receive": 3970,
      "Replaced": 3971,
      "shortened": 3972,
      "Calculation": 3973,
      "ActiveX": 3974,
      "drawing": 3975,
      "submitted": 3976,
      "lifecycle": 3977,
      "explicit": 3978,
      "deprecation": 3979,
      "skill": 3980,
      "registry": 3981,
      "large": 3982,
      "practices": 3983,
      "Parent": 3984,
      "Quality": 3985,
      "Alter": 3986,
      "DPI": 3987,
      "IT": 3988,
      "LT": 3989,
      "Met": 3990,
      "Sm": 3991,
      "Scope": 3992,
      "air": 3993,
      "bottom": 3994,
      "remin": 3995,
      "segment": 3996,
      "quantum": 3997,
      "fires": 3998,
      "elines": 3999,
      "deleg": 4000,
      "demon": 4001,
      "department": 4002,
      "conc": 4003,
      "confl": 4004,
      "003": 4005,
      "ulated": 4006,
      "umb": 4007,
      "Dep": 4008,
      "intro": 4009,
      "moving": 4010,
      "Notice": 4011,
      "void": 4012,
      "opening": 4013,
      "2012": 4014,
      "accessed": 4015,
      "Aud": 4016,
      "Configuring": 4017,
      "topics": 4018,
      "Arg": 4019,
      "axis": 4020,
      "approved": 4021,
      "MCDUser": 4022,
      "Controls": 4023,
      "coordinates": 4024,
      "Approve": 4025,
      "variants": 4026,
      "picking": 4027,
      "July": 4028,
      "Consider": 4029,
      "Miscellaneous": 4030,
      "demonstr": 4031,
      "Dr": 4032,
      "Focus": 4033,
      "Help": 4034,
      "Lay": 4035,
      "Mex": 4036,
      "Photo": 4037,
      "SG": 4038,
      "Sing": 4039,
      "Sway": 4040,
      "Tip": 4041,
      "VBA": 4042,
      "bind": 4043,
      "cross": 4044,
      "flex": 4045,
      "hint": 4046,
      "ival": 4047,
      "iled": 4048,
      "iOS": 4049,
      "normal": 4050,
      "oid": 4051,
      "oom": 4052,
      "reight": 4053,
      "revenue": 4054,
      "oriz": 4055,
      "elig": 4056,
      "detect": 4057,
      "idle": 4058,
      "exceptions": 4059,
      "conversion": 4060,
      "cluster": 4061,
      "avoid": 4062,
      "GetUser": 4063,
      "attendees": 4064,
      "Autom": 4065,
      "tele": 4066,
      "ERR": 4067,
      "rather": 4068,
      "Allocation": 4069,
      "books": 4070,
      "Subject": 4071,
      "workflows": 4072,
      "connector": 4073,
      "designed": 4074,
      "URLs": 4075,
      "Supporting": 4076,
      "represented": 4077,
      "explo": 4078,
      "Identify": 4079,
      "Rows": 4080,
      "surfaces": 4081,
      "Member": 4082,
      "Intro": 4083,
      "Package": 4084,
      "Cards": 4085,
      "convert": 4086,
      "responds": 4087,
      "equival": 4088,
      "Snippet": 4089,
      "Password": 4090,
      "LIST": 4091,
      "since": 4092,
      "snap": 4093,
      "controllers": 4094,
      "reminder": 4095,
      "orizon": 4096,
      "Bec": 4097,
      "DF": 4098,
      "Effective": 4099,
      "Hyper": 4100,
      "Voucher": 4101,
      "bbon": 4102,
      "efficient": 4103,
      "hire": 4104,
      "lers": 4105,
      "photo": 4106,
      "picture": 4107,
      "vb": 4108,
      "info": 4109,
      "least": 4110,
      "rome": 4111,
      "touch": 4112,
      "ited": 4113,
      "dexed": 4114,
      "upon": 4115,
      "selecting": 4116,
      "makes": 4117,
      "answ": 4118,
      "outlook": 4119,
      "Stack": 4120,
      "Shipp": 4121,
      "enses": 4122,
      "loyalty": 4123,
      "weather": 4124,
      "pie": 4125,
      "Errors": 4126,
      "celer": 4127,
      "checks": 4128,
      "atabases": 4129,
      "marks": 4130,
      "ServiceBus": 4131,
      "vise": 4132,
      "Products": 4133,
      "ifies": 4134,
      "linked": 4135,
      "capability": 4136,
      "Dialog": 4137,
      "Handler": 4138,
      "Empty": 4139,
      "args": 4140,
      "good": 4141,
      "exported": 4142,
      "ictation": 4143,
      "Activate": 4144,
      "closing": 4145,
      "POX": 4146,
      "restriction": 4147,
      "converted": 4148,
      "Personal": 4149,
      "Authorization": 4150,
      "Jump": 4151,
      "partial": 4152,
      "China": 4153,
      "filled": 4154,
      "Identifier": 4155,
      "Tele": 4156,
      "Speech": 4157,
      "Germany": 4158,
      "roubleshooting": 4159,
      "Because": 4160,
      "Cmdlet": 4161,
      "Em": 4162,
      "Eu": 4163,
      "Est": 4164,
      "Hel": 4165,
      "Kind": 4166,
      "Mobile": 4167,
      "Pe": 4168,
      "SC": 4169,
      "UP": 4170,
      "World": 4171,
      "deliver": 4172,
      "ix": 4173,
      "jor": 4174,
      "lat": 4175,
      "nodes": 4176,
      "scal": 4177,
      "sprop": 4178,
      "xt": 4179,
      "rend": 4180,
      "encies": 4181,
      "estions": 4182,
      "along": 4183,
      "secure": 4184,
      "stack": 4185,
      "deci": 4186,
      "eme": 4187,
      "conven": 4188,
      "restore": 4189,
      "taken": 4190,
      "Recurrence": 4191,
      "Expression": 4192,
      "Exposed": 4193,
      "shutdown": 4194,
      "counter": 4195,
      "That": 4196,
      "describe": 4197,
      "preserve": 4198,
      "keep": 4199,
      "Ass": 4200,
      "positive": 4201,
      "Ang": 4202,
      "signature": 4203,
      "loading": 4204,
      "roph": 4205,
      "ounding": 4206,
      "Contin": 4207,
      "searches": 4208,
      "Percent": 4209,
      "versations": 4210,
      "capacity": 4211,
      "filtering": 4212,
      "placeholder": 4213,
      "Tasks": 4214,
      "years": 4215,
      "blocking": 4216,
      "scheduled": 4217,
      "Callback": 4218,
      "similar": 4219,
      "retrieved": 4220,
      "articles": 4221,
      "Primary": 4222,
      "invol": 4223,
      "...": 4224,
      "initialized": 4225,
      "constants": 4226,
      "summary": 4227,
      "analy": 4228,
      "Successful": 4229,
      "Social": 4230,
      "communication": 4231,
      "driver": 4232,
      "deletes": 4233,
      "Switch": 4234,
      "Async": 4235,
      "AzureRmServiceBus": 4236,
      "Voice": 4237,
      "Cycle": 4238,
      "orizontal": 4239,
      "38": 4240,
      "Best": 4241,
      "Cross": 4242,
      "Draw": 4243,
      "MB": 4244,
      "gres": 4245,
      "width": 4246,
      "tili": 4247,
      "ename": 4248,
      "inger": 4249,
      "icroph": 4250,
      "Initi": 4251,
      "expi": 4252,
      "urther": 4253,
      "celed": 4254,
      "trace": 4255,
      "transi": 4256,
      "umed": 4257,
      "Sequ": 4258,
      "Threat": 4259,
      "romium": 4260,
      "sume": 4261,
      "changing": 4262,
      "compare": 4263,
      "collect": 4264,
      "architecture": 4265,
      "notice": 4266,
      "Chromium": 4267,
      "contained": 4268,
      "specification": 4269,
      "postal": 4270,
      "handlers": 4271,
      "Devtools": 4272,
      "Require": 4273,
      "Created": 4274,
      "matches": 4275,
      "TPM": 4276,
      "Prepare": 4277,
      "requirement": 4278,
      "Weight": 4279,
      "hosted": 4280,
      "published": 4281,
      "Instance": 4282,
      "styles": 4283,
      "Scenari": 4284,
      "Implemented": 4285,
      "testing": 4286,
      "Mailboxes": 4287,
      "enumerate": 4288,
      "adjustment": 4289,
      "immedi": 4290,
      "beginning": 4291,
      "indicator": 4292,
      "equal": 4293,
      "confirmation": 4294,
      "Blue": 4295,
      "Methods": 4296,
      "Capabilities": 4297,
      "Factor": 4298,
      "relationship": 4299,
      "small": 4300,
      "itude": 4301,
      "Recognizer": 4302,
      "written": 4303,
      "pliance": 4304,
      "software": 4305,
      "Euro": 4306,
      "Angle": 4307,
      "icrophone": 4308,
      "44": 4309,
      "45": 4310,
      "Bar": 4311,
      "GB": 4312,
      "IM": 4313,
      "Lab": 4314,
      "Ne": 4315,
      "Rules": 4316,
      "SK": 4317,
      "Sending": 4318,
      "WH": 4319,
      "XR": 4320,
      "aware": 4321,
      "cou": 4322,
      "gation": 4323,
      "gers": 4324,
      "media": 4325,
      "patch": 4326,
      "say": 4327,
      "inher": 4328,
      "oring": 4329,
      "estim": 4330,
      "itself": 4331,
      "quotations": 4332,
      "conform": 4333,
      "ading": 4334,
      "Coverage": 4335,
      "discre": 4336,
      "enterprise": 4337,
      "operating": 4338,
      "Added": 4339,
      "cording": 4340,
      "2010": 4341,
      "formatted": 4342,
      "OnPhone": 4343,
      "PidTagOriginal": 4344,
      "minutes": 4345,
      "regard": 4346,
      "Anchors": 4347,
      "Append": 4348,
      "solute": 4349,
      "Interaction": 4350,
      "mailboxes": 4351,
      "marketing": 4352,
      "150": 4353,
      "tags": 4354,
      "Field2": 4355,
      "Handle": 4356,
      "Determ": 4357,
      "questions": 4358,
      "representation": 4359,
      "printing": 4360,
      "Framework": 4361,
      "lpEntryID": 4362,
      "terminated": 4363,
      "OneDrive": 4364,
      "considerations": 4365,
      "Related": 4366,
      "Development": 4367,
      "PlayOnPhone": 4368,
      "Background": 4369,
      "QueryDef": 4370,
      "continue": 4371,
      "Driver": 4372,
      "communicate": 4373,
      "Columns": 4374,
      "friend": 4375,
      "triggered": 4376,
      "registrations": 4377,
      "compatibility": 4378,
      "Available": 4379,
      "agnos": 4380,
      "digit": 4381,
      "Macros": 4382,
      "ablish": 4383,
      "Expense": 4384,
      "Owner": 4385,
      "holding": 4386,
      "emea": 4387,
      "Europe": 4388,
      "Determine": 4389,
      "EU": 4390,
      "GE": 4391,
      "Hide": 4392,
      "IO": 4393,
      "OF": 4394,
      "QR": 4395,
      "Simp": 4396,
      "af": 4397,
      "my": 4398,
      "paces": 4399,
      "stics": 4400,
      "sensi": 4401,
      "enh": 4402,
      "rout": 4403,
      "roles": 4404,
      "ingu": 4405,
      "tober": 4406,
      "arter": 4407,
      "logged": 4408,
      "assembly": 4409,
      "Theme": 4410,
      "exe": 4411,
      "suc": 4412,
      "ock": 4413,
      "cla": 4414,
      "descriptions": 4415,
      "prefix": 4416,
      "looks": 4417,
      "1099": 4418,
      "GetItem": 4419,
      "sync": 4420,
      "identity": 4421,
      "identification": 4422,
      "Upload": 4423,
      "Interact": 4424,
      "Interface": 4425,
      "Values": 4426,
      "Always": 4427,
      "Called": 4428,
      "Notes": 4429,
      "dispidTask": 4430,
      "JsGet": 4431,
      "LineJump": 4432,
      "vironments": 4433,
      "Previous": 4434,
      "packages": 4435,
      "hosting": 4436,
      "sessions": 4437,
      "Connector": 4438,
      "Features": 4439,
      "Activities": 4440,
      "Priority": 4441,
      "timesheet": 4442,
      "Loading": 4443,
      "rotation": 4444,
      "switch": 4445,
      "October": 4446,
      "shadow": 4447,
      "Analy": 4448,
      "RFQ": 4449,
      "Issues": 4450,
      "frequency": 4451,
      "Foreign": 4452,
      "Rotation": 4453,
      "Surface": 4454,
      "HDInsight": 4455,
      "instructions": 4456,
      "Altern": 4457,
      "Mexico": 4458,
      "Simple": 4459,
      "2D": 4460,
      "39": 4461,
      "70": 4462,
      "75": 4463,
      "AX": 4464,
      "Avoid": 4465,
      "Browse": 4466,
      "Game": 4467,
      "Must": 4468,
      "MPOS": 4469,
      "Media": 4470,
      "UDF": 4471,
      "dated": 4472,
      "easy": 4473,
      "further": 4474,
      "ons": 4475,
      "environments": 4476,
      "toso": 4477,
      "icated": 4478,
      "andid": 4479,
      "accur": 4480,
      "accep": 4481,
      "according": 4482,
      "decision": 4483,
      "amed": 4484,
      "ety": 4485,
      "people": 4486,
      "ribbon": 4487,
      "portal": 4488,
      "Dec": 4489,
      "boot": 4490,
      "disk": 4491,
      "discus": 4492,
      "ferral": 4493,
      "prevent": 4494,
      "opens": 4495,
      "Assets": 4496,
      "PidTagMessage": 4497,
      "fees": 4498,
      "defining": 4499,
      "impact": 4500,
      "Accessing": 4501,
      "Workers": 4502,
      "Question": 4503,
      "windows": 4504,
      "taxes": 4505,
      "EdgeHTML": 4506,
      "Synchron": 4507,
      "attached": 4508,
      "JsError": 4509,
      "Recordset2": 4510,
      "DateTime": 4511,
      "better": 4512,
      "understand": 4513,
      "crual": 4514,
      "expenses": 4515,
      "DirectX": 4516,
      "paid": 4517,
      "Reply": 4518,
      "mandatory": 4519,
      "channels": 4520,
      "Periodic": 4521,
      "Availability": 4522,
      "ctivity": 4523,
      "Engine": 4524,
      "ignored": 4525,
      "embedded": 4526,
      "People": 4527,
      "Sequence": 4528,
      "ocket": 4529,
      "AI": 4530,
      "Bill": 4531,
      "CH": 4532,
      "Draft": 4533,
      "Found": 4534,
      "Hour": 4535,
      "ICoreWebView2": 4536,
      "Length": 4537,
      "MT": 4538,
      "Material": 4539,
      "Touch": 4540,
      "Wi": 4541,
      "bans": 4542,
      "dupl": 4543,
      "kan": 4544,
      "rase": 4545,
      "sql": 4546,
      "volume": 4547,
      "anch": 4548,
      "alert": 4549,
      "edge": 4550,
      "too": 4551,
      "qual": 4552,
      "deta": 4553,
      "height": 4554,
      "ides": 4555,
      "except": 4556,
      "rial": 4557,
      "Progres": 4558,
      "Rele": 4559,
      "Recomm": 4560,
      "Convert": 4561,
      "making": 4562,
      "Coordin": 4563,
      "discovery": 4564,
      "motion": 4565,
      "clature": 4566,
      "boxes": 4567,
      "player": 4568,
      "atio": 4569,
      "aste": 4570,
      "commission": 4571,
      "fulfill": 4572,
      "Disconnect": 4573,
      "identified": 4574,
      "hands": 4575,
      "Accessibility": 4576,
      "Collect": 4577,
      "XML5": 4578,
      "PidLidEmail": 4579,
      "office": 4580,
      "prior": 4581,
      "charge": 4582,
      "wrapped": 4583,
      "TRY": 4584,
      "Requests": 4585,
      "relevant": 4586,
      "Curs": 4587,
      "rights": 4588,
      "behalf": 4589,
      "Represent": 4590,
      "receipts": 4591,
      "forecasting": 4592,
      "IPM": 4593,
      "Origin": 4594,
      "Defines": 4595,
      "stick": 4596,
      "Player": 4597,
      "popup": 4598,
      "Recipients": 4599,
      "indicating": 4600,
      "numeric": 4601,
      "Agent": 4602,
      "purposes": 4603,
      "reducing": 4604,
      "Maximum": 4605,
      "arrier": 4606,
      "agnitude": 4607,
      "classification": 4608,
      "June": 4609,
      "tips": 4610,
      "menclature": 4611,
      "Expiration": 4612,
      "Structure": 4613,
      "Summary": 4614,
      "Panel": 4615,
      "illustration": 4616,
      "tolerance": 4617,
      "equivalent": 4618,
      "inguished": 4619,
      "detailed": 4620,
      "Bel": 4621,
      "Based": 4622,
      "CI": 4623,
      "CPU": 4624,
      "GN": 4625,
      "IE": 4626,
      "LO": 4627,
      "Long": 4628,
      "Mal": 4629,
      "Nor": 4630,
      "Oof": 4631,
      "Packing": 4632,
      "PSI": 4633,
      "Sources": 4634,
      "Split": 4635,
      "gl": 4636,
      "gor": 4637,
      "ged": 4638,
      "jo": 4639,
      "sz": 4640,
      "tling": 4641,
      "thumb": 4642,
      "encing": 4643,
      "sem": 4644,
      "itation": 4645,
      "loop": 4646,
      "area": 4647,
      "aren": 4648,
      "training": 4649,
      "canceled": 4650,
      "libraries": 4651,
      "Delet": 4652,
      "occurrence": 4653,
      "interpre": 4654,
      "interactions": 4655,
      "imperson": 4656,
      "near": 4657,
      "customize": 4658,
      "MAPIUID": 4659,
      "2018": 4660,
      "supporting": 4661,
      "submission": 4662,
      "dock": 4663,
      "Animation": 4664,
      "Encryp": 4665,
      "Appt": 4666,
      "final": 4667,
      "generation": 4668,
      "scroll": 4669,
      "hook": 4670,
      "Interest": 4671,
      "Space": 4672,
      "meetings": 4673,
      "Displays": 4674,
      "installing": 4675,
      "namespaces": 4676,
      "vesti": 4677,
      "queue": 4678,
      "Paragraph": 4679,
      "Attachments": 4680,
      "Receip": 4681,
      "Learning": 4682,
      "higher": 4683,
      "toolbar": 4684,
      "Validation": 4685,
      "Persist": 4686,
      "Relation": 4687,
      "Multiple": 4688,
      "Packaging": 4689,
      "indicated": 4690,
      "Variable": 4691,
      "Minimum": 4692,
      "recognition": 4693,
      "dependent": 4694,
      "Analysis": 4695,
      "drag": 4696,
      "quiries": 4697,
      "Stores": 4698,
      "properly": 4699,
      "introdu": 4700,
      "Args": 4701,
      "Tips": 4702,
      "explore": 4703,
      "AuthorizationRule": 4704,
      "Label": 4705,
      "routine": 4706,
      "December": 4707,
      "gorith": 4708,
      "37": 4709,
      "41": 4710,
      "48": 4711,
      "55": 4712,
      "F5": 4713,
      "FR": 4714,
      "Flex": 4715,
      "PS": 4716,
      "Range": 4717,
      "WM": 4718,
      "cated": 4719,
      "candid": 4720,
      "fers": 4721,
      "funding": 4722,
      "give": 4723,
      "hi": 4724,
      "vj": 4725,
      "wal": 4726,
      "reset": 4727,
      "atable": 4728,
      "rounding": 4729,
      "isitions": 4730,
      "sect": 4731,
      "elim": 4732,
      "dev": 4733,
      "etc": 4734,
      "usually": 4735,
      "conversations": 4736,
      "brid": 4737,
      "sib": 4738,
      "unless": 4739,
      "verify": 4740,
      "limits": 4741,
      "compos": 4742,
      "companies": 4743,
      "modes": 4744,
      "modification": 4745,
      "Child": 4746,
      "looking": 4747,
      "PidTagAttach": 4748,
      "instant": 4749,
      "prices": 4750,
      "docs": 4751,
      "Enabling": 4752,
      "Running": 4753,
      "PidLidAppointment": 4754,
      "Attendees": 4755,
      "logic": 4756,
      "EventArgs": 4757,
      "Beh": 4758,
      "JsCreate": 4759,
      "imported": 4760,
      "implementing": 4761,
      "subscriptions": 4762,
      "iliation": 4763,
      "namespace": 4764,
      "invoicing": 4765,
      "blocked": 4766,
      "Cloud": 4767,
      "movement": 4768,
      "outputs": 4769,
      "simpl": 4770,
      "simulation": 4771,
      "Building": 4772,
      "Processing": 4773,
      "metry": 4774,
      "Root": 4775,
      "resolve": 4776,
      "Planned": 4777,
      "Unique": 4778,
      "evaluation": 4779,
      "Testing": 4780,
      "consolidated": 4781,
      "Subscribe": 4782,
      "ensibility": 4783,
      "FactBox": 4784,
      "Solution": 4785,
      "reduce": 4786,
      "Days": 4787,
      "clusive": 4788,
      "SPropValue": 4789,
      "invoked": 4790,
      "cookie": 4791,
      "absence": 4792,
      "Component": 4793,
      "Audits": 4794,
      "SGFiles": 4795,
      "Assess": 4796,
      "Progressive": 4797,
      "1000": 4798,
      "43": 4799,
      "46": 4800,
      "47": 4801,
      "400": 4802,
      "51": 4803,
      "500": 4804,
      "Bul": 4805,
      "Bottom": 4806,
      "Clo": 4807,
      "Dir": 4808,
      "EF": 4809,
      "East": 4810,
      "Has": 4811,
      "King": 4812,
      "MO": 4813,
      "Mesh": 4814,
      "NS": 4815,
      "Sam": 4816,
      "WI": 4817,
      "databases": 4818,
      "finger": 4819,
      "game": 4820,
      "ities": 4821,
      "ju": 4822,
      "uid": 4823,
      "ona": 4824,
      "titi": 4825,
      "revalu": 4826,
      "eder": 4827,
      "stab": 4828,
      "fort": 4829,
      "ascript": 4830,
      "excel": 4831,
      "advant": 4832,
      "plied": 4833,
      "placed": 4834,
      "utable": 4835,
      "trusted": 4836,
      "dire": 4837,
      "Expected": 4838,
      "anges": 4839,
      "Debit": 4840,
      "outgoing": 4841,
      "cripting": 4842,
      "managing": 4843,
      "pressed": 4844,
      "impl": 4845,
      "atively": 4846,
      "Assembly": 4847,
      "criptor": 4848,
      "symb": 4849,
      "subfolder": 4850,
      "signment": 4851,
      "Audio": 4852,
      "dimensional": 4853,
      "AppService": 4854,
      "typical": 4855,
      "checked": 4856,
      "Contents": 4857,
      "ategy": 4858,
      "validate": 4859,
      "servers": 4860,
      "difference": 4861,
      "TimeZone": 4862,
      "Buffer": 4863,
      "Extended": 4864,
      "localization": 4865,
      "graphics": 4866,
      "MixedReality": 4867,
      "Grid": 4868,
      "baseline": 4869,
      "Applications": 4870,
      "Changing": 4871,
      "Transportation": 4872,
      "months": 4873,
      "BAN": 4874,
      "Sugg": 4875,
      "greater": 4876,
      "Approved": 4877,
      "endee": 4878,
      "Sketch": 4879,
      "skip": 4880,
      "compatible": 4881,
      "recommendations": 4882,
      "sink": 4883,
      "Resolve": 4884,
      "Chinese": 4885,
      "deleting": 4886,
      "technical": 4887,
      "ictionary": 4888,
      "fictiti": 4889,
      "technology": 4890,
      "Demo": 4891,
      "proxy": 4892,
      "Legal": 4893,
      "Single": 4894,
      "Introduction": 4895,
      "snapshot": 4896,
      "immediately": 4897,
      "regardless": 4898,
      "kanbans": 4899,
      "Receipt": 4900,
      "fictitious": 4901,
      "Bin": 4902,
      "CCh": 4903,
      "EX": 4904,
      "Ful": 4905,
      "NX": 4906,
      "Normal": 4907,
      "Pop": 4908,
      "Rich": 4909,
      "Sup": 4910,
      "Sound": 4911,
      "Svc": 4912,
      "TER": 4913,
      "Tensor": 4914,
      "Trend": 4915,
      "Watch": 4916,
      "bits": 4917,
      "did": 4918,
      "dashboard": 4919,
      "fund": 4920,
      "fession": 4921,
      "fails": 4922,
      "kind": 4923,
      "kSGFiles": 4924,
      "much": 4925,
      "ni": 4926,
      "pp": 4927,
      "rad": 4928,
      "rating": 4929,
      "zed": 4930,
      "tit": 4931,
      "reet": 4932,
      "reli": 4933,
      "reverse": 4934,
      "reconc": 4935,
      "anchors": 4936,
      "encounter": 4937,
      "align": 4938,
      "algorith": 4939,
      "quanti": 4940,
      "oton": 4941,
      "agents": 4942,
      "projection": 4943,
      "chain": 4944,
      "expect": 4945,
      "major": 4946,
      "Thread": 4947,
      "requisitions": 4948,
      "strona": 4949,
      "prepare": 4950,
      "ants": 4951,
      "grouping": 4952,
      "Why": 4953,
      "accessible": 4954,
      "subsystem": 4955,
      "signatures": 4956,
      "Ids": 4957,
      "displaying": 4958,
      "basis": 4959,
      "costing": 4960,
      "handled": 4961,
      "Workspace": 4962,
      "ributed": 4963,
      "approach": 4964,
      "Organ": 4965,
      "phrase": 4966,
      "assignment": 4967,
      "assignments": 4968,
      "Postal": 4969,
      "Examples": 4970,
      "Employment": 4971,
      "Parti": 4972,
      "Cluster": 4973,
      "replenishment": 4974,
      "shipped": 4975,
      "executing": 4976,
      "Calling": 4977,
      "Directory": 4978,
      "helps": 4979,
      "ArrayOf": 4980,
      "France": 4981,
      "Photon": 4982,
      "Defined": 4983,
      "totals": 4984,
      "Private": 4985,
      "adjusted": 4986,
      "Guide": 4987,
      "saving": 4988,
      "billing": 4989,
      "things": 4990,
      "personalization": 4991,
      "Debugger": 4992,
      "UTC": 4993,
      "intervals": 4994,
      "Restric": 4995,
      "MapiSvc": 4996,
      "Updating": 4997,
      "Removed": 4998,
      "continuity": 4999,
      "inserted": 5000,
      "Drag": 5001,
      "Emulator": 5002,
      "Scenario": 5003,
      "Cursor": 5004,
      "CChkSGFiles": 5005,
      "reconciliation": 5006,
      "stronaut": 5007,
      "49": 5008,
      "52": 5009,
      "600": 5010,
      "AME": 5011,
      "CF": 5012,
      "Duration": 5013,
      "EUR": 5014,
      "Fetch": 5015,
      "Gaze": 5016,
      "GPU": 5017,
      "ION": 5018,
      "JL": 5019,
      "Kernel": 5020,
      "LUI": 5021,
      "License": 5022,
      "MX": 5023,
      "Native": 5024,
      "SH": 5025,
      "Txt": 5026,
      "VR": 5027,
      "WIP": 5028,
      "XL": 5029,
      "cc": 5030,
      "course": 5031,
      "hiring": 5032,
      "horizontal": 5033,
      "purch": 5034,
      "rup": 5035,
      "troubleshooting": 5036,
      "xel": 5037,
      "ince": 5038,
      "ana": 5039,
      "ensive": 5040,
      "encryp": 5041,
      "atur": 5042,
      "istics": 5043,
      "toggle": 5044,
      "andbox": 5045,
      "ars": 5046,
      "quarter": 5047,
      "fork": 5048,
      "accrual": 5049,
      "associate": 5050,
      "Inc": 5051,
      "Inv": 5052,
      "coding": 5053,
      "conditional": 5054,
      "vertical": 5055,
      "Progress": 5056,
      "derived": 5057,
      "Recurring": 5058,
      "lig": 5059,
      "whose": 5060,
      "shift": 5061,
      "intent": 5062,
      "ific": 5063,
      "ential": 5064,
      "Cannot": 5065,
      "listing": 5066,
      "avor": 5067,
      "preferred": 5068,
      "grade": 5069,
      "often": 5070,
      "never": 5071,
      "transfers": 5072,
      "nomenclature": 5073,
      "Shad": 5074,
      "gets": 5075,
      "Charg": 5076,
      "101": 5077,
      "atives": 5078,
      "reported": 5079,
      "assort": 5080,
      "retention": 5081,
      "Who": 5082,
      "Option": 5083,
      "Optim": 5084,
      "defaults": 5085,
      "Authentic": 5086,
      "ImGroup": 5087,
      "website": 5088,
      "Updates": 5089,
      "headsets": 5090,
      "keyword": 5091,
      "Customers": 5092,
      "Also": 5093,
      "private": 5094,
      "placement": 5095,
      "Recordsets": 5096,
      "Keyboard": 5097,
      "registers": 5098,
      "programmatically": 5099,
      "MCDAppService": 5100,
      "paren": 5101,
      "ouchers": 5102,
      "execute": 5103,
      "transportation": 5104,
      "Additionally": 5105,
      "Registering": 5106,
      "Writing": 5107,
      "iddle": 5108,
      "Capture": 5109,
      "Initialize": 5110,
      "Passed": 5111,
      "arantine": 5112,
      "layers": 5113,
      "NavigationStarting": 5114,
      "encoding": 5115,
      "organizations": 5116,
      "cipal": 5117,
      "Junk": 5118,
      "quickly": 5119,
      "schem": 5120,
      "attempt": 5121,
      "facility": 5122,
      "rebate": 5123,
      "explicitly": 5124,
      "ERROR": 5125,
      "Shipping": 5126,
      "scaling": 5127,
      "conformance": 5128,
      "accepted": 5129,
      "Questionnai": 5130,
      "GNJL": 5131,
      "Assessment": 5132,
      "LUIS": 5133,
      "Charges": 5134,
      "42": 5135,
      "Bot": 5136,
      "CA": 5137,
      "Cort": 5138,
      "City": 5139,
      "Font": 5140,
      "Ht": 5141,
      "IWebView2": 5142,
      "NT": 5143,
      "PT": 5144,
      "PIN": 5145,
      "Sche": 5146,
      "Vul": 5147,
      "Wizard": 5148,
      "XT": 5149,
      "cube": 5150,
      "ef": 5151,
      "freight": 5152,
      "gy": 5153,
      "happ": 5154,
      "mass": 5155,
      "ners": 5156,
      "wizard": 5157,
      "onto": 5158,
      "tile": 5159,
      "recru": 5160,
      "enabling": 5161,
      "aling": 5162,
      "isk": 5163,
      "acceler": 5164,
      "mental": 5165,
      "Invo": 5166,
      "Inquiries": 5167,
      "advise": 5168,
      "verti": 5169,
      "bevel": 5170,
      "formulas": 5171,
      "valued": 5172,
      "Experi": 5173,
      "live": 5174,
      "limin": 5175,
      "Deferral": 5176,
      "aud": 5177,
      "dispatch": 5178,
      "ferences": 5179,
      "Acquisition": 5180,
      "adds": 5181,
      "modules": 5182,
      "grad": 5183,
      "gradient": 5184,
      "Manip": 5185,
      "responsible": 5186,
      "ipher": 5187,
      "ators": 5188,
      "Discount": 5189,
      "showing": 5190,
      "Attract": 5191,
      "legacy": 5192,
      "aker": 5193,
      "approve": 5194,
      "central": 5195,
      "updating": 5196,
      "Enterprise": 5197,
      "distinguished": 5198,
      "dispidFax": 5199,
      "dispidAppt": 5200,
      "Prerequisites": 5201,
      "2007": 5202,
      "Groups": 5203,
      "rendered": 5204,
      "framework": 5205,
      "Clone": 5206,
      "shipping": 5207,
      "reflect": 5208,
      "printed": 5209,
      "Physical": 5210,
      "Replenishment": 5211,
      "platforms": 5212,
      "sorting": 5213,
      "certain": 5214,
      "reasons": 5215,
      "Approval": 5216,
      "limited": 5217,
      "Launcher": 5218,
      "arrival": 5219,
      "Integration": 5220,
      "FreeBusy": 5221,
      "Resolution": 5222,
      "suggested": 5223,
      "Macro": 5224,
      "Identifiers": 5225,
      "Asynchronous": 5226,
      "AzSqlDatabase": 5227,
      "clusion": 5228,
      "technologies": 5229,
      "exactly": 5230,
      "shortcuts": 5231,
      "credentials": 5232,
      "delegates": 5233,
      "Considerations": 5234,
      "eligibility": 5235,
      "answer": 5236,
      "Cortana": 5237,
      "03": 5238,
      "1st": 5239,
      "53": 5240,
      "58": 5241,
      "BS": 5242,
      "Dictation": 5243,
      "Es": 5244,
      "Enum": 5245,
      "FTE": 5246,
      "Gre": 5247,
      "Hardware": 5248,
      "Low": 5249,
      "Margin": 5250,
      "Que": 5251,
      "RO": 5252,
      "Rate": 5253,
      "Rounding": 5254,
      "VM": 5255,
      "aight": 5256,
      "ging": 5257,
      "gative": 5258,
      "layou": 5259,
      "margin": 5260,
      "pm": 5261,
      "pending": 5262,
      "ratio": 5263,
      "split": 5264,
      "uction": 5265,
      "vation": 5266,
      "vouchers": 5267,
      "ybrid": 5268,
      "allocated": 5269,
      "ica": 5270,
      "iced": 5271,
      "icts": 5272,
      "states": 5273,
      "stages": 5274,
      "ational": 5275,
      "fired": 5276,
      "decl": 5277,
      "proto": 5278,
      "branch": 5279,
      "plu": 5280,
      "verb": 5281,
      "dern": 5282,
      "Real": 5283,
      "Repeat": 5284,
      "Conver": 5285,
      "Consolid": 5286,
      "Contoso": 5287,
      "Cook": 5288,
      "clause": 5289,
      "compress": 5290,
      "completion": 5291,
      "modifies": 5292,
      "Tags": 5293,
      "2015": 5294,
      "Where": 5295,
      "cluded": 5296,
      "printer": 5297,
      "accessing": 5298,
      "Identity": 5299,
      "Auth": 5300,
      "pixel": 5301,
      "Discus": 5302,
      "ains": 5303,
      "WorkAddress": 5304,
      "performing": 5305,
      "PidLidFax": 5306,
      "Special": 5307,
      "offers": 5308,
      "iving": 5309,
      "Timeout": 5310,
      "distributions": 5311,
      "clean": 5312,
      "abilityAssessment": 5313,
      "wrap": 5314,
      "TREF": 5315,
      "Finally": 5316,
      "Displaying": 5317,
      "Direction": 5318,
      "cursors": 5319,
      "iliar": 5320,
      "procedures": 5321,
      "frames": 5322,
      "Employees": 5323,
      "1001": 5324,
      "remoting": 5325,
      "reshold": 5326,
      "Feedback": 5327,
      "bounding": 5328,
      "Partner": 5329,
      "blue": 5330,
      "nerabilityAssessment": 5331,
      "tutorials": 5332,
      "FILE": 5333,
      "great": 5334,
      "evaluate": 5335,
      "Currently": 5336,
      "Persona": 5337,
      "Initializing": 5338,
      "Publishing": 5339,
      "tempor": 5340,
      "tenant": 5341,
      "questionnaires": 5342,
      "WinRT": 5343,
      "shader": 5344,
      "agram": 5345,
      "Lunarcom": 5346,
      "easier": 5347,
      "easily": 5348,
      "delay": 5349,
      "granted": 5350,
      "Benefit": 5351,
      "Benefits": 5352,
      "binding": 5353,
      "Hyperlinks": 5354,
      "latest": 5355,
      "decimal": 5356,
      "tilities": 5357,
      "sensitive": 5358,
      "accuracy": 5359,
      "introduced": 5360,
      "sector": 5361,
      "VulnerabilityAssessment": 5362,
      "layouts": 5363,
      "54": 5364,
      "67": 5365,
      "BL": 5366,
      "Catalog": 5367,
      "Credenti": 5368,
      "Ded": 5369,
      "Drop": 5370,
      "EM": 5371,
      "JS": 5372,
      "LA": 5373,
      "Lat": 5374,
      "Nu": 5375,
      "Null": 5376,
      "Named": 5377,
      "Pen": 5378,
      "Pol": 5379,
      "Put": 5380,
      "Paste": 5381,
      "Trial": 5382,
      "UK": 5383,
      "aid": 5384,
      "cm": 5385,
      "city": 5386,
      "cached": 5387,
      "far": 5388,
      "gen": 5389,
      "pred": 5390,
      "util": 5391,
      "won": 5392,
      "xili": 5393,
      "ync": 5394,
      "ink": 5395,
      "inations": 5396,
      "redirect": 5397,
      "recalculation": 5398,
      "atri": 5399,
      "alle": 5400,
      "itment": 5401,
      "peripher": 5402,
      "exposed": 5403,
      "osing": 5404,
      "plane": 5405,
      "ector": 5406,
      "becomes": 5407,
      "Prox": 5408,
      "Promp": 5409,
      "meet": 5410,
      "ciple": 5411,
      "umes": 5412,
      "ured": 5413,
      "Constant": 5414,
      "why": 5415,
      "Decl": 5416,
      "Deleg": 5417,
      "Three": 5418,
      "extensibility": 5419,
      "igning": 5420,
      "strategy": 5421,
      "ferencing": 5422,
      "AddNew": 5423,
      "Unreal": 5424,
      "Chrome": 5425,
      "configuring": 5426,
      "grouped": 5427,
      "White": 5428,
      "ront": 5429,
      "pricing": 5430,
      "attend": 5431,
      "tificates": 5432,
      "AzHDInsight": 5433,
      "Perception": 5434,
      "locks": 5435,
      "Collapse": 5436,
      "Intercompany": 5437,
      "AddressType": 5438,
      "Generic": 5439,
      "logs": 5440,
      "mitted": 5441,
      "currences": 5442,
      "macros": 5443,
      "writing": 5444,
      "pointers": 5445,
      "corresponds": 5446,
      "Handles": 5447,
      "inputs": 5448,
      "mappings": 5449,
      "BOMs": 5450,
      "behind": 5451,
      "Supports": 5452,
      "sequent": 5453,
      "organizational": 5454,
      "Instead": 5455,
      "reply": 5456,
      "simulator": 5457,
      "Logon": 5458,
      "synchronized": 5459,
      "ONNX": 5460,
      "resolved": 5461,
      "declarations": 5462,
      "letters": 5463,
      "Otherwise": 5464,
      "Wrapped": 5465,
      "green": 5466,
      "begins": 5467,
      "ENTRY": 5468,
      "holds": 5469,
      "debugger": 5470,
      "Execution": 5471,
      "patterns": 5472,
      "supply": 5473,
      "Breaking": 5474,
      "failure": 5475,
      "PinX": 5476,
      "digital": 5477,
      "hierarchical": 5478,
      "floating": 5479,
      "statistical": 5480,
      "turned": 5481,
      "consists": 5482,
      "Terminated": 5483,
      "MCDConnectedDevicesAccount": 5484,
      "Certificate": 5485,
      "principal": 5486,
      "Evaluate": 5487,
      "Denmark": 5488,
      "caused": 5489,
      "familiar": 5490,
      "problem": 5491,
      "MCDUserNotification": 5492,
      "Establish": 5493,
      "Continue": 5494,
      "Percentage": 5495,
      "discrepan": 5496,
      "claim": 5497,
      "Representing": 5498,
      "hibit": 5499,
      "advantage": 5500,
      "xiliary": 5501,
      "atrix": 5502,
      "History": 5503,
      "Ig": 5504,
      "Iot": 5505,
      "IIS": 5506,
      "IBAN": 5507,
      "Ke": 5508,
      "Mass": 5509,
      "Pattern": 5510,
      "SU": 5511,
      "Saving": 5512,
      "TH": 5513,
      "Turn": 5514,
      "Take": 5515,
      "WN": 5516,
      "Wee": 5517,
      "Whether": 5518,
      "astronaut": 5519,
      "bid": 5520,
      "clip": 5521,
      "carrier": 5522,
      "ds": 5523,
      "fts": 5524,
      "gate": 5525,
      "hyper": 5526,
      "having": 5527,
      "pst": 5528,
      "pol": 5529,
      "ranges": 5530,
      "tri": 5531,
      "inbox": 5532,
      "tick": 5533,
      "reple": 5534,
      "repo": 5535,
      "reach": 5536,
      "animation": 5537,
      "routing": 5538,
      "tour": 5539,
      "offer": 5540,
      "detection": 5541,
      "proposal": 5542,
      "Inbound": 5543,
      "chan": 5544,
      "construct": 5545,
      "pling": 5546,
      "unk": 5547,
      "uncheck": 5548,
      "Proced": 5549,
      "odity": 5550,
      "Reverse": 5551,
      "white": 5552,
      "shell": 5553,
      "Declar": 5554,
      "inten": 5555,
      "outside": 5556,
      "moves": 5557,
      "computing": 5558,
      "strument": 5559,
      "predefined": 5560,
      "imations": 5561,
      "whenever": 5562,
      "crease": 5563,
      "Unknown": 5564,
      "Unexpected": 5565,
      "paralle": 5566,
      "Trust": 5567,
      "True": 5568,
      "Managing": 5569,
      "Serial": 5570,
      "Opens": 5571,
      "accessibility": 5572,
      "tify": 5573,
      "Answ": 5574,
      "Impro": 5575,
      "missing": 5576,
      "posts": 5577,
      "postdated": 5578,
      "ained": 5579,
      "ScriptDialog": 5580,
      "tabs": 5581,
      "wareh": 5582,
      "finish": 5583,
      "OpenXR": 5584,
      "Strings": 5585,
      "comments": 5586,
      "rafts": 5587,
      "Boot": 5588,
      "privi": 5589,
      "centers": 5590,
      "Spain": 5591,
      "filtered": 5592,
      "categor": 5593,
      "JsSet": 5594,
      "JsRT": 5595,
      "something": 5596,
      "Statement": 5597,
      "renderer": 5598,
      "SearchKey": 5599,
      "streaming": 5600,
      "wards": 5601,
      "frag": 5602,
      "connections": 5603,
      "targeted": 5604,
      "executed": 5605,
      "breakdown": 5606,
      "Commands": 5607,
      "Markdown": 5608,
      "PowerApps": 5609,
      "seconds": 5610,
      "CC002": 5611,
      "United": 5612,
      "guidance": 5613,
      "Backup": 5614,
      "ANSI": 5615,
      "Variant": 5616,
      "manipulate": 5617,
      "UTT": 5618,
      "Win32": 5619,
      "PinY": 5620,
      "meshes": 5621,
      "Manifests": 5622,
      "persistence": 5623,
      "techni": 5624,
      "RFC": 5625,
      "pairs": 5626,
      "OPER": 5627,
      "alternatives": 5628,
      "aggregated": 5629,
      "Picker": 5630,
      "awn": 5631,
      "determined": 5632,
      "combination": 5633,
      "scheme": 5634,
      "principle": 5635,
      "Metadata": 5636,
      "detected": 5637,
      "telephone": 5638,
      "Weighted": 5639,
      "WHS": 5640,
      "inherits": 5641,
      "enhance": 5642,
      "succeeded": 5643,
      "join": 5644,
      "Deleting": 5645,
      "impersonation": 5646,
      "vestigation": 5647,
      "candidate": 5648,
      "Binary": 5649,
      "encountered": 5650,
      "algorithm": 5651,
      "quantities": 5652,
      "andboxed": 5653,
      "GNJL001": 5654,
      "Discusses": 5655,
      "Prompt": 5656,
      "Keep": 5657,
      "Week": 5658,
      "repleaced": 5659,
      "parallel": 5660,
      "69": 5661,
      "Dest": 5662,
      "Dig": 5663,
      "Deliver": 5664,
      "Esc": 5665,
      "FOR": 5666,
      "Feder": 5667,
      "Gl": 5668,
      "Lim": 5669,
      "Mak": 5670,
      "Magnitude": 5671,
      "Sal": 5672,
      "TO": 5673,
      "Two": 5674,
      "Zoom": 5675,
      "az": 5676,
      "bage": 5677,
      "cach": 5678,
      "cending": 5679,
      "dictionary": 5680,
      "effective": 5681,
      "fall": 5682,
      "iver": 5683,
      "late": 5684,
      "pot": 5685,
      "rich": 5686,
      "vember": 5687,
      "xll": 5688,
      "zones": 5689,
      "inline": 5690,
      "indexed": 5691,
      "rec": 5692,
      "reduction": 5693,
      "enes": 5694,
      "ening": 5695,
      "enum": 5696,
      "alax": 5697,
      "arbage": 5698,
      "quid": 5699,
      "fire": 5700,
      "elf": 5701,
      "acquisition": 5702,
      "assume": 5703,
      "usp": 5704,
      "extract": 5705,
      "concept": 5706,
      "adition": 5707,
      "Proble": 5708,
      "mechan": 5709,
      "tak": 5710,
      "Recru": 5711,
      "ulations": 5712,
      "endpoints": 5713,
      "lide": 5714,
      "Department": 5715,
      "extend": 5716,
      "clone": 5717,
      "viewer": 5718,
      "colors": 5719,
      "Cells": 5720,
      "Ship": 5721,
      "customization": 5722,
      "Trusted": 5723,
      "2020": 5724,
      "While": 5725,
      "Manufact": 5726,
      "ItemId": 5727,
      "PidTagSchedule": 5728,
      "prerequisites": 5729,
      "Formatt": 5730,
      "spam": 5731,
      "Annot": 5732,
      "Compare": 5733,
      "handles": 5734,
      "Workforce": 5735,
      "Startup": 5736,
      "relations": 5737,
      "Addresses": 5738,
      "Both": 5739,
      "TableDef": 5740,
      "ShapeShdw": 5741,
      "consumed": 5742,
      "locally": 5743,
      "MailTips": 5744,
      "navigating": 5745,
      "mapiuid": 5746,
      "targeting": 5747,
      "forecasts": 5748,
      "downloading": 5749,
      "paint": 5750,
      "belong": 5751,
      "ATION": 5752,
      "gives": 5753,
      "PowerShell": 5754,
      "surance": 5755,
      "Renderer": 5756,
      "QuickStyle": 5757,
      "settled": 5758,
      "POP": 5759,
      "guidelines": 5760,
      "PAY": 5761,
      "Categories": 5762,
      "Namespace": 5763,
      "evaluated": 5764,
      "Solver": 5765,
      "labels": 5766,
      "prompted": 5767,
      "optimize": 5768,
      "increase": 5769,
      "suggestions": 5770,
      "classified": 5771,
      "gestures": 5772,
      "replacement": 5773,
      "Restriction": 5774,
      "profiling": 5775,
      "AzSqlServer": 5776,
      "Insights": 5777,
      "wait": 5778,
      "datas": 5779,
      "Depth": 5780,
      "demonstrates": 5781,
      "pieces": 5782,
      "spropvalue": 5783,
      "fulfillment": 5784,
      "Belg": 5785,
      "Partial": 5786,
      "centralized": 5787,
      "Estim": 5788,
      "NuGet": 5789,
      "Igno": 5790,
      "fragment": 5791,
      "alaxy": 5792,
      "PidTagScheduleInfo": 5793,
      "Formatted": 5794,
      "57": 5795,
      "Bit": 5796,
      "Cc": 5797,
      "Fo": 5798,
      "Hover": 5799,
      "IMAPI": 5800,
      "PE": 5801,
      "Rocket": 5802,
      "STR": 5803,
      "SWI": 5804,
      "Tutorial": 5805,
      "Trigger": 5806,
      "Term": 5807,
      "Vs": 5808,
      "Volume": 5809,
      "Wa": 5810,
      "Will": 5811,
      "big": 5812,
      "dark": 5813,
      "dwell": 5814,
      "draft": 5815,
      "gust": 5816,
      "hel": 5817,
      "jur": 5818,
      "microphone": 5819,
      "natur": 5820,
      "rc": 5821,
      "ril": 5822,
      "xl": 5823,
      "ype": 5824,
      "threshold": 5825,
      "erts": 5826,
      "aning": 5827,
      "enc": 5828,
      "enced": 5829,
      "lead": 5830,
      "entation": 5831,
      "quare": 5832,
      "quire": 5833,
      "fit": 5834,
      "lost": 5835,
      "deletion": 5836,
      "asp": 5837,
      "exit": 5838,
      "absolute": 5839,
      "consignment": 5840,
      "unread": 5841,
      "unexpected": 5842,
      "tracing": 5843,
      "please": 5844,
      "success": 5845,
      "occlusion": 5846,
      "disconnect": 5847,
      "computed": 5848,
      "aily": 5849,
      "viewing": 5850,
      "aves": 5851,
      "pref": 5852,
      "preced": 5853,
      "precision": 5854,
      "nectivity": 5855,
      "transform": 5856,
      "November": 5857,
      "Shutdown": 5858,
      "containers": 5859,
      "requesting": 5860,
      "MAPIERROR": 5861,
      "April": 5862,
      "Views": 5863,
      "Manual": 5864,
      "Reserved": 5865,
      "subfolders": 5866,
      "fulfilled": 5867,
      "overr": 5868,
      "foreign": 5869,
      "Compos": 5870,
      "Computer": 5871,
      "Transl": 5872,
      "controlled": 5873,
      "riggers": 5874,
      "Observer": 5875,
      "irth": 5876,
      "performs": 5877,
      "Internal": 5878,
      "Arrow": 5879,
      "throt": 5880,
      "logo": 5881,
      "timeline": 5882,
      "bookmark": 5883,
      "bitmask": 5884,
      "cleared": 5885,
      "UpdateItem": 5886,
      "Creation": 5887,
      "partments": 5888,
      "caps": 5889,
      "entryid": 5890,
      "Practi": 5891,
      "finding": 5892,
      "coverable": 5893,
      "Counting": 5894,
      "matched": 5895,
      "Automatically": 5896,
      "Detection": 5897,
      "vention": 5898,
      "Leave": 5899,
      "issued": 5900,
      "programs": 5901,
      "schedules": 5902,
      "applicant": 5903,
      "Filtering": 5904,
      "refers": 5905,
      "uniqu": 5906,
      "MFC": 5907,
      "standards": 5908,
      "retrieving": 5909,
      "Definitions": 5910,
      "synchronize": 5911,
      "Maps": 5912,
      "BACS": 5913,
      "CC003": 5914,
      "Calculated": 5915,
      "choice": 5916,
      "Members": 5917,
      "bills": 5918,
      "separator": 5919,
      "SSL": 5920,
      "AND": 5921,
      "Developers": 5922,
      "manufactured": 5923,
      "Deployment": 5924,
      "rooms": 5925,
      "forwarding": 5926,
      "organizer": 5927,
      "float": 5928,
      "static": 5929,
      "Comment": 5930,
      "Team": 5931,
      "Monthly": 5932,
      "translation": 5933,
      "German": 5934,
      "Following": 5935,
      "Retrieve": 5936,
      "commitment": 5937,
      "Monitoring": 5938,
      "rejected": 5939,
      "automation": 5940,
      "highlighted": 5941,
      "Layers": 5942,
      "friendly": 5943,
      "agnostic": 5944,
      "Released": 5945,
      "Recommended": 5946,
      "thumbstick": 5947,
      "sibilities": 5948,
      "revaluation": 5949,
      "Whole": 5950,
      "Authentication": 5951,
      "Queue": 5952,
      "hyperlink": 5953,
      "Answer": 5954,
      "UTTON": 5955,
      "FORM": 5956,
      "aditional": 5957,
      "takt": 5958,
      "Belgium": 5959,
      "SWIFT": 5960,
      "61": 5961,
      "82": 5962,
      "96": 5963,
      "AM": 5964,
      "AML": 5965,
      "Cube": 5966,
      "DK": 5967,
      "Don": 5968,
      "Dupl": 5969,
      "Icon": 5970,
      "Lit": 5971,
      "March": 5972,
      "Ori": 5973,
      "OIN": 5974,
      "PM": 5975,
      "RM": 5976,
      "Uri": 5977,
      "VE": 5978,
      "VAL": 5979,
      "Xml": 5980,
      "blo": 5981,
      "cch": 5982,
      "den": 5983,
      "dinal": 5984,
      "eDiscovery": 5985,
      "gments": 5986,
      "gfiles": 5987,
      "hide": 5988,
      "lens": 5989,
      "mapped": 5990,
      "none": 5991,
      "national": 5992,
      "oad": 5993,
      "pb": 5994,
      "rds": 5995,
      "spl": 5996,
      "tu": 5997,
      "tap": 5998,
      "vas": 5999,
      "vacy": 6000,
      "wall": 6001,
      "wish": 6002,
      "zoom": 6003,
      "restart": 6004,
      "128": 6005,
      "ester": 6006,
      "atter": 6007,
      "ism": 6008,
      "isol": 6009,
      "ots": 6010,
      "itable": 6011,
      "dead": 6012,
      "promis": 6013,
      "protect": 6014,
      "peating": 6015,
      "pective": 6016,
      "Propose": 6017,
      "utter": 6018,
      "utting": 6019,
      "jected": 6020,
      "opport": 6021,
      "dump": 6022,
      "outbound": 6023,
      "Street": 6024,
      "comput": 6025,
      "CreateFolder": 6026,
      "worked": 6027,
      "internet": 6028,
      "append": 6029,
      "avel": 6030,
      "however": 6031,
      "transparent": 6032,
      "providing": 6033,
      "Units": 6034,
      "customized": 6035,
      "customizing": 6036,
      "commonly": 6037,
      "payroll": 6038,
      "dom": 6039,
      "Trace": 6040,
      "Associate": 6041,
      "2019": 6042,
      "WebResource": 6043,
      "cluding": 6044,
      "minim": 6045,
      "feed": 6046,
      "attendee": 6047,
      "subsequent": 6048,
      "regular": 6049,
      "Anti": 6050,
      "Idle": 6051,
      "webhook": 6052,
      "Companies": 6053,
      "UserConfiguration": 6054,
      "generic": 6055,
      "generates": 6056,
      "generating": 6057,
      "generally": 6058,
      "Obj": 6059,
      "compl": 6060,
      "AddressBook": 6061,
      "Payroll": 6062,
      "removing": 6063,
      "visio": 6064,
      "maps": 6065,
      "Javascript": 6066,
      "flush": 6067,
      "dispidSharing": 6068,
      "Commission": 6069,
      "LineTo": 6070,
      "connectors": 6071,
      "consumer": 6072,
      "edited": 6073,
      "installer": 6074,
      "Measure": 6075,
      "Modern": 6076,
      "mapierror": 6077,
      "UEFI": 6078,
      "targets": 6079,
      "depends": 6080,
      "Lists": 6081,
      "Classi": 6082,
      "Connecting": 6083,
      "Points": 6084,
      "transferred": 6085,
      "ContentLoading": 6086,
      "SourceChanged": 6087,
      "ATE": 6088,
      "black": 6089,
      "characteristics": 6090,
      "Navigate": 6091,
      "realized": 6092,
      "summar": 6093,
      "Success": 6094,
      "drawer": 6095,
      "saf": 6096,
      "rotate": 6097,
      "Black": 6098,
      "Deprecated": 6099,
      "TION": 6100,
      "drive": 6101,
      "Geo": 6102,
      "Determining": 6103,
      "recognized": 6104,
      "Permissions": 6105,
      "Integrate": 6106,
      "Occurrence": 6107,
      "describing": 6108,
      "larger": 6109,
      "statistics": 6110,
      "Compliance": 6111,
      "monitoring": 6112,
      "alternate": 6113,
      "Updated": 6114,
      "Adjustment": 6115,
      "Times": 6116,
      "Demand": 6117,
      "Enumerate": 6118,
      "initiated": 6119,
      "ksgfiles": 6120,
      "completely": 6121,
      "credential": 6122,
      "conflict": 6123,
      "conflicts": 6124,
      "efficiently": 6125,
      "goods": 6126,
      "Hello": 6127,
      "transition": 6128,
      "stylesheet": 6129,
      "relationships": 6130,
      "interpreted": 6131,
      "Behavior": 6132,
      "stabil": 6133,
      "directive": 6134,
      "Questionnaire": 6135,
      "attendance": 6136,
      "Ignore": 6137,
      "jury": 6138,
      "throttling": 6139,
      "MFCMAPI": 6140,
      "Litware": 6141,
      "cchksgfiles": 6142,
      "2000": 6143,
      "300": 6144,
      "59": 6145,
      "765": 6146,
      "Average": 6147,
      "Br": 6148,
      "Clean": 6149,
      "Dif": 6150,
      "Drafts": 6151,
      "Ey": 6152,
      "Frequ": 6153,
      "FTI": 6154,
      "HRE": 6155,
      "Jo": 6156,
      "Lif": 6157,
      "Many": 6158,
      "Near": 6159,
      "Raw": 6160,
      "Sa": 6161,
      "Soft": 6162,
      "SID": 6163,
      "Ter": 6164,
      "ares": 6165,
      "aff": 6166,
      "car": 6167,
      "foc": 6168,
      "favor": 6169,
      "gne": 6170,
      "mone": 6171,
      "pad": 6172,
      "past": 6173,
      "slight": 6174,
      "scripting": 6175,
      "tre": 6176,
      "triggers": 6177,
      "ued": 6178,
      "uel": 6179,
      "x64": 6180,
      "yon": 6181,
      "zation": 6182,
      "err": 6183,
      "repeat": 6184,
      "animations": 6185,
      "ings": 6186,
      "five": 6187,
      "agers": 6188,
      "proceed": 6189,
      "Incorrect": 6190,
      "Indexed": 6191,
      "ches": 6192,
      "conferencing": 6193,
      "connectivity": 6194,
      "ression": 6195,
      "Provide": 6196,
      "Profession": 6197,
      "ableItem": 6198,
      "ulates": 6199,
      "diagram": 6200,
      "Conditional": 6201,
      "establ": 6202,
      "followed": 6203,
      "sufficient": 6204,
      "occurrences": 6205,
      "requester": 6206,
      "manently": 6207,
      "descriptor": 6208,
      "pressing": 6209,
      "listener": 6210,
      "functional": 6211,
      "Unsubscribe": 6212,
      "newly": 6213,
      "GetApp": 6214,
      "GetRoom": 6215,
      "doing": 6216,
      "Transi": 6217,
      "WebMessage": 6218,
      "PidTagContact": 6219,
      "Formulas": 6220,
      "Retention": 6221,
      "Desktop": 6222,
      "signific": 6223,
      "ouses": 6224,
      "August": 6225,
      "Enroll": 6226,
      "Discover": 6227,
      "webs": 6228,
      "Compile": 6229,
      "Complex": 6230,
      "DataControl": 6231,
      "WorkLine": 6232,
      "Appx": 6233,
      "Vision": 6234,
      "Quot": 6235,
      "Quantum": 6236,
      "compliance": 6237,
      "PidLidSharing": 6238,
      "structured": 6239,
      "allowing": 6240,
      "Allocate": 6241,
      "Although": 6242,
      "parameterized": 6243,
      "logical": 6244,
      "177": 6245,
      "Ordinal": 6246,
      "StatusError": 6247,
      "eye": 6248,
      "SELE": 6249,
      "hololens": 6250,
      "Editing": 6251,
      "substit": 6252,
      "localStorage": 6253,
      "passes": 6254,
      "goes": 6255,
      "Moving": 6256,
      "Region": 6257,
      "sessionStorage": 6258,
      "nonconformance": 6259,
      "Checked": 6260,
      "styling": 6261,
      "Indexes": 6262,
      "IndexableItem": 6263,
      "ArrayBuffer": 6264,
      "Replication": 6265,
      "tests": 6266,
      "synchronous": 6267,
      "Styles": 6268,
      "boundary": 6269,
      "Rome": 6270,
      "integrate": 6271,
      "computers": 6272,
      "Props": 6273,
      "6063": 6274,
      "OriginalDisplayName": 6275,
      "Installing": 6276,
      "UNI": 6277,
      "trying": 6278,
      "NonIndexableItem": 6279,
      "Liquid": 6280,
      "Authoring": 6281,
      "drivers": 6282,
      "Solutions": 6283,
      "Placement": 6284,
      "PWAs": 6285,
      "Guidelines": 6286,
      "NavigationCompleted": 6287,
      "effects": 6288,
      "particip": 6289,
      "aggregate": 6290,
      "Results": 6291,
      "Retrieves": 6292,
      "Retrieving": 6293,
      "delim": 6294,
      "determines": 6295,
      "PullDown": 6296,
      "cookies": 6297,
      "completes": 6298,
      "PRO": 6299,
      "Lookup": 6300,
      "delivered": 6301,
      "conventions": 6302,
      "MBM": 6303,
      "Initiator": 6304,
      "collected": 6305,
      "Bluetoo": 6306,
      "GameObject": 6307,
      "Synchronize": 6308,
      "Hours": 6309,
      "walk": 6310,
      "symbol": 6311,
      "prepared": 6312,
      "Http": 6313,
      "Invoices": 6314,
      "compressed": 6315,
      "temporary": 6316,
      "Proxy": 6317,
      "SULT": 6318,
      "WHSWorkLine": 6319,
      "Glue": 6320,
      "PAYM": 6321,
      "helper": 6322,
      "uniquely": 6323,
      "Orientation": 6324,
      "dumpster": 6325,
      "stabilization": 6326,
      "HRESULT": 6327,
      "Life": 6328,
      "Terms": 6329,
      "money": 6330,
      "yond": 6331,
      "established": 6332,
      "SELECT": 6333,
      "606300": 6334,
      "Bluetooth": 6335,
      "62": 6336,
      "AQ": 6337,
      "Ano": 6338,
      "CTR": 6339,
      "Due": 6340,
      "Dashboard": 6341,
      "EE": 6342,
      "El": 6343,
      "Earning": 6344,
      "Fri": 6345,
      "Fail": 6346,
      "Imm": 6347,
      "JOIN": 6348,
      "Lith": 6349,
      "Microphone": 6350,
      "Middle": 6351,
      "OPOS": 6352,
      "OEM": 6353,
      "SPI": 6354,
      "Ut": 6355,
      "Warning": 6356,
      "brow": 6357,
      "gain": 6358,
      "hover": 6359,
      "human": 6360,
      "risk": 6361,
      "sal": 6362,
      "sid": 6363,
      "uan": 6364,
      "vol": 6365,
      "watch": 6366,
      "xlf": 6367,
      "zes": 6368,
      "insight": 6369,
      "instrument": 6370,
      "insurance": 6371,
      "inches": 6372,
      "recovery": 6373,
      "orient": 6374,
      "allocate": 6375,
      "ician": 6376,
      "arin": 6377,
      "stability": 6378,
      "fid": 6379,
      "fili": 6380,
      "elcome": 6381,
      "amarin": 6382,
      "ilder": 6383,
      "extra": 6384,
      "adaptive": 6385,
      "uri": 6386,
      "sia": 6387,
      "uninstall": 6388,
      "unsigned": 6389,
      "become": 6390,
      "beyond": 6391,
      "Revenue": 6392,
      "trun": 6393,
      "selects": 6394,
      "Second": 6395,
      "Confl": 6396,
      "Concepts": 6397,
      "Force": 6398,
      "APP": 6399,
      "disposition": 6400,
      "interactive": 6401,
      "aved": 6402,
      "negative": 6403,
      "Selected": 6404,
      "hash": 6405,
      "Short": 6406,
      "TagArray": 6407,
      "Asset": 6408,
      "processor": 6409,
      "cludes": 6410,
      "PidTagRule": 6411,
      "PidTagInternet": 6412,
      "texture": 6413,
      "regation": 6414,
      "webhint": 6415,
      "Compati": 6416,
      "Computes": 6417,
      "Err": 6418,
      "referred": 6419,
      "statuses": 6420,
      "backward": 6421,
      "Configur": 6422,
      "pidlide": 6423,
      "ributing": 6424,
      "typing": 6425,
      "tability": 6426,
      "0003": 6427,
      "Azs": 6428,
      "flows": 6429,
      "leges": 6430,
      "Obtain": 6431,
      "Coll": 6432,
      "Dock": 6433,
      "Interval": 6434,
      "URE": 6435,
      "ilest": 6436,
      "market": 6437,
      "approver": 6438,
      "differences": 6439,
      "ShapeSplit": 6440,
      "rolling": 6441,
      "Subsystem": 6442,
      "DevToolsProtocol": 6443,
      "autoplay": 6444,
      "JsRuntime": 6445,
      "Ital": 6446,
      "SETA": 6447,
      "Country": 6448,
      "Keys": 6449,
      "expanded": 6450,
      "employment": 6451,
      "invoiced": 6452,
      "deploying": 6453,
      "MoveFocus": 6454,
      "HTML14": 6455,
      "copies": 6456,
      "base64": 6457,
      "ING": 6458,
      "Scroll": 6459,
      "simply": 6460,
      "downloads": 6461,
      "lpsz": 6462,
      "Receiving": 6463,
      "Copying": 6464,
      "sends": 6465,
      "meters": 6466,
      "ARI": 6467,
      "paths": 6468,
      "secondary": 6469,
      "CC001": 6470,
      "modifying": 6471,
      "Typing": 6472,
      "Intent": 6473,
      "threading": 6474,
      "populate": 6475,
      "grees": 6476,
      "PIA": 6477,
      "drawal": 6478,
      "shaping": 6479,
      "Scheduling": 6480,
      "Agree": 6481,
      "FFFF": 6482,
      "picker": 6483,
      "Actor": 6484,
      "uploading": 6485,
      "Breakpoints": 6486,
      "Deploying": 6487,
      "children": 6488,
      "Redu": 6489,
      "floor": 6490,
      "Disabled": 6491,
      "tracked": 6492,
      "profit": 6493,
      "vertex": 6494,
      "Alignment": 6495,
      "MRC": 6496,
      "Forecast": 6497,
      "roubleshoot": 6498,
      "IMLOperatorKernel": 6499,
      "Yearly": 6500,
      "Structures": 6501,
      "Highlight": 6502,
      "CODE": 6503,
      "MCDConnectedDevicesNotification": 6504,
      "improvements": 6505,
      "problems": 6506,
      "Smtp": 6507,
      "Layer": 6508,
      "Snippets": 6509,
      "piece": 6510,
      "expiration": 6511,
      "coupon": 6512,
      "Alternatively": 6513,
      "Coordinated": 6514,
      "Malay": 6515,
      "jump": 6516,
      "implicit": 6517,
      "Shader": 6518,
      "parency": 6519,
      "schemes": 6520,
      "Scheme": 6521,
      "plugin": 6522,
      "hibited": 6523,
      "privileges": 6524,
      "Making": 6525,
      "Manufacturing": 6526,
      "Practices": 6527,
      "safety": 6528,
      "Safe": 6529,
      "slightly": 6530,
      "Lithuan": 6531,
      "pidlidemail": 6532,
      "SETATREF": 6533,
      "3C": 6534,
      "68": 6535,
      "90": 6536,
      "AB": 6537,
      "AF": 6538,
      "Ax": 6539,
      "Agg": 6540,
      "BUTTON": 6541,
      "Dark": 6542,
      "During": 6543,
      "Every": 6544,
      "Live": 6545,
      "Mer": 6546,
      "Never": 6547,
      "Our": 6548,
      "Old": 6549,
      "OAuth": 6550,
      "Pause": 6551,
      "Say": 6552,
      "Sensi": 6553,
      "Saved": 6554,
      "Tree": 6555,
      "YO": 6556,
      "`.": 6557,
      "ben": 6558,
      "bul": 6559,
      "browse": 6560,
      "care": 6561,
      "cable": 6562,
      "clock": 6563,
      "daily": 6564,
      "ele": 6565,
      "faster": 6566,
      "kernel": 6567,
      "lk": 6568,
      "mitive": 6569,
      "nor": 6570,
      "sg": 6571,
      "scre": 6572,
      "situ": 6573,
      "score": 6574,
      "square": 6575,
      "wave": 6576,
      "yalty": 6577,
      "ino": 6578,
      "ining": 6579,
      "inct": 6580,
      "investigation": 6581,
      "ony": 6582,
      "recent": 6583,
      "enroll": 6584,
      "120": 6585,
      "alph": 6586,
      "icens": 6587,
      "icator": 6588,
      "sell": 6589,
      "associ": 6590,
      "Inference": 6591,
      "Income": 6592,
      "etric": 6593,
      "etencies": 6594,
      "chrome": 6595,
      "exam": 6596,
      "ex15": 6597,
      "adie": 6598,
      "bring": 6599,
      "upper": 6600,
      "unsupported": 6601,
      "verification": 6602,
      "ays": 6603,
      "meaning": 6604,
      "canvas": 6605,
      "mainten": 6606,
      "suitable": 6607,
      "auth": 6608,
      "soon": 6609,
      "sother": 6610,
      "oke": 6611,
      "States": 6612,
      "stral": 6613,
      "criptive": 6614,
      "Accent": 6615,
      "appx": 6616,
      "operability": 6617,
      "descriptive": 6618,
      "Addons": 6619,
      "timeout": 6620,
      "achie": 6621,
      "accountant": 6622,
      "prepayment": 6623,
      "Undock": 6624,
      "noti": 6625,
      "nothing": 6626,
      "parse": 6627,
      "Shap": 6628,
      "actually": 6629,
      "Api": 6630,
      "PidTagR": 6631,
      "PidTagRecipient": 6632,
      "Resize": 6633,
      "accessorial": 6634,
      "subcontract": 6635,
      "regnd": 6636,
      "recorded": 6637,
      "Austral": 6638,
      "Ensure": 6639,
      "Encoding": 6640,
      "ImContact": 6641,
      "Outbox": 6642,
      "Compute": 6643,
      "startup": 6644,
      "headcount": 6645,
      "ErrorCalendar": 6646,
      "MessageId": 6647,
      "NewWindow": 6648,
      "scr": 6649,
      "calculating": 6650,
      "Documents": 6651,
      "PidLidLog": 6652,
      "PidLidWorkAddress": 6653,
      "Specific": 6654,
      "marking": 6655,
      "Alert": 6656,
      "Board": 6657,
      "multidimensional": 6658,
      "bookmarks": 6659,
      "arrays": 6660,
      "Extend": 6661,
      "dispidEmail": 6662,
      "Commun": 6663,
      "Commonly": 6664,
      "autodiscover": 6665,
      "periodic": 6666,
      "importing": 6667,
      "connecting": 6668,
      "0x0": 6669,
      "Vendors": 6670,
      "Enables": 6671,
      "navigations": 6672,
      "boarding": 6673,
      "Byte": 6674,
      "Absolute": 6675,
      "LED": 6676,
      "breaks": 6677,
      "REST": 6678,
      "Feature": 6679,
      "Positions": 6680,
      "Markup": 6681,
      "Role": 6682,
      "integrated": 6683,
      "authenticated": 6684,
      "monthly": 6685,
      "invitation": 6686,
      "mandate": 6687,
      "Assignment": 6688,
      "initialization": 6689,
      "threads": 6690,
      "threaded": 6691,
      "Pressed": 6692,
      "certificates": 6693,
      "speed": 6694,
      "spection": 6695,
      "Specifying": 6696,
      "limitations": 6697,
      "Optionally": 6698,
      "UNC": 6699,
      "ceeds": 6700,
      "explains": 6701,
      "TIME": 6702,
      "Rights": 6703,
      "LIFO": 6704,
      "Basics": 6705,
      "vcsother": 6706,
      "catalogs": 6707,
      "AdaptiveCard": 6708,
      "optimization": 6709,
      "optimized": 6710,
      "marsh": 6711,
      "Statistics": 6712,
      "Integrating": 6713,
      "merge": 6714,
      "Issue": 6715,
      "dynamically": 6716,
      "operators": 6717,
      "asynchronously": 6718,
      "Speaker": 6719,
      "consistent": 6720,
      "profitability": 6721,
      "practice": 6722,
      "weekly": 6723,
      "SortKey": 6724,
      "SPropTagArray": 6725,
      "Matching": 6726,
      "waiting": 6727,
      "combinations": 6728,
      "initiate": 6729,
      "serialized": 6730,
      "family": 6731,
      "Depending": 6732,
      "Telemetry": 6733,
      "involve": 6734,
      "specifications": 6735,
      "IOlk": 6736,
      "WiFi": 6737,
      "OofSettings": 6738,
      "semi": 6739,
      "Children": 6740,
      "simplified": 6741,
      "Closed": 6742,
      "Kingdom": 6743,
      "Demographics": 6744,
      "nivers": 6745,
      "Restrictions": 6746,
      "Converts": 6747,
      "discrepancy": 6748,
      "ScriptDialogOpening": 6749,
      "Foregnd": 6750,
      "natural": 6751,
      "Duplicate": 6752,
      "WebResourceRequested": 6753,
      "PidTagContactAddressBook": 6754,
      "significant": 6755,
      "websvcsother": 6756,
      "17763": 6757,
      "Another": 6758,
      "CTRL": 6759,
      "Italy": 6760,
      "MoveFocusRequested": 6761,
      "bench": 6762,
      "screens": 6763,
      "ex15websvcsother": 6764,
      "maintenance": 6765,
      "ex15websvcsotherref": 6766,
      "66": 6767,
      "Aust": 6768,
      "Clip": 6769,
      "Clients": 6770,
      "DT": 6771,
      "EL": 6772,
      "FL": 6773,
      "Flo": 6774,
      "Fee": 6775,
      "Flip": 6776,
      "Funding": 6777,
      "Freight": 6778,
      "Galaxy": 6779,
      "Hr": 6780,
      "Ipm": 6781,
      "MY": 6782,
      "Mouse": 6783,
      "OIO": 6784,
      "Py": 6785,
      "Policies": 6786,
      "SP": 6787,
      "SRow": 6788,
      "Since": 6789,
      "Tour": 6790,
      "Tech": 6791,
      "UX": 6792,
      "UBL": 6793,
      "Var": 6794,
      "XPath": 6795,
      "XAML": 6796,
      "bi": 6797,
      "bro": 6798,
      "cation": 6799,
      "cid": 6800,
      "cise": 6801,
      "dictation": 6802,
      "gi": 6803,
      "gift": 6804,
      "garbage": 6805,
      "hard": 6806,
      "iol": 6807,
      "kg": 6808,
      "mr": 6809,
      "pip": 6810,
      "rics": 6811,
      "sense": 6812,
      "ufor": 6813,
      "vated": 6814,
      "inet": 6815,
      "instruct": 6816,
      "inbound": 6817,
      "tier": 6818,
      "tivity": 6819,
      "especi": 6820,
      "atulations": 6821,
      "alter": 6822,
      "routes": 6823,
      "today": 6824,
      "ands": 6825,
      "arge": 6826,
      "aper": 6827,
      "logging": 6828,
      "degrees": 6829,
      "aming": 6830,
      "Increase": 6831,
      "plain": 6832,
      "sizes": 6833,
      "Prospect": 6834,
      "veal": 6835,
      "Recur": 6836,
      "trust": 6837,
      "withholding": 6838,
      "Exist": 6839,
      "Exclude": 6840,
      "lies": 6841,
      "Separ": 6842,
      "Constraint": 6843,
      "shif": 6844,
      "counts": 6845,
      "Throt": 6846,
      "critical": 6847,
      "Cogn": 6848,
      "solete": 6849,
      "elling": 6850,
      "illness": 6851,
      "compil": 6852,
      "figure": 6853,
      "entially": 6854,
      "viewed": 6855,
      "viewport": 6856,
      "grab": 6857,
      "gratulations": 6858,
      "transmit": 6859,
      "acts": 6860,
      "Virtual": 6861,
      "assess": 6862,
      "anywhere": 6863,
      "Webhint": 6864,
      "cheques": 6865,
      "PidTagSearch": 6866,
      "instanti": 6867,
      "instances": 6868,
      "reading": 6869,
      "docking": 6870,
      "Pool": 6871,
      "overtime": 6872,
      "Entries": 6873,
      "handed": 6874,
      "Accessorial": 6875,
      "Worksheet": 6876,
      "Hologram": 6877,
      "HoloTour": 6878,
      "Visible": 6879,
      "Quarantine": 6880,
      "searched": 6881,
      "comfor": 6882,
      "combo": 6883,
      "Interfaces": 6884,
      "Arri": 6885,
      "Arguments": 6886,
      "Customization": 6887,
      "markup": 6888,
      "rastructure": 6889,
      "akra": 6890,
      "EventHub": 6891,
      "directx": 6892,
      "distribute": 6893,
      "distributed": 6894,
      "linking": 6895,
      "capt": 6896,
      "capital": 6897,
      "NotFound": 6898,
      "Loan": 6899,
      "Loyalty": 6900,
      "specifying": 6901,
      "Hands": 6902,
      "videos": 6903,
      "CSP": 6904,
      "Detect": 6905,
      "designated": 6906,
      "ManagedFolder": 6907,
      "Formatting": 6908,
      "streams": 6909,
      "goals": 6910,
      "Most": 6911,
      "crash": 6912,
      "Lean": 6913,
      "budgeting": 6914,
      "Linking": 6915,
      "Parse": 6916,
      "Numer": 6917,
      "nondelivery": 6918,
      "exporting": 6919,
      "indexes": 6920,
      "shipment": 6921,
      "ReadReceipt": 6922,
      "INV": 6923,
      "MENT": 6924,
      "receives": 6925,
      "Attached": 6926,
      "Indexing": 6927,
      "Versions": 6928,
      "retrieval": 6929,
      "ARM": 6930,
      "LedgerJournal": 6931,
      "copying": 6932,
      "HTTP4": 6933,
      "configurable": 6934,
      "Relations": 6935,
      "whole": 6936,
      "initialize": 6937,
      "async": 6938,
      "Planning": 6939,
      "populated": 6940,
      "restricted": 6941,
      "PAB": 6942,
      "separated": 6943,
      "assigne": 6944,
      "Executable": 6945,
      "Reviewer": 6946,
      "approvals": 6947,
      "visualization": 6948,
      "Aging": 6949,
      "Reflection": 6950,
      "grids": 6951,
      "supplied": 6952,
      "Usage": 6953,
      "Variance": 6954,
      "PhoneCall": 6955,
      "WinML": 6956,
      "persisting": 6957,
      "increased": 6958,
      "Classes": 6959,
      "technician": 6960,
      "Entities": 6961,
      "ctives": 6962,
      "translated": 6963,
      "OPEN": 6964,
      "alternative": 6965,
      "AdvancedThreat": 6966,
      "Timeline": 6967,
      "menus": 6968,
      "produce": 6969,
      "produced": 6970,
      "Enumeration": 6971,
      "scanning": 6972,
      "Letters": 6973,
      "regions": 6974,
      "Components": 6975,
      "DLP": 6976,
      "automated": 6977,
      "Legacy": 6978,
      "causes": 6979,
      "rebates": 6980,
      "Smart": 6981,
      "eligible": 6982,
      "telemetry": 6983,
      "Eston": 6984,
      "SCP": 6985,
      "analyze": 6986,
      "SKU": 6987,
      "SKUs": 6988,
      "agnostics": 6989,
      "affili": 6990,
      "Interactable": 6991,
      "LineJumpDir": 6992,
      "UDFs": 6993,
      "duplicate": 6994,
      "Coordinate": 6995,
      "Fulfill": 6996,
      "Populate": 6997,
      "horizontally": 6998,
      "purchasing": 6999,
      "encrypted": 7000,
      "assortments": 7001,
      "happens": 7002,
      "liminary": 7003,
      "gradation": 7004,
      "Manipulation": 7005,
      "peripherals": 7006,
      "Constants": 7007,
      "claims": 7008,
      "warehouses": 7009,
      "techniques": 7010,
      "Destination": 7011,
      "ZoomFactor": 7012,
      "extracted": 7013,
      "Problem": 7014,
      "Recruitment": 7015,
      "Annotation": 7016,
      "RocketLauncher": 7017,
      "prefab": 7018,
      "GetAppManifests": 7019,
      "browsing": 7020,
      "MCDConnectedDevicesNotificationRegistration": 7021,
      "Malaysia": 7022,
      "Lithuania": 7023,
      "bulk": 7024,
      "InferenceContext": 7025,
      "Australia": 7026,
      "Austri": 7027,
      "OIOUBL": 7028,
      "uforia": 7029,
      "especially": 7030,
      "Cognitive": 7031,
      "AdvancedThreatProtection": 7032,
      "05": 7033,
      "08": 7034,
      "512": 7035,
      "95": 7036,
      "AU": 7037,
      "Bounding": 7038,
      "Cust": 7039,
      "CATION": 7040,
      "DN": 7041,
      "DR": 7042,
      "Dial": 7043,
      "Ear": 7044,
      "Fac": 7045,
      "Flow": 7046,
      "Front": 7047,
      "GR": 7048,
      "Giv": 7049,
      "Icel": 7050,
      "Kit": 7051,
      "Lang": 7052,
      "Mar": 7053,
      "Mask": 7054,
      "M000": 7055,
      "NL": 7056,
      "Nodes": 7057,
      "Rol": 7058,
      "Rect": 7059,
      "Rest": 7060,
      "Sem": 7061,
      "Sell": 7062,
      "Side": 7063,
      "Spooler": 7064,
      "Self": 7065,
      "TD": 7066,
      "TL": 7067,
      "TY": 7068,
      "Uid": 7069,
      "Utilities": 7070,
      "Vuforia": 7071,
      "Wal": 7072,
      "West": 7073,
      "W3C": 7074,
      "XS": 7075,
      "Xamarin": 7076,
      "YY": 7077,
      "ahead": 7078,
      "cam": 7079,
      "db": 7080,
      "facing": 7081,
      "got": 7082,
      "gover": 7083,
      "gregation": 7084,
      "hr": 7085,
      "his": 7086,
      "had": 7087,
      "ib": 7088,
      "laun": 7089,
      "mid": 7090,
      "mind": 7091,
      "mous": 7092,
      "mix": 7093,
      "milest": 7094,
      "nested": 7095,
      "ptem": 7096,
      "susp": 7097,
      "tell": 7098,
      "uous": 7099,
      "voting": 7100,
      "wp": 7101,
      "win": 7102,
      "wide": 7103,
      "wire": 7104,
      "zip": 7105,
      "thon": 7106,
      "inspection": 7107,
      "till": 7108,
      "reward": 7109,
      "recoverable": 7110,
      "endi": 7111,
      "tok": 7112,
      "arily": 7113,
      "ston": 7114,
      "sters": 7115,
      "forces": 7116,
      "accompl": 7117,
      "deg": 7118,
      "departments": 7119,
      "protection": 7120,
      "Indirect": 7121,
      "exceeded": 7122,
      "expressed": 7123,
      "abinet": 7124,
      "confid": 7125,
      "adv": 7126,
      "url": 7127,
      "ung": 7128,
      "Proposal": 7129,
      "formed": 7130,
      "cir": 7131,
      "References": 7132,
      "ulating": 7133,
      "enda": 7134,
      "Sever": 7135,
      "Septem": 7136,
      "Conversion": 7137,
      "Congratulations": 7138,
      "masters": 7139,
      "serve": 7140,
      "ourses": 7141,
      "estamp": 7142,
      "Cov": 7143,
      "duties": 7144,
      "duino": 7145,
      "entering": 7146,
      "compute": 7147,
      "compared": 7148,
      "ToDo": 7149,
      "Acceler": 7150,
      "appended": 7151,
      "ordered": 7152,
      "nef": 7153,
      "foreg": 7154,
      "Unclassified": 7155,
      "Notify": 7156,
      "paragraph": 7157,
      "Chakra": 7158,
      "clicks": 7159,
      "http": 7160,
      "GetNonIndexableItem": 7161,
      "ffers": 7162,
      "anything": 7163,
      "Viewer": 7164,
      "payload": 7165,
      "Ask": 7166,
      "ensity": 7167,
      "OnMailboxes": 7168,
      "Manually": 7169,
      "posals": 7170,
      "rong": 7171,
      "PidTagReport": 7172,
      "PidTagStore": 7173,
      "PidTagIpm": 7174,
      "Designing": 7175,
      "span": 7176,
      "spent": 7177,
      "rectangle": 7178,
      "GoTo": 7179,
      "Enh": 7180,
      "Disk": 7181,
      "basing": 7182,
      "basics": 7183,
      "Compress": 7184,
      "dropdown": 7185,
      "UserFields": 7186,
      "referenced": 7187,
      "ounds": 7188,
      "headless": 7189,
      "Workspaces": 7190,
      "AppX": 7191,
      "AppRegistration": 7192,
      "typed": 7193,
      "Controlling": 7194,
      "MessageTracking": 7195,
      "keywords": 7196,
      "istry": 7197,
      "1100": 7198,
      "ashion": 7199,
      "Containers": 7200,
      "Interop": 7201,
      "Arduino": 7202,
      "variety": 7203,
      "allowance": 7204,
      "Paym": 7205,
      "multiplied": 7206,
      "multivalued": 7207,
      "removes": 7208,
      "visit": 7209,
      "throughout": 7210,
      "wants": 7211,
      "enefic": 7212,
      "Finish": 7213,
      "Commodity": 7214,
      "corpor": 7215,
      "corrup": 7216,
      "phase": 7217,
      "deduction": 7218,
      "00002": 7219,
      "sometimes": 7220,
      "ideas": 7221,
      "Keyword": 7222,
      "spatialization": 7223,
      "Meet": 7224,
      "goal": 7225,
      "releasing": 7226,
      "Within": 7227,
      "Registry": 7228,
      "budgets": 7229,
      "learned": 7230,
      "deployed": 7231,
      "representative": 7232,
      "CoreWebView2Environment": 7233,
      "replica": 7234,
      "Respond": 7235,
      "Reading": 7236,
      "Documentation": 7237,
      "BankAccount": 7238,
      "unities": 7239,
      "paused": 7240,
      "CopyFolder": 7241,
      "laptop": 7242,
      "LedgerCov": 7243,
      "synchronizing": 7244,
      "enumerating": 7245,
      "applying": 7246,
      "HTTPS": 7247,
      "Locks": 7248,
      "rowsers": 7249,
      "Typically": 7250,
      "Intel": 7251,
      "Multipl": 7252,
      "summing": 7253,
      "TEXT": 7254,
      "evaluates": 7255,
      "Japanese": 7256,
      "Skip": 7257,
      "0x000000": 7258,
      "explorer": 7259,
      "Factory": 7260,
      "semblies": 7261,
      "XLLs": 7262,
      "Launching": 7263,
      "reduced": 7264,
      "authorization": 7265,
      "authorities": 7266,
      "shapesheet": 7267,
      "dependencies": 7268,
      "partially": 7269,
      "callbacks": 7270,
      "Balanced": 7271,
      "SentRepresenting": 7272,
      "increment": 7273,
      "suggestion": 7274,
      "0x00000001": 7275,
      "0x00000002": 7276,
      "0x00000003": 7277,
      "filename": 7278,
      "presented": 7279,
      "0x0000010": 7280,
      "Settlement": 7281,
      "publishing": 7282,
      "Restrict": 7283,
      "consistency": 7284,
      "snippet": 7285,
      "ASA": 7286,
      "ASN": 7287,
      "ASCI": 7288,
      "AzSqlInstance": 7289,
      "commercial": 7290,
      "Removes": 7291,
      "Removing": 7292,
      "PublicFolder": 7293,
      "productivity": 7294,
      "Rotate": 7295,
      "Simulation": 7296,
      "Terminate": 7297,
      "Beginning": 7298,
      "Base64": 7299,
      "HoldOnMailboxes": 7300,
      "skills": 7301,
      "MCDUserActivity": 7302,
      "Automation": 7303,
      "answers": 7304,
      "Telephone": 7305,
      "involves": 7306,
      "Drawer": 7307,
      "ThreatDetection": 7308,
      "estimated": 7309,
      "Encryption": 7310,
      "Relationship": 7311,
      "Bulk": 7312,
      "Fully": 7313,
      "alignment": 7314,
      "Organizations": 7315,
      "recruiting": 7316,
      "vertising": 7317,
      "prototype": 7318,
      "Procedure": 7319,
      "Declaration": 7320,
      "Federated": 7321,
      "mechanism": 7322,
      "Tutorials": 7323,
      "summarized": 7324,
      "Failure": 7325,
      "Configurations": 7326,
      "Agreement": 7327,
      "YOY": 7328,
      "situations": 7329,
      "achieve": 7330,
      "iolk": 7331,
      "mrlearning": 7332,
      "Arrival": 7333,
      "Estonia": 7334,
      "Iceland": 7335,
      "LangID": 7336,
      "launched": 7337,
      "endix": 7338,
      "September": 7339,
      "foreground": 7340,
      "enefici": 7341,
      "ASCII": 7342,
      "02": 7343,
      "71": 7344,
      "79": 7345,
      "BO": 7346,
      "Blo": 7347,
      "BLE": 7348,
      "Bcc": 7349,
      "C1": 7350,
      "Der": 7351,
      "Div": 7352,
      "Emb": 7353,
      "Elig": 7354,
      "GS": 7355,
      "Gate": 7356,
      "Gross": 7357,
      "GEN": 7358,
      "Hire": 7359,
      "Hybrid": 7360,
      "IC": 7361,
      "ISocial": 7362,
      "Kore": 7363,
      "Mig": 7364,
      "OOF": 7365,
      "Pages": 7366,
      "Paint": 7367,
      "PUN": 7368,
      "Ren": 7369,
      "Rating": 7370,
      "Spl": 7371,
      "Same": 7372,
      "Stick": 7373,
      "Sadie": 7374,
      "Tap": 7375,
      "Troubleshooting": 7376,
      "Ub": 7377,
      "Uwp": 7378,
      "VB": 7379,
      "VSS": 7380,
      "Xbox": 7381,
      "XSharing": 7382,
      "YTD": 7383,
      "bur": 7384,
      "browsers": 7385,
      "benefici": 7386,
      "cpp": 7387,
      "grow": 7388,
      "hybrid": 7389,
      "jus": 7390,
      "licens": 7391,
      "mig": 7392,
      "mention": 7393,
      "matrix": 7394,
      "nthe": 7395,
      "omitted": 7396,
      "pt": 7397,
      "pen": 7398,
      "sd": 7399,
      "sandboxed": 7400,
      "tender": 7401,
      "udo": 7402,
      "vary": 7403,
      "vicing": 7404,
      "x8": 7405,
      "zing": 7406,
      "thin": 7407,
      "inity": 7408,
      "incorrect": 7409,
      "erce": 7410,
      "erial": 7411,
      "ergy": 7412,
      "titem": 7413,
      "recall": 7414,
      "rebasing": 7415,
      "ann": 7416,
      "ancing": 7417,
      "eni": 7418,
      "leading": 7419,
      "alth": 7420,
      "alerts": 7421,
      "ised": 7422,
      "oun": 7423,
      "seudo": 7424,
      "quarantine": 7425,
      "stro": 7426,
      "ellow": 7427,
      "deposit": 7428,
      "permanently": 7429,
      "InPrivate": 7430,
      "quotes": 7431,
      "chos": 7432,
      "exclusive": 7433,
      "resize": 7434,
      "upgrade": 7435,
      "plus": 7436,
      "unavailable": 7437,
      "untu": 7438,
      "utral": 7439,
      "folio": 7440,
      "Reb": 7441,
      "Reassign": 7442,
      "Recalculate": 7443,
      "traction": 7444,
      "travel": 7445,
      "diagnostic": 7446,
      "withdrawal": 7447,
      "lique": 7448,
      "Segment": 7449,
      "Deep": 7450,
      "establish": 7451,
      "Thail": 7452,
      "pox": 7453,
      "pools": 7454,
      "super": 7455,
      "elementvisio": 7456,
      "disposal": 7457,
      "ifr": 7458,
      "compression": 7459,
      "competencies": 7460,
      "straight": 7461,
      "ToGroup": 7462,
      "therland": 7463,
      "workbench": 7464,
      "ferent": 7465,
      "contribution": 7466,
      "addnew": 7467,
      "owned": 7468,
      "listen": 7469,
      "preliminary": 7470,
      "locale": 7471,
      "parsing": 7472,
      "Should": 7473,
      "clicked": 7474,
      "atis": 7475,
      "GetInput": 7476,
      "assumed": 7477,
      "assumes": 7478,
      "Tra": 7479,
      "Tracing": 7480,
      "createitem": 7481,
      "Which": 7482,
      "feel": 7483,
      "specifically": 7484,
      "regate": 7485,
      "DOWN": 7486,
      "geometry": 7487,
      "atorKey": 7488,
      "Auxiliary": 7489,
      "Energy": 7490,
      "overall": 7491,
      "overhead": 7492,
      "Disposition": 7493,
      "Disposal": 7494,
      "ImList": 7495,
      "earning": 7496,
      "Accessed": 7497,
      "AccessToken": 7498,
      "Upgrade": 7499,
      "ErrorCannot": 7500,
      "Straight": 7501,
      "00010": 7502,
      "Projects": 7503,
      "scales": 7504,
      "scoring": 7505,
      "scenes": 7506,
      "calculates": 7507,
      "comb": 7508,
      "FolderUserFields": 7509,
      "Requery": 7510,
      "Modifi": 7511,
      "currencies": 7512,
      "visor": 7513,
      "directed": 7514,
      "flat": 7515,
      "writer": 7516,
      "TRAN": 7517,
      "Texture": 7518,
      "SEC": 7519,
      "0x000": 7520,
      "localized": 7521,
      "Keywords": 7522,
      "registering": 7523,
      "packaging": 7524,
      "Searching": 7525,
      "builds": 7526,
      "Without": 7527,
      "therefore": 7528,
      "SpatialPerception": 7529,
      "CoreWebView2Controller": 7530,
      "Importance": 7531,
      "Samples": 7532,
      "Temp": 7533,
      "factors": 7534,
      "stype": 7535,
      "Calls": 7536,
      "Logging": 7537,
      "remot": 7538,
      "ArrayType": 7539,
      "Implementation": 7540,
      "255": 7541,
      "256": 7542,
      "Headers": 7543,
      "DEMF": 7544,
      "Bookmark": 7545,
      "Possible": 7546,
      "closer": 7547,
      "Marking": 7548,
      "affects": 7549,
      "terminal": 7550,
      "sorted": 7551,
      "Guest": 7552,
      "Int64": 7553,
      "certification": 7554,
      "speak": 7555,
      "optionally": 7556,
      "Registers": 7557,
      "Distribute": 7558,
      "Understand": 7559,
      "disables": 7560,
      "rotated": 7561,
      "InboxRules": 7562,
      "personalize": 7563,
      "0x00000000": 7564,
      "continues": 7565,
      "Capacity": 7566,
      "Totals": 7567,
      "NonSend": 7568,
      "Porting": 7569,
      "ffici": 7570,
      "stops": 7571,
      "maintained": 7572,
      "ADR": 7573,
      "Minim": 7574,
      "authoring": 7575,
      "Routing": 7576,
      "Blocked": 7577,
      "SyncFolder": 7578,
      "forwarded": 7579,
      "destinations": 7580,
      "administrators": 7581,
      "HostConfig": 7582,
      "globally": 7583,
      "Comments": 7584,
      "Swed": 7585,
      "drill": 7586,
      "Signature": 7587,
      "Signatures": 7588,
      "slips": 7589,
      "PidNameXSharing": 7590,
      "frequently": 7591,
      "IMLOperatorTensor": 7592,
      "interactable": 7593,
      "identifying": 7594,
      "MCDRemoteSystemAppRegistration": 7595,
      "DistributionList": 7596,
      "ignore": 7597,
      "COUN": 7598,
      "Programming": 7599,
      "CacheSize": 7600,
      "quiry": 7601,
      "Tracked": 7602,
      "Stock": 7603,
      "portion": 7604,
      "Senders": 7605,
      "Confirmed": 7606,
      "flexible": 7607,
      "GetUserAvailability": 7608,
      "Automating": 7609,
      "Shipped": 7610,
      "Helper": 7611,
      "decide": 7612,
      "placeholders": 7613,
      "AzureRmServiceBusAuthorizationRule": 7614,
      "Drawing": 7615,
      "transitions": 7616,
      "Blueprint": 7617,
      "Netherland": 7618,
      "Analyze": 7619,
      "Alternate": 7620,
      "discussion": 7621,
      "Bills": 7622,
      "Foundation": 7623,
      "North": 7624,
      "Norway": 7625,
      "10002": 7626,
      "NSF": 7627,
      "Suggestion": 7628,
      "radi": 7629,
      "XLM": 7630,
      "assortment": 7631,
      "MCDAppServiceConnection": 7632,
      "Experimental": 7633,
      "pixels": 7634,
      "VulnerabilityAssessmentSettings": 7635,
      "VulnerabilityAssessmentSetting": 7636,
      "Credential": 7637,
      "Dedicated": 7638,
      "utility": 7639,
      "enhancements": 7640,
      "Digital": 7641,
      "caching": 7642,
      "fallback": 7643,
      "recorder": 7644,
      "conceptual": 7645,
      "Wait": 7646,
      "capsulation": 7647,
      "opportunity": 7648,
      "Timesheet": 7649,
      "Different": 7650,
      "UNICODE": 7651,
      "Liquidity": 7652,
      "delimiter": 7653,
      "instrumentation": 7654,
      "notified": 7655,
      "Shapes": 7656,
      "Python": 7657,
      "shifts": 7658,
      "Throttling": 7659,
      "Holograms": 7660,
      "comfortable": 7661,
      "Austria": 7662,
      "DialString": 7663,
      "Facility": 7664,
      "Restart": 7665,
      "Walk": 7666,
      "tokens": 7667,
      "AcceleratorKey": 7668,
      "LedgerCovLiquidity": 7669,
      "Eligibility": 7670,
      "Korean": 7671,
      "Ubuntu": 7672,
      "mentioned": 7673,
      "chosen": 7674,
      "Thailand": 7675,
      "TRANS": 7676,
      "Netherlands": 7677,
      "AcceleratorKeyPressed": 7678,
      "04": 7679,
      "10001": 7680,
      "81": 7681,
      "940": 7682,
      "Bet": 7683,
      "Cent": 7684,
      "CON": 7685,
      "CFO": 7686,
      "Cached": 7687,
      "Db": 7688,
      "ES": 7689,
      "Ep": 7690,
      "Ele": 7691,
      "Face": 7692,
      "FAQ": 7693,
      "Fashion": 7694,
      "Gest": 7695,
      "GST": 7696,
      "Have": 7697,
      "Hierarch": 7698,
      "Hash": 7699,
      "Horizontal": 7700,
      "Hung": 7701,
      "IG": 7702,
      "IST": 7703,
      "JScript": 7704,
      "Known": 7705,
      "Light": 7706,
      "Large": 7707,
      "Matrix": 7708,
      "NG": 7709,
      "NAME": 7710,
      "Pi": 7711,
      "Pur": 7712,
      "Pred": 7713,
      "Purch": 7714,
      "Picture": 7715,
      "Pix": 7716,
      "Ra": 7717,
      "Rad": 7718,
      "RSS": 7719,
      "Rename": 7720,
      "Scripting": 7721,
      "TF": 7722,
      "Tent": 7723,
      "TXT": 7724,
      "UA": 7725,
      "Vend": 7726,
      "Wave": 7727,
      "Wire": 7728,
      "bund": 7729,
      "birth": 7730,
      "css": 7731,
      "courses": 7732,
      "effici": 7733,
      "fre": 7734,
      "fence": 7735,
      "fax": 7736,
      "fically": 7737,
      "fuel": 7738,
      "h3": 7739,
      "hl": 7740,
      "hy": 7741,
      "ime": 7742,
      "iunknown": 7743,
      "jav": 7744,
      "lish": 7745,
      "mic": 7746,
      "mas": 7747,
      "magnitude": 7748,
      "ng": 7749,
      "oth": 7750,
      "scop": 7751,
      "src": 7752,
      "tun": 7753,
      "tensor": 7754,
      "troubleshoot": 7755,
      "utilities": 7756,
      "v2": 7757,
      "wor": 7758,
      "water": 7759,
      "yo": 7760,
      "throw": 7761,
      "inform": 7762,
      "ering": 7763,
      "tire": 7764,
      "rep": 7765,
      "rest": 7766,
      "rely": 7767,
      "reuse": 7768,
      "repeating": 7769,
      "leverage": 7770,
      "1201": 7771,
      "allocations": 7772,
      "toward": 7773,
      "icity": 7774,
      "icial": 7775,
      "ousing": 7776,
      "andom": 7777,
      "stere": 7778,
      "stamp": 7779,
      "staff": 7780,
      "ford": 7781,
      "apac": 7782,
      "apore": 7783,
      "debits": 7784,
      "heap": 7785,
      "ament": 7786,
      "ammar": 7787,
      "etary": 7788,
      "chn": 7789,
      "coded": 7790,
      "expose": 7791,
      "exposes": 7792,
      "excluding": 7793,
      "ably": 7794,
      "consume": 7795,
      "adapter": 7796,
      "unsubscribe": 7797,
      "meas": 7798,
      "taking": 7799,
      "Recall": 7800,
      "Rejected": 7801,
      "traditional": 7802,
      "ulatory": 7803,
      "diem": 7804,
      "uming": 7805,
      "opt": 7806,
      "ligh": 7807,
      "observer": 7808,
      "obsolete": 7809,
      "Contrast": 7810,
      "Conditions": 7811,
      "istor": 7812,
      "counted": 7813,
      "sult": 7814,
      "intu": 7815,
      "izable": 7816,
      "auxiliary": 7817,
      "ications": 7818,
      "Advise": 7819,
      "Stat": 7820,
      "workloads": 7821,
      "managers": 7822,
      "modifi": 7823,
      "prem": 7824,
      "pread": 7825,
      "prepar": 7826,
      "ustum": 7827,
      "antt": 7828,
      "Selector": 7829,
      "Unread": 7830,
      "Uninstall": 7831,
      "Unmatched": 7832,
      "parsed": 7833,
      "Shutting": 7834,
      "Chunk": 7835,
      "102": 7836,
      "104": 7837,
      "105": 7838,
      "actor": 7839,
      "TagName": 7840,
      "Assort": 7841,
      "WebDriver": 7842,
      "PidTagDisplay": 7843,
      "PidTagProvider": 7844,
      "PidTagReceived": 7845,
      "Servers": 7846,
      "WindowsRuntime": 7847,
      "Resync": 7848,
      "Descriptor": 7849,
      "accesses": 7850,
      "requiring": 7851,
      "Annivers": 7852,
      "geo": 7853,
      "Disabling": 7854,
      "miss": 7855,
      "Computed": 7856,
      "early": 7857,
      "UserId": 7858,
      "UserAction": 7859,
      "finer": 7860,
      "guest": 7861,
      "ExpandDL": 7862,
      "StartDate": 7863,
      "holes": 7864,
      "cellation": 7865,
      "Arab": 7866,
      "Customize": 7867,
      "dialogs": 7868,
      "Specifically": 7869,
      "Attribution": 7870,
      "Locations": 7871,
      "approx": 7872,
      "approves": 7873,
      "login": 7874,
      "EventHandler": 7875,
      "Symb": 7876,
      "UST": 7877,
      "clearing": 7878,
      "omi": 7879,
      "developed": 7880,
      "Orange": 7881,
      "dispidLog": 7882,
      "autocomplete": 7883,
      "tagarray": 7884,
      "differently": 7885,
      "correspond": 7886,
      "FindPeople": 7887,
      "Verb": 7888,
      "engines": 7889,
      "00000000": 7890,
      "persons": 7891,
      "graphy": 7892,
      "localhost": 7893,
      "vening": 7894,
      "experiment": 7895,
      "SearchConfiguration": 7896,
      "releases": 7897,
      "FromGroup": 7898,
      "yearly": 7899,
      "Parsing": 7900,
      "deployments": 7901,
      "MCDRemote": 7902,
      "MoveTo": 7903,
      "Grammar": 7904,
      "PointerInfo": 7905,
      "replication": 7906,
      "replacing": 7907,
      "indexing": 7908,
      "HTML15": 7909,
      "Ready": 7910,
      "Checking": 7911,
      "executable": 7912,
      "helpful": 7913,
      "lpProp": 7914,
      "icons": 7915,
      "lapsed": 7916,
      "ARPAYM": 7917,
      "lipse": 7918,
      "DEF": 7919,
      "Defining": 7920,
      "Positive": 7921,
      "MarkAs": 7922,
      "enumerations": 7923,
      "integrity": 7924,
      "BASE": 7925,
      "saves": 7926,
      "choosing": 7927,
      "reviews": 7928,
      "Multipurpose": 7929,
      "SDKs": 7930,
      "appropriately": 7931,
      "spective": 7932,
      "Steps": 7933,
      "populates": 7934,
      "OtherAddress": 7935,
      "Backend": 7936,
      "Categor": 7937,
      "launching": 7938,
      "DBEngine": 7939,
      "confirmed": 7940,
      "Blur": 7941,
      "screenshot": 7942,
      "remains": 7943,
      "Agenda": 7944,
      "stopped": 7945,
      "Libraries": 7946,
      "Integer": 7947,
      "measurements": 7948,
      "CompanyName": 7949,
      "Applying": 7950,
      "AnchorMailbox": 7951,
      "Blocking": 7952,
      "organized": 7953,
      "everything": 7954,
      "classify": 7955,
      "activation": 7956,
      "Submitted": 7957,
      "Linked": 7958,
      "queried": 7959,
      "Administrator": 7960,
      "crued": 7961,
      "powered": 7962,
      "translations": 7963,
      "AzureRmEventHub": 7964,
      "Reminders": 7965,
      "Recognition": 7966,
      "English": 7967,
      "Similar": 7968,
      "Programmatically": 7969,
      "warnings": 7970,
      "DiscoverySearchConfiguration": 7971,
      "ImageCssExternal": 7972,
      "Trying": 7973,
      "HomeAddress": 7974,
      "Denied": 7975,
      "NOTI": 7976,
      "Metrics": 7977,
      "Auditing": 7978,
      "Singapore": 7979,
      "photos": 7980,
      "latency": 7981,
      "sproptagarray": 7982,
      "smaller": 7983,
      "couple": 7984,
      "afford": 7985,
      "Interacting": 7986,
      "Analytics": 7987,
      "Recommend": 7988,
      "PidLidEmail2": 7989,
      "PidLidEmail3": 7990,
      "semble": 7991,
      "Encrypted": 7992,
      "Persistence": 7993,
      "elimination": 7994,
      "ResolveNames": 7995,
      "Supply": 7996,
      "PhotonUser": 7997,
      "wrapper": 7998,
      "Credentials": 7999,
      "Latvia": 8000,
      "Declare": 8001,
      "WhiteKing": 8002,
      "bids": 8003,
      "Limit": 8004,
      "Shipment": 8005,
      "belongs": 8006,
      "POP3": 8007,
      "datasheet": 8008,
      "Estimate": 8009,
      "overrides": 8010,
      "VALUE": 8011,
      "isolation": 8012,
      "Eye": 8013,
      "Frequency": 8014,
      "Professional": 8015,
      "Transition": 8016,
      "participants": 8017,
      "PROCE": 8018,
      "Lifecycle": 8019,
      "Utter": 8020,
      "sidel": 8021,
      "orientation": 8022,
      "ARIA": 8023,
      "Aggregate": 8024,
      "enrollment": 8025,
      "NewWindowRequested": 8026,
      "scrap": 8027,
      "pipeline": 8028,
      "assignee": 8029,
      "Roll": 8030,
      "confidence": 8031,
      "circle": 8032,
      "TelephoneAccess": 8033,
      "Sticky": 8034,
      "growth": 8035,
      "iframe": 8036,
      "ADRLIST": 8037,
      "Sweden": 8038,
      "Central": 8039,
      "Pixel": 8040,
      "hlsl": 8041,
      "UserActionState": 8042,
      "09": 8043,
      "72": 8044,
      "800": 8045,
      "AA": 8046,
      "Age": 8047,
      "Bing": 8048,
      "BCC": 8049,
      "Bkg": 8050,
      "CL": 8051,
      "CN": 8052,
      "CP": 8053,
      "Clock": 8054,
      "COR": 8055,
      "Carrier": 8056,
      "Dat": 8057,
      "DCOM": 8058,
      "D0001": 8059,
      "Databases": 8060,
      "ED": 8061,
      "Even": 8062,
      "Elimin": 8063,
      "FG": 8064,
      "FN": 8065,
      "GC": 8066,
      "Gith": 8067,
      "Glow": 8068,
      "Give": 8069,
      "Gra": 8070,
      "Hint": 8071,
      "Hidden": 8072,
      "IF": 8073,
      "Iter": 8074,
      "ITE": 8075,
      "KB": 8076,
      "Languages": 8077,
      "MM": 8078,
      "MV": 8079,
      "Ma": 8080,
      "MUST": 8081,
      "OG": 8082,
      "Offer": 8083,
      "Pres": 8084,
      "Pending": 8085,
      "Rob": 8086,
      "SY": 8087,
      "Sid": 8088,
      "Scan": 8089,
      "Scal": 8090,
      "Scr": 8091,
      "Sandboxed": 8092,
      "TZ": 8093,
      "Treat": 8094,
      "UL": 8095,
      "Welcome": 8096,
      "Yomi": 8097,
      "aled": 8098,
      "batter": 8099,
      "dot": 8100,
      "earch": 8101,
      "front": 8102,
      "gender": 8103,
      "gross": 8104,
      "hot": 8105,
      "hensive": 8106,
      "histor": 8107,
      "irect": 8108,
      "iCalendar": 8109,
      "jec": 8110,
      "mut": 8111,
      "mally": 8112,
      "middle": 8113,
      "nment": 8114,
      "paging": 8115,
      "sam": 8116,
      "sil": 8117,
      "srow": 8118,
      "satis": 8119,
      "tf": 8120,
      "trend": 8121,
      "vince": 8122,
      "wid": 8123,
      "yy": 8124,
      "indirect": 8125,
      "ercise": 8126,
      "tight": 8127,
      "retain": 8128,
      "recalculated": 8129,
      "reversal": 8130,
      "rewebview": 8131,
      "repair": 8132,
      "rehensive": 8133,
      "annot": 8134,
      "lege": 8135,
      "123": 8136,
      "although": 8137,
      "roy": 8138,
      "iso": 8139,
      "enters": 8140,
      "seman": 8141,
      "segments": 8142,
      "arith": 8143,
      "stable": 8144,
      "stars": 8145,
      "iture": 8146,
      "dele": 8147,
      "ascending": 8148,
      "assemblies": 8149,
      "promo": 8150,
      "profession": 8151,
      "prospective": 8152,
      "ambig": 8153,
      "mentary": 8154,
      "ets": 8155,
      "quota": 8156,
      "chall": 8157,
      "iding": 8158,
      "constr": 8159,
      "conversions": 8160,
      "construction": 8161,
      "osc": 8162,
      "reser": 8163,
      "resto": 8164,
      "resub": 8165,
      "resume": 8166,
      "placing": 8167,
      "unused": 8168,
      "unmark": 8169,
      "unsafe": 8170,
      "vertically": 8171,
      "behave": 8172,
      "Proof": 8173,
      "Profiles": 8174,
      "Proposed": 8175,
      "ters": 8176,
      "cimal": 8177,
      "Rec": 8178,
      "Recon": 8179,
      "Recovery": 8180,
      "004": 8181,
      "train": 8182,
      "porting": 8183,
      "Exam": 8184,
      "Express": 8185,
      "Excluded": 8186,
      "lik": 8187,
      "liability": 8188,
      "Selection": 8189,
      "whom": 8190,
      "cler": 8191,
      "Stage": 8192,
      "CreateManagedFolder": 8193,
      "contribute": 8194,
      "PropertyDefinition": 8195,
      "Addr": 8196,
      "Adds": 8197,
      "ordering": 8198,
      "modal": 8199,
      "avat": 8200,
      "buy": 8201,
      "imapi": 8202,
      "Fired": 8203,
      "hasn": 8204,
      "operational": 8205,
      "Sections": 8206,
      "responsi": 8207,
      "responsive": 8208,
      "posing": 8209,
      "ology": 8210,
      "PidTagForm": 8211,
      "reader": 8212,
      "Research": 8213,
      "spend": 8214,
      "spawn": 8215,
      "spelling": 8216,
      "ticle": 8217,
      "Encapsulation": 8218,
      "overwrite": 8219,
      "Dispatch": 8220,
      "baser": 8221,
      "missed": 8222,
      "Transparency": 8223,
      "Remember": 8224,
      "DataView": 8225,
      "130": 8226,
      "Functionality": 8227,
      "naming": 8228,
      "OST": 8229,
      "checking": 8230,
      "finite": 8231,
      "validated": 8232,
      "grammar": 8233,
      "StartTime": 8234,
      "FolderEmail": 8235,
      "International": 8236,
      "PidLidContact": 8237,
      "PidLidReminder": 8238,
      "resulting": 8239,
      "Attendee": 8240,
      "perspective": 8241,
      "Locate": 8242,
      "EdgeDescription": 8243,
      "privacy": 8244,
      "primitive": 8245,
      "depreci": 8246,
      "Operating": 8247,
      "Buy": 8248,
      "Builder": 8249,
      "Costing": 8250,
      "Creative": 8251,
      "wanted": 8252,
      "140000": 8253,
      "capable": 8254,
      "dispidContact": 8255,
      "Finland": 8256,
      "Prices": 8257,
      "Pricing": 8258,
      "Commerce": 8259,
      "correction": 8260,
      "phys": 8261,
      "LineGradient": 8262,
      "FindItem": 8263,
      "engagement": 8264,
      "Diagnostics": 8265,
      "00004": 8266,
      "someone": 8267,
      "idea": 8268,
      "Posted": 8269,
      "underworld": 8270,
      "StateChanged": 8271,
      "packed": 8272,
      "experimental": 8273,
      "Motion": 8274,
      "Moves": 8275,
      "crue": 8276,
      "Withholding": 8277,
      "fraction": 8278,
      "Party": 8279,
      "programmer": 8280,
      "behaves": 8281,
      "ALOG": 8282,
      "LETE": 8283,
      "sequently": 8284,
      "MoveFolder": 8285,
      "Listen": 8286,
      "indexable": 8287,
      "Important": 8288,
      "Responsibilities": 8289,
      "Reader": 8290,
      "INTER": 8291,
      "simulated": 8292,
      "ProcessFailed": 8293,
      "ictures": 8294,
      "Identification": 8295,
      "lpp": 8296,
      "RED": 8297,
      "REG": 8298,
      "REQ": 8299,
      "Receiver": 8300,
      "contexts": 8301,
      "internally": 8302,
      "Replenish": 8303,
      "Replica": 8304,
      "RemoveImGroup": 8305,
      "Feed": 8306,
      "Printing": 8307,
      "retrieves": 8308,
      "ResourceId": 8309,
      "Allows": 8310,
      "ResponseStatus": 8311,
      "Market": 8312,
      "sheets": 8313,
      "ATH": 8314,
      "enumerated": 8315,
      "PowerApp": 8316,
      "consideration": 8317,
      "stit": 8318,
      "Creditor": 8319,
      "resolving": 8320,
      "LockTheme": 8321,
      "Navigates": 8322,
      "Relative": 8323,
      "Reload": 8324,
      "initializes": 8325,
      "restrict": 8326,
      "reviewed": 8327,
      "StorageAccount": 8328,
      "Jobs": 8329,
      "icorewebview": 8330,
      "teams": 8331,
      "infrastructure": 8332,
      "Distance": 8333,
      "GettingStarted": 8334,
      "Uniform": 8335,
      "Scheduled": 8336,
      "ENTI": 8337,
      "UNS": 8338,
      "Static": 8339,
      "Operators": 8340,
      "fixes": 8341,
      "suppl": 8342,
      "suppose": 8343,
      "suppress": 8344,
      "FillGradient": 8345,
      "BIT": 8346,
      "Modifying": 8347,
      "manifests": 8348,
      "recognize": 8349,
      "Breakpoint": 8350,
      "UTH": 8351,
      "BevelTop": 8352,
      "PCs": 8353,
      "dependency": 8354,
      "organize": 8355,
      "persisted": 8356,
      "persistent": 8357,
      "increases": 8358,
      "Choosing": 8359,
      "actuals": 8360,
      "Verifying": 8361,
      "0x0000060": 8362,
      "Hosting": 8363,
      "Redirect": 8364,
      "Topic": 8365,
      "weights": 8366,
      "Maintaining": 8367,
      "pidlidtask": 8368,
      "Administration": 8369,
      "ctively": 8370,
      "dragg": 8371,
      "ACR": 8372,
      "Signed": 8373,
      "comparisons": 8374,
      "erequisite": 8375,
      "Picking": 8376,
      "masks": 8377,
      "ScaleFactor": 8378,
      "BrowserVersion": 8379,
      "invoke": 8380,
      "DistributionGroup": 8381,
      "PullUp": 8382,
      "controlling": 8383,
      "proxies": 8384,
      "writable": 8385,
      "ResetPIN": 8386,
      "contracts": 8387,
      "Corresponds": 8388,
      "DIALOG": 8389,
      "tolerances": 8390,
      "110110": 8391,
      "Small": 8392,
      "flexibility": 8393,
      "convention": 8394,
      "Continu": 8395,
      "DevtoolsGuide": 8396,
      "Neutral": 8397,
      "discrete": 8398,
      "PlayOnPhoneDialString": 8399,
      "OFFI": 8400,
      "clauses": 8401,
      "timesheets": 8402,
      "SurfaceObserver": 8403,
      "decisions": 8404,
      "Synchronizing": 8405,
      "CHAR": 8406,
      "ICoreWebView2Deferral": 8407,
      "qualified": 8408,
      "Disconnecting": 8409,
      "Collected": 8410,
      "XML565": 8411,
      "PidLidEmail1": 8412,
      "Below": 8413,
      "OofStatus": 8414,
      "Persisting": 8415,
      "elimin": 8416,
      "composed": 8417,
      "modifications": 8418,
      "AttendeesString": 8419,
      "Bullet": 8420,
      "Sampling": 8421,
      "juice": 8422,
      "directives": 8423,
      "funds": 8424,
      "kinds": 8425,
      "relies": 8426,
      "Restricted": 8427,
      "encryption": 8428,
      "Invoke": 8429,
      "Optimize": 8430,
      "parenthe": 8431,
      "schemas": 8432,
      "effort": 8433,
      "Greeting": 8434,
      "ROW": 8435,
      "Consolidation": 8436,
      "Cookies": 8437,
      "Poland": 8438,
      "ENTRYID": 8439,
      "Salaries": 8440,
      "potential": 8441,
      "potentially": 8442,
      "Estimated": 8443,
      "Composition": 8444,
      "float16": 8445,
      "Teams": 8446,
      "walls": 8447,
      "computations": 8448,
      "Measurement": 8449,
      "Classification": 8450,
      "Geographic": 8451,
      "focused": 8452,
      "WebMessageReceived": 8453,
      "Quota": 8454,
      "Friends": 8455,
      "insights": 8456,
      "Compatibility": 8457,
      "DevToolsProtocolEvent": 8458,
      "CountryCode": 8459,
      "SchemeIndex": 8460,
      "Sensitive": 8461,
      "onymous": 8462,
      "PidTagRtf": 8463,
      "FLAT": 8464,
      "SRowSet": 8465,
      "cident": 8466,
      "compiler": 8467,
      "assessed": 8468,
      "Numeric": 8469,
      "affiliation": 8470,
      "XSLT": 8471,
      "Derived": 8472,
      "Embed": 8473,
      "Gateway": 8474,
      "VBScript": 8475,
      "combine": 8476,
      "Modifier": 8477,
      "SEC7": 8478,
      "COUNT": 8479,
      "Hungary": 8480,
      "javascript": 8481,
      "scopes": 8482,
      "amentals": 8483,
      "lighting": 8484,
      "approxim": 8485,
      "TelephoneAccessFolderEmail": 8486,
      "Bkgnd": 8487,
      "Github": 8488,
      "Grade": 8489,
      "Major": 8490,
      "historical": 8491,
      "sampling": 8492,
      "ambiguous": 8493,
      "14000056": 8494,
      "icorewebview2": 8495,
      "2B": 8496,
      "310": 8497,
      "450": 8498,
      "77": 8499,
      "78": 8500,
      "Aware": 8501,
      "ATP": 8502,
      "AUTH": 8503,
      "Birth": 8504,
      "Cabinet": 8505,
      "Dan": 8506,
      "Dom": 8507,
      "DURE": 8508,
      "EC": 8509,
      "EID": 8510,
      "Edition": 8511,
      "Equal": 8512,
      "ECF": 8513,
      "GO": 8514,
      "GT": 8515,
      "GU": 8516,
      "Gantt": 8517,
      "Hou": 8518,
      "Hiring": 8519,
      "HRTF": 8520,
      "II": 8521,
      "IL": 8522,
      "Isol": 8523,
      "Its": 8524,
      "ICS": 8525,
      "Jul": 8526,
      "LY": 8527,
      "Ligh": 8528,
      "MP": 8529,
      "NA": 8530,
      "NUR": 8531,
      "NASA": 8532,
      "OB": 8533,
      "PV": 8534,
      "PRE": 8535,
      "PAR": 8536,
      "Pwa": 8537,
      "Rew": 8538,
      "Round": 8539,
      "RGB": 8540,
      "SV": 8541,
      "SMAPI": 8542,
      "Still": 8543,
      "T00": 8544,
      "Uses": 8545,
      "VER": 8546,
      "Wed": 8547,
      "WCF": 8548,
      "XSD": 8549,
      "aa": 8550,
      "award": 8551,
      "bb": 8552,
      "bot": 8553,
      "border": 8554,
      "cles": 8555,
      "cros": 8556,
      "cub": 8557,
      "catch": 8558,
      "dt": 8559,
      "eth": 8560,
      "fx": 8561,
      "hit": 8562,
      "held": 8563,
      "hav": 8564,
      "ious": 8565,
      "jQuery": 8566,
      "lot": 8567,
      "lang": 8568,
      "mag": 8569,
      "mill": 8570,
      "miti": 8571,
      "nil": 8572,
      "npm": 8573,
      "ope": 8574,
      "pag": 8575,
      "phas": 8576,
      "pseudo": 8577,
      "rg": 8578,
      "random": 8579,
      "sis": 8580,
      "sci": 8581,
      "smapi": 8582,
      "sEnabled": 8583,
      "sensor": 8584,
      "tz": 8585,
      "tries": 8586,
      "utili": 8587,
      "vector": 8588,
      "xlt": 8589,
      "yline": 8590,
      "yellow": 8591,
      "intr": 8592,
      "independ": 8593,
      "independent": 8594,
      "injury": 8595,
      "insufficient": 8596,
      "ero": 8597,
      "eries": 8598,
      "tiles": 8599,
      "reload": 8600,
      "redirection": 8601,
      "reboot": 8602,
      "anet": 8603,
      "enfor": 8604,
      "enough": 8605,
      "leaving": 8606,
      "topo": 8607,
      "toast": 8608,
      "street": 8609,
      "acquire": 8610,
      "loan": 8611,
      "deal": 8612,
      "debu": 8613,
      "degradation": 8614,
      "assumption": 8615,
      "heel": 8616,
      "hex64": 8617,
      "prob": 8618,
      "perf": 8619,
      "atever": 8620,
      "Into": 8621,
      "Injury": 8622,
      "Includes": 8623,
      "usual": 8624,
      "abstr": 8625,
      "emit": 8626,
      "contoso": 8627,
      "ads": 8628,
      "resync": 8629,
      "peg": 8630,
      "pegging": 8631,
      "ups": 8632,
      "six": 8633,
      "undefined": 8634,
      "versing": 8635,
      "verified": 8636,
      "Prohibited": 8637,
      "meable": 8638,
      "vey": 8639,
      "fold": 8640,
      "uler": 8641,
      "cancellation": 8642,
      "dience": 8643,
      "diffic": 8644,
      "portfolio": 8645,
      "Extra": 8646,
      "Exceeded": 8647,
      "selector": 8648,
      "Consignment": 8649,
      "shal": 8650,
      "Deb": 8651,
      "duty": 8652,
      "SetHoldOnMailboxes": 8653,
      "SetOofStatus": 8654,
      "SetTelephoneAccessFolderEmail": 8655,
      "discard": 8656,
      "disabling": 8657,
      "disconnected": 8658,
      "Station": 8659,
      "Accep": 8660,
      "Acquire": 8661,
      "PropertyId": 8662,
      "manages": 8663,
      "CanGo": 8664,
      "redraw": 8665,
      "listening": 8666,
      "prevention": 8667,
      "velope": 8668,
      "transmission": 8669,
      "foot": 8670,
      "Fires": 8671,
      "Unavailable": 8672,
      "Shar": 8673,
      "MicrosoftPartner": 8674,
      "Apple": 8675,
      "GetIm": 8676,
      "GetString": 8677,
      "GetCall": 8678,
      "GetClient": 8679,
      "GetEvents": 8680,
      "GetConversation": 8681,
      "GetDiscoverySearchConfiguration": 8682,
      "commodity": 8683,
      "ledge": 8684,
      "assist": 8685,
      "Training": 8686,
      "Traditional": 8687,
      "PidTagContent": 8688,
      "PidTagContainer": 8689,
      "PidTagOrigin": 8690,
      "minute": 8691,
      "readable": 8692,
      "FormProp": 8693,
      "Resume": 8694,
      "spacing": 8695,
      "IDLE": 8696,
      "attenu": 8697,
      "subset": 8698,
      "subtree": 8699,
      "subtract": 8700,
      "regulatory": 8701,
      "signing": 8702,
      "getitem": 8703,
      "recordsets": 8704,
      "impos": 8705,
      "displayname": 8706,
      "bases": 8707,
      "Img": 8708,
      "Accountant": 8709,
      "Comparison": 8710,
      "Scripts": 8711,
      "00011": 8712,
      "00016": 8713,
      "checklist": 8714,
      "AzVM": 8715,
      "documented": 8716,
      "Attr": 8717,
      "AtPriority": 8718,
      "Visibility": 8719,
      "Questions": 8720,
      "ategies": 8721,
      "ImageConsole": 8722,
      "ImageSelecting": 8723,
      "olicitation": 8724,
      "ERE": 8725,
      "Permeable": 8726,
      "comfort": 8727,
      "relate": 8728,
      "Providing": 8729,
      "HoloLens2": 8730,
      "official": 8731,
      "Locator": 8732,
      "Locale": 8733,
      "Along": 8734,
      "DATE": 8735,
      "DATA": 8736,
      "Generation": 8737,
      "Edgehtml": 8738,
      "timing": 8739,
      "vised": 8740,
      "Span": 8741,
      "Spam": 8742,
      "Spacing": 8743,
      "existence": 8744,
      "partners": 8745,
      "ShapePermeable": 8746,
      "rollup": 8747,
      "143": 8748,
      "dispidWorkAddress": 8749,
      "covered": 8750,
      "Lost": 8751,
      "AllItems": 8752,
      "JsStart": 8753,
      "JsArrayType": 8754,
      "phones": 8755,
      "200110": 8756,
      "LineWeight": 8757,
      "Finding": 8758,
      "FindConversation": 8759,
      "Vert": 8760,
      "00001": 8761,
      "00006": 8762,
      "Indicator": 8763,
      "financially": 8764,
      "PostOffice": 8765,
      "passing": 8766,
      "spatialize": 8767,
      "Prefix": 8768,
      "Searches": 8769,
      "FileName": 8770,
      "queues": 8771,
      "integers": 8772,
      "frustum": 8773,
      "Overr": 8774,
      "Overtime": 8775,
      "isecond": 8776,
      "hosts": 8777,
      "programmatic": 8778,
      "behavi": 8779,
      "Abs": 8780,
      "Listener": 8781,
      "Grant": 8782,
      "creditor": 8783,
      "exports": 8784,
      "shipments": 8785,
      "Shows": 8786,
      "INT": 8787,
      "DocumentStateChanged": 8788,
      "Scenes": 8789,
      "ameras": 8790,
      "509": 8791,
      "refund": 8792,
      "Logs": 8793,
      "Login": 8794,
      "SDN": 8795,
      "SendTo": 8796,
      "AndPhoto": 8797,
      "bars": 8798,
      "sendable": 8799,
      "IPF": 8800,
      "meter": 8801,
      "DEN": 8802,
      "DELETE": 8803,
      "Streaming": 8804,
      "Flush": 8805,
      "ResponseMessage": 8806,
      "closure": 8807,
      "Calendars": 8808,
      "strongly": 8809,
      "boundaries": 8810,
      "PowerBI": 8811,
      "termination": 8812,
      "ONG": 8813,
      "Prior": 8814,
      "Privacy": 8815,
      "Parts": 8816,
      "blind": 8817,
      "HTTP40": 8818,
      "BAS": 8819,
      "Navigating": 8820,
      "astern": 8821,
      "initializing": 8822,
      "settlements": 8823,
      "Inspecting": 8824,
      "ActiveCommand": 8825,
      "PAGE": 8826,
      "separately": 8827,
      "FICATION": 8828,
      "launcher": 8829,
      "divided": 8830,
      "respondents": 8831,
      "OriginalEntryId": 8832,
      "Installation": 8833,
      "InstallApp": 8834,
      "evaluating": 8835,
      "ExternalSharing": 8836,
      "Staff": 8837,
      "HolographicSpace": 8838,
      "9999": 8839,
      "ANT": 8840,
      "Budgeting": 8841,
      "Platforms": 8842,
      "consolidations": 8843,
      "Boxes": 8844,
      "FillForegnd": 8845,
      "Initializes": 8846,
      "ExportItems": 8847,
      "Dynamic": 8848,
      "uploaded": 8849,
      "LaunchUri": 8850,
      "triggering": 8851,
      "prompts": 8852,
      "OfWeek": 8853,
      "TargetDedicated": 8854,
      "authority": 8855,
      "Guidance": 8856,
      "TransactionsGroups": 8857,
      "DeliveryReport": 8858,
      "optimizations": 8859,
      "SyncState": 8860,
      "BevelBottom": 8861,
      "Architecture": 8862,
      "captured": 8863,
      "Integrity": 8864,
      "MSApp": 8865,
      "failures": 8866,
      "recordings": 8867,
      "Heap": 8868,
      "PUTE": 8869,
      "shaders": 8870,
      "SentTo": 8871,
      "suggest": 8872,
      "0x0000040": 8873,
      "Characters": 8874,
      "students": 8875,
      "Channels": 8876,
      "Months": 8877,
      "translate": 8878,
      "obtained": 8879,
      "aggregation": 8880,
      "AppointmentMeet": 8881,
      "VideoAndPhoto": 8882,
      "Updatable": 8883,
      "smart": 8884,
      "Effects": 8885,
      "IMLOperatorShape": 8886,
      "interacting": 8887,
      "Downloading": 8888,
      "BrowserArguments": 8889,
      "RouteStyle": 8890,
      "csv": 8891,
      "Simulator": 8892,
      "combined": 8893,
      "Own": 8894,
      "attempts": 8895,
      "proxim": 8896,
      "ediate": 8897,
      "traffic": 8898,
      "traversal": 8899,
      "illustrates": 8900,
      "continuous": 8901,
      "Evaluating": 8902,
      "NOT": 8903,
      "NOTE": 8904,
      "datac": 8905,
      "rejects": 8906,
      "visioning": 8907,
      "facilities": 8908,
      "UnifiedMessaging": 8909,
      "delegation": 8910,
      "Argument": 8911,
      "GetUserOofSettings": 8912,
      "Introdu": 8913,
      "weatherdata": 8914,
      "Emulation": 8915,
      "deliveries": 8916,
      "Expressions": 8917,
      "analytics": 8918,
      "expired": 8919,
      "Scenarios": 8920,
      "estimate": 8921,
      "PlayOnPhoneGreeting": 8922,
      "QueryDefs": 8923,
      "digitally": 8924,
      "GET": 8925,
      "sensitivity": 8926,
      "enhanced": 8927,
      "UploadItems": 8928,
      "switching": 8929,
      "RFQs": 8930,
      "accordingly": 8931,
      "discussed": 8932,
      "Hourly": 8933,
      "commissions": 8934,
      "XML564": 8935,
      "XML560": 8936,
      "prioriti": 8937,
      "Deletes": 8938,
      "interpret": 8939,
      "walks": 8940,
      "composite": 8941,
      "MOVE": 8942,
      "MixedRealityToolkit": 8943,
      "ratings": 8944,
      "PostalCode": 8945,
      "XLOPER": 8946,
      "Shadow": 8947,
      "Optimization": 8948,
      "CALL": 8949,
      "Schemas": 8950,
      "accelerated": 8951,
      "dispidFax1": 8952,
      "dispidFax2": 8953,
      "FTEs": 8954,
      "declared": 8955,
      "PidLidFax2": 8956,
      "prediction": 8957,
      "peripheral": 8958,
      "meets": 8959,
      "simulators": 8960,
      "MCDUserNotificationUserActionState": 8961,
      "IotStartup": 8962,
      "clipboard": 8963,
      "Declarations": 8964,
      "Serialized": 8965,
      "Improve": 8966,
      "Improving": 8967,
      "finishes": 8968,
      "caches": 8969,
      "painting": 8970,
      "datasource": 8971,
      "encil": 8972,
      "Composite": 8973,
      "Translation": 8974,
      "CreationContext": 8975,
      "splash": 8976,
      "deadline": 8977,
      "protected": 8978,
      "GetRooms": 8979,
      "GetRoomLists": 8980,
      "RetentionPolicy": 8981,
      "AppxManifest": 8982,
      "CheckedIn": 8983,
      "Immediate": 8984,
      "truncated": 8985,
      "Conflict": 8986,
      "APPX": 8987,
      "Shortcut": 8988,
      "ErrCheck": 8989,
      "Reduce": 8990,
      "IMLOperatorKernelCreationContext": 8991,
      "coupons": 8992,
      "plugins": 8993,
      "normally": 8994,
      "examining": 8995,
      "marshaling": 8996,
      "IOlkAccount": 8997,
      "Float": 8998,
      "captures": 8999,
      "Detecting": 9000,
      "Gives": 9001,
      "Marshal": 9002,
      "government": 9003,
      "milestone": 9004,
      "tells": 9005,
      "accomplish": 9006,
      "AppXManifest": 9007,
      "Multiplicity": 9008,
      "BalancedVideoAndPhoto": 9009,
      "Renamed": 9010,
      "burse": 9011,
      "beneficiary": 9012,
      "justification": 9013,
      "licensing": 9014,
      "eniority": 9015,
      "EnergyHub": 9016,
      "remotely": 9017,
      "radians": 9018,
      "Walkthrough": 9019,
      "Purpose": 9020,
      "Purchasing": 9021,
      "bundle": 9022,
      "intuitive": 9023,
      "Arabic": 9024,
      "MCDRemoteLaunchUri": 9025,
      "PROCEDURE": 9026,
      "Datas": 9027,
      "Hints": 9028,
      "likely": 9029,
      "parentheses": 9030,
      "CompositionController": 9031,
      "Awareness": 9032,
      "Houston": 9033,
      "Lighting": 9034,
      "NURBS": 9035,
      "Reward": 9036,
      "haven": 9037,
      "millisecond": 9038,
      "xltype": 9039,
      "independently": 9040,
      "topolog": 9041,
      "MicrosoftPartnerCenter": 9042,
      "GetCallInfo": 9043,
      "GetConversationItems": 9044,
      "PostOfficeBox": 9045,
      "MCDRemoteLaunchUriStatus": 9046,
      "milliseconds": 9047,
      "3d": 9048,
      "360": 9049,
      "700": 9050,
      "85": 9051,
      "88": 9052,
      "ALL": 9053,
      "ACC": 9054,
      "AAD": 9055,
      "A0001": 9056,
      "AGE": 9057,
      "BR": 9058,
      "Bash": 9059,
      "BPM": 9060,
      "C2": 9061,
      "Cat": 9062,
      "Dont": 9063,
      "Dictionary": 9064,
      "DUNS": 9065,
      "Edu": 9066,
      "Either": 9067,
[...]
