{
  "version": "1.0",
  "truncation": null,
  "padding": null,
  "added_tokens": [
    {
      "id": 0,
      "content": "[UNK]",
      "single_word": false,
      "lstrip": false,
      "rstrip": false,
      "normalized": false,
      "special": true
    },
    {
      "id": 1,
      "content": "[PAD]",
      "single_word": false,
      "lstrip": false,
      "rstrip": false,
      "normalized": false,
      "special": true
    },
    {
      "id": 2,
      "content": "[BOS]",
      "single_word": false,
      "lstrip": false,
      "rstrip": false,
      "normalized": false,
      "special": true
    },
    {
      "id": 3,
      "content": "[EOS]",
      "single_word": false,
      "lstrip": false,
      "rstrip": false,
      "normalized": false,
      "special": true
    }
  ],
  "normalizer": null,
  "pre_tokenizer": {
    "type": "Whitespace"
  },
  "post_processor": null,
  "decoder": null,
  "model": {
    "type": "BPE",
    "dropout": null,
    "unk_token": "[UNK]",
    "continuing_subword_prefix": null,
    "end_of_word_suffix": null,
    "fuse_unk": false,
    "vocab": {
      "[UNK]": 0,
      "[PAD]": 1,
      "[BOS]": 2,
      "[EOS]": 3,
      "!": 4,
      "#": 5,
      "$": 6,
      "%": 7,
      "&": 8,
      "(": 9,
      ")": 10,
      "*": 11,
      "+": 12,
      ",": 13,
      "-": 14,
      ".": 15,
      "/": 16,
      "0": 17,
      "1": 18,
      "2": 19,
      "3": 20,
      "4": 21,
      "5": 22,
      "6": 23,
      "7": 24,
      "8": 25,
      "9": 26,
      ":": 27,
      ";": 28,
      "=": 29,
      "?": 30,
      "@": 31,
      "A": 32,
      "B": 33,
      "C": 34,
      "D": 35,
      "E": 36,
      "F": 37,
      "G": 38,
      "H": 39,
      "I": 40,
      "J": 41,
      "K": 42,
      "L": 43,
      "M": 44,
      "N": 45,
      "O": 46,
      "P": 47,
      "Q": 48,
      "R": 49,
      "S": 50,
      "T": 51,
      "U": 52,
      "V": 53,
      "W": 54,
      "X": 55,
      "Y": 56,
      "Z": 57,
      "\\": 58,
      "^": 59,
      "_": 60,
      "`": 61,
      "a": 62,
      "b": 63,
      "c": 64,
      "d": 65,
      "e": 66,
      "f": 67,
      "g": 68,
      "h": 69,
      "i": 70,
      "j": 71,
      "k": 72,
      "l": 73,
      "m": 74,
      "n": 75,
      "o": 76,
      "p": 77,
      "q": 78,
      "r": 79,
      "s": 80,
      "t": 81,
      "u": 82,
      "v": 83,
      "w": 84,
      "x": 85,
      "y": 86,
      "z": 87,
      "{": 88,
      "}": 89,
      "~": 90,
      "": 91,
      "§": 92,
      "©": 93,
      "®": 94,
      "°": 95,
      "²": 96,
      "·": 97,
      "×": 98,
      "÷": 99,
      "–": 100,
      "—": 101,
      "‘": 102,
      "’": 103,
      "“": 104,
      "”": 105,
      "†": 106,
      "‡": 107,
      "•": 108,
      "…": 109,
      "−": 110,
      "✅": 111,
      "✔": 112,
      "❌": 113,
      "、": 114,
      "。": 115,
      "《": 116,
      "》": 117,
      "一": 118,
      "丁": 119,
      "七": 120,
      "万": 121,
      "三": 122,
      "上": 123,
      "下": 124,
      "不": 125,
      "与": 126,
      "专": 127,
      "且": 128,
      "世": 129,
      "业": 130,
      "东": 131,
      "丝": 132,
      "丢": 133,
      "两": 134,
      "严": 135,
      "丧": 136,
      "个": 137,
      "中": 138,
      "丰": 139,
      "串": 140,
      "临": 141,
      "丹": 142,
      "为": 143,
      "主": 144,
      "举": 145,
      "久": 146,
      "么": 147,
      "义": 148,
      "之": 149,
      "乌": 150,
      "乎": 151,
      "乐": 152,
      "乘": 153,
      "九": 154,
      "也": 155,
      "习": 156,
      "书": 157,
      "买": 158,
      "乱": 159,
      "了": 160,
      "予": 161,
      "争": 162,
      "事": 163,
      "二": 164,
      "于": 165,
      "云": 166,
      "互": 167,
      "五": 168,
      "井": 169,
      "亚": 170,
      "些": 171,
      "亡": 172,
      "交": 173,
      "亦": 174,
      "产": 175,
      "享": 176,
      "京": 177,
      "亮": 178,
      "亲": 179,
      "亵": 180,
      "人": 181,
      "什": 182,
      "仅": 183,
      "今": 184,
      "介": 185,
      "仍": 186,
      "从": 187,
      "仑": 188,
      "仓": 189,
      "仔": 190,
      "他": 191,
      "付": 192,
      "代": 193,
      "令": 194,
      "以": 195,
      "仪": 196,
      "们": 197,
      "仲": 198,
      "件": 199,
      "价": 200,
      "任": 201,
      "份": 202,
      "仿": 203,
      "企": 204,
      "伊": 205,
      "伍": 206,
      "伐": 207,
      "休": 208,
      "众": 209,
      "优": 210,
      "伙": 211,
      "会": 212,
      "传": 213,
      "伤": 214,
      "伪": 215,
      "伯": 216,
      "估": 217,
      "伴": 218,
      "伸": 219,
      "似": 220,
      "伽": 221,
      "但": 222,
      "位": 223,
      "低": 224,
      "住": 225,
      "体": 226,
      "何": 227,
      "余": 228,
      "佛": 229,
      "作": 230,
      "你": 231,
      "佣": 232,
      "佳": 233,
      "使": 234,
      "例": 235,
      "供": 236,
      "依": 237,
      "侣": 238,
      "侦": 239,
      "侧": 240,
      "侵": 241,
      "便": 242,
      "促": 243,
      "俄": 244,
      "俗": 245,
      "保": 246,
      "信": 247,
      "俨": 248,
      "修": 249,
      "倍": 250,
      "倒": 251,
      "候": 252,
      "借": 253,
      "债": 254,
      "值": 255,
      "倾": 256,
      "假": 257,
      "偏": 258,
      "做": 259,
      "停": 260,
      "健": 261,
      "偶": 262,
      "偿": 263,
      "储": 264,
      "催": 265,
      "像": 266,
      "僧": 267,
      "儿": 268,
      "允": 269,
      "元": 270,
      "充": 271,
      "先": 272,
      "光": 273,
      "克": 274,
      "免": 275,
      "兑": 276,
      "入": 277,
      "全": 278,
      "八": 279,
      "公": 280,
      "六": 281,
      "兰": 282,
      "共": 283,
      "关": 284,
      "兴": 285,
      "其": 286,
      "具": 287,
      "典": 288,
      "兹": 289,
      "养": 290,
      "兼": 291,
      "内": 292,
      "册": 293,
      "再": 294,
      "冒": 295,
      "冗": 296,
      "写": 297,
      "军": 298,
      "农": 299,
      "冰": 300,
      "冲": 301,
      "决": 302,
      "况": 303,
      "冻": 304,
      "净": 305,
      "准": 306,
      "减": 307,
      "凑": 308,
      "凝": 309,
      "几": 310,
      "凡": 311,
      "凭": 312,
      "凸": 313,
      "凹": 314,
      "出": 315,
      "击": 316,
      "函": 317,
      "刀": 318,
      "分": 319,
      "切": 320,
      "划": 321,
      "列": 322,
      "则": 323,
      "刚": 324,
      "创": 325,
      "初": 326,
      "删": 327,
      "判": 328,
      "利": 329,
      "别": 330,
      "到": 331,
      "制": 332,
      "刷": 333,
      "券": 334,
      "刺": 335,
      "刻": 336,
      "剂": 337,
      "削": 338,
      "前": 339,
      "剔": 340,
      "剖": 341,
      "剥": 342,
      "剧": 343,
      "剩": 344,
      "剪": 345,
      "副": 346,
      "割": 347,
      "力": 348,
      "办": 349,
      "功": 350,
      "加": 351,
      "务": 352,
      "劣": 353,
      "动": 354,
      "助": 355,
      "努": 356,
      "励": 357,
      "劳": 358,
      "势": 359,
      "勘": 360,
      "勤": 361,
      "勾": 362,
      "勿": 363,
      "匀": 364,
      "包": 365,
      "匈": 366,
      "化": 367,
      "北": 368,
      "匹": 369,
      "区": 370,
      "医": 371,
      "匿": 372,
      "十": 373,
      "千": 374,
      "升": 375,
      "午": 376,
      "半": 377,
      "华": 378,
      "协": 379,
      "单": 380,
      "卖": 381,
      "南": 382,
      "博": 383,
      "占": 384,
      "卡": 385,
      "卢": 386,
      "卫": 387,
      "印": 388,
      "危": 389,
      "即": 390,
      "却": 391,
      "卷": 392,
      "卸": 393,
      "厂": 394,
      "厄": 395,
      "厅": 396,
      "历": 397,
      "压": 398,
      "厘": 399,
      "厚": 400,
      "原": 401,
      "厨": 402,
      "去": 403,
      "县": 404,
      "参": 405,
      "又": 406,
      "叉": 407,
      "及": 408,
      "友": 409,
      "双": 410,
      "反": 411,
      "发": 412,
      "取": 413,
      "受": 414,
      "变": 415,
      "叙": 416,
      "叠": 417,
      "口": 418,
      "古": 419,
      "句": 420,
      "另": 421,
      "只": 422,
      "叫": 423,
      "可": 424,
      "台": 425,
      "史": 426,
      "右": 427,
      "号": 428,
      "司": 429,
      "叹": 430,
      "各": 431,
      "合": 432,
      "吉": 433,
      "吊": 434,
      "同": 435,
      "名": 436,
      "后": 437,
      "吐": 438,
      "向": 439,
      "吗": 440,
      "吞": 441,
      "吠": 442,
      "否": 443,
      "吧": 444,
      "含": 445,
      "听": 446,
      "启": 447,
      "吸": 448,
      "呈": 449,
      "告": 450,
      "员": 451,
      "呢": 452,
      "周": 453,
      "味": 454,
      "呼": 455,
      "命": 456,
      "和": 457,
      "咨": 458,
      "品": 459,
      "哄": 460,
      "哈": 461,
      "响": 462,
      "哥": 463,
      "哪": 464,
      "唤": 465,
      "售": 466,
      "唯": 467,
      "商": 468,
      "善": 469,
      "喜": 470,
      "喝": 471,
      "喷": 472,
      "嗅": 473,
      "嘈": 474,
      "嘟": 475,
      "器": 476,
      "噪": 477,
      "四": 478,
      "回": 479,
      "因": 480,
      "团": 481,
      "困": 482,
      "围": 483,
      "固": 484,
      "国": 485,
      "图": 486,
      "圆": 487,
      "圈": 488,
      "土": 489,
      "在": 490,
      "地": 491,
      "场": 492,
      "圾": 493,
      "址": 494,
      "均": 495,
      "坏": 496,
      "坐": 497,
      "块": 498,
      "坚": 499,
      "坡": 500,
      "坦": 501,
      "垂": 502,
      "垃": 503,
      "型": 504,
      "城": 505,
      "域": 506,
      "培": 507,
      "基": 508,
      "堂": 509,
      "堆": 510,
      "塑": 511,
      "塔": 512,
      "塞": 513,
      "填": 514,
      "境": 515,
      "墙": 516,
      "增": 517,
      "墨": 518,
      "壁": 519,
      "士": 520,
      "声": 521,
      "壳": 522,
      "处": 523,
      "备": 524,
      "复": 525,
      "夏": 526,
      "外": 527,
      "多": 528,
      "夜": 529,
      "够": 530,
      "大": 531,
      "天": 532,
      "太": 533,
      "失": 534,
      "头": 535,
      "夷": 536,
      "夹": 537,
      "夺": 538,
      "奇": 539,
      "奋": 540,
      "契": 541,
      "奖": 542,
      "套": 543,
      "奥": 544,
      "女": 545,
      "她": 546,
      "好": 547,
      "如": 548,
      "妙": 549,
      "妨": 550,
      "姆": 551,
      "始": 552,
      "姓": 553,
      "委": 554,
      "姻": 555,
      "姿": 556,
      "威": 557,
      "娃": 558,
      "娜": 559,
      "娱": 560,
      "婚": 561,
      "媒": 562,
      "子": 563,
      "孔": 564,
      "字": 565,
      "存": 566,
      "孙": 567,
      "季": 568,
      "孤": 569,
      "学": 570,
      "孩": 571,
      "它": 572,
      "宅": 573,
      "守": 574,
      "安": 575,
      "完": 576,
      "宏": 577,
      "官": 578,
      "定": 579,
      "宛": 580,
      "实": 581,
      "审": 582,
      "客": 583,
      "宣": 584,
      "室": 585,
      "害": 586,
      "家": 587,
      "容": 588,
      "宽": 589,
      "宾": 590,
      "宿": 591,
      "寄": 592,
      "密": 593,
      "富": 594,
      "察": 595,
      "寸": 596,
      "对": 597,
      "寻": 598,
      "导": 599,
      "寿": 600,
      "封": 601,
      "射": 602,
      "将": 603,
      "尊": 604,
      "小": 605,
      "少": 606,
      "尔": 607,
      "尖": 608,
      "尘": 609,
      "尚": 610,
      "尝": 611,
      "尤": 612,
      "就": 613,
      "尺": 614,
      "尼": 615,
      "尽": 616,
      "尾": 617,
      "局": 618,
      "层": 619,
      "居": 620,
      "屉": 621,
      "屏": 622,
      "展": 623,
      "属": 624,
      "履": 625,
      "岁": 626,
      "岗": 627,
      "岛": 628,
      "峰": 629,
      "崩": 630,
      "嵌": 631,
      "州": 632,
      "工": 633,
      "左": 634,
      "巧": 635,
      "巨": 636,
      "差": 637,
      "己": 638,
      "已": 639,
      "巴": 640,
      "币": 641,
      "市": 642,
      "布": 643,
      "师": 644,
      "希": 645,
      "帐": 646,
      "帖": 647,
      "帘": 648,
      "帜": 649,
      "带": 650,
      "帧": 651,
      "席": 652,
      "帮": 653,
      "常": 654,
      "幂": 655,
      "幅": 656,
      "幕": 657,
      "干": 658,
      "平": 659,
      "年": 660,
      "并": 661,
      "幸": 662,
      "幻": 663,
      "广": 664,
      "床": 665,
      "序": 666,
      "库": 667,
      "应": 668,
      "底": 669,
      "店": 670,
      "府": 671,
      "废": 672,
      "度": 673,
      "座": 674,
      "庭": 675,
      "康": 676,
      "廉": 677,
      "廊": 678,
      "廓": 679,
      "延": 680,
      "建": 681,
      "开": 682,
      "异": 683,
      "弃": 684,
      "式": 685,
      "引": 686,
      "弗": 687,
      "张": 688,
      "弦": 689,
      "弧": 690,
      "弱": 691,
      "弹": 692,
      "强": 693,
      "归": 694,
      "当": 695,
      "录": 696,
      "彝": 697,
      "形": 698,
      "彩": 699,
      "影": 700,
      "彼": 701,
      "往": 702,
      "征": 703,
      "径": 704,
      "待": 705,
      "很": 706,
      "律": 707,
      "得": 708,
      "御": 709,
      "循": 710,
      "微": 711,
      "德": 712,
      "徽": 713,
      "心": 714,
      "必": 715,
      "忆": 716,
      "忍": 717,
      "志": 718,
      "忘": 719,
      "忙": 720,
      "忠": 721,
      "快": 722,
      "念": 723,
      "忽": 724,
      "怀": 725,
      "态": 726,
      "怎": 727,
      "思": 728,
      "急": 729,
      "性": 730,
      "怪": 731,
      "总": 732,
      "恕": 733,
      "恢": 734,
      "恤": 735,
      "恭": 736,
      "息": 737,
      "恰": 738,
      "恶": 739,
      "悉": 740,
      "患": 741,
      "您": 742,
      "悬": 743,
      "情": 744,
      "惊": 745,
      "惠": 746,
      "惯": 747,
      "想": 748,
      "意": 749,
      "感": 750,
      "愿": 751,
      "慎": 752,
      "慢": 753,
      "慰": 754,
      "憾": 755,
      "戏": 756,
      "成": 757,
      "我": 758,
      "或": 759,
      "战": 760,
      "截": 761,
      "戳": 762,
      "戴": 763,
      "户": 764,
      "房": 765,
      "所": 766,
      "扇": 767,
      "手": 768,
      "才": 769,
      "扑": 770,
      "打": 771,
      "托": 772,
      "扣": 773,
      "执": 774,
      "扩": 775,
      "扫": 776,
      "扬": 777,
      "扭": 778,
      "扰": 779,
      "批": 780,
      "扼": 781,
      "找": 782,
      "承": 783,
      "技": 784,
      "抄": 785,
      "把": 786,
      "抑": 787,
      "抓": 788,
      "投": 789,
      "抖": 790,
      "抗": 791,
      "折": 792,
      "抚": 793,
      "抛": 794,
      "护": 795,
      "报": 796,
      "披": 797,
      "抬": 798,
      "抵": 799,
      "抹": 800,
      "押": 801,
      "抽": 802,
      "担": 803,
      "拆": 804,
      "拇": 805,
      "拉": 806,
      "拍": 807,
      "拒": 808,
      "拓": 809,
      "拔": 810,
      "拖": 811,
      "招": 812,
      "拟": 813,
      "拢": 814,
      "拣": 815,
      "拥": 816,
      "拨": 817,
      "择": 818,
      "括": 819,
      "拱": 820,
      "拴": 821,
      "拼": 822,
      "拾": 823,
      "拿": 824,
      "持": 825,
      "挂": 826,
      "指": 827,
      "按": 828,
      "挑": 829,
      "挖": 830,
      "挡": 831,
      "挣": 832,
      "挤": 833,
      "挥": 834,
      "挪": 835,
      "振": 836,
      "挽": 837,
      "捆": 838,
      "捉": 839,
      "捏": 840,
      "捕": 841,
      "损": 842,
      "换": 843,
      "据": 844,
      "捷": 845,
      "授": 846,
      "掉": 847,
      "掌": 848,
      "排": 849,
      "掘": 850,
      "探": 851,
      "接": 852,
      "控": 853,
      "推": 854,
      "掩": 855,
      "措": 856,
      "描": 857,
      "提": 858,
      "插": 859,
      "握": 860,
      "搜": 861,
      "携": 862,
      "摄": 863,
      "摆": 864,
      "摇": 865,
      "摊": 866,
      "摘": 867,
      "摩": 868,
      "摸": 869,
      "撇": 870,
      "撞": 871,
      "撤": 872,
      "播": 873,
      "撰": 874,
      "操": 875,
      "擎": 876,
      "擦": 877,
      "支": 878,
      "收": 879,
      "改": 880,
      "攻": 881,
      "放": 882,
      "政": 883,
      "故": 884,
      "效": 885,
      "敏": 886,
      "救": 887,
      "教": 888,
      "散": 889,
      "敦": 890,
      "敬": 891,
      "数": 892,
      "敲": 893,
      "整": 894,
      "文": 895,
      "斐": 896,
      "斗": 897,
      "料": 898,
      "斜": 899,
      "斥": 900,
      "断": 901,
      "斯": 902,
      "新": 903,
      "方": 904,
      "施": 905,
      "旁": 906,
      "旅": 907,
      "旋": 908,
      "族": 909,
      "旗": 910,
      "无": 911,
      "既": 912,
      "日": 913,
      "旦": 914,
      "旧": 915,
      "旨": 916,
      "早": 917,
      "时": 918,
      "昂": 919,
      "明": 920,
      "易": 921,
      "星": 922,
      "映": 923,
      "春": 924,
      "昨": 925,
      "是": 926,
      "昵": 927,
      "显": 928,
      "晃": 929,
      "晋": 930,
      "晓": 931,
      "晚": 932,
      "普": 933,
      "景": 934,
      "晰": 935,
      "晶": 936,
      "智": 937,
      "晾": 938,
      "暂": 939,
      "暖": 940,
      "暗": 941,
      "曝": 942,
      "曲": 943,
      "更": 944,
      "曼": 945,
      "曾": 946,
      "替": 947,
      "最": 948,
      "月": 949,
      "有": 950,
      "朋": 951,
      "服": 952,
      "朗": 953,
      "望": 954,
      "朝": 955,
      "期": 956,
      "木": 957,
      "未": 958,
      "末": 959,
      "本": 960,
      "术": 961,
      "朵": 962,
      "机": 963,
      "杂": 964,
      "权": 965,
      "杆": 966,
      "杉": 967,
      "材": 968,
      "束": 969,
      "杠": 970,
      "条": 971,
      "来": 972,
      "杯": 973,
      "杰": 974,
      "松": 975,
      "板": 976,
      "极": 977,
      "构": 978,
      "析": 979,
      "林": 980,
      "枚": 981,
      "果": 982,
      "架": 983,
      "柄": 984,
      "某": 985,
      "染": 986,
      "柔": 987,
      "柜": 988,
      "查": 989,
      "柱": 990,
      "栅": 991,
      "标": 992,
      "栈": 993,
      "栏": 994,
      "树": 995,
      "校": 996,
      "样": 997,
      "核": 998,
      "根": 999,
      "格": 1000,
      "框": 1001,
      "案": 1002,
      "桌": 1003,
      "档": 1004,
      "桥": 1005,
      "桶": 1006,
      "梦": 1007,
      "梯": 1008,
      "械": 1009,
      "梵": 1010,
      "检": 1011,
      "棋": 1012,
      "棒": 1013,
      "棕": 1014,
      "棘": 1015,
      "棱": 1016,
      "椅": 1017,
      "植": 1018,
      "椒": 1019,
      "椭": 1020,
      "楚": 1021,
      "楼": 1022,
      "概": 1023,
      "榄": 1024,
      "槽": 1025,
      "模": 1026,
      "横": 1027,
      "橄": 1028,
      "橙": 1029,
      "橡": 1030,
      "欠": 1031,
      "次": 1032,
      "欢": 1033,
      "欣": 1034,
      "欧": 1035,
      "欺": 1036,
      "款": 1037,
      "歇": 1038,
      "止": 1039,
      "正": 1040,
      "此": 1041,
      "步": 1042,
      "死": 1043,
      "殊": 1044,
      "残": 1045,
      "段": 1046,
      "毁": 1047,
      "母": 1048,
      "每": 1049,
      "毒": 1050,
      "比": 1051,
      "毕": 1052,
      "毛": 1053,
      "毫": 1054,
      "氏": 1055,
      "民": 1056,
      "气": 1057,
      "氛": 1058,
      "水": 1059,
      "永": 1060,
      "汁": 1061,
      "求": 1062,
      "汇": 1063,
      "池": 1064,
      "汰": 1065,
      "汽": 1066,
      "沉": 1067,
      "沙": 1068,
      "沟": 1069,
      "没": 1070,
      "沮": 1071,
      "油": 1072,
      "治": 1073,
      "沿": 1074,
      "泄": 1075,
      "泊": 1076,
      "法": 1077,
      "泛": 1078,
      "泡": 1079,
      "波": 1080,
      "注": 1081,
      "泰": 1082,
      "泳": 1083,
      "泵": 1084,
      "洁": 1085,
      "洋": 1086,
      "洗": 1087,
      "洛": 1088,
      "洞": 1089,
      "津": 1090,
      "洲": 1091,
      "活": 1092,
      "派": 1093,
      "流": 1094,
      "浅": 1095,
      "测": 1096,
      "济": 1097,
      "浏": 1098,
      "浪": 1099,
      "浮": 1100,
      "海": 1101,
      "浸": 1102,
      "涂": 1103,
      "消": 1104,
      "涉": 1105,
      "润": 1106,
      "液": 1107,
      "涵": 1108,
      "淆": 1109,
      "淘": 1110,
      "淡": 1111,
      "深": 1112,
      "混": 1113,
      "添": 1114,
      "清": 1115,
      "渍": 1116,
      "渐": 1117,
      "渠": 1118,
      "渡": 1119,
      "温": 1120,
      "渲": 1121,
      "游": 1122,
      "湿": 1123,
      "溃": 1124,
      "源": 1125,
      "溢": 1126,
      "溯": 1127,
      "滑": 1128,
      "滚": 1129,
      "滞": 1130,
      "满": 1131,
      "滤": 1132,
      "滩": 1133,
      "滴": 1134,
      "漂": 1135,
      "漆": 1136,
      "漏": 1137,
      "演": 1138,
      "漫": 1139,
      "潜": 1140,
      "澳": 1141,
      "激": 1142,
      "瀑": 1143,
      "火": 1144,
      "灭": 1145,
      "灯": 1146,
      "灰": 1147,
      "灵": 1148,
      "炮": 1149,
      "点": 1150,
      "烁": 1151,
      "烈": 1152,
      "烟": 1153,
      "烧": 1154,
      "热": 1155,
      "焊": 1156,
      "焦": 1157,
      "焰": 1158,
      "然": 1159,
      "照": 1160,
      "熄": 1161,
      "熟": 1162,
      "燃": 1163,
      "燥": 1164,
      "爱": 1165,
      "父": 1166,
      "片": 1167,
      "版": 1168,
      "牌": 1169,
      "牙": 1170,
      "牛": 1171,
      "牢": 1172,
      "物": 1173,
      "特": 1174,
      "犯": 1175,
      "状": 1176,
      "狗": 1177,
      "独": 1178,
      "猥": 1179,
      "猫": 1180,
      "献": 1181,
      "率": 1182,
      "玛": 1183,
      "玩": 1184,
      "环": 1185,
      "现": 1186,
      "班": 1187,
      "球": 1188,
      "理": 1189,
      "瑞": 1190,
      "瓦": 1191,
      "瓶": 1192,
      "甘": 1193,
      "甚": 1194,
      "生": 1195,
      "用": 1196,
      "由": 1197,
      "申": 1198,
      "电": 1199,
      "男": 1200,
      "画": 1201,
      "畅": 1202,
      "界": 1203,
      "畏": 1204,
      "留": 1205,
      "略": 1206,
      "疏": 1207,
      "疑": 1208,
      "疗": 1209,
      "疲": 1210,
      "疾": 1211,
      "病": 1212,
      "症": 1213,
      "痕": 1214,
      "痛": 1215,
      "登": 1216,
      "白": 1217,
      "百": 1218,
      "的": 1219,
      "皆": 1220,
      "皮": 1221,
      "益": 1222,
      "监": 1223,
      "盒": 1224,
      "盖": 1225,
      "盘": 1226,
      "盛": 1227,
      "盟": 1228,
      "目": 1229,
      "直": 1230,
      "相": 1231,
      "省": 1232,
      "眉": 1233,
      "看": 1234,
      "真": 1235,
      "眠": 1236,
      "眼": 1237,
      "着": 1238,
      "睛": 1239,
      "睡": 1240,
      "督": 1241,
      "瞄": 1242,
      "矢": 1243,
      "知": 1244,
      "矩": 1245,
      "短": 1246,
      "石": 1247,
      "码": 1248,
      "研": 1249,
      "破": 1250,
      "础": 1251,
      "硬": 1252,
      "确": 1253,
      "碌": 1254,
      "碍": 1255,
      "碎": 1256,
      "碑": 1257,
      "碰": 1258,
      "磁": 1259,
      "磅": 1260,
      "磨": 1261,
      "示": 1262,
      "礼": 1263,
      "社": 1264,
      "祝": 1265,
      "神": 1266,
      "票": 1267,
      "禁": 1268,
      "福": 1269,
      "离": 1270,
      "秀": 1271,
      "私": 1272,
      "种": 1273,
      "科": 1274,
      "秒": 1275,
      "秘": 1276,
      "租": 1277,
      "秤": 1278,
      "积": 1279,
      "称": 1280,
      "移": 1281,
      "稀": 1282,
      "程": 1283,
      "稍": 1284,
      "税": 1285,
      "稳": 1286,
      "稿": 1287,
      "究": 1288,
      "穷": 1289,
      "空": 1290,
      "穿": 1291,
      "突": 1292,
      "窄": 1293,
      "窗": 1294,
      "立": 1295,
      "竖": 1296,
      "站": 1297,
      "竞": 1298,
      "竟": 1299,
      "章": 1300,
      "童": 1301,
      "端": 1302,
      "笔": 1303,
      "笛": 1304,
      "符": 1305,
      "第": 1306,
      "笺": 1307,
      "等": 1308,
      "筑": 1309,
      "答": 1310,
      "策": 1311,
      "筛": 1312,
      "签": 1313,
      "简": 1314,
      "算": 1315,
      "管": 1316,
      "箭": 1317,
      "箱": 1318,
      "篇": 1319,
      "篡": 1320,
      "篮": 1321,
      "簇": 1322,
      "簿": 1323,
      "米": 1324,
      "类": 1325,
      "粉": 1326,
      "粒": 1327,
      "粗": 1328,
      "粘": 1329,
      "粹": 1330,
      "精": 1331,
      "糊": 1332,
      "糕": 1333,
      "糖": 1334,
      "糙": 1335,
      "糟": 1336,
      "系": 1337,
      "素": 1338,
      "索": 1339,
      "紧": 1340,
      "紫": 1341,
      "累": 1342,
      "繁": 1343,
      "纠": 1344,
      "红": 1345,
      "约": 1346,
      "级": 1347,
      "纪": 1348,
      "纬": 1349,
      "纯": 1350,
      "纲": 1351,
      "纳": 1352,
      "纵": 1353,
      "纸": 1354,
      "纹": 1355,
      "纽": 1356,
      "线": 1357,
      "练": 1358,
      "组": 1359,
      "细": 1360,
      "织": 1361,
      "终": 1362,
      "绍": 1363,
      "经": 1364,
      "绑": 1365,
      "结": 1366,
      "绕": 1367,
      "绘": 1368,
      "给": 1369,
      "络": 1370,
      "绝": 1371,
      "统": 1372,
      "继": 1373,
      "绩": 1374,
      "绪": 1375,
      "续": 1376,
      "维": 1377,
      "综": 1378,
      "绿": 1379,
      "缀": 1380,
      "缆": 1381,
      "缓": 1382,
      "编": 1383,
      "缘": 1384,
      "缝": 1385,
      "缠": 1386,
      "缩": 1387,
      "缴": 1388,
      "缺": 1389,
      "网": 1390,
      "罗": 1391,
      "罚": 1392,
      "罪": 1393,
      "置": 1394,
      "署": 1395,
      "美": 1396,
      "群": 1397,
      "翻": 1398,
      "老": 1399,
      "考": 1400,
      "者": 1401,
      "而": 1402,
      "耐": 1403,
      "耗": 1404,
      "耦": 1405,
      "耳": 1406,
      "聆": 1407,
      "聊": 1408,
      "职": 1409,
      "联": 1410,
      "聘": 1411,
      "聚": 1412,
      "聪": 1413,
      "股": 1414,
      "肩": 1415,
      "肯": 1416,
      "育": 1417,
      "胁": 1418,
      "背": 1419,
      "能": 1420,
      "脏": 1421,
      "脑": 1422,
      "脚": 1423,
      "脱": 1424,
      "脸": 1425,
      "腊": 1426,
      "腕": 1427,
      "自": 1428,
      "至": 1429,
      "致": 1430,
      "舌": 1431,
      "舍": 1432,
      "舒": 1433,
      "舞": 1434,
      "航": 1435,
      "般": 1436,
      "舰": 1437,
      "舱": 1438,
      "船": 1439,
      "良": 1440,
      "色": 1441,
      "艺": 1442,
      "节": 1443,
      "芬": 1444,
      "芯": 1445,
      "花": 1446,
      "苛": 1447,
      "若": 1448,
      "英": 1449,
      "范": 1450,
      "草": 1451,
      "荐": 1452,
      "药": 1453,
      "荷": 1454,
      "莱": 1455,
      "获": 1456,
      "菊": 1457,
      "菜": 1458,
      "菲": 1459,
      "萄": 1460,
      "萤": 1461,
      "营": 1462,
      "萨": 1463,
      "落": 1464,
      "著": 1465,
      "葡": 1466,
      "蒋": 1467,
      "蓄": 1468,
      "蓝": 1469,
      "蔽": 1470,
      "薄": 1471,
      "薪": 1472,
      "藏": 1473,
      "虑": 1474,
      "虚": 1475,
      "虽": 1476,
      "融": 1477,
      "螺": 1478,
      "血": 1479,
      "行": 1480,
      "衍": 1481,
      "街": 1482,
      "衡": 1483,
      "衣": 1484,
      "补": 1485,
      "表": 1486,
      "衫": 1487,
      "衰": 1488,
      "衷": 1489,
      "袋": 1490,
      "被": 1491,
      "裁": 1492,
      "装": 1493,
      "裤": 1494,
      "褐": 1495,
      "西": 1496,
      "要": 1497,
      "覆": 1498,
      "见": 1499,
      "观": 1500,
      "规": 1501,
      "视": 1502,
      "览": 1503,
      "觉": 1504,
      "角": 1505,
      "解": 1506,
      "触": 1507,
      "言": 1508,
      "誉": 1509,
      "警": 1510,
      "计": 1511,
      "订": 1512,
      "认": 1513,
      "讨": 1514,
      "让": 1515,
      "训": 1516,
      "议": 1517,
      "讯": 1518,
      "记": 1519,
      "讲": 1520,
      "讶": 1521,
      "许": 1522,
      "论": 1523,
      "设": 1524,
      "访": 1525,
      "证": 1526,
      "评": 1527,
      "识": 1528,
      "诈": 1529,
      "诉": 1530,
      "诊": 1531,
      "词": 1532,
      "译": 1533,
      "试": 1534,
      "诚": 1535,
      "话": 1536,
      "询": 1537,
      "该": 1538,
      "详": 1539,
      "语": 1540,
      "误": 1541,
      "说": 1542,
      "请": 1543,
      "诸": 1544,
      "诺": 1545,
      "读": 1546,
      "诽": 1547,
      "课": 1548,
      "谁": 1549,
      "调": 1550,
      "谈": 1551,
      "谓": 1552,
      "谢": 1553,
      "谤": 1554,
      "谨": 1555,
      "谱": 1556,
      "谷": 1557,
      "豁": 1558,
      "象": 1559,
      "豪": 1560,
      "贝": 1561,
      "负": 1562,
      "贡": 1563,
      "财": 1564,
      "责": 1565,
      "败": 1566,
      "账": 1567,
      "货": 1568,
      "质": 1569,
      "购": 1570,
      "贮": 1571,
      "贴": 1572,
      "贵": 1573,
      "贷": 1574,
      "贸": 1575,
      "费": 1576,
      "贺": 1577,
      "资": 1578,
      "赋": 1579,
      "赏": 1580,
      "赔": 1581,
      "赖": 1582,
      "赠": 1583,
      "走": 1584,
      "起": 1585,
      "超": 1586,
      "越": 1587,
      "趋": 1588,
      "趣": 1589,
      "足": 1590,
      "跃": 1591,
      "距": 1592,
      "跟": 1593,
      "跨": 1594,
      "路": 1595,
      "跳": 1596,
      "践": 1597,
      "踪": 1598,
      "身": 1599,
      "车": 1600,
      "轨": 1601,
      "转": 1602,
      "轮": 1603,
      "软": 1604,
      "轴": 1605,
      "轻": 1606,
      "载": 1607,
      "较": 1608,
      "辅": 1609,
      "辈": 1610,
      "辉": 1611,
      "辏": 1612,
      "辐": 1613,
      "辑": 1614,
      "输": 1615,
      "辖": 1616,
      "辞": 1617,
      "辣": 1618,
      "辨": 1619,
      "边": 1620,
      "达": 1621,
      "迁": 1622,
      "迄": 1623,
      "迅": 1624,
      "过": 1625,
      "迎": 1626,
      "运": 1627,
      "近": 1628,
      "返": 1629,
      "还": 1630,
      "这": 1631,
      "进": 1632,
      "远": 1633,
      "违": 1634,
      "连": 1635,
      "迟": 1636,
      "迥": 1637,
      "迫": 1638,
      "迭": 1639,
      "述": 1640,
      "迹": 1641,
      "追": 1642,
      "退": 1643,
      "送": 1644,
      "适": 1645,
      "逆": 1646,
      "选": 1647,
      "透": 1648,
      "逐": 1649,
      "递": 1650,
      "途": 1651,
      "逗": 1652,
      "通": 1653,
      "速": 1654,
      "造": 1655,
      "逻": 1656,
      "逾": 1657,
      "遇": 1658,
      "遍": 1659,
      "道": 1660,
      "遗": 1661,
      "遣": 1662,
      "遥": 1663,
      "遭": 1664,
      "遮": 1665,
      "遵": 1666,
      "避": 1667,
      "邀": 1668,
      "那": 1669,
      "邮": 1670,
      "邻": 1671,
      "部": 1672,
      "都": 1673,
      "配": 1674,
      "酒": 1675,
      "酬": 1676,
      "酷": 1677,
      "酸": 1678,
      "醒": 1679,
      "采": 1680,
      "释": 1681,
      "里": 1682,
      "重": 1683,
      "量": 1684,
      "金": 1685,
      "鉴": 1686,
      "针": 1687,
      "钉": 1688,
      "钓": 1689,
      "钟": 1690,
      "钢": 1691,
      "钥": 1692,
      "钩": 1693,
      "钮": 1694,
      "钱": 1695,
      "钻": 1696,
      "铃": 1697,
      "铅": 1698,
      "银": 1699,
      "铺": 1700,
      "链": 1701,
      "销": 1702,
      "锁": 1703,
      "锐": 1704,
      "错": 1705,
      "锚": 1706,
      "锥": 1707,
      "键": 1708,
      "锯": 1709,
      "镇": 1710,
      "镜": 1711,
      "镶": 1712,
      "长": 1713,
      "门": 1714,
      "闪": 1715,
      "闭": 1716,
      "问": 1717,
      "闲": 1718,
      "间": 1719,
      "闻": 1720,
      "阅": 1721,
      "阈": 1722,
      "阐": 1723,
      "队": 1724,
      "防": 1725,
      "阳": 1726,
      "阴": 1727,
      "阵": 1728,
      "阶": 1729,
      "阻": 1730,
      "阿": 1731,
      "陀": 1732,
      "附": 1733,
      "际": 1734,
      "陆": 1735,
      "陈": 1736,
      "降": 1737,
      "限": 1738,
      "院": 1739,
      "除": 1740,
      "险": 1741,
      "陪": 1742,
      "陶": 1743,
      "陷": 1744,
      "隆": 1745,
      "随": 1746,
      "隐": 1747,
      "隔": 1748,
      "隙": 1749,
      "障": 1750,
      "隧": 1751,
      "隶": 1752,
      "难": 1753,
      "雅": 1754,
      "集": 1755,
      "雇": 1756,
      "零": 1757,
      "需": 1758,
      "露": 1759,
      "青": 1760,
      "静": 1761,
      "非": 1762,
      "靠": 1763,
      "面": 1764,
      "靼": 1765,
      "鞑": 1766,
      "韩": 1767,
      "音": 1768,
      "页": 1769,
      "顶": 1770,
      "项": 1771,
      "顺": 1772,
      "须": 1773,
      "顾": 1774,
      "顿": 1775,
      "颁": 1776,
      "预": 1777,
      "领": 1778,
      "颈": 1779,
      "频": 1780,
      "题": 1781,
      "颜": 1782,
      "额": 1783,
      "颠": 1784,
      "风": 1785,
      "飞": 1786,
      "食": 1787,
      "餐": 1788,
      "饮": 1789,
      "饰": 1790,
      "饱": 1791,
      "饼": 1792,
      "馆": 1793,
      "馈": 1794,
      "首": 1795,
      "马": 1796,
      "驱": 1797,
      "驶": 1798,
      "驾": 1799,
      "验": 1800,
      "骗": 1801,
      "骤": 1802,
      "骨": 1803,
      "骼": 1804,
      "高": 1805,
      "鱼": 1806,
      "鲁": 1807,
      "鲜": 1808,
      "麦": 1809,
      "麽": 1810,
      "黄": 1811,
      "黑": 1812,
      "默": 1813,
      "鼓": 1814,
      "鼠": 1815,
      "齐": 1816,
      "齿": 1817,
      "龄": 1818,
      "️": 1819,
      "︰": 1820,
      "！": 1821,
      "％": 1822,
      "（": 1823,
      "）": 1824,
      "，": 1825,
      "：": 1826,
      "；": 1827,
      "？": 1828,
      "😁": 1829,
      "gt": 1830,
      "12": 1831,
      "124": 1832,
      "lt": 1833,
      "ot": 1834,
      "qu": 1835,
      "quot": 1836,
      "ti": 1837,
      "me": 1838,
      "er": 1839,
      "on": 1840,
      "na": 1841,
      "le": 1842,
      "in": 1843,
      "name": 1844,
      "re": 1845,
      "or": 1846,
      "te": 1847,
      "ro": 1848,
      "an": 1849,
      "tion": 1850,
      "br": 1851,
      "91": 1852,
      "93": 1853,
      "使用": 1854,
      "ce": 1855,
      "tit": 1856,
      "title": 1857,
      "ge": 1858,
      "md": 1859,
      "属性": 1860,
      "th": 1861,
      "nt": 1862,
      "se": 1863,
      "st": 1864,
      "al": 1865,
      "选择": 1866,
      "id": 1867,
      "ing": 1868,
      "00": 1869,
      "单击": 1870,
      "创建": 1871,
      "ch": 1872,
      "设置": 1873,
      "ma": 1874,
      "ic": 1875,
      "ate": 1876,
      "文件": 1877,
      "程序": 1878,
      "ta": 1879,
      "de": 1880,
      "td": 1881,
      "ec": 1882,
      "lo": 1883,
      "中的": 1884,
      "ss": 1885,
      "ation": 1886,
      "per": 1887,
      "操作": 1888,
      "可以": 1889,
      "ty": 1890,
      "ou": 1891,
      "pro": 1892,
      "应用": 1893,
      "输入": 1894,
      "ar": 1895,
      "en": 1896,
      "数据": 1897,
      "do": 1898,
      "对象": 1899,
      "is": 1900,
      "ap": 1901,
      "元素": 1902,
      "邮件": 1903,
      "for": 1904,
      "es": 1905,
      "ol": 1906,
      "li": 1907,
      "and": 1908,
      "如果": 1909,
      "of": 1910,
      "用户": 1911,
      "ac": 1912,
      "ve": 1913,
      "信息": 1914,
      "项目": 1915,
      "提供": 1916,
      "ri": 1917,
      "fi": 1918,
      "名称": 1919,
      "AP": 1920,
      "the": 1921,
      "to": 1922,
      "包含": 1923,
      "配置": 1924,
      "工作": 1925,
      "以下": 1926,
      "mp": 1927,
      "定义": 1928,
      "服务": 1929,
      "内容": 1930,
      "类型": 1931,
      "显示": 1932,
      "单元": 1933,
      "et": 1934,
      "API": 1935,
      "eb": 1936,
      "ng": 1937,
      "ew": 1938,
      "ment": 1939,
      "vi": 1940,
      "添加": 1941,
      "ting": 1942,
      "指定": 1943,
      "Ex": 1944,
      "us": 1945,
      "代码": 1946,
      "ction": 1947,
      "der": 1948,
      "客户": 1949,
      "记录": 1950,
      "con": 1951,
      "ex": 1952,
      "at": 1953,
      "规范": 1954,
      "管理": 1955,
      "ange": 1956,
      "ect": 1957,
      "事件": 1958,
      "co": 1959,
      "up": 1960,
      "打开": 1961,
      "ll": 1962,
      "Re": 1963,
      "Pid": 1964,
      "处理": 1965,
      "di": 1966,
      "部分": 1967,
      "tr": 1968,
      "方法": 1969,
      "age": 1970,
      "结构": 1971,
      "所有": 1972,
      "ag": 1973,
      "ros": 1974,
      "oft": 1975,
      "icros": 1976,
      "set": 1977,
      "icrosoft": 1978,
      "change": 1979,
      "ed": 1980,
      "请求": 1981,
      "ver": 1982,
      "un": 1983,
      "In": 1984,
      "产品": 1985,
      "ay": 1986,
      "cre": 1987,
      "通过": 1988,
      "ject": 1989,
      "10": 1990,
      "proper": 1991,
      "进行": 1992,
      "示例": 1993,
      "订单": 1994,
      "ad": 1995,
      "tem": 1996,
      "返回": 1997,
      "物料": 1998,
      "功能": 1999,
      "dow": 2000,
      "参数": 2001,
      "日期": 2002,
      "执行": 2003,
      "状态": 2004,
      "更改": 2005,
      "时间": 2006,
      "il": 2007,
      "格式": 2008,
      "Microsoft": 2009,
      "20": 2010,
      "De": 2011,
      "计算": 2012,
      "支持": 2013,
      "ur": 2014,
      "删除": 2015,
      "ter": 2016,
      "indow": 2017,
      "si": 2018,
      "模型": 2019,
      "Con": 2020,
      "ok": 2021,
      "运行": 2022,
      "MAPI": 2023,
      "WS": 2024,
      "ure": 2025,
      "Pro": 2026,
      "Web": 2027,
      "pl": 2028,
      "成本": 2029,
      "更新": 2030,
      "ble": 2031,
      "付款": 2032,
      "存储": 2033,
      "Tag": 2034,
      "访问": 2035,
      "错误": 2036,
      "create": 2037,
      "销售": 2038,
      "indows": 2039,
      "键入": 2040,
      "按钮": 2041,
      "ct": 2042,
      "ado": 2043,
      "EWS": 2044,
      "标识": 2045,
      "查看": 2046,
      "表示": 2047,
      "Sh": 2048,
      "da": 2049,
      "如何": 2050,
      "ser": 2051,
      "发票": 2052,
      "ity": 2053,
      "ow": 2054,
      "帐户": 2055,
      "ut": 2056,
      "PidTag": 2057,
      "有关": 2058,
      "sp": 2059,
      "函数": 2060,
      "报表": 2061,
      "默认": 2062,
      "ame": 2063,
      "版本": 2064,
      "模板": 2065,
      "Co": 2066,
      "property": 2067,
      "需要": 2068,
      "供应": 2069,
      "Exchange": 2070,
      "其他": 2071,
      "as": 2072,
      "cess": 2073,
      "计划": 2074,
      "例如": 2075,
      "fo": 2076,
      "交易": 2077,
      "供应商": 2078,
      "设备": 2079,
      "Windows": 2080,
      "相关": 2081,
      "ID": 2082,
      "pe": 2083,
      "必须": 2084,
      "用于": 2085,
      "生成": 2086,
      "mple": 2087,
      "详细": 2088,
      "ord": 2089,
      "pi": 2090,
      "ML": 2091,
      "文本": 2092,
      "cri": 2093,
      "资源": 2094,
      "ine": 2095,
      "列表": 2096,
      "位置": 2097,
      "vice": 2098,
      "任务": 2099,
      "cu": 2100,
      "mo": 2101,
      "采购": 2102,
      "DO": 2103,
      "响应": 2104,
      "指示": 2105,
      "文档": 2106,
      "维度": 2107,
      "扩展": 2108,
      "调用": 2109,
      "our": 2110,
      "out": 2111,
      "bject": 2112,
      "分配": 2113,
      "crip": 2114,
      "获取": 2115,
      "具有": 2116,
      "ath": 2117,
      "展开": 2118,
      "然后": 2119,
      "ties": 2120,
      "Ed": 2121,
      "ort": 2122,
      "nd": 2123,
      "ted": 2124,
      "olo": 2125,
      "电子": 2126,
      "To": 2127,
      "规则": 2128,
      "sh": 2129,
      "look": 2130,
      "iz": 2131,
      "完成": 2132,
      "人员": 2133,
      "po": 2134,
      "ror": 2135,
      "bo": 2136,
      "dis": 2137,
      "全局": 2138,
      "Fi": 2139,
      "开发": 2140,
      "页面": 2141,
      "rec": 2142,
      "当前": 2143,
      "控制": 2144,
      "el": 2145,
      "自动": 2146,
      "int": 2147,
      "这些": 2148,
      "ork": 2149,
      "Un": 2150,
      "13": 2151,
      "are": 2152,
      "可能": 2153,
      "描述": 2154,
      "older": 2155,
      "开始": 2156,
      "通知": 2157,
      "using": 2158,
      "it": 2159,
      "ount": 2160,
      "Ac": 2161,
      "任何": 2162,
      "if": 2163,
      "web": 2164,
      "转到": 2165,
      "连接": 2166,
      "sto": 2167,
      "参阅": 2168,
      "form": 2169,
      "ase": 2170,
      "peration": 2171,
      "ent": 2172,
      "启用": 2173,
      "搜索": 2174,
      "Get": 2175,
      "am": 2176,
      "系统": 2177,
      "编号": 2178,
      "cell": 2179,
      "pp": 2180,
      "get": 2181,
      "数量": 2182,
      "一个": 2183,
      "标记": 2184,
      "pid": 2185,
      "str": 2186,
      "ssage": 2187,
      "St": 2188,
      "方案": 2189,
      "金额": 2190,
      "od": 2191,
      "section": 2192,
      "ub": 2193,
      "cript": 2194,
      "对话": 2195,
      "移动": 2196,
      "bu": 2197,
      "ADO": 2198,
      "ith": 2199,
      "命令": 2200,
      "000": 2201,
      "数字": 2202,
      "发送": 2203,
      "Ad": 2204,
      "Az": 2205,
      "对于": 2206,
      "11": 2207,
      "ample": 2208,
      "包括": 2209,
      "mage": 2210,
      "实现": 2211,
      "方式": 2212,
      "oc": 2213,
      "编辑": 2214,
      "允许": 2215,
      "Rec": 2216,
      "add": 2217,
      "验证": 2218,
      "资产": 2219,
      "是否": 2220,
      "库存": 2221,
      "窗口": 2222,
      "Id": 2223,
      "vent": 2224,
      "指针": 2225,
      "data": 2226,
      "work": 2227,
      "公司": 2228,
      "空间": 2229,
      "Name": 2230,
      "情况": 2231,
      "分类": 2232,
      "权限": 2233,
      "ication": 2234,
      "筛选": 2235,
      "fig": 2236,
      "ens": 2237,
      "步骤": 2238,
      "Out": 2239,
      "ype": 2240,
      "ress": 2241,
      "object": 2242,
      "tions": 2243,
      "cel": 2244,
      "view": 2245,
      "单位": 2246,
      "启动": 2247,
      "特定": 2248,
      "ue": 2249,
      "消息": 2250,
      "--": 2251,
      "活动": 2252,
      "um": 2253,
      "Info": 2254,
      "Holo": 2255,
      "av": 2256,
      "item": 2257,
      "date": 2258,
      "固定": 2259,
      "查找": 2260,
      "联系": 2261,
      "ale": 2262,
      "Vi": 2263,
      "指向": 2264,
      "记帐": 2265,
      "说明": 2266,
      "ab": 2267,
      "mapi": 2268,
      "服务器": 2269,
      "val": 2270,
      "成功": 2271,
      "ER": 2272,
      "Sta": 2273,
      "with": 2274,
      "科目": 2275,
      "Set": 2276,
      "View": 2277,
      "邮箱": 2278,
      "Ser": 2279,
      "关闭": 2280,
      "托管": 2281,
      "安全": 2282,
      "all": 2283,
      "Image": 2284,
      "ace": 2285,
      "Er": 2286,
      "Type": 2287,
      "保存": 2288,
      "生产": 2289,
      "Vis": 2290,
      "形状": 2291,
      "Error": 2292,
      "gn": 2293,
      "安装": 2294,
      "Outlook": 2295,
      "16": 2296,
      "est": 2297,
      "电子邮件": 2298,
      "Path": 2299,
      "字段": 2300,
      "ols": 2301,
      "ack": 2302,
      "联系人": 2303,
      "Lid": 2304,
      "PidLid": 2305,
      "Script": 2306,
      "表单": 2307,
      "ers": 2308,
      "我们": 2309,
      "how": 2310,
      "确定": 2311,
      "thod": 2312,
      "Item": 2313,
      "层次": 2314,
      "ry": 2315,
      "银行": 2316,
      "loc": 2317,
      "operation": 2318,
      "mail": 2319,
      "Me": 2320,
      "结果": 2321,
      "Ch": 2322,
      "DA": 2323,
      "过程": 2324,
      "XML": 2325,
      "du": 2326,
      "字符": 2327,
      "15": 2328,
      "fer": 2329,
      "内部": 2330,
      "地址": 2331,
      "method": 2332,
      "下面": 2333,
      "期间": 2334,
      "unction": 2335,
      "sion": 2336,
      "Lens": 2337,
      "修改": 2338,
      "日历": 2339,
      "HoloLens": 2340,
      "forma": 2341,
      "gr": 2342,
      "os": 2343,
      "ual": 2344,
      "Add": 2345,
      "基于": 2346,
      "检查": 2347,
      "ape": 2348,
      "port": 2349,
      "注意": 2350,
      "模式": 2351,
      "财务": 2352,
      "count": 2353,
      "作业": 2354,
      "解决": 2355,
      "工具": 2356,
      "Str": 2357,
      "条目": 2358,
      "设计": 2359,
      "类别": 2360,
      "example": 2361,
      "OS": 2362,
      "mi": 2363,
      "问题": 2364,
      "Edge": 2365,
      "ava": 2366,
      "Of": 2367,
      "了解": 2368,
      "ordset": 2369,
      "UR": 2370,
      "function": 2371,
      "组织": 2372,
      "end": 2373,
      "跟踪": 2374,
      "Unity": 2375,
      "映射": 2376,
      "协议": 2377,
      "员工": 2378,
      "视图": 2379,
      "不同": 2380,
      "重新": 2381,
      "Dev": 2382,
      "Azure": 2383,
      "by": 2384,
      "清单": 2385,
      "通讯": 2386,
      "app": 2387,
      "ul": 2388,
      "tial": 2389,
      "审核": 2390,
      "String": 2391,
      "config": 2392,
      "InfoPath": 2393,
      "仓库": 2394,
      "会议": 2395,
      "nal": 2396,
      "nc": 2397,
      "arch": 2398,
      "eld": 2399,
      "able": 2400,
      "目标": 2401,
      "can": 2402,
      "实时": 2403,
      "ard": 2404,
      "au": 2405,
      "查询": 2406,
      "WebView": 2407,
      "ule": 2408,
      "报告": 2409,
      "条件": 2410,
      "200": 2411,
      "转换": 2412,
      "ments": 2413,
      "加载": 2414,
      "引用": 2415,
      "格名称": 2416,
      "集合": 2417,
      "ource": 2418,
      "HT": 2419,
      "ata": 2420,
      "介绍": 2421,
      "message": 2422,
      "17": 2423,
      "发布": 2424,
      "SO": 2425,
      "符串": 2426,
      "ews": 2427,
      "vid": 2428,
      "14": 2429,
      "gi": 2430,
      "流程": 2431,
      "DAO": 2432,
      "App": 2433,
      "fin": 2434,
      "op": 2435,
      "接收": 2436,
      "roup": 2437,
      "properties": 2438,
      "Res": 2439,
      "窗格": 2440,
      "service": 2441,
      "Ma": 2442,
      "导入": 2443,
      "折扣": 2444,
      "WebView2": 2445,
      "late": 2446,
      "范围": 2447,
      "ans": 2448,
      "Tools": 2449,
      "匹配": 2450,
      "并且": 2451,
      "rom": 2452,
      "以及": 2453,
      "演示": 2454,
      "Folder": 2455,
      "区域": 2456,
      "dispid": 2457,
      "接口": 2458,
      "mana": 2459,
      "dao": 2460,
      "Java": 2461,
      "fice": 2462,
      "ial": 2463,
      "会计": 2464,
      "策略": 2465,
      "预算": 2466,
      "DevTools": 2467,
      "成员": 2468,
      "调试": 2469,
      "file": 2470,
      "JavaScript": 2471,
      "Data": 2472,
      "组件": 2473,
      "order": 2474,
      "User": 2475,
      "ass": 2476,
      "浏览": 2477,
      "Excel": 2478,
      "所需": 2479,
      "com": 2480,
      "box": 2481,
      "作为": 2482,
      "混合": 2483,
      "适用于": 2484,
      "主题": 2485,
      "复制": 2486,
      "注册": 2487,
      "Js": 2488,
      "tive": 2489,
      "数据库": 2490,
      "custo": 2491,
      "直接": 2492,
      "ance": 2493,
      "Access": 2494,
      "wh": 2495,
      "ys": 2496,
      "图像": 2497,
      "ence": 2498,
      "代理": 2499,
      "SE": 2500,
      "ion": 2501,
      "nec": 2502,
      "传输": 2503,
      "实体": 2504,
      "标准": 2505,
      "Po": 2506,
      "base": 2507,
      "导航": 2508,
      "看板": 2509,
      "For": 2510,
      "On": 2511,
      "TR": 2512,
      "xt": 2513,
      "无法": 2514,
      "onse": 2515,
      "发生": 2516,
      "呈现": 2517,
      "Shape": 2518,
      "xed": 2519,
      "Cre": 2520,
      "res": 2521,
      "ical": 2522,
      "play": 2523,
      "gh": 2524,
      "本地": 2525,
      "费用": 2526,
      "let": 2527,
      "附件": 2528,
      "0000": 2529,
      "line": 2530,
      "表达": 2531,
      "Edm": 2532,
      "保留": 2533,
      "建议": 2534,
      "限制": 2535,
      "low": 2536,
      "Proper": 2537,
      "Ar": 2538,
      "Mo": 2539,
      "现金": 2540,
      "登记": 2541,
      "mode": 2542,
      "价格": 2543,
      "现实": 2544,
      "inter": 2545,
      "produ": 2546,
      "以便": 2547,
      "tro": 2548,
      "udi": 2549,
      "关联": 2550,
      "取消": 2551,
      "0x": 2552,
      "ip": 2553,
      "因此": 2554,
      "requ": 2555,
      "US": 2556,
      "col": 2557,
      "分析": 2558,
      "参考": 2559,
      "部署": 2560,
      "现在": 2561,
      "exchange": 2562,
      "LL": 2563,
      "有效": 2564,
      "远程": 2565,
      "ator": 2566,
      "ime": 2567,
      "ml": 2568,
      "没有": 2569,
      "POS": 2570,
      "ey": 2571,
      "folder": 2572,
      "one": 2573,
      "access": 2574,
      "TP": 2575,
      "命名": 2576,
      "time": 2577,
      "级别": 2578,
      "nter": 2579,
      "Project": 2580,
      "Core": 2581,
      "manage": 2582,
      "快速": 2583,
      "2013": 2584,
      "网络": 2585,
      "uration": 2586,
      "ality": 2587,
      "ize": 2588,
      "Visual": 2589,
      "之前": 2590,
      "vider": 2591,
      "ele": 2592,
      "code": 2593,
      "折旧": 2594,
      "根据": 2595,
      "环境": 2596,
      "确保": 2597,
      "第一": 2598,
      "计算机": 2599,
      "plication": 2600,
      "Create": 2601,
      "Tr": 2602,
      "not": 2603,
      "交互": 2604,
      "text": 2605,
      "new": 2606,
      "结束": 2607,
      "par": 2608,
      "其中": 2609,
      "mer": 2610,
      "Dis": 2611,
      "from": 2612,
      "ili": 2613,
      "实际": 2614,
      "颜色": 2615,
      "发现": 2616,
      "导出": 2617,
      "测试": 2618,
      "table": 2619,
      "ribu": 2620,
      "因为": 2621,
      "它们": 2622,
      "point": 2623,
      "Office": 2624,
      "atial": 2625,
      "提交": 2626,
      "ten": 2627,
      "余额": 2628,
      "ating": 2629,
      "cl": 2630,
      "节点": 2631,
      "mdlet": 2632,
      "架构": 2633,
      "mplate": 2634,
      "udio": 2635,
      "At": 2636,
      "18": 2637,
      "中心": 2638,
      "共享": 2639,
      "结算": 2640,
      "ory": 2641,
      "Server": 2642,
      "model": 2643,
      "Loc": 2644,
      "mot": 2645,
      "之间": 2646,
      "输出": 2647,
      "22": 2648,
      "ast": 2649,
      "format": 2650,
      "32": 2651,
      "现有": 2652,
      "申请": 2653,
      "mand": 2654,
      "平台": 2655,
      "统计": 2656,
      "网站": 2657,
      "菜单": 2658,
      "lection": 2659,
      "Address": 2660,
      "下载": 2661,
      "同步": 2662,
      "onical": 2663,
      "Stat": 2664,
      "URL": 2665,
      "canonical": 2666,
      "UE": 2667,
      "ull": 2668,
      "大小": 2669,
      "影响": 2670,
      "检索": 2671,
      "project": 2672,
      "tings": 2673,
      "ice": 2674,
      "vo": 2675,
      "100": 2676,
      "Page": 2677,
      "会话": 2678,
      "要求": 2679,
      "调整": 2680,
      "tent": 2681,
      "帮助": 2682,
      "行为": 2683,
      "tail": 2684,
      "CD": 2685,
      "Time": 2686,
      "ks": 2687,
      "体验": 2688,
      "如下": 2689,
      "ire": 2690,
      "语言": 2691,
      "Status": 2692,
      "CS": 2693,
      "ner": 2694,
      "dex": 2695,
      "收件": 2696,
      "样式": 2697,
      "预测": 2698,
      "适用": 2699,
      "tact": 2700,
      "ference": 2701,
      "Event": 2702,
      "RT": 2703,
      "io": 2704,
      "可用": 2705,
      "商店": 2706,
      "实例": 2707,
      "或者": 2708,
      "控件": 2709,
      "ext": 2710,
      "Fa": 2711,
      "Requ": 2712,
      "ght": 2713,
      "65": 2714,
      "存在": 2715,
      "template": 2716,
      "action": 2717,
      "comp": 2718,
      "定期": 2719,
      "索引": 2720,
      "零售": 2721,
      "adox": 2722,
      "nce": 2723,
      "登录": 2724,
      "update": 2725,
      "Studio": 2726,
      "product": 2727,
      "CoreWebView2": 2728,
      "AL": 2729,
      "por": 2730,
      "下列": 2731,
      "error": 2732,
      "aph": 2733,
      "Op": 2734,
      "ray": 2735,
      "相同": 2736,
      "覆盖": 2737,
      "lete": 2738,
      "act": 2739,
      "Line": 2740,
      "net": 2741,
      "网格": 2742,
      "职位": 2743,
      "tic": 2744,
      "ower": 2745,
      "ification": 2746,
      "custom": 2747,
      "站点": 2748,
      "订阅": 2749,
      "men": 2750,
      "提示": 2751,
      "新建": 2752,
      "替换": 2753,
      "身份": 2754,
      "过帐": 2755,
      "ayout": 2756,
      "Message": 2757,
      "64": 2758,
      "outlook": 2759,
      "19": 2760,
      "event": 2761,
      "法人": 2762,
      "浏览器": 2763,
      "ystem": 2764,
      "voice": 2765,
      "HTML": 2766,
      "Properties": 2767,
      "30": 2768,
      "gu": 2769,
      "代表": 2770,
      "外部": 2771,
      "窗体": 2772,
      "resp": 2773,
      "tach": 2774,
      "provider": 2775,
      "凭证": 2776,
      "盘点": 2777,
      "针对": 2778,
      "ream": 2779,
      "复选": 2780,
      "确认": 2781,
      "ntry": 2782,
      "Service": 2783,
      "ST": 2784,
      "Up": 2785,
      "周期": 2786,
      "基础": 2787,
      "def": 2788,
      "path": 2789,
      "rt": 2790,
      "初始": 2791,
      "排除": 2792,
      "ster": 2793,
      "api": 2794,
      "ization": 2795,
      "NE": 2796,
      "UI": 2797,
      "be": 2798,
      "man": 2799,
      "ult": 2800,
      "一些": 2801,
      "出现": 2802,
      "定位": 2803,
      "指南": 2804,
      "编码": 2805,
      "user": 2806,
      "Recordset": 2807,
      "use": 2808,
      "move": 2809,
      "recordset": 2810,
      "ber": 2811,
      "rot": 2812,
      "合并": 2813,
      "申报": 2814,
      "约会": 2815,
      "type": 2816,
      "field": 2817,
      "items": 2818,
      "标志": 2819,
      "标题": 2820,
      "info": 2821,
      "pre": 2822,
      "so": 2823,
      "通常": 2824,
      "row": 2825,
      "ssion": 2826,
      "---": 2827,
      "pay": 2828,
      "关于": 2829,
      "原因": 2830,
      "百分": 2831,
      "集成": 2832,
      "ong": 2833,
      "account": 2834,
      "25": 2835,
      "找到": 2836,
      "百分比": 2837,
      "LE": 2838,
      "MCD": 2839,
      "概述": 2840,
      "正在": 2841,
      "薪酬": 2842,
      "语音": 2843,
      "application": 2844,
      "spatial": 2845,
      "TRUE": 2846,
      "ist": 2847,
      "场景": 2848,
      "手动": 2849,
      "插入": 2850,
      "标头": 2851,
      "velo": 2852,
      "trans": 2853,
      "trol": 2854,
      "mote": 2855,
      "cmdlet": 2856,
      "ome": 2857,
      "over": 2858,
      "下文": 2859,
      "传递": 2860,
      "构建": 2861,
      "注释": 2862,
      "路径": 2863,
      "nection": 2864,
      "Is": 2865,
      "Se": 2866,
      "Val": 2867,
      "nable": 2868,
      "state": 2869,
      "IN": 2870,
      "he": 2871,
      "min": 2872,
      "Inter": 2873,
      "microsoft": 2874,
      "禁用": 2875,
      "Entry": 2876,
      "group": 2877,
      "your": 2878,
      "基本": 2879,
      "重复": 2880,
      "vel": 2881,
      "about": 2882,
      "50": 2883,
      "fe": 2884,
      "交货": 2885,
      "公式": 2886,
      "完全": 2887,
      "目录": 2888,
      "维护": 2889,
      "SD": 2890,
      "ger": 2891,
      "ign": 2892,
      "ly": 2893,
      "切换": 2894,
      "失败": 2895,
      "尝试": 2896,
      "che": 2897,
      "通讯簿": 2898,
      "MF": 2899,
      "Text": 2900,
      "og": 2901,
      "ree": 2902,
      "Share": 2903,
      "Col": 2904,
      "put": 2905,
      "ra": 2906,
      "读取": 2907,
      "Field": 2908,
      "ME": 2909,
      "Not": 2910,
      "Ph": 2911,
      "tribu": 2912,
      "单模板": 2913,
      "that": 2914,
      "dep": 2915,
      "ales": 2916,
      "Point": 2917,
      "holo": 2918,
      "打印": 2919,
      "模拟": 2920,
      "tas": 2921,
      "Key": 2922,
      "sub": 2923,
      "选中": 2924,
      "apter": 2925,
      "atch": 2926,
      "Group": 2927,
      "Operation": 2928,
      "图标": 2929,
      "排序": 2930,
      "正确": 2931,
      "脚本": 2932,
      "develo": 2933,
      "store": 2934,
      "Action": 2935,
      "面板": 2936,
      "cument": 2937,
      "ility": 2938,
      "chapter": 2939,
      "mat": 2940,
      "dit": 2941,
      "ask": 2942,
      "formation": 2943,
      "Ap": 2944,
      "信用": 2945,
      "布局": 2946,
      "角色": 2947,
      "ations": 2948,
      "flow": 2949,
      "唯一": 2950,
      "来自": 2951,
      "附加": 2952,
      "process": 2953,
      "response": 2954,
      "Update": 2955,
      "bi": 2956,
      "im": 2957,
      "page": 2958,
      "什么": 2959,
      "播放": 2960,
      "trl": 2961,
      "Visio": 2962,
      "Ctrl": 2963,
      "Object": 2964,
      "Sp": 2965,
      "ies": 2966,
      "lp": 2967,
      "填充": 2968,
      "差异": 2969,
      "币种": 2970,
      "As": 2971,
      "CO": 2972,
      "cale": 2973,
      "ron": 2974,
      "xml": 2975,
      "关系": 2976,
      "账款": 2977,
      "urre": 2978,
      "management": 2979,
      "AR": 2980,
      "ync": 2981,
      "能够": 2982,
      "贷方": 2983,
      "ded": 2984,
      "configuration": 2985,
      "infopath": 2986,
      "Count": 2987,
      "ode": 2988,
      "引擎": 2989,
      "接受": 2990,
      "自定义": 2991,
      "Mail": 2992,
      "31": 2993,
      "ive": 2994,
      "ns": 2995,
      "但是": 2996,
      "完整": 2997,
      "触发": 2998,
      "lock": 2999,
      "collection": 3000,
      "&#": 3001,
      "签名": 3002,
      "ind": 3003,
      "ant": 3004,
      "ide": 3005,
      "valid": 3006,
      "Array": 3007,
      "Do": 3008,
      "Qu": 3009,
      "内存": 3010,
      "简单": 3011,
      "锁定": 3012,
      "reference": 3013,
      "configure": 3014,
      "后台": 3015,
      "性能": 3016,
      "日记": 3017,
      "比较": 3018,
      "清除": 3019,
      "转移": 3020,
      "顺序": 3021,
      "acti": 3022,
      "IP": 3023,
      "cro": 3024,
      "ware": 3025,
      "tag": 3026,
      "tain": 3027,
      "ish": 3028,
      "State": 3029,
      "SharePoint": 3030,
      "Email": 3031,
      "原始": 3032,
      "lter": 3033,
      "ery": 3034,
      "invoice": 3035,
      "osc": 3036,
      "HTTP": 3037,
      "what": 3038,
      "And": 3039,
      "Power": 3040,
      "绑定": 3041,
      "inst": 3042,
      "list": 3043,
      "24": 3044,
      "back": 3045,
      "face": 3046,
      "sol": 3047,
      "装运": 3048,
      "视频": 3049,
      "star": 3050,
      "apos": 3051,
      "sup": 3052,
      "形式": 3053,
      "21": 3054,
      "pr": 3055,
      "声明": 3056,
      "aring": 3057,
      "Remote": 3058,
      "Resp": 3059,
      "ALSE": 3060,
      "FALSE": 3061,
      "hand": 3062,
      "ne": 3063,
      "包装": 3064,
      "异常": 3065,
      "必需": 3066,
      "无效": 3067,
      "调查": 3068,
      "需求": 3069,
      "cep": 3070,
      "ndar": 3071,
      "strong": 3072,
      "Open": 3073,
      "ave": 3074,
      "eet": 3075,
      "rule": 3076,
      "主要": 3077,
      "组合": 3078,
      "经理": 3079,
      "链接": 3080,
      "2016": 3081,
      "Format": 3082,
      "初始化": 3083,
      "DE": 3084,
      "ader": 3085,
      "js": 3086,
      "由于": 3087,
      "DOM": 3088,
      "Response": 3089,
      "365": 3090,
      "Task": 3091,
      "lin": 3092,
      "准备": 3093,
      "坐标": 3094,
      "技术": 3095,
      "计数": 3096,
      "部门": 3097,
      "report": 3098,
      "ous": 3099,
      "ADOX": 3100,
      "Value": 3101,
      "rame": 3102,
      "停止": 3103,
      "容器": 3104,
      "序列": 3105,
      "识别": 3106,
      "defin": 3107,
      "creating": 3108,
      "space": 3109,
      "tribute": 3110,
      "40": 3111,
      "ban": 3112,
      "模块": 3113,
      "预览": 3114,
      "leg": 3115,
      "load": 3116,
      "actions": 3117,
      "cost": 3118,
      "unity": 3119,
      "sign": 3120,
      "存储区": 3121,
      "BA": 3122,
      "Pl": 3123,
      "编写": 3124,
      "mar": 3125,
      "Prop": 3126,
      "cription": 3127,
      "display": 3128,
      "open": 3129,
      "RE": 3130,
      "Size": 3131,
      "oT": 3132,
      "py": 3133,
      "vis": 3134,
      "声音": 3135,
      "日志": 3136,
      "重要": 3137,
      "tity": 3138,
      "cover": 3139,
      "try": 3140,
      "Com": 3141,
      "File": 3142,
      "address": 3143,
      "USMF": 3144,
      "Sto": 3145,
      "hi": 3146,
      "windows": 3147,
      "变量": 3148,
      "某些": 3149,
      "gener": 3150,
      "ics": 3151,
      "loy": 3152,
      "request": 3153,
      "porting": 3154,
      "SDK": 3155,
      "ning": 3156,
      "以前": 3157,
      "线程": 3158,
      "nance": 3159,
      "001": 3160,
      "macro": 3161,
      "管理员": 3162,
      "2003": 3163,
      "IoT": 3164,
      "Ori": 3165,
      "Par": 3166,
      "应付": 3167,
      "支出": 3168,
      "政策": 3169,
      "渠道": 3170,
      "tional": 3171,
      "ild": 3172,
      "spec": 3173,
      "record": 3174,
      "Display": 3175,
      "01": 3176,
      "Bus": 3177,
      "Work": 3178,
      "ition": 3179,
      "ipi": 3180,
      "ql": 3181,
      "支付": 3182,
      "相应": 3183,
      "隐藏": 3184,
      "plan": 3185,
      "Internet": 3186,
      "Operations": 3187,
      "CC": 3188,
      "折叠": 3189,
      "普通": 3190,
      "福利": 3191,
      "main": 3192,
      "ipient": 3193,
      "Au": 3194,
      "SQ": 3195,
      "imp": 3196,
      "ob": 3197,
      "保持": 3198,
      "收款": 3199,
      "编程": 3200,
      "led": 3201,
      "Def": 3202,
      "Record": 3203,
      "Change": 3204,
      "Be": 3205,
      "Mi": 3206,
      "Per": 3207,
      "卡片": 3208,
      "屏幕": 3209,
      "常规": 3210,
      "教程": 3211,
      "旋转": 3212,
      "information": 3213,
      "ated": 3214,
      "Code": 3215,
      "develop": 3216,
      "23": 3217,
      "Lin": 3218,
      "Rule": 3219,
      "cal": 3220,
      "vend": 3221,
      "呼叫": 3222,
      "团队": 3223,
      "断点": 3224,
      "概览": 3225,
      "硬件": 3226,
      "语句": 3227,
      "阶段": 3228,
      "regi": 3229,
      "ick": 3230,
      "pers": 3231,
      "vers": 3232,
      "overview": 3233,
      "vendor": 3234,
      "业务": 3235,
      "主机": 3236,
      "放置": 3237,
      "最后": 3238,
      "roid": 3239,
      "ound": 3240,
      "SQL": 3241,
      "nect": 3242,
      "sales": 3243,
      "关键": 3244,
      "平均": 3245,
      "影像": 3246,
      "相机": 3247,
      "继续": 3248,
      "olic": 3249,
      "Config": 3250,
      "graph": 3251,
      "ault": 3252,
      "auto": 3253,
      "DLL": 3254,
      "Layout": 3255,
      "Or": 3256,
      "PA": 3257,
      "单据": 3258,
      "nam": 3259,
      "rity": 3260,
      "销售税": 3261,
      "Trans": 3262,
      "An": 3263,
      "System": 3264,
      "TE": 3265,
      "lation": 3266,
      "增值": 3267,
      "字节": 3268,
      "时区": 3269,
      "device": 3270,
      "fied": 3271,
      "version": 3272,
      "编辑器": 3273,
      "SOAP": 3274,
      "Date": 3275,
      "PI": 3276,
      "ms": 3277,
      "ute": 3278,
      "始终": 3279,
      "捕获": 3280,
      "驱动": 3281,
      "Index": 3282,
      "Contact": 3283,
      "value": 3284,
      "pointment": 3285,
      "Bo": 3286,
      "Mar": 3287,
      "mb": 3288,
      "ph": 3289,
      "ynam": 3290,
      "评估": 3291,
      "首先": 3292,
      "search": 3293,
      "ameter": 3294,
      "Lock": 3295,
      "60": 3296,
      "ling": 3297,
      "ues": 3298,
      "分组": 3299,
      "处于": 3300,
      "度量": 3301,
      "配方": 3302,
      "ection": 3303,
      "lient": 3304,
      "control": 3305,
      "book": 3306,
      "Search": 3307,
      "ff": 3308,
      "lag": 3309,
      "列出": 3310,
      "希望": 3311,
      "某个": 3312,
      "标签": 3313,
      "stat": 3314,
      "Request": 3315,
      "Store": 3316,
      "DB": 3317,
      "UID": 3318,
      "参与": 3319,
      "弃用": 3320,
      "脱机": 3321,
      "Settings": 3322,
      "gram": 3323,
      "应收": 3324,
      "看到": 3325,
      "路线": 3326,
      "阻止": 3327,
      "sele": 3328,
      "Finance": 3329,
      "Mixed": 3330,
      "New": 3331,
      "su": 3332,
      "we": 3333,
      "利息": 3334,
      "导致": 3335,
      "桌面": 3336,
      "ched": 3337,
      "uring": 3338,
      "Move": 3339,
      "0x0000": 3340,
      "CSS": 3341,
      "En": 3342,
      "Git": 3343,
      "Run": 3344,
      "UM": 3345,
      "pes": 3346,
      "ux": 3347,
      "vc": 3348,
      "世界": 3349,
      "公开": 3350,
      "收入": 3351,
      "方向": 3352,
      "考虑": 3353,
      "质量": 3354,
      "辅助": 3355,
      "read": 3356,
      "stream": 3357,
      "工作区": 3358,
      "Reality": 3359,
      "own": 3360,
      "pping": 3361,
      "URI": 3362,
      "SS": 3363,
      "Ver": 3364,
      "ight": 3365,
      "pur": 3366,
      "存档": 3367,
      "异步": 3368,
      "高级": 3369,
      "reality": 3370,
      "customer": 3371,
      "task": 3372,
      "Api": 3373,
      "Hub": 3374,
      "MD": 3375,
      "UN": 3376,
      "email": 3377,
      "her": 3378,
      "pri": 3379,
      "优化": 3380,
      "小时": 3381,
      "第二": 3382,
      "雇用": 3383,
      "ren": 3384,
      "ary": 3385,
      "content": 3386,
      "mixed": 3387,
      "Resource": 3388,
      "ometry": 3389,
      "install": 3390,
      "Origi": 3391,
      "99": 3392,
      "IS": 3393,
      "入门": 3394,
      "peri": 3395,
      "settings": 3396,
      "2017": 3397,
      "Delete": 3398,
      "ures": 3399,
      "ubl": 3400,
      "workflow": 3401,
      "chema": 3402,
      "增值税": 3403,
      "sample": 3404,
      "ton": 3405,
      "刷新": 3406,
      "通用": 3407,
      "dif": 3408,
      "Content": 3409,
      "Connection": 3410,
      "pidtag": 3411,
      "payment": 3412,
      "subs": 3413,
      "Android": 3414,
      "End": 3415,
      "ON": 3416,
      "Sub": 3417,
      "az": 3418,
      "pack": 3419,
      "run": 3420,
      "发件": 3421,
      "收到": 3422,
      "整数": 3423,
      "获得": 3424,
      "chase": 3425,
      "delete": 3426,
      "Start": 3427,
      "files": 3428,
      "Dire": 3429,
      "IME": 3430,
      "Prot": 3431,
      "下拉": 3432,
      "变型": 3433,
      "招聘": 3434,
      "检测": 3435,
      "键盘": 3436,
      "长度": 3437,
      "erarch": 3438,
      "index": 3439,
      "attach": 3440,
      "管理器": 3441,
      "ply": 3442,
      "Sharing": 3443,
      "筛选器": 3444,
      "umber": 3445,
      "command": 3446,
      "Mailbox": 3447,
      "ynamics": 3448,
      "Im": 3449,
      "mon": 3450,
      "mit": 3451,
      "提取": 3452,
      "表列": 3453,
      "表格": 3454,
      "货币": 3455,
      "音频": 3456,
      "design": 3457,
      "ested": 3458,
      "sition": 3459,
      "Account": 3460,
      "PO": 3461,
      "mult": 3462,
      "ole": 3463,
      "之一": 3464,
      "之后": 3465,
      "到期": 3466,
      "日本": 3467,
      "第三": 3468,
      "orage": 3469,
      "string": 3470,
      "ability": 3471,
      "notification": 3472,
      "templates": 3473,
      "events": 3474,
      "NET": 3475,
      "DS": 3476,
      "兼容": 3477,
      "对应": 3478,
      "技能": 3479,
      "拒绝": 3480,
      "按照": 3481,
      "机器": 3482,
      "课程": 3483,
      "ouse": 3484,
      "viron": 3485,
      "Active": 3486,
      "mission": 3487,
      "Attach": 3488,
      "tails": 3489,
      "status": 3490,
      "purchase": 3491,
      "gin": 3492,
      "null": 3493,
      "一起": 3494,
      "优先": 3495,
      "通信": 3496,
      "chor": 3497,
      "utton": 3498,
      "ournal": 3499,
      "20022": 3500,
      "olicy": 3501,
      "Cl": 3502,
      "Source": 3503,
      "avi": 3504,
      "ell": 3505,
      "ite": 3506,
      "传入": 3507,
      "姓名": 3508,
      "想要": 3509,
      "来源": 3510,
      "核算": 3511,
      "消耗": 3512,
      "焦点": 3513,
      "特殊": 3514,
      "约束": 3515,
      "终结": 3516,
      "给定": 3517,
      "视觉": 3518,
      "语法": 3519,
      "运算": 3520,
      "nanc": 3521,
      "mapping": 3522,
      "perator": 3523,
      "操作窗": 3524,
      "contact": 3525,
      "Invalid": 3526,
      "WSL": 3527,
      "Comp": 3528,
      "Items": 3529,
      "location": 3530,
      "ShapeSh": 3531,
      "EntryId": 3532,
      "graphic": 3533,
      "nancial": 3534,
      "26": 3535,
      "eting": 3536,
      "key": 3537,
      "uf": 3538,
      "人力": 3539,
      "否则": 3540,
      "密码": 3541,
      "材料": 3542,
      "激活": 3543,
      "进制": 3544,
      "采用": 3545,
      "阅读": 3546,
      "预订": 3547,
      "rect": 3548,
      "ane": 3549,
      "ateg": 3550,
      "types": 3551,
      "comple": 3552,
      "pos": 3553,
      "设计器": 3554,
      "vironment": 3555,
      "56": 3556,
      "BI": 3557,
      "Enable": 3558,
      "Ge": 3559,
      "List": 3560,
      "bal": 3561,
      "curre": 3562,
      "ik": 3563,
      "ts": 3564,
      "为了": 3565,
      "反馈": 3566,
      "合计": 3567,
      "工艺": 3568,
      "总帐": 3569,
      "支票": 3570,
      "缓存": 3571,
      "ret": 3572,
      "ansp": 3573,
      "liver": 3574,
      "dimen": 3575,
      "pidl": 3576,
      "orders": 3577,
      "Property": 3578,
      "dimension": 3579,
      "ISO": 3580,
      "Table": 3581,
      "journal": 3582,
      "raph": 3583,
      "word": 3584,
      "帐簿": 3585,
      "other": 3586,
      "stand": 3587,
      "eck": 3588,
      "arac": 3589,
      "enti": 3590,
      "exp": 3591,
      "ditional": 3592,
      "server": 3593,
      "ifest": 3594,
      "Stream": 3595,
      "find": 3596,
      "aracter": 3597,
      "AD": 3598,
      "Al": 3599,
      "常见": 3600,
      "延迟": 3601,
      "界面": 3602,
      "监视": 3603,
      "证书": 3604,
      "间隔": 3605,
      "ref": 3606,
      "off": 3607,
      "attribute": 3608,
      "shape": 3609,
      "objects": 3610,
      "assign": 3611,
      "Original": 3612,
      "28": 3613,
      "ost": 3614,
      "手势": 3615,
      "此错误": 3616,
      "箭头": 3617,
      "集中": 3618,
      "enu": 3619,
      "down": 3620,
      "resource": 3621,
      "表达式": 3622,
      "calcu": 3623,
      "render": 3624,
      "..": 3625,
      "3D": 3626,
      "FI": 3627,
      "From": 3628,
      "Flag": 3629,
      "MIME": 3630,
      "Pre": 3631,
      "借记": 3632,
      "卡上": 3633,
      "历史": 3634,
      "同时": 3635,
      "效果": 3636,
      "文章": 3637,
      "用作": 3638,
      "自己": 3639,
      "转至": 3640,
      "门户": 3641,
      "00000": 3642,
      "Notification": 3643,
      "specif": 3644,
      "Auth": 3645,
      "Linux": 3646,
      "Configuration": 3647,
      "Frame": 3648,
      "PW": 3649,
      "Sty": 3650,
      "Send": 3651,
      "WP": 3652,
      "XLL": 3653,
      "ld": 3654,
      "layout": 3655,
      "具体": 3656,
      "利用": 3657,
      "系列": 3658,
      "节数": 3659,
      "secu": 3660,
      "Fill": 3661,
      "ift": 3662,
      "bud": 3663,
      "Mana": 3664,
      "tension": 3665,
      "hierarch": 3666,
      "Direct": 3667,
      "security": 3668,
      "27": 3669,
      "gation": 3670,
      "om": 3671,
      "个人": 3672,
      "企业": 3673,
      "库位": 3674,
      "应该": 3675,
      "数值": 3676,
      "financial": 3677,
      "tools": 3678,
      "excel": 3679,
      "Context": 3680,
      "build": 3681,
      "nected": 3682,
      "Fabr": 3683,
      "Requested": 3684,
      "Document": 3685,
      "activi": 3686,
      "import": 3687,
      "Style": 3688,
      "AN": 3689,
      "Des": 3690,
      "Dynamics": 3691,
      "RDS": 3692,
      "Win": 3693,
      "ht": 3694,
      "imple": 3695,
      "ud": 3696,
      "分隔": 3697,
      "动态": 3698,
      "工序": 3699,
      "循环": 3700,
      "概念": 3701,
      "汇总": 3702,
      "转帐": 3703,
      "ces": 3704,
      "document": 3705,
      "select": 3706,
      "Can": 3707,
      "FF": 3708,
      "MRT": 3709,
      "ak": 3710,
      "副本": 3711,
      "收据": 3712,
      "电话": 3713,
      "装箱": 3714,
      "lear": 3715,
      "office": 3716,
      "工作流": 3717,
      "true": 3718,
      "post": 3719,
      "Storage": 3720,
      "functions": 3721,
      "Database": 3722,
      "define": 3723,
      "COM": 3724,
      "legate": 3725,
      "ikam": 3726,
      "Fabrikam": 3727,
      "MS": 3728,
      "PU": 3729,
      "SI": 3730,
      "UT": 3731,
      "card": 3732,
      "ie": 3733,
      "job": 3734,
      "ket": 3735,
      "nel": 3736,
      "个性": 3737,
      "中选": 3738,
      "信任": 3739,
      "全部": 3740,
      "常量": 3741,
      "引发": 3742,
      "恢复": 3743,
      "日记帐": 3744,
      "移除": 3745,
      "避免": 3746,
      "释放": 3747,
      "map": 3748,
      "Rece": 3749,
      "based": 3750,
      "production": 3751,
      "troll": 3752,
      "elements": 3753,
      "Changed": 3754,
      "livery": 3755,
      "ISO20022": 3756,
      "MRTK": 3757,
      "Operator": 3758,
      "UWP": 3759,
      "batch": 3760,
      "gan": 3761,
      "ir": 3762,
      "tp": 3763,
      "ution": 3764,
      "way": 3765,
      "元数据": 3766,
      "制造": 3767,
      "学习": 3768,
      "帐模板": 3769,
      "批次": 3770,
      "沉浸": 3771,
      "耳机": 3772,
      "融资": 3773,
      "许多": 3774,
      "适应": 3775,
      "rece": 3776,
      "sed": 3777,
      "direct": 3778,
      "manifest": 3779,
      "accounts": 3780,
      "Command": 3781,
      "DisplayName": 3782,
      "0x0000000": 3783,
      "By": 3784,
      "Log": 3785,
      "OR": 3786,
      "nting": 3787,
      "uid": 3788,
      "增加": 3789,
      "强制": 3790,
      "解析": 3791,
      "运输": 3792,
      "reporting": 3793,
      "send": 3794,
      "log": 3795,
      "Report": 3796,
      "setting": 3797,
      "place": 3798,
      "getting": 3799,
      "检查器": 3800,
      "Phone": 3801,
      "register": 3802,
      "budget": 3803,
      "Call": 3804,
      "Sql": 3805,
      "dw": 3806,
      "system": 3807,
      "事项": 3808,
      "分发": 3809,
      "复杂": 3810,
      "报价": 3811,
      "收货": 3812,
      "正文": 3813,
      "此外": 3814,
      "虚拟": 3815,
      "补货": 3816,
      "购置": 3817,
      "边界": 3818,
      "非常": 3819,
      "相关联": 3820,
      "MLOperator": 3821,
      "stru": 3822,
      "Online": 3823,
      "0x00000": 3824,
      "header": 3825,
      "RemoteSystem": 3826,
      "80": 3827,
      "Find": 3828,
      "Le": 3829,
      "call": 3830,
      "录制": 3831,
      "这样": 3832,
      "选定": 3833,
      "Retail": 3834,
      "Remove": 3835,
      "dist": 3836,
      "Device": 3837,
      "urn": 3838,
      "Shift": 3839,
      "ized": 3840,
      "board": 3841,
      "ally": 3842,
      "Mode": 3843,
      "parameter": 3844,
      "Query": 3845,
      "调查表": 3846,
      "chedule": 3847,
      "No": 3848,
      "cs": 3849,
      "中国": 3850,
      "动画": 3851,
      "单独": 3852,
      "哪些": 3853,
      "天气": 3854,
      "持续": 3855,
      "lens": 3856,
      "ari": 3857,
      "Comple": 3858,
      "ash": 3859,
      "methods": 3860,
      "calendar": 3861,
      "63": 3862,
      "EN": 3863,
      "ging": 3864,
      "kan": 3865,
      "取代": 3866,
      "忽略": 3867,
      "框架": 3868,
      "符号": 3869,
      "any": 3870,
      "filter": 3871,
      "connection": 3872,
      "dified": 3873,
      "开始日": 3874,
      "formul": 3875,
      "enter": 3876,
      "Recipient": 3877,
      "local": 3878,
      "mailbox": 3879,
      "minder": 3880,
      "wareh": 3881,
      "Version": 3882,
      "Protection": 3883,
      "pidlid": 3884,
      "Lo": 3885,
      "Pr": 3886,
      "TNE": 3887,
      "cle": 3888,
      "cap": 3889,
      "ring": 3890,
      "公用": 3891,
      "快捷": 3892,
      "最小": 3893,
      "鼠标": 3894,
      "数据源": 3895,
      "ternal": 3896,
      "SON": 3897,
      "require": 3898,
      "elec": 3899,
      "clu": 3900,
      "fields": 3901,
      "deprec": 3902,
      "hololens": 3903,
      "GitHub": 3904,
      "Geometry": 3905,
      "TNEF": 3906,
      "He": 3907,
      "LI": 3908,
      "ke": 3909,
      "付薪": 3910,
      "仿真": 3911,
      "依赖": 3912,
      "写入": 3913,
      "可视": 3914,
      "垃圾": 3915,
      "已经": 3916,
      "授权": 3917,
      "暂停": 3918,
      "类似": 3919,
      "绩效": 3920,
      "ses": 3921,
      "icode": 3922,
      "old": 3923,
      "transp": 3924,
      "Control": 3925,
      "managed": 3926,
      "class": 3927,
      "guid": 3928,
      "deploy": 3929,
      "到期日": 3930,
      "优先级": 3931,
      "终结点": 3932,
      "ShapeSheet": 3933,
      "个性化": 3934,
      "kanban": 3935,
      "CT": 3936,
      "Doc": 3937,
      "Non": 3938,
      "amp": 3939,
      "ck": 3940,
      "enable": 3941,
      "non": 3942,
      "下来": 3943,
      "与会": 3944,
      "事务": 3945,
      "入库": 3946,
      "公共": 3947,
      "备份": 3948,
      "整个": 3949,
      "突出": 3950,
      "进度": 3951,
      "002": 3952,
      "ush": 3953,
      "unk": 3954,
      "okie": 3955,
      "formance": 3956,
      "AzSql": 3957,
      "when": 3958,
      "ribution": 3959,
      "Color": 3960,
      "Play": 3961,
      "沉浸式": 3962,
      "与会者": 3963,
      "AS": 3964,
      "JSON": 3965,
      "MTP": 3966,
      "Navi": 3967,
      "Pin": 3968,
      "dll": 3969,
      "image": 3970,
      "sce": 3971,
      "source": 3972,
      "ze": 3973,
      "总计": 3974,
      "提高": 3975,
      "核心": 3976,
      "讨论": 3977,
      "距离": 3978,
      "适当": 3979,
      "alse": 3980,
      "copy": 3981,
      "urface": 3982,
      "asic": 3983,
      "alendar": 3984,
      "Chro": 3985,
      "versation": 3986,
      "ganization": 3987,
      "warehouse": 3988,
      "Button": 3989,
      "FT": 3990,
      "GUID": 3991,
      "OP": 3992,
      "Su": 3993,
      "mber": 3994,
      "schema": 3995,
      "ving": 3996,
      "减少": 3997,
      "别名": 3998,
      "密钥": 3999,
      "扫描": 4000,
      "按下": 4001,
      "案例": 4002,
      "电脑": 4003,
      "立即": 4004,
      "ona": 4005,
      "den": 4006,
      "ender": 4007,
      "PidName": 4008,
      "Connected": 4009,
      "forec": 4010,
      "acking": 4011,
      "iple": 4012,
      "ception": 4013,
      "Mark": 4014,
      "Calendar": 4015,
      "ust": 4016,
      "再次": 4017,
      "决于": 4018,
      "分辨": 4019,
      "取决于": 4020,
      "向下": 4021,
      "媒体": 4022,
      "字体": 4023,
      "宏操作": 4024,
      "市场": 4025,
      "年度": 4026,
      "组列表": 4027,
      "缩放": 4028,
      "草稿": 4029,
      "返利": 4030,
      "预期": 4031,
      "prop": 4032,
      "profile": 4033,
      "connect": 4034,
      "additional": 4035,
      "ErrorInvalid": 4036,
      "本地化": 4037,
      "Fax": 4038,
      "Fields": 4039,
      "Runtime": 4040,
      "aneous": 4041,
      "struct": 4042,
      "Css": 4043,
      "Cmdlet": 4044,
      "OLE": 4045,
      "Rm": 4046,
      "Ro": 4047,
      "SProp": 4048,
      "ee": 4049,
      "ore": 4050,
      "publ": 4051,
      "yn": 4052,
      "ycle": 4053,
      "德国": 4054,
      "接下来": 4055,
      "条码": 4056,
      "警告": 4057,
      "lease": 4058,
      "level": 4059,
      "inte": 4060,
      "ouch": 4061,
      "program": 4062,
      "iscell": 4063,
      "Read": 4064,
      "setup": 4065,
      "changes": 4066,
      "存储库": 4067,
      "Unicode": 4068,
      "字符串": 4069,
      "AzureRm": 4070,
      "interface": 4071,
      "Phot": 4072,
      "tasks": 4073,
      "Spatial": 4074,
      "started": 4075,
      "generate": 4076,
      "iscellaneous": 4077,
      "33": 4078,
      "Ali": 4079,
      "Dri": 4080,
      "IMLOperator": 4081,
      "Node": 4082,
      "Pri": 4083,
      "Sync": 4084,
      "Ur": 4085,
      "aun": 4086,
      "sor": 4087,
      "二进制": 4088,
      "可变": 4089,
      "各种": 4090,
      "商业": 4091,
      "处置": 4092,
      "工时": 4093,
      "并在": 4094,
      "批量": 4095,
      "授予": 4096,
      "收集": 4097,
      "无需": 4098,
      "物理": 4099,
      "目的": 4100,
      "研究": 4101,
      "统一": 4102,
      "软件": 4103,
      "ere": 4104,
      "remove": 4105,
      "under": 4106,
      "credit": 4107,
      "urring": 4108,
      "ather": 4109,
      "share": 4110,
      "arent": 4111,
      "options": 4112,
      "default": 4113,
      "soap": 4114,
      "EntryID": 4115,
      "Application": 4116,
      "json": 4117,
      "mbers": 4118,
      "PWA": 4119,
      "aunch": 4120,
      "29": 4121,
      "35": 4122,
      "Enter": 4123,
      "Last": 4124,
      "block": 4125,
      "client": 4126,
      "iation": 4127,
      "itial": 4128,
      "power": 4129,
      "主页": 4130,
      "天数": 4131,
      "履行": 4132,
      "带有": 4133,
      "汇率": 4134,
      "生命": 4135,
      "符合": 4136,
      "退货": 4137,
      "identi": 4138,
      "matic": 4139,
      "appointment": 4140,
      "lip": 4141,
      "Provider": 4142,
      "iness": 4143,
      "discover": 4144,
      "database": 4145,
      "values": 4146,
      "messages": 4147,
      "sole": 4148,
      "tainer": 4149,
      "dify": 4150,
      "enumer": 4151,
      "Flags": 4152,
      "html": 4153,
      "implemen": 4154,
      "Align": 4155,
      "Url": 4156,
      "IT": 4157,
      "Te": 4158,
      "adi": 4159,
      "bility": 4160,
      "ful": 4161,
      "iled": 4162,
      "rst": 4163,
      "丢失": 4164,
      "作用": 4165,
      "必填": 4166,
      "拥有": 4167,
      "推送": 4168,
      "改进": 4169,
      "数组": 4170,
      "注视": 4171,
      "视为": 4172,
      "询价": 4173,
      "负载": 4174,
      "逻辑": 4175,
      "面向": 4176,
      "高度": 4177,
      "lement": 4178,
      "input": 4179,
      "angu": 4180,
      "alog": 4181,
      "Input": 4182,
      "sight": 4183,
      "Copy": 4184,
      "bom": 4185,
      "stration": 4186,
      "0001": 4187,
      "ported": 4188,
      "MCDRemoteSystem": 4189,
      "transactions": 4190,
      "bank": 4191,
      "Enabled": 4192,
      "Devices": 4193,
      "anguage": 4194,
      "TA": 4195,
      "ds": 4196,
      "sid": 4197,
      "wri": 4198,
      "前面": 4199,
      "压缩": 4200,
      "回答": 4201,
      "宽度": 4202,
      "展示": 4203,
      "嵌入": 4204,
      "工资": 4205,
      "帐款": 4206,
      "此处": 4207,
      "游标": 4208,
      "牌照": 4209,
      "群集": 4210,
      "首选": 4211,
      "real": 4212,
      "fixed": 4213,
      "oken": 4214,
      "shap": 4215,
      "entry": 4216,
      "stric": 4217,
      "bug": 4218,
      "ncy": 4219,
      "anced": 4220,
      "Modified": 4221,
      "weather": 4222,
      "depreciation": 4223,
      "ConnectedDevices": 4224,
      "NU": 4225,
      "Row": 4226,
      "Sec": 4227,
      "Th": 4228,
      "ccess": 4229,
      "false": 4230,
      "sl": 4231,
      "佣金": 4232,
      "冲突": 4233,
      "单项": 4234,
      "完工": 4235,
      "意味": 4236,
      "截止": 4237,
      "更高": 4238,
      "正常": 4239,
      "水平": 4240,
      "滚动": 4241,
      "满足": 4242,
      "还原": 4243,
      "选行": 4244,
      "重置": 4245,
      "onic": 4246,
      "check": 4247,
      "provid": 4248,
      "appro": 4249,
      "Extension": 4250,
      "agree": 4251,
      "its": 4252,
      "forms": 4253,
      "ocial": 4254,
      "Character": 4255,
      "assword": 4256,
      "Form": 4257,
      "codes": 4258,
      "Location": 4259,
      "manuf": 4260,
      "start": 4261,
      "rules": 4262,
      "developing": 4263,
      "参与者": 4264,
      "Print": 4265,
      "electr": 4266,
      "Navigation": 4267,
      "implementing": 4268,
      "manufact": 4269,
      "Card": 4270,
      "Int": 4271,
      "MR": 4272,
      "Number": 4273,
      "SMTP": 4274,
      "cou": 4275,
      "ia": 4276,
      "sound": 4277,
      "假设": 4278,
      "储存": 4279,
      "建立": 4280,
      "等待": 4281,
      "缓冲": 4282,
      "编译": 4283,
      "这一": 4284,
      "重定": 4285,
      "频率": 4286,
      "ques": 4287,
      "query": 4288,
      "chron": 4289,
      "lose": 4290,
      "entity": 4291,
      "isting": 4292,
      "Insight": 4293,
      "size": 4294,
      "Connect": 4295,
      "modify": 4296,
      "adding": 4297,
      "workspace": 4298,
      "colum": 4299,
      "ilities": 4300,
      "groups": 4301,
      "Appointment": 4302,
      "definition": 4303,
      "hierarchy": 4304,
      "formula": 4305,
      "NULL": 4306,
      "electronic": 4307,
      "Alt": 4308,
      "ture": 4309,
      "ump": 4310,
      "yper": 4311,
      "会员": 4312,
      "墨西": 4313,
      "安排": 4314,
      "开票": 4315,
      "照片": 4316,
      "用途": 4317,
      "读性": 4318,
      "轻松": 4319,
      "运营": 4320,
      "进程": 4321,
      "ont": 4322,
      "inf": 4323,
      "invent": 4324,
      "orld": 4325,
      "rou": 4326,
      "Inst": 4327,
      "ilable": 4328,
      "Defin": 4329,
      "url": 4330,
      "fore": 4331,
      "Star": 4332,
      "operations": 4333,
      "element": 4334,
      "holographic": 4335,
      "Actions": 4336,
      "ived": 4337,
      "Default": 4338,
      "phone": 4339,
      "notifications": 4340,
      "Author": 4341,
      "transport": 4342,
      "ynchron": 4343,
      "墨西哥": 4344,
      "inventory": 4345,
      "36": 4346,
      "Client": 4347,
      "Fe": 4348,
      "Window": 4349,
      "nown": 4350,
      "vb": 4351,
      "传出": 4352,
      "体系": 4353,
      "冲销": 4354,
      "分钟": 4355,
      "协作": 4356,
      "变化": 4357,
      "最大": 4358,
      "枚举": 4359,
      "深度": 4360,
      "班次": 4361,
      "生效": 4362,
      "美元": 4363,
      "聚合": 4364,
      "购买": 4365,
      "领料": 4366,
      "names": 4367,
      "release": 4368,
      "idth": 4369,
      "environment": 4370,
      "数据集": 4371,
      "Regi": 4372,
      "Reminder": 4373,
      "aging": 4374,
      "PidTagS": 4375,
      "asset": 4376,
      "文本值": 4377,
      "sheet": 4378,
      "Filter": 4379,
      "recipient": 4380,
      "连接器": 4381,
      "valu": 4382,
      "ImageCss": 4383,
      "auth": 4384,
      "接收器": 4385,
      "lated": 4386,
      "One": 4387,
      "CreateItem": 4388,
      "part": 4389,
      "MCDConnectedDevices": 4390,
      "support": 4391,
      "forecast": 4392,
      "ODB": 4393,
      "Token": 4394,
      "window": 4395,
      "一样": 4396,
      "下图": 4397,
      "借方": 4398,
      "回调": 4399,
      "意外": 4400,
      "打包": 4401,
      "接到": 4402,
      "掩码": 4403,
      "收银": 4404,
      "映像": 4405,
      "本机": 4406,
      "游戏": 4407,
      "缩短": 4408,
      "tep": 4409,
      "amera": 4410,
      "alent": 4411,
      "安全性": 4412,
      "Off": 4413,
      "注册表": 4414,
      "模拟器": 4415,
      "handling": 4416,
      "mark": 4417,
      "visual": 4418,
      "autodiscover": 4419,
      "azure": 4420,
      "multiple": 4421,
      "integr": 4422,
      "sider": 4423,
      "34": 4424,
      "98": 4425,
      "Guid": 4426,
      "mul": 4427,
      "sql": 4428,
      "una": 4429,
      "xl": 4430,
      "任意": 4431,
      "先决": 4432,
      "分支": 4433,
      "即使": 4434,
      "向导": 4435,
      "子系统": 4436,
      "帐单": 4437,
      "应计": 4438,
      "所述": 4439,
      "结尾": 4440,
      "绘图": 4441,
      "警报": 4442,
      "贸易": 4443,
      "连续": 4444,
      "遇到": 4445,
      "顶部": 4446,
      "members": 4447,
      "resh": 4448,
      "anchor": 4449,
      "Exec": 4450,
      "users": 4451,
      "tract": 4452,
      "agraph": 4453,
      "position": 4454,
      "Setting": 4455,
      "PidLidTask": 4456,
      "SOM": 4457,
      "tables": 4458,
      "feat": 4459,
      "bile": 4460,
      "ished": 4461,
      "EmailAddress": 4462,
      "defined": 4463,
      "MDN": 4464,
      "package": 4465,
      "standing": 4466,
      "specific": 4467,
      "mapis": 4468,
      "Fact": 4469,
      "LCS": 4470,
      "PST": 4471,
      "Sales": 4472,
      "Scale": 4473,
      "Save": 4474,
      "categ": 4475,
      "full": 4476,
      "gs": 4477,
      "sing": 4478,
      "一致": 4479,
      "产能": 4480,
      "他们": 4481,
      "仪表": 4482,
      "保护": 4483,
      "偏移": 4484,
      "发货": 4485,
      "多数": 4486,
      "审计": 4487,
      "引入": 4488,
      "称为": 4489,
      "联机": 4490,
      "资格": 4491,
      "邮政": 4492,
      "master": 4493,
      "des": 4494,
      "details": 4495,
      "调用方": 4496,
      "izing": 4497,
      "自动化": 4498,
      "FolderId": 4499,
      "SEPA": 4500,
      "Failed": 4501,
      "links": 4502,
      "manufacturing": 4503,
      "先决条件": 4504,
      "110": 4505,
      "CSOM": 4506,
      "DL": 4507,
      "LT": 4508,
      "ax": 4509,
      "rds": 4510,
      "schedule": 4511,
      "修复": 4512,
      "发行": 4513,
      "号码": 4514,
      "图形": 4515,
      "图片": 4516,
      "堆栈": 4517,
      "大于": 4518,
      "大多数": 4519,
      "容差": 4520,
      "常用": 4521,
      "弹性": 4522,
      "房间": 4523,
      "拉取": 4524,
      "独立": 4525,
      "简化": 4526,
      "部件": 4527,
      "meeting": 4528,
      "les": 4529,
      "initial": 4530,
      "retail": 4531,
      "annel": 4532,
      "session": 4533,
      "olk": 4534,
      "Ref": 4535,
      "site": 4536,
      "ascript": 4537,
      "ship": 4538,
      "izer": 4539,
      "ify": 4540,
      "avascript": 4541,
      "XML56": 4542,
      "folders": 4543,
      "visio": 4544,
      "Bevel": 4545,
      "ActiveX": 4546,
      "Class": 4547,
      "return": 4548,
      "仿真器": 4549,
      "shapes": 4550,
      "counting": 4551,
      "收银机": 4552,
      "mapisvc": 4553,
      "All": 4554,
      "Batch": 4555,
      "DPI": 4556,
      "HD": 4557,
      "Policy": 4558,
      "Talent": 4559,
      "ral": 4560,
      "vari": 4561,
      "三维": 4562,
      "发出": 4563,
      "后续": 4564,
      "垂直": 4565,
      "基准": 4566,
      "实用": 4567,
      "平衡": 4568,
      "感知": 4569,
      "法国": 4570,
      "理解": 4571,
      "目前": 4572,
      "社交": 4573,
      "禁止": 4574,
      "稳定": 4575,
      "组成": 4576,
      "至少": 4577,
      "进入": 4578,
      "配送": 4579,
      "que": 4580,
      "into": 4581,
      "sty": 4582,
      "003": 4583,
      "consider": 4584,
      "experi": 4585,
      "und": 4586,
      "Conversation": 4587,
      "mobile": 4588,
      "working": 4589,
      "USB": 4590,
      "tics": 4591,
      "rowser": 4592,
      "MCDUser": 4593,
      "信用证": 4594,
      "success": 4595,
      "calculation": 4596,
      "headers": 4597,
      "Act": 4598,
      "BO": 4599,
      "Edit": 4600,
      "Sway": 4601,
      "VBA": 4602,
      "ache": 4603,
      "fl": 4604,
      "fter": 4605,
      "hel": 4606,
      "host": 4607,
      "ill": 4608,
      "iOS": 4609,
      "pst": 4610,
      "va": 4611,
      "估计": 4612,
      "增强": 4613,
      "委派": 4614,
      "封闭": 4615,
      "开放": 4616,
      "弹出": 4617,
      "提醒": 4618,
      "故障": 4619,
      "星期": 4620,
      "替代": 4621,
      "最终": 4622,
      "系数": 4623,
      "终止": 4624,
      "继承": 4625,
      "表现": 4626,
      "解释": 4627,
      "退出": 4628,
      "透明": 4629,
      "tif": 4630,
      "tax": 4631,
      "Exp": 4632,
      "ason": 4633,
      "shell": 4634,
      "recurring": 4635,
      "GetUser": 4636,
      "Post": 4637,
      "resol": 4638,
      "tended": 4639,
      "Attribute": 4640,
      "可用性": 4641,
      "company": 4642,
      "raw": 4643,
      "Permission": 4644,
      "development": 4645,
      "Transform": 4646,
      "ffect": 4647,
      "troller": 4648,
      "Docs": 4649,
      "Block": 4650,
      "Go": 4651,
      "SG": 4652,
      "ati": 4653,
      "ain": 4654,
      "cing": 4655,
      "case": 4656,
      "db": 4657,
      "iot": 4658,
      "ler": 4659,
      "number": 4660,
      "主管": 4661,
      "交换": 4662,
      "令牌": 4663,
      "可选": 4664,
      "多维": 4665,
      "大利": 4666,
      "小写": 4667,
      "尺寸": 4668,
      "底部": 4669,
      "当事": 4670,
      "指令": 4671,
      "提前": 4672,
      "税组": 4673,
      "编制": 4674,
      "舍入": 4675,
      "英国": 4676,
      "超过": 4677,
      "转发": 4678,
      "除非": 4679,
      "ther": 4680,
      "aptive": 4681,
      "mploy": 4682,
      "External": 4683,
      "Delegate": 4684,
      "ursor": 4685,
      "abilities": 4686,
      "ipt": 4687,
      "errors": 4688,
      "Services": 4689,
      "ServiceBus": 4690,
      "applications": 4691,
      "person": 4692,
      "Anchor": 4693,
      "POX": 4694,
      "Description": 4695,
      "LIST": 4696,
      "AC": 4697,
      "AX": 4698,
      "Cap": 4699,
      "DI": 4700,
      "Dial": 4701,
      "Hand": 4702,
      "Net": 4703,
      "Ob": 4704,
      "Pack": 4705,
      "ified": 4706,
      "prot": 4707,
      "policy": 4708,
      "sc": 4709,
      "sprop": 4710,
      "step": 4711,
      "utions": 4712,
      "vanced": 4713,
      "中断": 4714,
      "主科": 4715,
      "假定": 4716,
      "加密": 4717,
      "好友": 4718,
      "帐龄": 4719,
      "承诺": 4720,
      "显式": 4721,
      "最新": 4722,
      "比率": 4723,
      "渲染": 4724,
      "知道": 4725,
      "端口": 4726,
      "等于": 4727,
      "翻译": 4728,
      "趋势": 4729,
      "还是": 4730,
      "量子": 4731,
      "额外": 4732,
      "reat": 4733,
      "ang": 4734,
      "cent": 4735,
      "chn": 4736,
      "mater": 4737,
      "lobal": 4738,
      "array": 4739,
      "lit": 4740,
      "active": 4741,
      "atter": 4742,
      "2020": 4743,
      "指示器": 4744,
      "pop": 4745,
      "150": 4746,
      "Collection": 4747,
      "processing": 4748,
      "Busy": 4749,
      "period": 4750,
      "subscription": 4751,
      "commands": 4752,
      "balance": 4753,
      "structure": 4754,
      "AzureRmServiceBus": 4755,
      "understanding": 4756,
      "ODBC": 4757,
      "38": 4758,
      "Cu": 4759,
      "MB": 4760,
      "Miscellaneous": 4761,
      "ative": 4762,
      "have": 4763,
      "mr": 4764,
      "save": 4765,
      "vate": 4766,
      "xll": 4767,
      "休假": 4768,
      "位于": 4769,
      "侦听": 4770,
      "已知": 4771,
      "承运": 4772,
      "指导": 4773,
      "激发": 4774,
      "移到": 4775,
      "线条": 4776,
      "营销": 4777,
      "观察": 4778,
      "运动": 4779,
      "通道": 4780,
      "限定": 4781,
      "集装箱": 4782,
      "nate": 4783,
      "reak": 4784,
      "round": 4785,
      "tation": 4786,
      "delivery": 4787,
      "cookie": 4788,
      "所有者": 4789,
      "2010": 4790,
      "2018": 4791,
      "控制器": 4792,
      "ression": 4793,
      "Meeting": 4794,
      "mium": 4795,
      "Devtools": 4796,
      "TPM": 4797,
      "RTF": 4798,
      "used": 4799,
      "信用卡": 4800,
      "Attachment": 4801,
      "offline": 4802,
      "Manage": 4803,
      "Manager": 4804,
      "activity": 4805,
      "activities": 4806,
      "Chromium": 4807,
      "Drive": 4808,
      "providers": 4809,
      "yperlinks": 4810,
      "Authorization": 4811,
      "unar": 4812,
      "successful": 4813,
      "material": 4814,
      "Custo": 4815,
      "44": 4816,
      "45": 4817,
      "Basic": 4818,
      "CF": 4819,
      "Publ": 4820,
      "Parent": 4821,
      "Password": 4822,
      "RO": 4823,
      "WH": 4824,
      "Word": 4825,
      "XR": 4826,
      "eme": 4827,
      "iss": 4828,
      "script": 4829,
      "surface": 4830,
      "丹麦": 4831,
      "书签": 4832,
      "价值": 4833,
      "例程": 4834,
      "保函": 4835,
      "到达": 4836,
      "即时": 4837,
      "只有": 4838,
      "平面": 4839,
      "所在": 4840,
      "抵销": 4841,
      "持久": 4842,
      "汇票": 4843,
      "相对": 4844,
      "离职": 4845,
      "税务": 4846,
      "税金": 4847,
      "结合": 4848,
      "许可": 4849,
      "速度": 4850,
      "remote": 4851,
      "ories": 4852,
      "ges": 4853,
      "icate": 4854,
      "performance": 4855,
      "ries": 4856,
      "Information": 4857,
      "Details": 4858,
      "discount": 4859,
      "ERR": 4860,
      "ryp": 4861,
      "manager": 4862,
      "Pointer": 4863,
      "OnPhone": 4864,
      "Events": 4865,
      "products": 4866,
      "Options": 4867,
      "statement": 4868,
      "lpEntryID": 4869,
      "print": 4870,
      "reports": 4871,
      "Parameter": 4872,
      "Business": 4873,
      "attachments": 4874,
      "complex": 4875,
      "ketch": 4876,
      "distribution": 4877,
      "parameters": 4878,
      "可视化": 4879,
      "PlayOnPhone": 4880,
      "identifi": 4881,
      "question": 4882,
      "OneDrive": 4883,
      "features": 4884,
      "considerations": 4885,
      "experience": 4886,
      "emea": 4887,
      "70": 4888,
      "Element": 4889,
      "GN": 4890,
      "Graph": 4891,
      "Home": 4892,
      "IO": 4893,
      "Jump": 4894,
      "Over": 4895,
      "QR": 4896,
      "Tar": 4897,
      "UP": 4898,
      "With": 4899,
      "Width": 4900,
      "ach": 4901,
      "bit": 4902,
      "ft": 4903,
      "language": 4904,
      "mory": 4905,
      "ug": 4906,
      "ven": 4907,
      "wp": 4908,
      "you": 4909,
      "上述": 4910,
      "产生": 4911,
      "例外": 4912,
      "向上": 4913,
      "审查": 4914,
      "左侧": 4915,
      "布尔": 4916,
      "必要": 4917,
      "批准": 4918,
      "无论": 4919,
      "空白": 4920,
      "空闲": 4921,
      "绘制": 4922,
      "触摸": 4923,
      "除了": 4924,
      "音效": 4925,
      "quence": 4926,
      "nat": 4927,
      "restric": 4928,
      "organization": 4929,
      "mary": 4930,
      "apply": 4931,
      "fill": 4932,
      "edback": 4933,
      "creen": 4934,
      "1099": 4935,
      "ilability": 4936,
      "2012": 4937,
      "cribe": 4938,
      "posi": 4939,
      "GetItem": 4940,
      "Holographic": 4941,
      "dispidTask": 4942,
      "JsGet": 4943,
      "LineJump": 4944,
      "invoices": 4945,
      "Book": 4946,
      "Environment": 4947,
      "attachment": 4948,
      "Cancel": 4949,
      "Received": 4950,
      "HDInsight": 4951,
      "Network": 4952,
      "Target": 4953,
      "39": 4954,
      "75": 4955,
      "AT": 4956,
      "Ang": 4957,
      "CPU": 4958,
      "HR": 4959,
      "Kind": 4960,
      "Mapi": 4961,
      "RF": 4962,
      "SC": 4963,
      "SK": 4964,
      "XT": 4965,
      "bar": 4966,
      "frame": 4967,
      "gnd": 4968,
      "gress": 4969,
      "itions": 4970,
      "nu": 4971,
      "一次": 4972,
      "之外": 4973,
      "像素": 4974,
      "其余": 4975,
      "净额": 4976,
      "剩余": 4977,
      "图面": 4978,
      "奖励": 4979,
      "实践": 4980,
      "将来": 4981,
      "属于": 4982,
      "悬停": 4983,
      "新增": 4984,
      "未知": 4985,
      "欧洲": 4986,
      "照相机": 4987,
      "特性": 4988,
      "知识": 4989,
      "磁盘": 4990,
      "背景": 4991,
      "表面": 4992,
      "负责": 4993,
      "起始": 4994,
      "遵循": 4995,
      "ertif": 4996,
      "sen": 4997,
      "debug": 4998,
      "ision": 4999,
      "isten": 5000,
      "Reference": 5001,
      "sett": 5002,
      "Dep": 5003,
      "Delivery": 5004,
      "Profile": 5005,
      "Webh": 5006,
      "PidTagMessage": 5007,
      "First": 5008,
      "EdgeHTML": 5009,
      "appx": 5010,
      "configuring": 5011,
      "Apps": 5012,
      "Append": 5013,
      "common": 5014,
      "JsError": 5015,
      "ysical": 5016,
      "Disable": 5017,
      "points": 5018,
      "Recordset2": 5019,
      "solid": 5020,
      "solutions": 5021,
      "lines": 5022,
      "devices": 5023,
      "standard": 5024,
      "resources": 5025,
      "rendering": 5026,
      "DirectX": 5027,
      "matically": 5028,
      "write": 5029,
      "agreement": 5030,
      "Definition": 5031,
      "连续性": 5032,
      "Angle": 5033,
      "一次性": 5034,
      "Audi": 5035,
      "Base": 5036,
      "CH": 5037,
      "CI": 5038,
      "Deb": 5039,
      "Free": 5040,
      "GB": 5041,
      "ICoreWebView2": 5042,
      "Li": 5043,
      "Lunar": 5044,
      "MT": 5045,
      "MPOS": 5046,
      "Sup": 5047,
      "gaz": 5048,
      "hard": 5049,
      "ible": 5050,
      "一般": 5051,
      "从而": 5052,
      "典型": 5053,
      "准确": 5054,
      "创作": 5055,
      "开头": 5056,
      "意向": 5057,
      "成为": 5058,
      "成品": 5059,
      "投影": 5060,
      "摘要": 5061,
      "有用": 5062,
      "构造": 5063,
      "欧盟": 5064,
      "此时": 5065,
      "源代码": 5066,
      "点击": 5067,
      "空格": 5068,
      "组列": 5069,
      "职务": 5070,
      "能力": 5071,
      "角度": 5072,
      "责任": 5073,
      "选取": 5074,
      "重量": 5075,
      "降低": 5076,
      "预付": 5077,
      "ons": 5078,
      "nary": 5079,
      "leted": 5080,
      "cho": 5081,
      "delegate": 5082,
      "apis": 5083,
      "consolid": 5084,
      "exec": 5085,
      "export": 5086,
      "Defer": 5087,
      "调用者": 5088,
      "stores": 5089,
      "PidLidEmail": 5090,
      "Member": 5091,
      "XML5": 5092,
      "apps": 5093,
      "services": 5094,
      "respon": 5095,
      "istory": 5096,
      "radi": 5097,
      "urrence": 5098,
      "Quick": 5099,
      "supporting": 5100,
      "covery": 5101,
      "Files": 5102,
      "Auto": 5103,
      "Subs": 5104,
      "Allow": 5105,
      "clude": 5106,
      "publish": 5107,
      "style": 5108,
      "hardware": 5109,
      "1000": 5110,
      "Categ": 5111,
      "Hel": 5112,
      "IM": 5113,
      "Oof": 5114,
      "PSI": 5115,
      "Ra": 5116,
      "Sort": 5117,
      "VS": 5118,
      "cash": 5119,
      "lue": 5120,
      "sz": 5121,
      "synchron": 5122,
      "人数": 5123,
      "何时": 5124,
      "依据": 5125,
      "做法": 5126,
      "内置": 5127,
      "升级": 5128,
      "占位": 5129,
      "卸载": 5130,
      "台属性": 5131,
      "合作": 5132,
      "后面": 5133,
      "大量": 5134,
      "字母": 5135,
      "摄像": 5136,
      "断开": 5137,
      "片段": 5138,
      "置于": 5139,
      "迁移": 5140,
      "递减": 5141,
      "重大": 5142,
      "阴影": 5143,
      "tim": 5144,
      "nari": 5145,
      "inbox": 5146,
      "red": 5147,
      "review": 5148,
      "ordi": 5149,
      "throu": 5150,
      "chine": 5151,
      "deter": 5152,
      "permission": 5153,
      "tom": 5154,
      "existing": 5155,
      "功能区": 5156,
      "Controller": 5157,
      "MAPIUID": 5158,
      "PidTagOriginal": 5159,
      "more": 5160,
      "Top": 5161,
      "oci": 5162,
      "Appt": 5163,
      "Args": 5164,
      "ults": 5165,
      "hologram": 5166,
      "Async": 5167,
      "ants": 5168,
      "planning": 5169,
      "subscribe": 5170,
      "uffer": 5171,
      "complete": 5172,
      "...": 5173,
      "specify": 5174,
      "learning": 5175,
      "Load": 5176,
      "类似于": 5177,
      "scenari": 5178,
      "Threat": 5179,
      "Factor": 5180,
      "attern": 5181,
      "AuthorizationRule": 5182,
      "SKU": 5183,
      "through": 5184,
      "37": 5185,
      "3d": 5186,
      "41": 5187,
      "48": 5188,
      "55": 5189,
      "500": 5190,
      "Ava": 5191,
      "Back": 5192,
      "Cor": 5193,
      "CCh": 5194,
      "CDA": 5195,
      "Cache": 5196,
      "Day": 5197,
      "Dist": 5198,
      "EF": 5199,
      "F5": 5200,
      "Fore": 5201,
      "GE": 5202,
      "Host": 5203,
      "LO": 5204,
      "Rou": 5205,
      "WM": 5206,
      "aint": 5207,
      "ear": 5208,
      "edit": 5209,
      "lations": 5210,
      "ogn": 5211,
      "vj": 5212,
      "克隆": 5213,
      "决定": 5214,
      "各个": 5215,
      "图表": 5216,
      "培训": 5217,
      "备选": 5218,
      "外观": 5219,
      "年限": 5220,
      "快照": 5221,
      "操纵": 5222,
      "最佳": 5223,
      "机构": 5224,
      "条款": 5225,
      "监控": 5226,
      "着色": 5227,
      "算法": 5228,
      "缺勤": 5229,
      "货运": 5230,
      "起来": 5231,
      "退回": 5232,
      "重估": 5233,
      "附属": 5234,
      "lean": 5235,
      "rop": 5236,
      "route": 5237,
      "ced": 5238,
      "geometry": 5239,
      "acro": 5240,
      "toso": 5241,
      "controll": 5242,
      "container": 5243,
      "exe": 5244,
      "atform": 5245,
      "unit": 5246,
      "Deleted": 5247,
      "PidTagAttach": 5248,
      "Recogn": 5249,
      "PidLidAppointment": 5250,
      "finished": 5251,
      "JsCreate": 5252,
      "TRY": 5253,
      "moting": 5254,
      "EventArgs": 5255,
      "recordset2": 5256,
      "heet": 5257,
      "bill": 5258,
      "IPM": 5259,
      "supported": 5260,
      "practi": 5261,
      "legal": 5262,
      "Paragraph": 5263,
      "records": 5264,
      "posting": 5265,
      "building": 5266,
      "Callback": 5267,
      "Level": 5268,
      "Complete": 5269,
      "Height": 5270,
      "分辨率": 5271,
      "SPropValue": 5272,
      "shapesheet": 5273,
      "Actor": 5274,
      "SGFiles": 5275,
      "43": 5276,
      "46": 5277,
      "47": 5278,
      "51": 5279,
      "Buffer": 5280,
      "CE": 5281,
      "Enc": 5282,
      "Foc": 5283,
      "Launch": 5284,
      "Mult": 5285,
      "Nu": 5286,
      "Oc": 5287,
      "Ow": 5288,
      "Pers": 5289,
      "Sele": 5290,
      "Tab": 5291,
      "WI": 5292,
      "bb": 5293,
      "best": 5294,
      "cure": 5295,
      "dy": 5296,
      "known": 5297,
      "ward": 5298,
      "wsl": 5299,
      "world": 5300,
      "伙伴": 5301,
      "例子": 5302,
      "值为": 5303,
      "克风": 5304,
      "分数": 5305,
      "原则": 5306,
      "反映": 5307,
      "发射": 5308,
      "合同": 5309,
      "在线": 5310,
      "定价": 5311,
      "收益": 5312,
      "敏感": 5313,
      "更正": 5314,
      "流式": 5315,
      "物品": 5316,
      "积分": 5317,
      "纳税": 5318,
      "经过": 5319,
      "费率": 5320,
      "远期": 5321,
      "麦克风": 5322,
      "relation": 5323,
      "related": 5324,
      "ori": 5325,
      "another": 5326,
      "stud": 5327,
      "character": 5328,
      "mation": 5329,
      "libr": 5330,
      "mpty": 5331,
      "connec": 5332,
      "core": 5333,
      "ayers": 5334,
      "101": 5335,
      "Console": 5336,
      "成本价": 5337,
      "cuments": 5338,
      "sharing": 5339,
      "body": 5340,
      "amount": 5341,
      "ensor": 5342,
      "ensation": 5343,
      "会议室": 5344,
      "color": 5345,
      "notes": 5346,
      "partial": 5347,
      "compensation": 5348,
      "updates": 5349,
      "prese": 5350,
      "Colum": 5351,
      "collections": 5352,
      "BAN": 5353,
      "Begin": 5354,
      "Link": 5355,
      "Order": 5356,
      "Mailboxes": 5357,
      "current": 5358,
      "UTC": 5359,
      "Model": 5360,
      "依赖于": 5361,
      "Registration": 5362,
      "mulator": 5363,
      "ertificate": 5364,
      "practices": 5365,
      "Focus": 5366,
      "study": 5367,
      "400": 5368,
      "AI": 5369,
      "Bot": 5370,
      "Bod": 5371,
      "Browser": 5372,
      "CA": 5373,
      "Dir": 5374,
      "Gr": 5375,
      "GPU": 5376,
      "LA": 5377,
      "MO": 5378,
      "NX": 5379,
      "Tensor": 5380,
      "WIP": 5381,
      "Xml": 5382,
      "anal": 5383,
      "ben": 5384,
      "close": 5385,
      "day": 5386,
      "kSGFiles": 5387,
      "mtp": 5388,
      "sk": 5389,
      "vs": 5390,
      "vouch": 5391,
      "wa": 5392,
      "休息": 5393,
      "保险": 5394,
      "入站": 5395,
      "加权": 5396,
      "原材料": 5397,
      "实施": 5398,
      "帐号": 5399,
      "托运": 5400,
      "术语": 5401,
      "涉及": 5402,
      "特征": 5403,
      "相对于": 5404,
      "矩形": 5405,
      "租户": 5406,
      "笔记": 5407,
      "等级": 5408,
      "累积": 5409,
      "红色": 5410,
      "纹理": 5411,
      "绿色": 5412,
      "缩减": 5413,
      "计费": 5414,
      "超时": 5415,
      "边缘": 5416,
      "适合": 5417,
      "遥测": 5418,
      "预留": 5419,
      "黑色": 5420,
      "quality": 5421,
      "orm": 5422,
      "roll": 5423,
      "chive": 5424,
      "atalog": 5425,
      "tracking": 5426,
      "Shdw": 5427,
      "entries": 5428,
      "strona": 5429,
      "Stack": 5430,
      "Resol": 5431,
      "Max": 5432,
      "Archive": 5433,
      "Local": 5434,
      "compu": 5435,
      "field2": 5436,
      "Asse": 5437,
      "configurations": 5438,
      "ArrayOf": 5439,
      "solution": 5440,
      "cept": 5441,
      "Place": 5442,
      "general": 5443,
      "Box": 5444,
      "controls": 5445,
      "MixedReality": 5446,
      "机器人": 5447,
      "batches": 5448,
      "Photo": 5449,
      "Photon": 5450,
      "columns": 5451,
      "Instance": 5452,
      "olkit": 5453,
      "BOM": 5454,
      "CChkSGFiles": 5455,
      "Body": 5456,
      "stronaut": 5457,
      "2D": 5458,
      "49": 5459,
      "52": 5460,
      "600": 5461,
      "Age": 5462,
      "Center": 5463,
      "Found": 5464,
      "Gradi": 5465,
      "Ht": 5466,
      "Has": 5467,
      "JL": 5468,
      "LUI": 5469,
      "Mon": 5470,
      "MCDA": 5471,
      "Null": 5472,
      "Render": 5473,
      "Site": 5474,
      "VR": 5475,
      "Wi": 5476,
      "XL": 5477,
      "break": 5478,
      "git": 5479,
      "just": 5480,
      "lk": 5481,
      "ni": 5482,
      "pa": 5483,
      "pm": 5484,
      "pin": 5485,
      "一步": 5486,
      "上传": 5487,
      "上下文": 5488,
      "为什么": 5489,
      "主体": 5490,
      "凭据": 5491,
      "出价": 5492,
      "原型": 5493,
      "备用": 5494,
      "引号": 5495,
      "拖动": 5496,
      "推荐": 5497,
      "旁边": 5498,
      "核实": 5499,
      "注销": 5500,
      "眼睛": 5501,
      "票据": 5502,
      "第2": 5503,
      "答复": 5504,
      "简介": 5505,
      "精度": 5506,
      "虚构": 5507,
      "表行": 5508,
      "计时": 5509,
      "设定": 5510,
      "诊断": 5511,
      "进一步": 5512,
      "quis": 5513,
      "tivi": 5514,
      "native": 5515,
      "ins": 5516,
      "techn": 5517,
      "sequence": 5518,
      "tar": 5519,
      "tadata": 5520,
      "profiles": 5521,
      "enum": 5522,
      "Export": 5523,
      "Exception": 5524,
      "agent": 5525,
      "Shell": 5526,
      "默认值": 5527,
      "webview": 5528,
      "ppService": 5529,
      "Adaptive": 5530,
      "umb": 5531,
      "ItemId": 5532,
      "Check": 5533,
      "gradi": 5534,
      "2007": 5535,
      "ople": 5536,
      "Position": 5537,
      "letter": 5538,
      "tende": 5539,
      "formats": 5540,
      "preview": 5541,
      "Session": 5542,
      "head": 5543,
      "maintain": 5544,
      "ImGroup": 5545,
      "currency": 5546,
      "Framework": 5547,
      "Directory": 5548,
      "QueryDef": 5549,
      "Completed": 5550,
      "Connector": 5551,
      "help": 5552,
      "issues": 5553,
      "questionna": 5554,
      "GNJL": 5555,
      "Allowed": 5556,
      "Gradient": 5557,
      "LUIS": 5558,
      "MCDAppService": 5559,
      "tivity": 5560,
      "Ab": 5561,
      "AME": 5562,
      "Global": 5563,
      "Hold": 5564,
      "IWebView2": 5565,
      "NS": 5566,
      "PC": 5567,
      "PT": 5568,
      "Pay": 5569,
      "Sent": 5570,
      "Schema": 5571,
      "Sketch": 5572,
      "TH": 5573,
      "Txt": 5574,
      "Vul": 5575,
      "bus": 5576,
      "button": 5577,
      "effect": 5578,
      "employ": 5579,
      "launch": 5580,
      "ned": 5581,
      "nsion": 5582,
      "ook": 5583,
      "sting": 5584,
      "uti": 5585,
      "utd": 5586,
      "urity": 5587,
      "wr": 5588,
      "决策": 5589,
      "加速": 5590,
      "动作": 5591,
      "城市": 5592,
      "对方": 5593,
      "封装": 5594,
      "所以": 5595,
      "效率": 5596,
      "明确": 5597,
      "月份": 5598,
      "浮点": 5599,
      "班牙": 5600,
      "结转": 5601,
      "绝对": 5602,
      "缺少": 5603,
      "美国": 5604,
      "西班牙": 5605,
      "负债": 5606,
      "负荷": 5607,
      "邀请": 5608,
      "静态": 5609,
      "预制": 5610,
      "online": 5611,
      "redu": 5612,
      "remoting": 5613,
      "oring": 5614,
      "orial": 5615,
      "程序集": 5616,
      "dele": 5617,
      "ecycle": 5618,
      "ssment": 5619,
      "mental": 5620,
      "constr": 5621,
      "cope": 5622,
      "Reply": 5623,
      "vert": 5624,
      "verage": 5625,
      "2015": 5626,
      "Contain": 5627,
      "pose": 5628,
      "available": 5629,
      "dispidFax": 5630,
      "dispidAppt": 5631,
      "requis": 5632,
      "coll": 5633,
      "imension": 5634,
      "Created": 5635,
      "Attract": 5636,
      "复选框": 5637,
      "bevel": 5638,
      "rows": 5639,
      "transform": 5640,
      "transaction": 5641,
      "Valid": 5642,
      "INT": 5643,
      "antum": 5644,
      "序列化": 5645,
      "Enum": 5646,
      "Entity": 5647,
      "price": 5648,
      "olean": 5649,
      "dimensions": 5650,
      "download": 5651,
      "jobs": 5652,
      "AzSqlDatabase": 5653,
      "scene": 5654,
      "Subject": 5655,
      "shared": 5656,
      "enumerate": 5657,
      "NavigationStar": 5658,
      "Custom": 5659,
      "ERROR": 5660,
      "FreeBusy": 5661,
      "Deferral": 5662,
      "presenting": 5663,
      "bene": 5664,
      "utdown": 5665,
      "NavigationStarting": 5666,
      "03": 5667,
      "42": 5668,
      "53": 5669,
      "58": 5670,
      "BS": 5671,
      "Full": 5672,
      "FTE": 5673,
      "Hi": 5674,
      "Hyperlinks": 5675,
      "PIN": 5676,
      "Screen": 5677,
      "VM": 5678,
      "after": 5679,
      "dri": 5680,
      "free": 5681,
      "ique": 5682,
      "no": 5683,
      "rate": 5684,
      "ves": 5685,
      "专用": 5686,
      "以外": 5687,
      "分解": 5688,
      "协调": 5689,
      "右键": 5690,
      "回收": 5691,
      "地理": 5692,
      "外设": 5693,
      "存货": 5694,
      "季度": 5695,
      "广告": 5696,
      "应聘": 5697,
      "总数": 5698,
      "指标": 5699,
      "按住": 5700,
      "改为": 5701,
      "改变": 5702,
      "数目": 5703,
      "方面": 5704,
      "日程": 5705,
      "期限": 5706,
      "机制": 5707,
      "渐进": 5708,
      "熟悉": 5709,
      "第1": 5710,
      "粘贴": 5711,
      "职责": 5712,
      "训练": 5713,
      "试算": 5714,
      "顶级": 5715,
      "titem": 5716,
      "ernel": 5717,
      "test": 5718,
      "antity": 5719,
      "center": 5720,
      "this": 5721,
      "station": 5722,
      "allow": 5723,
      "channel": 5724,
      "demand": 5725,
      "lob": 5726,
      "right": 5727,
      "vious": 5728,
      "客户端": 5729,
      "dialog": 5730,
      "admin": 5731,
      "时间表": 5732,
      "spect": 5733,
      "asure": 5734,
      "ocol": 5735,
      "Names": 5736,
      "PidLidFax": 5737,
      "ferent": 5738,
      "append": 5739,
      "option": 5740,
      "why": 5741,
      "TREF": 5742,
      "ressed": 5743,
      "results": 5744,
      "True": 5745,
      "Tracking": 5746,
      "1001": 5747,
      "nerability": 5748,
      "menu": 5749,
      "payments": 5750,
      "Space": 5751,
      "whats": 5752,
      "prere": 5753,
      "WorkAddress": 5754,
      "Organization": 5755,
      "selec": 5756,
      "different": 5757,
      "keyboard": 5758,
      "entities": 5759,
      "attributes": 5760,
      "Preview": 5761,
      "recei": 5762,
      "capabilities": 5763,
      "Security": 5764,
      "single": 5765,
      "protection": 5766,
      "identifiers": 5767,
      "appxmanifest": 5768,
      "Lunarcom": 5769,
      "gaze": 5770,
      "Select": 5771,
      "Assessment": 5772,
      "gradient": 5773,
      "Vulnerability": 5774,
      "benefi": 5775,
      "应聘者": 5776,
      "VulnerabilityAssessment": 5777,
      "54": 5778,
      "67": 5779,
      "Clear": 5780,
      "DF": 5781,
      "My": 5782,
      "Menu": 5783,
      "PS": 5784,
      "Spe": 5785,
      "Touch": 5786,
      "ade": 5787,
      "basic": 5788,
      "camera": 5789,
      "flag": 5790,
      "gges": 5791,
      "mrt": 5792,
      "sa": 5793,
      "uary": 5794,
      "vec": 5795,
      "一行": 5796,
      "便笺": 5797,
      "入口": 5798,
      "全球": 5799,
      "关注": 5800,
      "分录": 5801,
      "加班": 5802,
      "动力": 5803,
      "劳动力": 5804,
      "名字": 5805,
      "外接": 5806,
      "尼亚": 5807,
      "排名": 5808,
      "插件": 5809,
      "智能": 5810,
      "有限": 5811,
      "检验": 5812,
      "永久": 5813,
      "深色": 5814,
      "清理": 5815,
      "白色": 5816,
      "荷兰": 5817,
      "评级": 5818,
      "间接": 5819,
      "顶点": 5820,
      "nation": 5821,
      "navi": 5822,
      "include": 5823,
      "reason": 5824,
      "char": 5825,
      "tana": 5826,
      "tapp": 5827,
      "enc": 5828,
      "entic": 5829,
      "does": 5830,
      "documents": 5831,
      "acing": 5832,
      "mpt": 5833,
      "单元格": 5834,
      "extension": 5835,
      "external": 5836,
      "advanced": 5837,
      "查看器": 5838,
      "PidTagI": 5839,
      "Cookie": 5840,
      "modu": 5841,
      "AzHDInsight": 5842,
      "Output": 5843,
      "views": 5844,
      "ends": 5845,
      "apped": 5846,
      "Main": 5847,
      "associ": 5848,
      "accessing": 5849,
      "Track": 5850,
      "Discovery": 5851,
      "tention": 5852,
      "models": 5853,
      "AddressType": 5854,
      "tical": 5855,
      "transfer": 5856,
      "Domain": 5857,
      "nef": 5858,
      "opening": 5859,
      "versions": 5860,
      "ONNX": 5861,
      "ites": 5862,
      "contacts": 5863,
      "监视器": 5864,
      "FILE": 5865,
      "WinRT": 5866,
      "sending": 5867,
      "PinX": 5868,
      "querydef": 5869,
      "released": 5870,
      "MCDConnectedDevicesAccount": 5871,
      "MCDUserNotification": 5872,
      "Dialog": 5873,
      "Managed": 5874,
      "Debug": 5875,
      "Subscription": 5876,
      "ordinate": 5877,
      "Distribution": 5878,
      "Encryp": 5879,
      "Owner": 5880,
      "connecting": 5881,
      "ormal": 5882,
      "quisites": 5883,
      "AdaptiveCard": 5884,
      "Contains": 5885,
      "prerequisites": 5886,
      "mrtk": 5887,
      "BL": 5888,
      "Camera": 5889,
      "Dic": 5890,
      "Den": 5891,
      "Iot": 5892,
      "IIS": 5893,
      "JS": 5894,
      "NO": 5895,
      "Next": 5896,
      "Press": 5897,
      "Rot": 5898,
      "Ret": 5899,
      "Right": 5900,
      "Surface": 5901,
      "Sender": 5902,
      "The": 5903,
      "ULT": 5904,
      "Wh": 5905,
      "cc": 5906,
      "cr": 5907,
      "ep": 5908,
      "javascript": 5909,
      "ose": 5910,
      "sd": 5911,
      "scale": 5912,
      "stics": 5913,
      "zone": 5914,
      "上面": 5915,
      "不可用": 5916,
      "中间": 5917,
      "介于": 5918,
      "从中": 5919,
      "传统": 5920,
      "作者": 5921,
      "停留": 5922,
      "出差": 5923,
      "划分": 5924,
      "利润": 5925,
      "到此": 5926,
      "助于": 5927,
      "单价": 5928,
      "名为": 5929,
      "向前": 5930,
      "回复": 5931,
      "委托": 5932,
      "小于": 5933,
      "打卡": 5934,
      "撰写": 5935,
      "易于": 5936,
      "有助于": 5937,
      "澳大利": 5938,
      "签出": 5939,
      "终端": 5940,
      "网关": 5941,
      "网页": 5942,
      "规划": 5943,
      "里程": 5944,
      "阈值": 5945,
      "quantum": 5946,
      "tine": 5947,
      "only": 5948,
      "nab": 5949,
      "lex": 5950,
      "reg": 5951,
      "orer": 5952,
      "ority": 5953,
      "room": 5954,
      "alax": 5955,
      "ici": 5956,
      "ouble": 5957,
      "rie": 5958,
      "rig": 5959,
      "console": 5960,
      "verify": 5961,
      "Container": 5962,
      "Contoso": 5963,
      "Process": 5964,
      "Show": 5965,
      "show": 5966,
      "shutdown": 5967,
      "Activity": 5968,
      "webh": 5969,
      "worker": 5970,
      "ScriptDialog": 5971,
      "AddNew": 5972,
      "portal": 5973,
      "cancel": 5974,
      "JsSet": 5975,
      "JsRT": 5976,
      "Only": 5977,
      "PowerApps": 5978,
      "OpenXR": 5979,
      "planned": 5980,
      "CC002": 5981,
      "ledger": 5982,
      "Rules": 5983,
      "olicies": 5984,
      "chedul": 5985,
      "currence": 5986,
      "retrie": 5987,
      "expression": 5988,
      "ANSI": 5989,
      "Win32": 5990,
      "装箱单": 5991,
      "UTT": 5992,
      "directx": 5993,
      "required": 5994,
      "Controls": 5995,
      "PinY": 5996,
      "Chrome": 5997,
      "OPER": 5998,
      "Markdown": 5999,
      "市场营销": 6000,
      "Template": 6001,
      "Attributes": 6002,
      "承运人": 6003,
      "WHS": 6004,
      "RFC": 6005,
      "Agent": 6006,
      "GNJL001": 6007,
      "constraint": 6008,
      "澳大利亚": 6009,
      "alaxy": 6010,
      "69": 6011,
      "Ass": 6012,
      "Curre": 6013,
      "Close": 6014,
      "Certificate": 6015,
      "EM": 6016,
      "EX": 6017,
      "IBAN": 6018,
      "Kernel": 6019,
      "Min": 6020,
      "Other": 6021,
      "Pi": 6022,
      "Pen": 6023,
      "RM": 6024,
      "SH": 6025,
      "Scope": 6026,
      "Uri": 6027,
      "aded": 6028,
      "astronaut": 6029,
      "bot": 6030,
      "cor": 6031,
      "dic": 6032,
      "enab": 6033,
      "fri": 6034,
      "gy": 6035,
      "ground": 6036,
      "has": 6037,
      "havi": 6038,
      "my": 6039,
      "oot": 6040,
      "ui": 6041,
      "win": 6042,
      "不过": 6043,
      "严重": 6044,
      "中将": 6045,
      "仍然": 6046,
      "催款": 6047,
      "充当": 6048,
      "全职": 6049,
      "勾销": 6050,
      "发放": 6051,
      "可靠": 6052,
      "同样": 6053,
      "向后": 6054,
      "在一起": 6055,
      "地图": 6056,
      "审批": 6057,
      "形成": 6058,
      "拆分": 6059,
      "拉列表": 6060,
      "本身": 6061,
      "段落": 6062,
      "比利": 6063,
      "用来": 6064,
      "第3": 6065,
      "算器": 6066,
      "精益": 6067,
      "自助": 6068,
      "行数": 6069,
      "记住": 6070,
      "账单": 6071,
      "货位": 6072,
      "防止": 6073,
      "隔离": 6074,
      "ert": 6075,
      "len": 6076,
      "ors": 6077,
      "tection": 6078,
      "ank": 6079,
      "bruary": 6080,
      "alcu": 6081,
      "loat": 6082,
      "procure": 6083,
      "arri": 6084,
      "ved": 6085,
      "usted": 6086,
      "参数化": 6087,
      "2019": 6088,
      "plorer": 6089,
      "Tags": 6090,
      "Unreal": 6091,
      "itle": 6092,
      "addnew": 6093,
      "viewer": 6094,
      "mapiuid": 6095,
      "邮箱所有者": 6096,
      "locate": 6097,
      "审核人": 6098,
      "ysis": 6099,
      "Forward": 6100,
      "呈现器": 6101,
      "ips": 6102,
      "pointments": 6103,
      "申请人": 6104,
      "updated": 6105,
      "february": 6106,
      "Field2": 6107,
      "PowerShell": 6108,
      "lists": 6109,
      "Workspace": 6110,
      "Records": 6111,
      "registr": 6112,
      "Margin": 6113,
      "SearchKey": 6114,
      "UNI": 6115,
      "消耗量": 6116,
      "ShapeShdw": 6117,
      "TableDef": 6118,
      "journals": 6119,
      "expand": 6120,
      "refresh": 6121,
      "receipt": 6122,
      "manifests": 6123,
      "ORM": 6124,
      "cheduleInfo": 6125,
      "中国式": 6126,
      "AzSqlServer": 6127,
      "public": 6128,
      "approval": 6129,
      "Feder": 6130,
      "PidTagScheduleInfo": 6131,
      "flic": 6132,
      "spropvalue": 6133,
      "Support": 6134,
      "准确性": 6135,
      "QuickStyle": 6136,
      "permissions": 6137,
      "Cortana": 6138,
      "NuGet": 6139,
      "breaking": 6140,
      "umbers": 6141,
      "wrapped": 6142,
      "cheduling": 6143,
      "enabling": 6144,
      "procurement": 6145,
      "57": 6146,
      "EE": 6147,
      "Eng": 6148,
      "East": 6149,
      "Esc": 6150,
      "Empty": 6151,
      "FORM": 6152,
      "IMAPI": 6153,
      "Javascript": 6154,
      "Mod": 6155,
      "OK": 6156,
      "Push": 6157,
      "SWI": 6158,
      "Title": 6159,
      "Vari": 6160,
      "Zone": 6161,
      "cch": 6162,
      "cursor": 6163,
      "ek": 6164,
      "evalu": 6165,
      "go": 6166,
      "node": 6167,
      "numbers": 6168,
      "pare": 6169,
      "push": 6170,
      "rc": 6171,
      "sort": 6172,
      "sum": 6173,
      "ufor": 6174,
      "uble": 6175,
      "以后": 6176,
      "促销": 6177,
      "内联": 6178,
      "发起": 6179,
      "右侧": 6180,
      "多少": 6181,
      "就绪": 6182,
      "指数": 6183,
      "效于": 6184,
      "早期": 6185,
      "最近": 6186,
      "有时": 6187,
      "未来": 6188,
      "来宾": 6189,
      "消除": 6190,
      "潜在": 6191,
      "真实": 6192,
      "稍后": 6193,
      "第5": 6194,
      "联接": 6195,
      "自然": 6196,
      "蓝图": 6197,
      "蓝色": 6198,
      "西亚": 6199,
      "订购": 6200,
      "试用": 6201,
      "资料": 6202,
      "追加": 6203,
      "选项": 6204,
      "隐式": 6205,
      "风险": 6206,
      "nap": 6207,
      "tex": 6208,
      "align": 6209,
      "allocation": 6210,
      "ching": 6211,
      "make": 6212,
      "machine": 6213,
      "dev": 6214,
      "ected": 6215,
      "loud": 6216,
      "eng": 6217,
      "ense": 6218,
      "const": 6219,
      "coordinate": 6220,
      "Reset": 6221,
      "Representing": 6222,
      "sig": 6223,
      "sive": 6224,
      "MAPIERROR": 6225,
      "platform": 6226,
      "createitem": 6227,
      "shoot": 6228,
      "控制台": 6229,
      "Under": 6230,
      "Unknown": 6231,
      "pidta": 6232,
      "Recurrence": 6233,
      "库存量": 6234,
      "abor": 6235,
      "locks": 6236,
      "availability": 6237,
      "interest": 6238,
      "intercompany": 6239,
      "trouble": 6240,
      "click": 6241,
      "Attende": 6242,
      "projects": 6243,
      "Timeout": 6244,
      "ksg": 6245,
      "收件箱": 6246,
      "rtf": 6247,
      "feedback": 6248,
      "MFC": 6249,
      "developers": 6250,
      "UpdateItem": 6251,
      "CODE": 6252,
      "ARI": 6253,
      "Part": 6254,
      "CC003": 6255,
      "impor": 6256,
      "Boolean": 6257,
      "Protocol": 6258,
      "mailboxes": 6259,
      "requirements": 6260,
      "Header": 6261,
      "Private": 6262,
      "Secure": 6263,
      "column": 6264,
      "xlf": 6265,
      "category": 6266,
      "Package": 6267,
      "Depth": 6268,
      "consolidation": 6269,
      "Route": 6270,
      "Multi": 6271,
      "Bottom": 6272,
      "analysis": 6273,
      "Month": 6274,
      "target": 6275,
      "tappmanifests": 6276,
      "Return": 6277,
      "UTTON": 6278,
      "friends": 6279,
      "SWIFT": 6280,
      "cchksg": 6281,
      "uforia": 6282,
      "troubleshoot": 6283,
      "2000": 6284,
      "300": 6285,
      "61": 6286,
      "82": 6287,
      "96": 6288,
      "AML": 6289,
      "Cursor": 6290,
      "HRE": 6291,
      "Led": 6292,
      "Lit": 6293,
      "MX": 6294,
      "Man": 6295,
      "Mes": 6296,
      "OF": 6297,
      "PM": 6298,
      "Pattern": 6299,
      "SID": 6300,
      "Sam": 6301,
      "Tele": 6302,
      "VAL": 6303,
      "Vide": 6304,
      "WN": 6305,
      "World": 6306,
      "frequ": 6307,
      "ile": 6308,
      "ibility": 6309,
      "lpp": 6310,
      "ming": 6311,
      "miscellaneous": 6312,
      "oms": 6313,
      "rag": 6314,
      "scheduling": 6315,
      "tree": 6316,
      "ume": 6317,
      "临时": 6318,
      "人口": 6319,
      "优惠": 6320,
      "候选": 6321,
      "净值": 6322,
      "出于": 6323,
      "即将": 6324,
      "台中": 6325,
      "哪个": 6326,
      "商品": 6327,
      "基块": 6328,
      "字典": 6329,
      "尽管": 6330,
      "嵌套": 6331,
      "帐面": 6332,
      "带薪": 6333,
      "年份": 6334,
      "建模": 6335,
      "开销": 6336,
      "抄送": 6337,
      "拼写": 6338,
      "探索": 6339,
      "提升": 6340,
      "是为": 6341,
      "有权": 6342,
      "欢迎": 6343,
      "派生": 6344,
      "电缆": 6345,
      "短语": 6346,
      "磁贴": 6347,
      "礼品": 6348,
      "虽然": 6349,
      "认为": 6350,
      "过去": 6351,
      "这里": 6352,
      "预定": 6353,
      "128": 6354,
      "quantity": 6355,
      "memory": 6356,
      "metadata": 6357,
      "rever": 6358,
      "getitem": 6359,
      "tab": 6360,
      "dexed": 6361,
      "percent": 6362,
      "appointments": 6363,
      "accounting": 6364,
      "mport": 6365,
      "Expi": 6366,
      "adjust": 6367,
      "Detection": 6368,
      "WebResource": 6369,
      "plic": 6370,
      "created": 6371,
      "utorial": 6372,
      "shal": 6373,
      "ube": 6374,
      "ocket": 6375,
      "mapierror": 6376,
      "ImageS": 6377,
      "examples": 6378,
      "组织者": 6379,
      "Result": 6380,
      "dispidSharing": 6381,
      "UserConfiguration": 6382,
      "commit": 6383,
      "SELE": 6384,
      "base64": 6385,
      "resses": 6386,
      "ipul": 6387,
      "CreateFolder": 6388,
      "notation": 6389,
      "申请表": 6390,
      "AddressBook": 6391,
      "UEFI": 6392,
      "TimeZone": 6393,
      "LineTo": 6394,
      "manipul": 6395,
      "prepare": 6396,
      "cmdlets": 6397,
      "打印机": 6398,
      "submit": 6399,
      "Split": 6400,
      "handler": 6401,
      "displaying": 6402,
      "automa": 6403,
      "PAY": 6404,
      "contents": 6405,
      "samples": 6406,
      "Submit": 6407,
      "monit": 6408,
      "Cannot": 6409,
      "registering": 6410,
      "Recipients": 6411,
      "deployment": 6412,
      "核心版": 6413,
      "Root": 6414,
      "integration": 6415,
      "categories": 6416,
      "Refresh": 6417,
      "Handler": 6418,
      "侦听器": 6419,
      "positions": 6420,
      "Category": 6421,
      "cedure": 6422,
      "Recognizer": 6423,
      "Persona": 6424,
      "library": 6425,
      "voucher": 6426,
      "safe": 6427,
      "havior": 6428,
      "MFCMAPI": 6429,
      "cchksgfiles": 6430,
      "Litware": 6431,
      "Mesh": 6432,
      "59": 6433,
      "765": 6434,
      "800": 6435,
      "Cc": 6436,
      "Di": 6437,
      "Dec": 6438,
      "Down": 6439,
      "Draw": 6440,
      "Double": 6441,
      "FO": 6442,
      "Function": 6443,
      "Font": 6444,
      "Game": 6445,
      "Import": 6446,
      "Layers": 6447,
      "PR": 6448,
      "Pa": 6449,
      "STR": 6450,
      "Social": 6451,
      "SULT": 6452,
      "Ty": 6453,
      "UDF": 6454,
      "average": 6455,
      "cycle": 6456,
      "catalog": 6457,
      "emulator": 6458,
      "fa": 6459,
      "fre": 6460,
      "fol": 6461,
      "lur": 6462,
      "mine": 6463,
      "nse": 6464,
      "oper": 6465,
      "pull": 6466,
      "policies": 6467,
      "uri": 6468,
      "uwp": 6469,
      "上次": 6470,
      "专业": 6471,
      "丰富": 6472,
      "停靠": 6473,
      "光标": 6474,
      "兴趣": 6475,
      "出错": 6476,
      "分部": 6477,
      "划线": 6478,
      "卡中": 6479,
      "双面": 6480,
      "周围": 6481,
      "商务": 6482,
      "国际": 6483,
      "填写": 6484,
      "如此": 6485,
      "子文件": 6486,
      "审阅": 6487,
      "并不": 6488,
      "徽标": 6489,
      "承载": 6490,
      "抬头": 6491,
      "拖放": 6492,
      "括号": 6493,
      "挂起": 6494,
      "排列": 6495,
      "文字": 6496,
      "朋友": 6497,
      "构成": 6498,
      "沙盒": 6499,
      "演练": 6500,
      "灵活": 6501,
      "状况": 6502,
      "第4": 6503,
      "签发": 6504,
      "结帐": 6505,
      "英寸": 6506,
      "装载": 6507,
      "装配": 6508,
      "见解": 6509,
      "规模": 6510,
      "资金": 6511,
      "超链": 6512,
      "转储": 6513,
      "转包": 6514,
      "载到": 6515,
      "过期": 6516,
      "键值": 6517,
      "雇员": 6518,
      "马来": 6519,
      "高效": 6520,
      "otal": 6521,
      "member": 6522,
      "named": 6523,
      "rep": 6524,
      "tele": 6525,
      "rodu": 6526,
      "studio": 6527,
      "max": 6528,
      "dec": 6529,
      "ssaging": 6530,
      "progress": 6531,
      "docs": 6532,
      "force": 6533,
      "acy": 6534,
      "first": 6535,
      "them": 6536,
      "显示器": 6537,
      "Extended": 6538,
      "dern": 6539,
      "concep": 6540,
      "conversation": 6541,
      "Replace": 6542,
      "dinal": 6543,
      "sets": 6544,
      "teria": 6545,
      "PidTagContact": 6546,
      "moving": 6547,
      "output": 6548,
      "webs": 6549,
      "GetRo": 6550,
      "cells": 6551,
      "getuser": 6552,
      "ithub": 6553,
      "0003": 6554,
      "Admin": 6555,
      "worksheet": 6556,
      "abel": 6557,
      "PidLidSharing": 6558,
      "Channel": 6559,
      "ableItem": 6560,
      "audi": 6561,
      "177": 6562,
      "optional": 6563,
      "playon": 6564,
      "Transp": 6565,
      "StatusError": 6566,
      "MessageId": 6567,
      "guments": 6568,
      "guide": 6569,
      "statements": 6570,
      "developer": 6571,
      "immer": 6572,
      "validate": 6573,
      "ArrayBuffer": 6574,
      "solute": 6575,
      "linux": 6576,
      "definitions": 6577,
      "marks": 6578,
      "Props": 6579,
      "requests": 6580,
      "WorkLine": 6581,
      "呼叫者": 6582,
      "Ordinal": 6583,
      "PIA": 6584,
      "IndexableItem": 6585,
      "physical": 6586,
      "6063": 6587,
      "subject": 6588,
      "SSL": 6589,
      "primary": 6590,
      "ContentLoad": 6591,
      "SourceChanged": 6592,
      "expense": 6593,
      "OriginalDisplayName": 6594,
      "PWAs": 6595,
      "Receipt": 6596,
      "logon": 6597,
      "systems": 6598,
      "localStorage": 6599,
      "NonIndexableItem": 6600,
      "unknown": 6601,
      "FTI": 6602,
      "dentity": 6603,
      "interfaces": 6604,
      "Priority": 6605,
      "Extensions": 6606,
      "Started": 6607,
      "authentic": 6608,
      "Offset": 6609,
      "popup": 6610,
      "MBM": 6611,
      "Publish": 6612,
      "Hello": 6613,
      "递减法": 6614,
      "holograms": 6615,
      "scenarios": 6616,
      "Launcher": 6617,
      "Occurrence": 6618,
      "Http": 6619,
      "business": 6620,
      "collabor": 6621,
      "渐进式": 6622,
      "admini": 6623,
      "rigger": 6624,
      "WHSWorkLine": 6625,
      "比利时": 6626,
      "HRESULT": 6627,
      "Video": 6628,
      "reverse": 6629,
      "SELECT": 6630,
      "PAYM": 6631,
      "GameObject": 6632,
      "606300": 6633,
      "ContentLoading": 6634,
      "3C": 6635,
      "62": 6636,
      "Bi": 6637,
      "Drop": 6638,
      "Ele": 6639,
      "Fl": 6640,
      "History": 6641,
      "ION": 6642,
      "Language": 6643,
      "NT": 6644,
      "OPOS": 6645,
      "OEM": 6646,
      "PE": 6647,
      "Range": 6648,
      "Sk": 6649,
      "Sample": 6650,
      "Use": 6651,
      "VE": 6652,
      "Var": 6653,
      "Zo": 6654,
      "amar": 6655,
      "blob": 6656,
      "ees": 6657,
      "fast": 6658,
      "fact": 6659,
      "ilt": 6660,
      "lay": 6661,
      "last": 6662,
      "mouse": 6663,
      "ping": 6664,
      "xr": 6665,
      "上载": 6666,
      "例映": 6667,
      "偏差": 6668,
      "先前": 6669,
      "准则": 6670,
      "凝视": 6671,
      "分页": 6672,
      "办公": 6673,
      "区分": 6674,
      "单一": 6675,
      "厘米": 6676,
      "受益": 6677,
      "哈希": 6678,
      "因素": 6679,
      "围绕": 6680,
      "外币": 6681,
      "大型": 6682,
      "并行": 6683,
      "意大利": 6684,
      "扬声": 6685,
      "批号": 6686,
      "暂时": 6687,
      "有条件": 6688,
      "比例": 6689,
      "流中": 6690,
      "流量": 6691,
      "消费": 6692,
      "清晰": 6693,
      "电量": 6694,
      "疑难": 6695,
      "的后": 6696,
      "立陶": 6697,
      "粘附": 6698,
      "约定": 6699,
      "联合": 6700,
      "自治": 6701,
      "解锁": 6702,
      "解除": 6703,
      "认知": 6704,
      "质检": 6705,
      "这个": 6706,
      "退税": 6707,
      "重启": 6708,
      "除外": 6709,
      "频道": 6710,
      "额度": 6711,
      "gth": 6712,
      "medi": 6713,
      "err": 6714,
      "ino": 6715,
      "reminder": 6716,
      "team": 6717,
      "testing": 6718,
      "rome": 6719,
      "属性值": 6720,
      "stati": 6721,
      "idden": 6722,
      "mac": 6723,
      "icing": 6724,
      "icator": 6725,
      "decl": 6726,
      "perform": 6727,
      "proces": 6728,
      "aran": 6729,
      "doc": 6730,
      "dock": 6731,
      "lif": 6732,
      "fir": 6733,
      "toolkit": 6734,
      "context": 6735,
      "upload": 6736,
      "Restric": 6737,
      "Reason": 6738,
      "处理器": 6739,
      "edge": 6740,
      "units": 6741,
      "Indexed": 6742,
      "Webview": 6743,
      "WebMessage": 6744,
      "TagArray": 6745,
      "销售价": 6746,
      "serial": 6747,
      "PidTagInternet": 6748,
      "PidTagRule": 6749,
      "asse": 6750,
      "recalcu": 6751,
      "stop": 6752,
      "Azs": 6753,
      "Char": 6754,
      "mime": 6755,
      "符串值": 6756,
      "Master": 6757,
      "managing": 6758,
      "DevToolsProtocol": 6759,
      "JsRuntime": 6760,
      "SETA": 6761,
      "ShapeSplit": 6762,
      "internet": 6763,
      "交互式": 6764,
      "formatted": 6765,
      "HTML14": 6766,
      "recordsets": 6767,
      "spatialization": 6768,
      "cheme": 6769,
      "Appro": 6770,
      "lpsz": 6771,
      "Country": 6772,
      "idemail": 6773,
      "prin": 6774,
      "预览版": 6775,
      "costs": 6776,
      "Plan": 6777,
      "CC001": 6778,
      "DateTime": 6779,
      "MoveFocus": 6780,
      "ready": 6781,
      "running": 6782,
      "designer": 6783,
      "POP": 6784,
      "pidlidemail": 6785,
      "Left": 6786,
      "calling": 6787,
      "cluster": 6788,
      "guides": 6789,
      "sources": 6790,
      "structures": 6791,
      "levels": 6792,
      "programmatically": 6793,
      "programming": 6794,
      "Driver": 6795,
      "IMLOperatorKernel": 6796,
      "sharepoint": 6797,
      "identif": 6798,
      "Rows": 6799,
      "agreements": 6800,
      "NavigationCompleted": 6801,
      "MRC": 6802,
      "缓冲区": 6803,
      "MCDConnectedDevicesNotification": 6804,
      "anchors": 6805,
      "description": 6806,
      "稳定性": 6807,
      "resolve": 6808,
      "当事方": 6809,
      "Capture": 6810,
      "angle": 6811,
      "activex": 6812,
      "许可证": 6813,
      "settlement": 6814,
      "determin": 6815,
      "着色器": 6816,
      "across": 6817,
      "Column": 6818,
      "ManagedFolder": 6819,
      "Dictation": 6820,
      "里程碑": 6821,
      "马来西亚": 6822,
      "concepts": 6823,
      "Binary": 6824,
      "amarin": 6825,
      "立陶宛": 6826,
      "SETATREF": 6827,
      "90": 6828,
      "940": 6829,
      "AB": 6830,
      "AF": 6831,
      "AM": 6832,
      "Am": 6833,
      "Bu": 6834,
      "BUTTON": 6835,
      "Cell": 6836,
      "DN": 6837,
      "El": 6838,
      "Gen": 6839,
      "Glue": 6840,
      "Listen": 6841,
      "NTRY": 6842,
      "OAuth": 6843,
      "Smtp": 6844,
      "Test": 6845,
      "bet": 6846,
      "edi": 6847,
      "float": 6848,
      "gl": 6849,
      "hr": 6850,
      "history": 6851,
      "iti": 6852,
      "ise": 6853,
      "ich": 6854,
      "ires": 6855,
      "rf": 6856,
      "sg": 6857,
      "sother": 6858,
      "vok": 6859,
      "不足": 6860,
      "今天": 6861,
      "优点": 6862,
      "传真": 6863,
      "修订": 6864,
      "全息": 6865,
      "冰岛": 6866,
      "分层": 6867,
      "加入": 6868,
      "务必": 6869,
      "只要": 6870,
      "合规": 6871,
      "大批": 6872,
      "头部": 6873,
      "实验": 6874,
      "容易": 6875,
      "尽可能": 6876,
      "开关": 6877,
      "归属": 6878,
      "总额": 6879,
      "截断": 6880,
      "所属": 6881,
      "投票": 6882,
      "接近": 6883,
      "撤回": 6884,
      "料单": 6885,
      "最初": 6886,
      "树形": 6887,
      "测量": 6888,
      "燃油": 6889,
      "甚至": 6890,
      "画布": 6891,
      "直线": 6892,
      "相反": 6893,
      "移植": 6894,
      "签入": 6895,
      "管道": 6896,
      "而且": 6897,
      "行上": 6898,
      "街道": 6899,
      "记账": 6900,
      "读写": 6901,
      "贷记": 6902,
      "过时": 6903,
      "遍历": 6904,
      "那么": 6905,
      "长期": 6906,
      "随时": 6907,
      "预警": 6908,
      "120": 6909,
      "quick": 6910,
      "tin": 6911,
      "measure": 6912,
      "reb": 6913,
      "recom": 6914,
      "tend": 6915,
      "thon": 6916,
      "选择器": 6917,
      "icro": 6918,
      "操作员": 6919,
      "操作性": 6920,
      "domain": 6921,
      "limi": 6922,
      "light": 6923,
      "ribb": 6924,
      "工作日": 6925,
      "工作表": 6926,
      "connected": 6927,
      "ex15": 6928,
      "结构化": 6929,
      "Inference": 6930,
      "Progress": 6931,
      "错误值": 6932,
      "PidTagR": 6933,
      "PidTagRecipient": 6934,
      "criteria": 6935,
      "扩展性": 6936,
      "pox": 6937,
      "Accept": 6938,
      "Serial": 6939,
      "Errors": 6940,
      "ErrorCalendar": 6941,
      "PidLidLog": 6942,
      "PidLidWorkAddress": 6943,
      "Memory": 6944,
      "duino": 6945,
      "Addons": 6946,
      "Addresses": 6947,
      "functionality": 6948,
      "dispidEmail": 6949,
      "comm": 6950,
      "Arrow": 6951,
      "0x0": 6952,
      "Attribu": 6953,
      "before": 6954,
      "rott": 6955,
      "nabled": 6956,
      "Physical": 6957,
      "Groups": 6958,
      "matching": 6959,
      "impro": 6960,
      "MailT": 6961,
      "tags": 6962,
      "ishment": 6963,
      "instance": 6964,
      "Opening": 6965,
      "link": 6966,
      "REST": 6967,
      "coverage": 6968,
      "Common": 6969,
      "ween": 6970,
      "vcsother": 6971,
      "UNC": 6972,
      "workflows": 6973,
      "ImContact": 6974,
      "兼容性": 6975,
      "calculate": 6976,
      "WinML": 6977,
      "cards": 6978,
      "images": 6979,
      "Sugges": 6980,
      "dential": 6981,
      "SPropTagArray": 6982,
      "Alignment": 6983,
      "adie": 6984,
      "writing": 6985,
      "entryid": 6986,
      "Install": 6987,
      "Execute": 6988,
      "Execution": 6989,
      "initialize": 6990,
      "sessionStorage": 6991,
      "持久化": 6992,
      "IOlk": 6993,
      "istence": 6994,
      "settle": 6995,
      "Webhint": 6996,
      "Audit": 6997,
      "OofSettings": 6998,
      "SortKey": 6999,
      "摄像头": 7000,
      "摄像机": 7001,
      "Foregnd": 7002,
      "controllers": 7003,
      "origi": 7004,
      "Grid": 7005,
      "WiFi": 7006,
      "technolo": 7007,
      "employee": 7008,
      "deleting": 7009,
      "receiving": 7010,
      "Theme": 7011,
      "ScriptDialogOpening": 7012,
      "constraints": 7013,
      "UNICODE": 7014,
      "Engine": 7015,
      "ARIA": 7016,
      "Ledger": 7017,
      "WebResourceRequested": 7018,
      "manipulation": 7019,
      "PidTagContactAddressBook": 7020,
      "websvcsother": 7021,
      "17763": 7022,
      "playonphone": 7023,
      "immersive": 7024,
      "Zoom": 7025,
      "扬声器": 7026,
      "自治区": 7027,
      "lifecycle": 7028,
      "MoveFocusRequested": 7029,
      "Amount": 7030,
      "Gener": 7031,
      "ex15websvcsother": 7032,
      "ex15websvcsotherref": 7033,
      "66": 7034,
      "86": 7035,
      "After": 7036,
      "City": 7037,
      "DT": 7038,
      "Duration": 7039,
      "Dimension": 7040,
      "EUR": 7041,
      "FR": 7042,
      "Flip": 7043,
      "FLA": 7044,
      "Gu": 7045,
      "IE": 7046,
      "JO": 7047,
      "Junk": 7048,
      "Long": 7049,
      "Mat": 7050,
      "Old": 7051,
      "OIO": 7052,
      "Py": 7053,
      "Pane": 7054,
      "Que": 7055,
      "Rocket": 7056,
      "Sce": 7057,
      "Sen": 7058,
      "SPI": 7059,
      "SRow": 7060,
      "TO": 7061,
      "Tour": 7062,
      "UBL": 7063,
      "W3C": 7064,
      "XS": 7065,
      "XPath": 7066,
      "XAML": 7067,
      "cast": 7068,
      "dynamics": 7069,
      "ffor": 7070,
      "iolk": 7071,
      "omi": 7072,
      "pick": 7073,
      "password": 7074,
      "range": 7075,
      "ride": 7076,
      "sync": 7077,
      "side": 7078,
      "social": 7079,
      "v2": 7080,
      "vat": 7081,
      "专门": 7082,
      "个字节": 7083,
      "交叉": 7084,
      "位数": 7085,
      "保证": 7086,
      "借出": 7087,
      "先进": 7088,
      "全名": 7089,
      "内核": 7090,
      "分为": 7091,
      "分叉": 7092,
      "制定": 7093,
      "前导": 7094,
      "单词": 7095,
      "原理": 7096,
      "友好": 7097,
      "双向": 7098,
      "变更": 7099,
      "和会": 7100,
      "备注": 7101,
      "复合": 7102,
      "奥地": 7103,
      "尤其": 7104,
      "强调": 7105,
      "恶意": 7106,
      "抓取": 7107,
      "报废": 7108,
      "拉菜单": 7109,
      "挪威": 7110,
      "改用": 7111,
      "时数": 7112,
      "欧元": 7113,
      "正式": 7114,
      "此操作": 7115,
      "沙尼亚": 7116,
      "波次": 7117,
      "清算": 7118,
      "爱沙尼亚": 7119,
      "看看": 7120,
      "离开": 7121,
      "精确": 7122,
      "维亚": 7123,
      "表函": 7124,
      "解码": 7125,
      "认证": 7126,
      "货物": 7127,
      "超出": 7128,
      "超额": 7129,
      "达标": 7130,
      "送达": 7131,
      "逐步": 7132,
      "银箱": 7133,
      "队列": 7134,
      "隐私": 7135,
      "页上": 7136,
      "预定义": 7137,
      "频繁": 7138,
      "tinu": 7139,
      "tination": 7140,
      "tistics": 7141,
      "ines": 7142,
      "rea": 7143,
      "relations": 7144,
      "gen": 7145,
      "sent": 7146,
      "stage": 7147,
      "storage": 7148,
      "idd": 7149,
      "chrome": 7150,
      "mak": 7151,
      "mask": 7152,
      "icon": 7153,
      "程序员": 7154,
      "aries": 7155,
      "lice": 7156,
      "lied": 7157,
      "fix": 7158,
      "top": 7159,
      "工作者": 7160,
      "etch": 7161,
      "ebus": 7162,
      "conc": 7163,
      "consu": 7164,
      "confir": 7165,
      "Relation": 7166,
      "Reviewer": 7167,
      "ditem": 7168,
      "Invoice": 7169,
      "Initi": 7170,
      "ilure": 7171,
      "格式化": 7172,
      "Develo": 7173,
      "计算所": 7174,
      "Prox": 7175,
      "plans": 7176,
      "dable": 7177,
      "series": 7178,
      "PidTagSearch": 7179,
      "spee": 7180,
      "ours": 7181,
      "Tool": 7182,
      "short": 7183,
      "Unique": 7184,
      "Added": 7185,
      "Advanced": 7186,
      "Recurring": 7187,
      "Namespace": 7188,
      "HoloTour": 7189,
      "Statistics": 7190,
      "Child": 7191,
      "duct": 7192,
      "工具栏": 7193,
      "ulate": 7194,
      "Strings": 7195,
      "转换器": 7196,
      "调试器": 7197,
      "Forms": 7198,
      "Creation": 7199,
      "Modern": 7200,
      "interaction": 7201,
      "第一代": 7202,
      "paragraph": 7203,
      "CSP": 7204,
      "EventHub": 7205,
      "实例化": 7206,
      "存在于": 7207,
      "behavior": 7208,
      "rotation": 7209,
      "ING": 7210,
      "INV": 7211,
      "reeting": 7212,
      "NotFound": 7213,
      "ARM": 7214,
      "validation": 7215,
      "activec": 7216,
      "BACS": 7217,
      "visible": 7218,
      "重要性": 7219,
      "Perception": 7220,
      "PAB": 7221,
      "phot": 7222,
      "customers": 7223,
      "packing": 7224,
      "multi": 7225,
      "Compo": 7226,
      "Company": 7227,
      "hierarchies": 7228,
      "http": 7229,
      "implement": 7230,
      "akra": 7231,
      "placement": 7232,
      "PhoneCall": 7233,
      "boarding": 7234,
      "ENTRY": 7235,
      "formulas": 7236,
      "capture": 7237,
      "deploying": 7238,
      "dlls": 7239,
      "OPEN": 7240,
      "connector": 7241,
      "ReadReceipt": 7242,
      "enumeration": 7243,
      "approve": 7244,
      "Insights": 7245,
      "foreign": 7246,
      "ynchronous": 7247,
      "Feedback": 7248,
      "author": 7249,
      "DLP": 7250,
      "initializing": 7251,
      "variable": 7252,
      "Capabilities": 7253,
      "Obj": 7254,
      "2020年": 7255,
      "Public": 7256,
      "Parameters": 7257,
      "natures": 7258,
      "restrictions": 7259,
      "LineJumpDir": 7260,
      "SCP": 7261,
      "Webhook": 7262,
      "choose": 7263,
      "execute": 7264,
      "determine": 7265,
      "ThreatProtection": 7266,
      "Available": 7267,
      "Availability": 7268,
      "controlling": 7269,
      "收益率": 7270,
      "sequences": 7271,
      "Checked": 7272,
      "questionnaire": 7273,
      "util": 7274,
      "负债表": 7275,
      "reducing": 7276,
      "requisition": 7277,
      "日程表": 7278,
      "navig": 7279,
      "ency": 7280,
      "module": 7281,
      "Rotation": 7282,
      "Whole": 7283,
      "sdk": 7284,
      "webhint": 7285,
      "Current": 7286,
      "engine": 7287,
      "signatures": 7288,
      "Attendees": 7289,
      "follow": 7290,
      "audio": 7291,
      "collaboration": 7292,
      "processes": 7293,
      "assemb": 7294,
      "identify": 7295,
      "MCDConnectedDevicesNotificationRegistration": 7296,
      "between": 7297,
      "InferenceContext": 7298,
      "ZoomFactor": 7299,
      "JOIN": 7300,
      "OIOUBL": 7301,
      "RocketLauncher": 7302,
      "Scene": 7303,
      "speech": 7304,
      "AdvancedThreatProtection": 7305,
      "05": 7306,
      "512": 7307,
      "95": 7308,
      "Bank": 7309,
      "Cust": 7310,
      "Cube": 7311,
      "Effect": 7312,
      "Employ": 7313,
      "Galaxy": 7314,
      "Hr": 7315,
      "Icon": 7316,
      "Lang": 7317,
      "M000": 7318,
      "Macro": 7319,
      "OY": 7320,
      "PUN": 7321,
      "Pressed": 7322,
      "Snap": 7323,
      "TL": 7324,
      "UX": 7325,
      "Uid": 7326,
      "VB": 7327,
      "Vuforia": 7328,
      "Wee": 7329,
      "Xbox": 7330,
      "Xamarin": 7331,
      "YY": 7332,
      "YOY": 7333,
      "browser": 7334,
      "cm": 7335,
      "ding": 7336,
      "draw": 7337,
      "eded": 7338,
      "each": 7339,
      "eople": 7340,
      "font": 7341,
      "flex": 7342,
      "hold": 7343,
      "hidden": 7344,
      "ina": 7345,
      "jul": 7346,
      "jump": 7347,
      "kgnd": 7348,
      "lers": 7349,
      "lating": 7350,
      "operator": 7351,
      "sw": 7352,
      "sav": 7353,
      "sale": 7354,
      "war": 7355,
      "主数据": 7356,
      "以上": 7357,
      "传感": 7358,
      "传送": 7359,
      "减去": 7360,
      "分区": 7361,
      "分布": 7362,
      "前缀": 7363,
      "单步": 7364,
      "单行": 7365,
      "合适": 7366,
      "品牌": 7367,
      "唤醒": 7368,
      "地点": 7369,
      "增量": 7370,
      "外贸": 7371,
      "小数": 7372,
      "帐值": 7373,
      "延伸": 7374,
      "开启": 7375,
      "引脚": 7376,
      "强大": 7377,
      "总和": 7378,
      "惯例": 7379,
      "成批": 7380,
      "手指": 7381,
      "按时": 7382,
      "损失": 7383,
      "排队": 7384,
      "接字": 7385,
      "推出": 7386,
      "撤消": 7387,
      "改善": 7388,
      "无线": 7389,
      "机会": 7390,
      "权重": 7391,
      "次数": 7392,
      "消失": 7393,
      "疾病": 7394,
      "登月": 7395,
      "直观": 7396,
      "相比": 7397,
      "省略": 7398,
      "看起来": 7399,
      "矩阵": 7400,
      "确切": 7401,
      "碰撞": 7402,
      "私有": 7403,
      "精简": 7404,
      "细分": 7405,
      "维修": 7406,
      "而言": 7407,
      "若干": 7408,
      "行业": 7409,
      "行动": 7410,
      "行号": 7411,
      "衍生": 7412,
      "要素": 7413,
      "观看": 7414,
      "规定": 7415,
      "设施": 7416,
      "谓词": 7417,
      "跨度": 7418,
      "那些": 7419,
      "配合": 7420,
      "配对": 7421,
      "配额": 7422,
      "重试": 7423,
      "随后": 7424,
      "隶属": 7425,
      "预缴": 7426,
      "领取": 7427,
      "less": 7428,
      "reconc": 7429,
      "stype": 7430,
      "olume": 7431,
      "liance": 7432,
      "limit": 7433,
      "android": 7434,
      "tok": 7435,
      "mption": 7436,
      "contr": 7437,
      "conditional": 7438,
      "continu": 7439,
      "upda": 7440,
      "Retention": 7441,
      "ditions": 7442,
      "digit": 7443,
      "所有权": 7444,
      "unreal": 7445,
      "Deleg": 7446,
      "urns": 7447,
      "simple": 7448,
      "simul": 7449,
      "cture": 7450,
      "Sheet": 7451,
      "PidTagStore": 7452,
      "PidTagReport": 7453,
      "Cov": 7454,
      "asting": 7455,
      "相关性": 7456,
      "people": 7457,
      "criptions": 7458,
      "ToDo": 7459,
      "boms": 7460,
      "disable": 7461,
      "elines": 7462,
      "introdu": 7463,
      "GetNonIndexableItem": 7464,
      "criptor": 7465,
      "00010": 7466,
      "1100": 7467,
      "celer": 7468,
      "viewing": 7469,
      "within": 7470,
      "without": 7471,
      "表单模": 7472,
      "Method": 7473,
      "Chakra": 7474,
      "URE": 7475,
      "endpoints": 7476,
      "AppRegistration": 7477,
      "optim": 7478,
      "UserFields": 7479,
      "OnMailboxes": 7480,
      "00002": 7481,
      "Arduino": 7482,
      "modes": 7483,
      "note": 7484,
      "motion": 7485,
      "compati": 7486,
      "零售商": 7487,
      "CoreWebView2Environment": 7488,
      "MessageTracking": 7489,
      "rtual": 7490,
      "previous": 7491,
      "HTTP4": 7492,
      "HTTPS": 7493,
      "hands": 7494,
      "handlers": 7495,
      "Stop": 7496,
      "recording": 7497,
      "Performance": 7498,
      "vendors": 7499,
      "automatically": 7500,
      "Ani": 7501,
      "ynamic": 7502,
      "0x000000": 7503,
      "prise": 7504,
      "Click": 7505,
      "posal": 7506,
      "udf": 7507,
      "cessed": 7508,
      "receive": 7509,
      "0x00000001": 7510,
      "0x00000002": 7511,
      "0x00000003": 7512,
      "0x0000010": 7513,
      "keys": 7514,
      "guidelines": 7515,
      "nondelivery": 7516,
      "AzSqlInstance": 7517,
      "ASA": 7518,
      "ASN": 7519,
      "ASCI": 7520,
      "Team": 7521,
      "CopyFolder": 7522,
      "routine": 7523,
      "assets": 7524,
      "supports": 7525,
      "Offline": 7526,
      "Execu": 7527,
      "Reflection": 7528,
      "variants": 7529,
      "MCDUserActivity": 7530,
      "Postal": 7531,
      "GoTo": 7532,
      "DialString": 7533,
      "Observer": 7534,
      "mrlearning": 7535,
      "Management": 7536,
      "nator": 7537,
      "numer": 7538,
      "Base64": 7539,
      "publishing": 7540,
      "scenario": 7541,
      "ThreatDetection": 7542,
      "relationship": 7543,
      "Resolve": 7544,
      "computer": 7545,
      "HoldOnMailboxes": 7546,
      "Hierarch": 7547,
      "benefit": 7548,
      "Speak": 7549,
      "PidTagIpm": 7550,
      "retrieve": 7551,
      "Federated": 7552,
      "troubleshooting": 7553,
      "Types": 7554,
      "replen": 7555,
      "受益人": 7556,
      "Restriction": 7557,
      "voke": 7558,
      "ribbon": 7559,
      "rottling": 7560,
      "MailTips": 7561,
      "LedgerCov": 7562,
      "Guide": 7563,
      "iddle": 7564,
      "license": 7565,
      "ebusy": 7566,
      "consumption": 7567,
      "Developer": 7568,
      "LangID": 7569,
      "Week": 7570,
      "july": 7571,
      "saving": 7572,
      "传感器": 7573,
      "updating": 7574,
      "ASCII": 7575,
      "02": 7576,
      "68": 7577,
      "71": 7578,
      "79": 7579,
      "Are": 7580,
      "ACT": 7581,
      "Bit": 7582,
      "C1": 7583,
      "GS": 7584,
      "King": 7585,
      "Label": 7586,
      "MY": 7587,
      "Mac": 7588,
      "Mask": 7589,
      "None": 7590,
      "OOF": 7591,
      "PH": 7592,
      "Pan": 7593,
      "PRO": 7594,
      "People": 7595,
      "RS": 7596,
      "SP": 7597,
      "Sadie": 7598,
      "Ubu": 7599,
      "Uwp": 7600,
      "Vs": 7601,
      "VSS": 7602,
      "Whi": 7603,
      "XSharing": 7604,
      "aser": 7605,
      "alter": 7606,
      "cut": 7607,
      "eff": 7608,
      "global": 7609,
      "home": 7610,
      "hyperlinks": 7611,
      "ied": 7612,
      "iver": 7613,
      "imapi": 7614,
      "ios": 7615,
      "lar": 7616,
      "oid": 7617,
      "pass": 7618,
      "pattern": 7619,
      "rase": 7620,
      "ually": 7621,
      "width": 7622,
      "zed": 7623,
      "一旦": 7624,
      "上方": 7625,
      "下方": 7626,
      "任一": 7627,
      "使得": 7628,
      "便于": 7629,
      "修饰": 7630,
      "做出": 7631,
      "几何": 7632,
      "出站": 7633,
      "分摊": 7634,
      "分机": 7635,
      "分段": 7636,
      "剪裁": 7637,
      "勾选": 7638,
      "升序": 7639,
      "半成品": 7640,
      "另外": 7641,
      "同意": 7642,
      "告知": 7643,
      "基元": 7644,
      "姿势": 7645,
      "威胁": 7646,
      "家庭": 7647,
      "对齐": 7648,
      "就地": 7649,
      "年终": 7650,
      "待定": 7651,
      "意义": 7652,
      "拉脱": 7653,
      "指明": 7654,
      "损坏": 7655,
      "排产": 7656,
      "提领": 7657,
      "放入": 7658,
      "放大": 7659,
      "放弃": 7660,
      "核准": 7661,
      "永远": 7662,
      "泰国": 7663,
      "津贴": 7664,
      "涵盖": 7665,
      "深入": 7666,
      "特别": 7667,
      "独占": 7668,
      "瑞典": 7669,
      "等等": 7670,
      "良好": 7671,
      "色器": 7672,
      "花费": 7673,
      "表格式": 7674,
      "解答": 7675,
      "言语": 7676,
      "证明": 7677,
      "试验": 7678,
      "达到": 7679,
      "重点": 7680,
      "量化": 7681,
      "附带": 7682,
      "降级": 7683,
      "限期": 7684,
      "黄色": 7685,
      "quid": 7686,
      "tives": 7687,
      "mesh": 7688,
      "meable": 7689,
      "ink": 7690,
      "rection": 7691,
      "root": 7692,
      "brid": 7693,
      "ntu": 7694,
      "selection": 7695,
      "sence": 7696,
      "idle": 7697,
      "child": 7698,
      "mart": 7699,
      "icated": 7700,
      "loss": 7701,
      "losed": 7702,
      "iscal": 7703,
      "acting": 7704,
      "rix": 7705,
      "Experi": 7706,
      "conversion": 7707,
      "exported": 7708,
      "extended": 7709,
      "cogn": 7710,
      "upgr": 7711,
      "Rel": 7712,
      "direc": 7713,
      "tra": 7714,
      "tran": 7715,
      "train": 7716,
      "trusted": 7717,
      "Inbox": 7718,
      "InPrivate": 7719,
      "adaptive": 7720,
      "Convert": 7721,
      "Prompt": 7722,
      "blem": 7723,
      "PidTagOrigi": 7724,
      "asses": 7725,
      "asynchronous": 7726,
      "peg": 7727,
      "modified": 7728,
      "ToGroup": 7729,
      "recurrence": 7730,
      "arency": 7731,
      "Acceler": 7732,
      "iframe": 7733,
      "entation": 7734,
      "ently": 7735,
      "GetInput": 7736,
      "Recur": 7737,
      "Ids": 7738,
      "avoid": 7739,
      "absence": 7740,
      "ErrorCannot": 7741,
      "PidLidContact": 7742,
      "locations": 7743,
      "grid": 7744,
      "ending": 7745,
      "archite": 7746,
      "cant": 7747,
      "2008": 7748,
      "vide": 7749,
      "FolderUserFields": 7750,
      "会计师": 7751,
      "AccessToken": 7752,
      "whe": 7753,
      "where": 7754,
      "Credential": 7755,
      "00000000": 7756,
      "0x000": 7757,
      "atory": 7758,
      "atorKey": 7759,
      "实际上": 7760,
      "tabledef": 7761,
      "clone": 7762,
      "Failure": 7763,
      "compare": 7764,
      "CoreWebView2Controller": 7765,
      "uses": 7766,
      "255": 7767,
      "256": 7768,
      "Shared": 7769,
      "Note": 7770,
      "depth": 7771,
      "Keyword": 7772,
      "Apply": 7773,
      "Objects": 7774,
      "COUN": 7775,
      "触发器": 7776,
      "ArrayType": 7777,
      "cross": 7778,
      "backup": 7779,
      "need": 7780,
      "DEMF": 7781,
      "ResponseMessage": 7782,
      "registration": 7783,
      "persisting": 7784,
      "persistence": 7785,
      "versal": 7786,
      "ounding": 7787,
      "Annotation": 7788,
      "TEXT": 7789,
      "mbed": 7790,
      "0x00000000": 7791,
      "installation": 7792,
      "ISocial": 7793,
      "Startup": 7794,
      "Direction": 7795,
      "indexes": 7796,
      "indexable": 7797,
      "ImList": 7798,
      "month": 7799,
      "multid": 7800,
      "Getappmanifests": 7801,
      "finding": 7802,
      "ADR": 7803,
      "Notifications": 7804,
      "Reports": 7805,
      "分发版": 7806,
      "localhost": 7807,
      "nonindexable": 7808,
      "PidNameXSharing": 7809,
      "SpatialPerception": 7810,
      "IMLOperatorTensor": 7811,
      "SyncFolder": 7812,
      "Temp": 7813,
      "MCDRemoteSystemAppRegistration": 7814,
      "elementvisio": 7815,
      "fully": 7816,
      "GetUserAvailability": 7817,
      "AzureRmServiceBusAuthorizationRule": 7818,
      "观察器": 7819,
      "materials": 7820,
      "discounts": 7821,
      "commonly": 7822,
      "Liquid": 7823,
      "选取器": 7824,
      "responsi": 7825,
      "10002": 7826,
      "CacheSize": 7827,
      "HostConfig": 7828,
      "操纵杆": 7829,
      "Columns": 7830,
      "XLM": 7831,
      "pair": 7832,
      "questionnaires": 7833,
      "MCDAppServiceConnection": 7834,
      "driver": 7835,
      "selected": 7836,
      "VulnerabilityAssessmentSettings": 7837,
      "VulnerabilityAssessmentSetting": 7838,
      "extensions": 7839,
      "associate": 7840,
      "DiscoverySearch": 7841,
      "DistributionList": 7842,
      "arrival": 7843,
      "Module": 7844,
      "Variant": 7845,
      "constants": 7846,
      "Diag": 7847,
      "Drawing": 7848,
      "authentication": 7849,
      "determining": 7850,
      "Python": 7851,
      "奥地利": 7852,
      "尤其是": 7853,
      "reaks": 7854,
      "shortcut": 7855,
      "operators": 7856,
      "Hierarchy": 7857,
      "Speaker": 7858,
      "replenishment": 7859,
      "LedgerCovLiquid": 7860,
      "Ubuntu": 7861,
      "White": 7862,
      "拉脱维亚": 7863,
      "Experimental": 7864,
      "InboxRules": 7865,
      "AcceleratorKey": 7866,
      "architecture": 7867,
      "LedgerCovLiquidity": 7868,
      "AcceleratorKeyPressed": 7869,
      "1st": 7870,
      "10001": 7871,
      "2d": 7872,
      "81": 7873,
      "Bal": 7874,
      "Bul": 7875,
      "Ded": 7876,
      "Drag": 7877,
      "Fetch": 7878,
      "Ign": 7879,
      "JScript": 7880,
      "Lif": 7881,
      "Pol": 7882,
      "RSS": 7883,
      "Sy": 7884,
      "Sign": 7885,
      "Scheme": 7886,
      "TF": 7887,
      "Ter": 7888,
      "TER": 7889,
      "TIME": 7890,
      "TXT": 7891,
      "Tutorial": 7892,
      "Trigger": 7893,
      "UA": 7894,
      "Vend": 7895,
      "We": 7896,
      "Year": 7897,
      "bl": 7898,
      "during": 7899,
      "dynamic": 7900,
      "etings": 7901,
      "fac": 7902,
      "fiscal": 7903,
      "gre": 7904,
      "h3": 7905,
      "hl": 7906,
      "hum": 7907,
      "hide": 7908,
      "ib": 7909,
      "iod": 7910,
      "iunknown": 7911,
      "lat": 7912,
      "layers": 7913,
      "mf": 7914,
      "nos": 7915,
      "next": 7916,
      "normal": 7917,
      "oof": 7918,
      "pc": 7919,
      "parent": 7920,
      "ration": 7921,
      "same": 7922,
      "sour": 7923,
      "scal": 7924,
      "src": 7925,
      "tf": 7926,
      "txt": 7927,
      "tnef": 7928,
      "vated": 7929,
      "wiz": 7930,
      "xs": 7931,
      "xel": 7932,
      "x64": 7933,
      "一月": 7934,
      "一维": 7935,
      "三角": 7936,
      "下表": 7937,
      "下达": 7938,
      "不管": 7939,
      "东部": 7940,
      "中性": 7941,
      "为何": 7942,
      "人工": 7943,
      "人类": 7944,
      "低于": 7945,
      "体积": 7946,
      "停用": 7947,
      "全面": 7948,
      "初步": 7949,
      "加坡": 7950,
      "匈牙": 7951,
      "变为": 7952,
      "可见": 7953,
      "右手": 7954,
      "名片": 7955,
      "含有": 7956,
      "商机": 7957,
      "地面": 7958,
      "基数": 7959,
      "基线": 7960,
      "增长": 7961,
      "外围": 7962,
      "容量": 7963,
      "差额": 7964,
      "年龄": 7965,
      "引导": 7966,
      "弧度": 7967,
      "必备": 7968,
      "手柄": 7969,
      "扣除": 7970,
      "投资": 7971,
      "拉伯": 7972,
      "拖到": 7973,
      "指尖": 7974,
      "损益": 7975,
      "收藏": 7976,
      "改行": 7977,
      "教育": 7978,
      "新加坡": 7979,
      "旧版": 7980,
      "明细": 7981,
      "景色": 7982,
      "更加": 7983,
      "最高": 7984,
      "期末": 7985,
      "材质": 7986,
      "治疗": 7987,
      "波兰": 7988,
      "派遣": 7989,
      "版式": 7990,
      "电池": 7991,
      "画图": 7992,
      "相等": 7993,
      "短缺": 7994,
      "程度": 7995,
      "立方": 7996,
      "自身": 7997,
      "芬兰": 7998,
      "英语": 7999,
      "行明": 8000,
      "补偿": 8001,
      "表页": 8002,
      "解雇": 8003,
      "解算器": 8004,
      "详情": 8005,
      "调函": 8006,
      "调度": 8007,
      "谈话": 8008,
      "资本": 8009,
      "起点": 8010,
      "跟进": 8011,
      "过滤": 8012,
      "迭代": 8013,
      "透视": 8014,
      "遵守": 8015,
      "配器": 8016,
      "采取": 8017,
      "阿拉伯": 8018,
      "限度": 8019,
      "随机": 8020,
      "随附": 8021,
      "领域": 8022,
      "高于": 8023,
      "1201": 8024,
      "qui": 8025,
      "mend": 8026,
      "ones": 8027,
      "invalid": 8028,
      "repe": 8029,
      "revalu": 8030,
      "role": 8031,
      "ross": 8032,
      "anti": 8033,
      "anch": 8034,
      "gest": 8035,
      "throttling": 8036,
      "alk": 8037,
      "tations": 8038,
      "ould": 8039,
      "procedure": 8040,
      "aris": 8041,
      "enroll": 8042,
      "apac": 8043,
      "olation": 8044,
      "andDL": 8045,
      "accr": 8046,
      "finance": 8047,
      "theme": 8048,
      "usage": 8049,
      "conver": 8050,
      "conformance": 8051,
      "convert": 8052,
      "explorer": 8053,
      "dir": 8054,
      "changed": 8055,
      "unified": 8056,
      "unsubscribe": 8057,
      "Initial": 8058,
      "creation": 8059,
      "102": 8060,
      "104": 8061,
      "105": 8062,
      "sitive": 8063,
      "simulator": 8064,
      "Conflic": 8065,
      "WebDriver": 8066,
      "Shader": 8067,
      "PidTagDisplay": 8068,
      "PidTagProvider": 8069,
      "PidTagReceived": 8070,
      "WindowsRuntime": 8071,
      "维度值": 8072,
      "Toolkit": 8073,
      "shi": 8074,
      "lookup": 8075,
      "recision": 8076,
      "Accessed": 8077,
      "ppet": 8078,
      "getnonindexable": 8079,
      "Stre": 8080,
      "datable": 8081,
      "datacontrol": 8082,
      "workers": 8083,
      "Meet": 8084,
      "Messaging": 8085,
      "Chunk": 8086,
      "migr": 8087,
      "apping": 8088,
      "ause": 8089,
      "Appx": 8090,
      "Resize": 8091,
      "Resync": 8092,
      "dispidContact": 8093,
      "dispidLog": 8094,
      "DataControl": 8095,
      "UserAction": 8096,
      "SEC": 8097,
      "TRAN": 8098,
      "linejump": 8099,
      "登记簿": 8100,
      "requested": 8101,
      "USD": 8102,
      "iliation": 8103,
      "EventHandler": 8104,
      "Requery": 8105,
      "ticle": 8106,
      "customize": 8107,
      "HTML15": 8108,
      "Upload": 8109,
      "manual": 8110,
      "payable": 8111,
      "MCDRemote": 8112,
      "Notify": 8113,
      "Points": 8114,
      "subcontr": 8115,
      "binary": 8116,
      "imperson": 8117,
      "pages": 8118,
      "播放机": 8119,
      "Spec": 8120,
      "lpProp": 8121,
      "ARPAYM": 8122,
      "references": 8123,
      "tagarray": 8124,
      "ness": 8125,
      "DEF": 8126,
      "loading": 8127,
      "BASE": 8128,
      "Comment": 8129,
      "Period": 8130,
      "automatic": 8131,
      "驱动器": 8132,
      "bookmarks": 8133,
      "DBEngine": 8134,
      "NewWindow": 8135,
      "MoveTo": 8136,
      "Verb": 8137,
      "pidtagmessage": 8138,
      "runtime": 8139,
      "Compare": 8140,
      "returns": 8141,
      "FromGroup": 8142,
      "Previous": 8143,
      "SendTo": 8144,
      "hierarchical": 8145,
      "FindPeople": 8146,
      "distribu": 8147,
      "enabled": 8148,
      "Player": 8149,
      "forecasting": 8150,
      "MarkAs": 8151,
      "AzureRmEventHub": 8152,
      "powershell": 8153,
      "weatherdata": 8154,
      "Int64": 8155,
      "Defined": 8156,
      "phoneAccess": 8157,
      "recipients": 8158,
      "ImageCssExternal": 8159,
      "integrate": 8160,
      "integrating": 8161,
      "anchormailbox": 8162,
      "一致性": 8163,
      "mapisvcinf": 8164,
      "variant": 8165,
      "flush": 8166,
      "开放式": 8167,
      "ExpandDL": 8168,
      "resolution": 8169,
      "personal": 8170,
      "sproptagarray": 8171,
      "populate": 8172,
      "Customer": 8173,
      "PointerInfo": 8174,
      "complextype": 8175,
      "identifier": 8176,
      "experiences": 8177,
      "HomeAddress": 8178,
      "Deploy": 8179,
      "Disabled": 8180,
      "Auditing": 8181,
      "Libr": 8182,
      "责任人": 8183,
      "PidLidEmail2": 8184,
      "PidLidEmail3": 8185,
      "respond": 8186,
      "Categories": 8187,
      "Raw": 8188,
      "Foreign": 8189,
      "发射器": 8190,
      "PhotonUser": 8191,
      "nippet": 8192,
      "Absolute": 8193,
      "buttons": 8194,
      "requisitions": 8195,
      "imensional": 8196,
      "benefits": 8197,
      "flags": 8198,
      "入口点": 8199,
      "Encryption": 8200,
      "OtherAddress": 8201,
      "correct": 8202,
      "registrations": 8203,
      "Partner": 8204,
      "TelephoneAccess": 8205,
      "VALUE": 8206,
      "frequency": 8207,
      "plica": 8208,
      "decision": 8209,
      "消费者": 8210,
      "macros": 8211,
      "Build": 8212,
      "rfq": 8213,
      "commun": 8214,
      "Matrix": 8215,
      "Queue": 8216,
      "Initiator": 8217,
      "Proxy": 8218,
      "PublicFolder": 8219,
      "VBScript": 8220,
      "token": 8221,
      "ResolveNames": 8222,
      "PROCE": 8223,
      "whether": 8224,
      "mbedded": 8225,
      "multidimensional": 8226,
      "ADRLIST": 8227,
      "DiscoverySearchConfiguration": 8228,
      "WhiteKing": 8229,
      "Dedicated": 8230,
      "Ignore": 8231,
      "hlsl": 8232,
      "sourcing": 8233,
      "三角形": 8234,
      "匈牙利": 8235,
      "UserActionState": 8236,
      "TRANS": 8237,
      "08": 8238,
      "09": 8239,
      "4x": 8240,
      "72": 8241,
      "AA": 8242,
      "Ax": 8243,
      "Audio": 8244,
      "ATE": 8245,
      "BLE": 8246,
      "Break": 8247,
      "Bkgnd": 8248,
      "Catalog": 8249,
      "D0001": 8250,
      "EC": 8251,
      "ED": 8252,
      "FG": 8253,
      "FN": 8254,
      "GC": 8255,
      "Glow": 8256,
      "Github": 8257,
      "Greeting": 8258,
      "Hash": 8259,
      "IF": 8260,
      "II": 8261,
      "IL": 8262,
      "ITE": 8263,
      "MV": 8264,
      "Middle": 8265,
      "Mapping": 8266,
      "NG": 8267,
      "NAME": 8268,
      "Normal": 8269,
      "OG": 8270,
      "Pic": 8271,
      "Port": 8272,
      "Pwa": 8273,
      "Rome": 8274,
      "SR": 8275,
      "Smart": 8276,
      "TZ": 8277,
      "Total": 8278,
      "West": 8279,
      "Yomi": 8280,
      "adow": 8281,
      "bind": 8282,
      "css": 8283,
      "cmapi": 8284,
      "cach": 8285,
      "ech": 8286,
      "gacy": 8287,
      "hy": 8288,
      "hex": 8289,
      "jor": 8290,
      "ker": 8291,
      "long": 8292,
      "now": 8293,
      "nome": 8294,
      "npm": 8295,
      "pane": 8296,
      "pwa": 8297,
      "srow": 8298,
      "sketch": 8299,
      "screen": 8300,
      "tz": 8301,
      "tour": 8302,
      "wn": 8303,
      "yIn": 8304,
      "year": 8305,
      "zip": 8306,
      "一天": 8307,
      "主线": 8308,
      "之类": 8309,
      "交付": 8310,
      "亮度": 8311,
      "今年": 8312,
      "仔细": 8313,
      "伤害": 8314,
      "何处": 8315,
      "修补": 8316,
      "六月": 8317,
      "几乎": 8318,
      "出勤": 8319,
      "创意": 8320,
      "制作": 8321,
      "加快": 8322,
      "双击": 8323,
      "变得": 8324,
      "合理": 8325,
      "后退": 8326,
      "听写": 8327,
      "听到": 8328,
      "周年": 8329,
      "在内": 8330,
      "型号": 8331,
      "多用途": 8332,
      "失效": 8333,
      "头像": 8334,
      "始化": 8335,
      "姓氏": 8336,
      "子集": 8337,
      "字词": 8338,
      "对比": 8339,
      "寻找": 8340,
      "导向": 8341,
      "平板": 8342,
      "并重": 8343,
      "很多": 8344,
      "性别": 8345,
      "想法": 8346,
      "成人": 8347,
      "截图": 8348,
      "拓扑": 8349,
      "按需": 8350,
      "捆绑": 8351,
      "探查": 8352,
      "教师": 8353,
      "无关": 8354,
      "时限": 8355,
      "最低": 8356,
      "有些": 8357,
      "有所": 8358,
      "模糊": 8359,
      "源映射": 8360,
      "滞便笺": 8361,
      "火箭": 8362,
      "理想": 8363,
      "甘特": 8364,
      "生日": 8365,
      "符数": 8366,
      "第6": 8367,
      "签署": 8368,
      "纪年": 8369,
      "经典": 8370,
      "缩小": 8371,
      "考勤": 8372,
      "聊天": 8373,
      "自由": 8374,
      "舒适": 8375,
      "薪金": 8376,
      "表中": 8377,
      "衰减": 8378,
      "视区": 8379,
      "解器": 8380,
      "评分": 8381,
      "评审": 8382,
      "评论": 8383,
      "询问": 8384,
      "起见": 8385,
      "足够": 8386,
      "跟随": 8387,
      "迄今": 8388,
      "远距": 8389,
      "逗号": 8390,
      "采样": 8391,
      "金属": 8392,
      "金融": 8393,
      "钻取": 8394,
      "防护": 8395,
      "附录": 8396,
      "页眉": 8397,
      "驾驶": 8398,
      "123": 8399,
      "125": 8400,
      "ltype": 8401,
      "oth": 8402,
      "erts": 8403,
      "lect": 8404,
      "indi": 8405,
      "restore": 8406,
      "remain": 8407,
      "roles": 8408,
      "rooms": 8409,
      "anies": 8410,
      "ceeded": 8411,
      "than": 8412,
      "thread": 8413,
      "there": 8414,
      "see": 8415,
      "secon": 8416,
      "004": 8417,
      "chunk": 8418,
      "may": 8419,
      "icore": 8420,
      "tat": 8421,
      "ective": 8422,
      "prompt": 8423,
      "输入值": 8424,
      "arning": 8425,
      "ende": 8426,
      "esize": 8427,
      "oler": 8428,
      "lique": 8429,
      "acted": 8430,
      "actable": 8431,
      "提供商": 8432,
      "togroup": 8433,
      "tingu": 8434,
      "tingStarted": 8435,
      "Explorer": 8436,
      "contribu": 8437,
      "contain": 8438,
      "conflic": 8439,
      "ater": 8440,
      "upl": 8441,
      "Related": 8442,
      "dial": 8443,
      "direction": 8444,
      "trace": 8445,
      "trast": 8446,
      "trade": 8447,
      "tracing": 8448,
      "unique": 8449,
      "Inte": 8450,
      "tems": 8451,
      "Proof": 8452,
      "Propo": 8453,
      "Profe": 8454,
      "plate": 8455,
      "pline": 8456,
      "成本组": 8457,
      "PidTagForm": 8458,
      "asing": 8459,
      "pointer": 8460,
      "Unified": 8461,
      "130": 8462,
      "stock": 8463,
      "GettingStarted": 8464,
      "stry": 8465,
      "00016": 8466,
      "Idle": 8467,
      "works": 8468,
      "PidLidReminder": 8469,
      "locata": 8470,
      "Members": 8471,
      "ferred": 8472,
      "Addr": 8473,
      "OST": 8474,
      "EdgeDescription": 8475,
      "视图中": 8476,
      "ncies": 8477,
      "nclat": 8478,
      "archive": 8479,
      "175": 8480,
      "140000": 8481,
      "gies": 8482,
      "FolderEmail": 8483,
      "DataView": 8484,
      "UserId": 8485,
      "coming": 8486,
      "who": 8487,
      "00004": 8488,
      "folderid": 8489,
      "timeout": 8490,
      "CreateManagedFolder": 8491,
      "Disconnect": 8492,
      "clus": 8493,
      "中心点": 8494,
      "ALOG": 8495,
      "LineGradient": 8496,
      "customization": 8497,
      "MessageClass": 8498,
      "manually": 8499,
      "payroll": 8500,
      "spatialize": 8501,
      "Values": 8502,
      "stored": 8503,
      "Updated": 8504,
      "imum": 8505,
      "indicator": 8506,
      "Quot": 8507,
      "activate": 8508,
      "StateChanged": 8509,
      "HTTP40": 8510,
      "PowerApp": 8511,
      "ResponseStatus": 8512,
      "Platform": 8513,
      "marshal": 8514,
      "displayname": 8515,
      "high": 8516,
      "special": 8517,
      "Worker": 8518,
      "Workflow": 8519,
      "obj": 8520,
      "Before": 8521,
      "Transactions": 8522,
      "LockTheme": 8523,
      "books": 8524,
      "MoveFolder": 8525,
      "UNS": 8526,
      "ResourceId": 8527,
      "installing": 8528,
      "StartTime": 8529,
      "indexing": 8530,
      "Compute": 8531,
      "PropertyDefinition": 8532,
      "Allocate": 8533,
      "calculations": 8534,
      "FillGradient": 8535,
      "omList": 8536,
      "Descriptor": 8537,
      "工序级": 8538,
      "documentation": 8539,
      "FFFF": 8540,
      "learn": 8541,
      "StorageAccount": 8542,
      "ketplace": 8543,
      "Logon": 8544,
      "0x0000040": 8545,
      "0x0000060": 8546,
      "FindItem": 8547,
      "Legacy": 8548,
      "callback": 8549,
      "Removed": 8550,
      "RemoveImGroup": 8551,
      "csv": 8552,
      "calendars": 8553,
      "filtering": 8554,
      "pidlidtask": 8555,
      "Look": 8556,
      "Prin": 8557,
      "capability": 8558,
      "deprecated": 8559,
      "nonconformance": 8560,
      "copying": 8561,
      "Markup": 8562,
      "Nodes": 8563,
      "removeim": 8564,
      "blocking": 8565,
      "questions": 8566,
      "会员卡": 8567,
      "传出队": 8568,
      "Factory": 8569,
      "ScaleFactor": 8570,
      "Saved": 8571,
      "110110": 8572,
      "发行版": 8573,
      "BevelTop": 8574,
      "平衡表": 8575,
      "Permissions": 8576,
      "DIALOG": 8577,
      "central": 8578,
      "periods": 8579,
      "MeetingRequest": 8580,
      "DevtoolsGuide": 8581,
      "PlayOnPhoneDialString": 8582,
      "Override": 8583,
      "debugging": 8584,
      "ICoreWebView2Deferral": 8585,
      "delegates": 8586,
      "PidLidEmail1": 8587,
      "XML565": 8588,
      "OofStatus": 8589,
      "synchronization": 8590,
      "敏感度": 8591,
      "libraries": 8592,
      "amounts": 8593,
      "BrowserVersion": 8594,
      "Foundation": 8595,
      "webview2": 8596,
      "headsets": 8597,
      "Paym": 8598,
      "INTER": 8599,
      "High": 8600,
      "Speech": 8601,
      "associated": 8602,
      "DistributionGroup": 8603,
      "Denied": 8604,
      "SurfaceObserver": 8605,
      "ProcessFailed": 8606,
      "registry": 8607,
      "alignment": 8608,
      "ResetPIN": 8609,
      "Manifest": 8610,
      "ImageSelec": 8611,
      "monitoring": 8612,
      "freebusy": 8613,
      "recalculation": 8614,
      "DevToolsProtocolEvent": 8615,
      "Approval": 8616,
      "CountryCode": 8617,
      "Cells": 8618,
      "Ellip": 8619,
      "float16": 8620,
      "icrophone": 8621,
      "PidTagRtf": 8622,
      "original": 8623,
      "SRowSet": 8624,
      "XSLT": 8625,
      "picking": 8626,
      "Composition": 8627,
      "CompanyName": 8628,
      "AttendeesString": 8629,
      "assembly": 8630,
      "Employees": 8631,
      "compatibility": 8632,
      "Animation": 8633,
      "effici": 8634,
      "COUNT": 8635,
      "Bullet": 8636,
      "Lifecycle": 8637,
      "SchemeIndex": 8638,
      "Tutorials": 8639,
      "mfcmapi": 8640,
      "oofsettings": 8641,
      "mendations": 8642,
      "revaluation": 8643,
      "SEC7": 8644,
      "TelephoneAccessFolderEmail": 8645,
      "nomenclat": 8646,
      "探查器": 8647,
      "second": 8648,
      "icorewebview2": 8649,
      "Proposed": 8650,
      "Profession": 8651,
      "14000056": 8652,
      "nomenclature": 8653,
      "2B": 8654,
      "310": 8655,
      "450": 8656,
      "77": 8657,
      "78": 8658,
      "700": 8659,
      "ATP": 8660,
      "Bcc": 8661,
      "Blur": 8662,
      "CL": 8663,
      "Cloud": 8664,
      "Closed": 8665,
      "Cross": 8666,
      "DK": 8667,
      "DCOM": 8668,
      "DURE": 8669,
      "EID": 8670,
      "Ener": 8671,
      "ECF": 8672,
      "GR": 8673,
      "GT": 8674,
      "GST": 8675,
      "HRTF": 8676,
      "IG": 8677,
      "Identity": 8678,
      "Jo": 8679,
      "KB": 8680,
      "Ke": 8681,
      "LY": 8682,
      "Low": 8683,
      "MM": 8684,
      "Map": 8685,
      "Microphone": 8686,
      "NA": 8687,
      "NUR": 8688,
      "NASA": 8689,
      "OB": 8690,
      "PV": 8691,
      "Por": 8692,
      "PAR": 8693,
      "Qual": 8694,
      "SMAPI": 8695,
      "T00": 8696,
      "Una": 8697,
      "Uint": 8698,
      "Watch": 8699,
      "WCF": 8700,
      "Warning": 8701,
      "XSD": 8702,
      "YPE": 8703,
      "aa": 8704,
      "alt": 8705,
      "asp": 8706,
      "bs": 8707,
      "breaks": 8708,
      "carri": 8709,
      "df": 8710,
      "dt": 8711,
      "drop": 8712,
      "fs": 8713,
      "fx": 8714,
      "fun": 8715,
      "fam": 8716,
      "fers": 8717,
      "ffer": 8718,
      "galaxy": 8719,
      "iCalendar": 8720,
      "nil": 8721,
      "pb": 8722,
      "ps": 8723,
      "pbi": 8724,
      "qr": 8725,
      "smapi": 8726,
      "slip": 8727,
      "sEnabled": 8728,
      "stical": 8729,
      "tw": 8730,
      "uis": 8731,
      "was": 8732,
      "want": 8733,
      "x86": 8734,
      "xltype": 8735,
      "一下": 8736,
      "一定": 8737,
      "下班": 8738,
      "不再": 8739,
      "中看": 8740,
      "中继": 8741,
      "互联": 8742,
      "人际": 8743,
      "从此": 8744,
      "休斯": 8745,
      "传达": 8746,
      "估价": 8747,
      "信封": 8748,
      "信贷": 8749,
      "关卡": 8750,
      "出来": 8751,
      "出纳": 8752,
      "则会": 8753,
      "刚刚": 8754,
      "创造": 8755,
      "剪贴": 8756,
      "加到": 8757,
      "区别": 8758,
      "区间": 8759,
      "午夜": 8760,
      "单库": 8761,
      "原点": 8762,
      "受到": 8763,
      "向右": 8764,
      "含义": 8765,
      "回应": 8766,
      "图案": 8767,
      "圆圈": 8768,
      "在于": 8769,
      "地区": 8770,
      "基价": 8771,
      "墙壁": 8772,
      "多样": 8773,
      "始维度": 8774,
      "子句": 8775,
      "学生": 8776,
      "密件": 8777,
      "崩溃": 8778,
      "工厂": 8779,
      "帐层": 8780,
      "帐日": 8781,
      "广泛": 8782,
      "应当": 8783,
      "开源": 8784,
      "强烈": 8785,
      "得分": 8786,
      "德语": 8787,
      "总是": 8788,
      "总监": 8789,
      "截至": 8790,
      "截锥": 8791,
      "托收": 8792,
      "批注": 8793,
      "报销": 8794,
      "抽屉": 8795,
      "抽样": 8796,
      "拍摄": 8797,
      "措施": 8798,
      "提到": 8799,
      "攻击": 8800,
      "政府": 8801,
      "方便": 8802,
      "方形": 8803,
      "最好": 8804,
      "本文": 8805,
      "机柜": 8806,
      "格集": 8807,
      "棋盘": 8808,
      "毛利": 8809,
      "求值": 8810,
      "清楚": 8811,
      "清空": 8812,
      "满意": 8813,
      "照明": 8814,
      "版权": 8815,
      "理由": 8816,
      "瑞士": 8817,
      "生存": 8818,
      "电源": 8819,
      "章节": 8820,
      "简短": 8821,
      "粒子": 8822,
      "紧密": 8823,
      "练习": 8824,
      "经常": 8825,
      "经验": 8826,
      "罗马": 8827,
      "置信": 8828,
      "翻转": 8829,
      "职能": 8830,
      "自适应": 8831,
      "节省": 8832,
      "语义": 8833,
      "诸如": 8834,
      "越库": 8835,
      "逐句": 8836,
      "速率": 8837,
      "造成": 8838,
      "附注": 8839,
      "附近": 8840,
      "随着": 8841,
      "预约": 8842,
      "qual": 8843,
      "tima": 8844,
      "onmailboxes": 8845,
      "lel": 8846,
      "invo": 8847,
      "recogn": 8848,
      "ansi": 8849,
      "ged": 8850,
      "thold": 8851,
      "separ": 8852,
      "seutil": 8853,
      "sta": 8854,
      "along": 8855,
      "identity": 8856,
      "chan": 8857,
      "mass": 8858,
      "tale": 8859,
      "dete": 8860,
      "ecord": 8861,
      "perception": 8862,
      "proj": 8863,
      "arguments": 8864,
      "dom": 8865,
      "iso": 8866,
      "andbox": 8867,
      "accept": 8868,
      "vements": 8869,
      "信息性": 8870,
      "tool": 8871,
      "toast": 8872,
      "工作量": 8873,
      "convers": 8874,
      "controller": 8875,
      "costing": 8876,
      "Reader": 8877,
      "Reporting": 8878,
      "Replica": 8879,
      "track": 8880,
      "trust": 8881,
      "ager": 8882,
      "uni": 8883,
      "Inspec": 8884,
      "Inspect": 8885,
      "物料组": 8886,
      "ilder": 8887,
      "MicrosoftPartner": 8888,
      "Product": 8889,
      "成本率": 8890,
      "TagName": 8891,
      "createfolder": 8892,
      "dash": 8893,
      "servers": 8894,
      "utf": 8895,
      "utting": 8896,
      "PidTagContent": 8897,
      "PidTagContainer": 8898,
      "amer": 8899,
      "IDLE": 8900,
      "DOWN": 8901,
      "outgo": 8902,
      "shdw": 8903,
      "shutting": 8904,
      "pool": 8905,
      "Financial": 8906,
      "Uninstall": 8907,
      "GetString": 8908,
      "GetIm": 8909,
      "GetCall": 8910,
      "GetClient": 8911,
      "GetConversation": 8912,
      "GetEvents": 8913,
      "GetDiscoverySearchConfiguration": 8914,
      "strator": 8915,
      "bulk": 8916,
      "buffer": 8917,
      "00011": 8918,
      "AzVM": 8919,
      "dated": 8920,
      "ERE": 8921,
      "SetHoldOnMailboxes": 8922,
      "SetOofStatus": 8923,
      "SetTelephoneAccessFolderEmail": 8924,
      "ImageUn": 8925,
      "ImageConsole": 8926,
      "Visible": 8927,
      "Measure": 8928,
      "HoloLens2": 8929,
      "grad": 8930,
      "osing": 8931,
      "OSC": 8932,
      "miss": 8933,
      "Edgehtml": 8934,
      "OfWeek": 8935,
      "不同于": 8936,
      "aux": 8937,
      "200110": 8938,
      "143": 8939,
      "Apple": 8940,
      "dispidWorkAddress": 8941,
      "commission": 8942,
      "JsStart": 8943,
      "JsArrayType": 8944,
      "which": 8945,
      "Pool": 8946,
      "ShapePer": 8947,
      "resync": 8948,
      "player": 8949,
      "ghting": 8950,
      "00001": 8951,
      "00006": 8952,
      "Arguments": 8953,
      "interactions": 8954,
      "interoper": 8955,
      "party": 8956,
      "实际值": 8957,
      "OfficeBox": 8958,
      "classes": 8959,
      "Attr": 8960,
      "AtPriority": 8961,
      "mandatory": 8962,
      "Pages": 8963,
      "comparis": 8964,
      "network": 8965,
      "guaran": 8966,
      "begin": 8967,
      "prem": 8968,
      "250": 8969,
      "LED": 8970,
      "transfers": 8971,
      "Internal": 8972,
      "Interaction": 8973,
      "Interface": 8974,
      "509": 8975,
      "fees": 8976,
      "SDN": 8977,
      "Coll": 8978,
      "bited": 8979,
      "AndPhoto": 8980,
      "PowerBI": 8981,
      "background": 8982,
      "solver": 8983,
      "ceptions": 8984,
      "jscript": 8985,
      "BAS": 8986,
      "margin": 8987,
      "openxr": 8988,
      "vision": 8989,
      "FileName": 8990,
      "hibited": 8991,
      "generation": 8992,
      "generating": 8993,
      "Orientation": 8994,
      "persona": 8995,
      "PATH": 8996,
      "Transfer": 8997,
      "Any": 8998,
      "Board": 8999,
      "Marshal": 9000,
      "ffected": 9001,
      "installapp": 9002,
      "9999": 9003,
      "subscriptions": 9004,
      "Img": 9005,
      "designing": 9006,
      "multith": 9007,
      "ActiveCommand": 9008,
      "Attachments": 9009,
      "mappings": 9010,
      "PropertyId": 9011,
      "Alert": 9012,
      "assigned": 9013,
      "OriginalEntryId": 9014,
      "renderer": 9015,
      "FillForegnd": 9016,
      "DocumentStateChanged": 9017,
      "Design": 9018,
      "MSApp": 9019,
      "ways": 9020,
      "Byte": 9021,
      "FindConversation": 9022,
      "parameterized": 9023,
      "guidance": 9024,
      "Navig": 9025,
      "schemas": 9026,
      "IMLOperatorShape": 9027,
      "Primary": 9028,
      "SyncState": 9029,
      "目的地": 9030,
      "shaping": 9031,
      "ancedVideo": 9032,
      "FormProp": 9033,
      "AppointmentMeet": 9034,
      "urls": 9035,
      "vbscript": 9036,
      "Register": 9037,
      "PidTagSent": 9038,
      "BevelBottom": 9039,
      "returned": 9040,
      "AllItems": 9041,
      "Actual": 9042,
      "helper": 9043,
      "透明度": 9044,
      "Expan": 9045,
      "Express": 9046,
      "Expression": 9047,
      "GetUserOofSettings": 9048,
      "PostOfficeBox": 9049,
      "ExternalSharing": 9050,
      "ACR": 9051,
      "balances": 9052,
      "mrc": 9053,
      "saved": 9054,
      "持久性": 9055,
      "PlayOnPhoneGreeting": 9056,
      "UPN": 9057,
      "organizational": 9058,
      "applying": 9059,
      "positive": 9060,
      "HolographicSpace": 9061,
      "Bookmark": 9062,
      "TargetDedicated": 9063,
      "DeliveryReport": 9064,
      "CHAR": 9065,
      "XML564": 9066,
      "XML560": 9067,
      "synchronize": 9068,
      "Topic": 9069,
      "specifying": 9070,
      "Backup": 9071,
      "billboarding": 9072,
      "LaunchUri": 9073,
      "BrowserArguments": 9074,
      "CALL": 9075,
      "MOVE": 9076,
      "vouchers": 9077,
      "computing": 9078,
      "MixedRealityToolkit": 9079,
      "Html": 9080,
      "Renderer": 9081,
      "Rendering": 9082,
      "XLOPER": 9083,
      "计时器": 9084,
      "ExportItems": 9085,
      "agents": 9086,
      "SessionStorage": 9087,
      "QueryDefs": 9088,
      "NSF": 9089,
      "SentTo": 9090,
      "dispidFax1": 9091,
      "dispidFax2": 9092,
      "Validation": 9093,
      "rates": 9094,
      "vesti": 9095,
      "右键单击": 9096,
      "PidLidFax2": 9097,
      "navigation": 9098,
      "MCDUserNotificationUserActionState": 9099,
      "Debugging": 9100,
      "IotStartup": 9101,
      "Pixel": 9102,
      "gyHub": 9103,
      "严重性": 9104,
      "evaluate": 9105,
      "RouteStyle": 9106,
      "tabs": 9107,
      "automating": 9108,
      "monitor": 9109,
      "GetRooms": 9110,
      "GetRoomList": 9111,
      "Transport": 9112,
      "mediate": 9113,
      "statistical": 9114,
      "declar": 9115,
      "WebMessageReceived": 9116,
      "POP3": 9117,
      "IMLOperatorKernelCreation": 9118,
      "rebate": 9119,
      "recommendations": 9120,
      "Serialized": 9121,
      "Suggestion": 9122,
      "InstallApp": 9123,
      "IOlkAccount": 9124,
      "making": 9125,
      "ENTRYID": 9126,
      "CheckedIn": 9127,
      "reconciliation": 9128,
      "continuity": 9129,
      "simulation": 9130,
      "introduction": 9131,
      "Teams": 9132,
      "numerics": 9133,
      "upgrade": 9134,
      "video": 9135,
      "BalancedVideo": 9136,
      "Term": 9137,
      "human": 9138,
      "shipping": 9139,
      "UploadItems": 9140,
      "MCDRemoteLaunchUri": 9141,
      "impersonation": 9142,
      "PROCEDURE": 9143,
      "cachesize": 9144,
      "hybrid": 9145,
      "hex64": 9146,
      "甘特图": 9147,
      "聊天室": 9148,
      "individ": 9149,
      "remaining": 9150,
      "tinguished": 9151,
      "dialstring": 9152,
      "UnifiedMessaging": 9153,
      "Quota": 9154,
      "TransactionsGroups": 9155,
      "Lookup": 9156,
      "ImageSelecting": 9157,
      "CompositionController": 9158,
      "Professional": 9159,
      "EnergyHub": 9160,
      "Keys": 9161,
      "NURBS": 9162,
      "pbix": 9163,
      "多样性": 9164,
      "自适应卡": 9165,
      "tholdonmailboxes": 9166,
      "conversations": 9167,
      "MicrosoftPartnerCenter": 9168,
      "outgoing": 9169,
      "GetCallInfo": 9170,
      "GetConversationItems": 9171,
      "ShapePermeable": 9172,
      "interoperability": 9173,
      "guarante": 9174,
      "GetRoomLists": 9175,
      "IMLOperatorKernelCreationContext": 9176,
      "BalancedVideoAndPhoto": 9177,
      "MCDRemoteLaunchUriStatus": 9178,
      "04": 9179,
      "360": 9180,
      "85": 9181,
      "88": 9182,
      "AQ": 9183,
      "Anal": 9184,
      "Alter": 9185,
      "AAD": 9186,
      "A0001": 9187,
      "BR": 9188,
      "Bash": 9189,
      "Blob": 9190,
      "BPM": 9191,
      "C2": 9192,
      "CN": 9193,
      "Cycle": 9194,
      "DR": 9195,
      "Dll": 9196,
      "Dont": 9197,
      "DUNS": 9198,
      "EL": 9199,
      "Ep": 9200,
      "Ent": 9201,
      "Evalu": 9202,
      "FC": 9203,
      "Face": 9204,
      "False": 9205,
      "GU": 9206,
      "GEN": 9207,
      "GRO": 9208,
      "Hide": 9209,
      "Hyper": 9210,
      "HWN": 9211,
      "IR": 9212,
      "ICS": 9213,
      "IST": 9214,
      "JE": 9215,
      "Job": 9216,
      "Kee": 9217,
      "KSG": 9218,
      "Len": 9219,
      "Lim": 9220,
      "MK": 9221,
      "MST": 9222,
      "MTA": 9223,
      "Msg": 9224,
      "MSDN": 9225,
      "Native": 9226,
      "OData": 9227,
      "PL": 9228,
      "Pop": 9229,
      "PNG": 9230,
      "RGB": 9231,
      "SY": 9232,
      "Soft": 9233,
      "Tnef": 9234,
      "UME": 9235,
      "UNET": 9236,
      "Wr": 9237,
      "WIN": 9238,
      "Will": 9239,
      "but": 9240,
      "bas": 9241,
      "bilities": 9242,
      "cTo": 9243,
      "catch": 9244,
      "ciple": 9245,
      "cache": 9246,
      "certificate": 9247,
      "cloud": 9248,
      "dl": 9249,
      "dpi": 9250,
      "dTPM": 9251,
      "embedded": 9252,
      "fn": 9253,
      "ffin": 9254,
      "got": 9255,
      "gers": 9256,
      "github": 9257,
      "hol": 9258,
      "hos": 9259,
      "ig": 9260,
      "iter": 9261,
      "igh": 9262,
      "jQuery": 9263,
      "jpeg": 9264,
      "kit": 9265,
      "lf": 9266,
      "mt": 9267,
      "nie": 9268,
      "ooler": 9269,
      "pic": 9270,
      "ptr": 9271,
      "patch": 9272,
      "plied": 9273,
      "soft": 9274,
      "sandbox": 9275,
      "tutorial": 9276,
      "total": 9277,
      "uting": 9278,
      "uster": 9279,
      "vable": 9280,
      "wer": 9281,
      "walk": 9282,
      "xpath": 9283,
      "xib": 9284,
      "ytics": 9285,
      "zones": 9286,
      "上班": 9287,
      "下降": 9288,
      "中用": 9289,
      "中选择": 9290,
      "主科目": 9291,
      "举值": 9292,
      "之上": 9293,
      "事故": 9294,
      "二月": 9295,
      "代号": 9296,
      "优势": 9297,
      "作出": 9298,
      "依次": 9299,
      "共和": 9300,
      "出色": 9301,
      "分别": 9302,
      "列数": 9303,
      "刚才": 9304,
      "前格": 9305,
      "匿名": 9306,
      "十六": 9307,
      "卫生": 9308,
      "即点": 9309,
      "反应": 9310,
      "受理": 9311,
      "变形": 9312,
      "只是": 9313,
      "台面": 9314,
      "合成": 9315,
      "回退": 9316,
      "固件": 9317,
      "图层": 9318,
      "场所": 9319,
      "外出": 9320,
      "多值": 9321,
      "多级": 9322,
      "大写": 9323,
      "大约": 9324,
      "好处": 9325,
      "婚姻": 9326,
      "存款": 9327,
      "官方": 9328,
      "宽限期": 9329,
      "小型": 9330,
      "少于": 9331,
      "局部": 9332,
      "左右": 9333,
      "左键": 9334,
      "帐模": 9335,
      "干扰": 9336,
      "年初": 9337,
      "库中": 9338,
      "库代码": 9339,
      "建筑": 9340,
      "彼此": 9341,
      "很难": 9342,
      "得到": 9343,
      "忘记": 9344,
      "总部": 9345,
      "手型": 9346,
      "投箱": 9347,
      "抽象": 9348,
      "挂钩": 9349,
      "指出": 9350,
      "接触": 9351,
      "操控": 9352,
      "放在": 9353,
      "日常": 9354,
      "时候": 9355,
      "星号": 9356,
      "期望": 9357,
      "机械": 9358,
      "格中": 9359,
      "楼层": 9360,
      "横幅": 9361,
      "次序": 9362,
      "次要": 9363,
      "每当": 9364,
      "求职": 9365,
      "泄漏": 9366,
      "浅色": 9367,
      "清点": 9368,
      "源自": 9369,
      "灰色": 9370,
      "独特": 9371,
      "用尽": 9372,
      "相邻": 9373,
      "真正": 9374,
      "确实": 9375,
      "离散": 9376,
      "种类": 9377,
      "科学": 9378,
      "空字符": 9379,
      "立体": 9380,
      "笔势": 9381,
      "第7": 9382,
      "等效": 9383,
      "箱单": 9384,
      "索赔": 9385,
      "累计": 9386,
      "经历": 9387,
      "缩写": 9388,
      "缺失": 9389,
      "职员": 9390,
      "自行": 9391,
      "节字符": 9392,
      "表明": 9393,
      "表报表": 9394,
      "记入": 9395,
      "请右": 9396,
      "调低": 9397,
      "贡献": 9398,
      "货架": 9399,
      "足以": 9400,
      "轨道": 9401,
      "达日": 9402,
      "过渡": 9403,
      "过账": 9404,
      "邻近": 9405,
      "重叠": 9406,
      "销毁": 9407,
      "锚点": 9408,
      "限额": 9409,
      "静音": 9410,
      "顾问": 9411,
      "颁发": 9412,
      "预计": 9413,
      "风格": 9414,
      "高端": 9415,
      "oting": 9416,
      "otour": 9417,
      "quotation": 9418,
      "tid": 9419,
      "med": 9420,
      "metry": 9421,
      "eries": 9422,
      "nale": 9423,
      "nations": 9424,
      "left": 9425,
      "ince": 9426,
      "namespace": 9427,
      "rel": 9428,
      "rest": 9429,
      "replication": 9430,
      "reassign": 9431,
      "removing": 9432,
      "ortation": 9433,
      "tionary": 9434,
      "branch": 9435,
      "geting": 9436,
      "getim": 9437,
      "getappmanifests": 9438,
      "sec": 9439,
      "semi": 9440,
      "secure": 9441,
      "self": 9442,
      "stre": 9443,
      "sters": 9444,
      "aling": 9445,
      "alert": 9446,
      "allocate": 9447,
      "alerts": 9448,
      "allel": 9449,
      "china": 9450,
      "mari": 9451,
      "tac": 9452,
      "debit": 9453,
      "propose": 9454,
      "enh": 9455,
      "ril": 9456,
      "they": 9457,
      "theon": 9458,
      "工作组": 9459,
      "显示表": 9460,
      "virtual": 9461,
      "Example": 9462,
      "Exceeded": 9463,
      "contoso": 9464,
      "attract": 9465,
      "coding": 9466,
      "updatable": 9467,
      "Release": 9468,
      "dition": 9469,
      "tric": 9470,
      "返回值": 9471,
      "ily": 9472,
      "MicrosoftEdge": 9473,
      "termi": 9474,
      "sist": 9475,
      "MAPIAllocate": 9476,
      "ured": 9477,
      "Program": 9478,
      "Procedure": 9479,
      "Prohibited": 9480,
      "WebVR": 9481,
      "更新到": 9482,
      "damental": 9483,
      "PidTagStatus": 9484,
      "PidTagService": 9485,
      "PidTagResource": 9486,
      "PidTagNon": 9487,
      "PidTagPhysical": 9488,
      "spber": 9489,
      "spooler": 9490,
      "供应商组": 9491,
      "cube": 9492,
      "cripting": 9493,
      "ortOrder": 9494,
      "Unit": 9495,
      "Unread": 9496,
      "ifold": 9497,
      "GetSearch": 9498,
      "GetUM": 9499,
      "GetSharing": 9500,
      "GetOutput": 9501,
      "GetPersona": 9502,
      "sections": 9503,
      "0004": 9504,
      "vents": 9505,
      "venture": 9506,
      "enschema": 9507,
      "启动器": 9508,
      "活动源": 9509,
      "HoloSketch": 9510,
      "dates": 9511,
      "SetImGroup": 9512,
      "Views": 9513,
      "ImageAdd": 9514,
      "TypeEnum": 9515,
      "PidLidRemote": 9516,
      "Metadata": 9517,
      "mises": 9518,
      "通讯组": 9519,
      "openschema": 9520,
      "dispidRemote": 9521,
      "dispidReminder": 9522,
      "boxes": 9523,
      "Accessibility": 9524,
      "whole": 9525,
      "baseline": 9526,
      "OnPage": 9527,
      "ShapeDescription": 9528,
      "ShapePlace": 9529,
      "ArcTo": 9530,
      "Arnie": 9531,
      "interval": 9532,
      "ators": 9533,
      "POST": 9534,
      "times": 9535,
      "VisualStudio": 9536,
      "parallel": 9537,
      "Disk": 9538,
      "iliary": 9539,
      "tableFolder": 9540,
      "tensor": 9541,
      "clud": 9542,
      "modeling": 9543,
      "formatting": 9544,
      "3282": 9545,
      "void": 9546,
      "PageLineJumpDir": 9547,
      "CDS": 9548,
      "CDire": 9549,
      "Timesheet": 9550,
      "ferences": 9551,
      "updateitem": 9552,
      "updateinbox": 9553,
      "LineColor": 9554,
      "mented": 9555,
      "HTML150": 9556,
      "gument": 9557,
      "ServiceWorker": 9558,
      "STG": 9559,
      "typeenum": 9560,
      "preferred": 9561,
      "som": 9562,
      "LETE": 9563,
      "MCDNotification": 9564,
      "spatialized": 9565,
      "ists": 9566,
      "IsUME": 9567,
      "Sequence": 9568,
      "504": 9569,
      "ogle": 9570,
      "Collect": 9571,
      "raft": 9572,
      "FieldDefinition": 9573,
      "NotAllowed": 9574,
      "depende": 9575,
      "UpdateFolder": 9576,
      "UpdateDelegate": 9577,
      "UpdateInboxRules": 9578,
      "AsRead": 9579,
      "ARTrack": 9580,
      "240": 9581,
      "starting": 9582,
      "OpenSchema": 9583,
      "defining": 9584,
      "signing": 9585,
      "REF": 9586,
      "trying": 9587,
      "001F": 9588,
      "Origin": 9589,
      "obtain": 9590,
      "automation": 9591,
      "TENTRY": 9592,
      "mbol": 9593,
      "phrase": 9594,
      "sugges": 9595,
      "weight": 9596,
      "week": 9597,
      "weigh": 9598,
      "MoveItem": 9599,
      "reading": 9600,
      "SSortOrder": 9601,
      "prices": 9602,
      "Resources": 9603,
      "ISERR": 9604,
      "DeleteFolder": 9605,
      "Contents": 9606,
      "ConnectionRequest": 9607,
      "EndTime": 9608,
      "Endpoints": 9609,
      "ONG": 9610,
      "StartWhole": 9611,
      "POINTER": 9612,
      "ActiveConnection": 9613,
      "Clone": 9614,
      "运算符": 9615,
      "Streaming": 9616,
      "findpeople": 9617,
      "FromImList": 9618,
      "Predic": 9619,
      "SendItem": 9620,
      "具体而言": 9621,
      "ommand": 9622,
      "AND": 9623,
      "Destination": 9624,
      "UTF": 9625,
      "tpm": 9626,
      "制造商": 9627,
      "0x00000004": 9628,
      "ByResourceId": 9629,
      "logs": 9630,
      "logging": 9631,
      "budgets": 9632,
      "FindFolder": 9633,
      "Lean": 9634,
      "录制器": 9635,
      "RemoveImContact": 9636,
      "ENT": 9637,
      "enterprise": 9638,
      "requirement": 9639,
      "cluded": 9640,
      "LINE": 9641,
      "transportation": 9642,
      "Success": 9643,
      "扫描仪": 9644,
      "MarkAllItems": 9645,
      "ReadState": 9646,
      "SpatialAnchor": 9647,
      "IMLOperatorType": 9648,
      "sorting": 9649,
      "enumerating": 9650,
      "MCDRemoteSystemConnectionRequest": 9651,
      "appropri": 9652,
      "CardElement": 9653,
      "Intr": 9654,
      "sounds": 9655,
      "编译器": 9656,
      "modifying": 9657,
      "Reminders": 9658,
      "ODBCDire": 9659,
      "marking": 9660,
      "feature": 9661,
      "packages": 9662,
      "偏移量": 9663,
      "sites": 9664,
      "Classification": 9665,
      "styling": 9666,
      "Editor": 9667,
      "vailable": 9668,
      "星期一": 9669,
      "Google": 9670,
      "Oblique": 9671,
      "Packaging": 9672,
      "protot": 9673,
      "steps": 9674,
      "DevtoolsConsole": 9675,
      "CFO": 9676,
      "scripts": 9677,
      "venue": 9678,
      "restriction": 9679,
      "organizations": 9680,
      "RFM": 9681,
      "sender": 9682,
      "sendable": 9683,
      "CHKSG": 9684,
      "LunarModule": 9685,
      "MT940": 9686,
      "choice": 9687,
      "execution": 9688,
      "synchronizing": 9689,
      "ociated": 9690,
      "Dayforce": 9691,
      "DayOfWeek": 9692,
      "GET": 9693,
      "editor": 9694,
      "routes": 9695,
      "Recognition": 9696,
      "billing": 9697,
      "Octa": 9698,
      "bodytype": 9699,
      "BeginArrow": 9700,
      "MaxRecords": 9701,
      "ArchiveItem": 9702,
      "MCDAppServiceResponseStatus": 9703,
      "launcher": 9704,
      "utili": 9705,
      "dispidFax3": 9706,
      "channels": 9707,
      "rights": 9708,
      "PidLidFax1": 9709,
      "PidLidFax3": 9710,
      "selecting": 9711,
      "Selector": 9712,
      "chart": 9713,
      "modules": 9714,
      "TrackStatus": 9715,
      "FILES": 9716,
      "FILETIME": 9717,
      "querydefs": 9718,
      "Encrypted": 9719,
      "AdaptiveCards": 9720,
      "NOT": 9721,
      "Rotate": 9722,
      "webhook": 9723,
      "retrieving": 9724,
      "RFC3282": 9725,
      "Associated": 9726,
      "bottom": 9727,
      "可靠性": 9728,
      "TableDefs": 9729,
      "AzSqlServerAdvancedThreatProtection": 9730,
      "Federation": 9731,
      "cursors": 9732,
      "pidtagr": 9733,
      "importing": 9734,
      "imported": 9735,
      "Manifold": 9736,
      "FOV": 9737,
      "ImportExport": 9738,
      "telemetry": 9739,
      "Transparency": 9740,
      "OffsetY": 9741,
      "administration": 9742,
      "WHSWorkLineCycle": 9743,
      "HistoryChanged": 9744,
      "Skip": 9745,
      "SampleVend": 9746,
      "layer": 9747,
      "media": 9748,
      "statistics": 9749,
      "arantine": 9750,
      "Chart": 9751,
      "JsRuntimeAttribute": 9752,
      "principle": 9753,
      "DictationRecognizer": 9754,
      "Listener": 9755,
      "editing": 9756,
      "投票选": 9757,
      "ErrorCalendarIs": 9758,
      "Attributed": 9759,
      "WinMLTools": 9760,
      "technology": 9761,
      "technologies": 9762,
      "FLATENTRY": 9763,
      "ffort": 9764,
      "Relationship": 9765,
      "activecommand": 9766,
      "photo": 9767,
      "Effects": 9768,
      "browserExecu": 9769,
      "limits": 9770,
      "RetentionPolicy": 9771,
      "GetNonIndexableItemStatistics": 9772,
      "AreDefault": 9773,
      "Pantheon": 9774,
      "Vscode": 9775,
      "training": 9776,
      "ConvertId": 9777,
      "MCDRemoteSystemAppRegistrationPublish": 9778,
      "responsibilities": 9779,
      "ExperimentalPointerInfo": 9780,
      "LedgerCovLiquidityMeasure": 9781,
      "Dragon": 9782,
      "Weight": 9783,
      "facility": 9784,
      "gregation": 9785,
      "scaling": 9786,
      "wizard": 9787,
      "gestures": 9788,
      "accrual": 9789,
      "Conflict": 9790,
      "subcontracted": 9791,
      "MarkAsJunk": 9792,
      "DeployAppx": 9793,
      "Library": 9794,
      "TRANSFORM": 9795,
      "ITEM": 9796,
      "驾驶员": 9797,
      "LegacyDN": 9798,
      "DevtoolsGuideEdgehtml": 9799,
      "Porting": 9800,
      "Unavailable": 9801,
      "carrier": 9802,
      "two": 9803,
      "invoicing": 9804,
      "iso20022": 9805,
      "Inspectable": 9806,
      "FinancialReports": 9807,
      "UninstallApp": 9808,
      "JsStartDebugging": 9809,
      "IMLOperatorShapeInferenceContext": 9810,
      "PidTagSentRepresenting": 9811,
      "SerializedScript": 9812,
      "individual": 9813,
      "Alternate": 9814,
      "HWND": 9815,
      "ffinity": 9816,
      "holotour": 9817,
      "受理人": 9818,
      "spberry": 9819,
      "GetUMProperties": 9820,
      "cluding": 9821,
      "updateinboxrules": 9822,
      "IsUMEnabled": 9823,
      "weighted": 9824,
      "SSortOrderSet": 9825,
      "RemoveImContactFromGroup": 9826,
      "MarkAllItemsAsRead": 9827,
      "ODBCDirect": 9828,
      "ObliqueAngle": 9829,
      "CHKSGFILES": 9830,
      "ManifoldJS": 9831,
      "WHSWorkLineCycleCount": 9832,
      "SampleVendPaym": 9833,
      "browserExecutableFolder": 9834,
      "LedgerCovLiquidityMeasurement": 9835,
      "-.": 9836,
      "06": 9837,
      "023": 9838,
      "099": 9839,
      "0LY": 9840,
      "311": 9841,
      "520": 9842,
      "580": 9843,
      "720": 9844,
      "94": 9845,
      "97": 9846,
      "AGE": 9847,
      "Astronaut": 9848,
      "Br": 9849,
      "BLO": 9850,
      "B2B": 9851,
      "CV": 9852,
      "Case": 9853,
      "CAL": 9854,
      "CRE": 9855,
      "Clip": 9856,
      "DD": 9857,
      "Dan": 9858,
      "DER": 9859,
      "Es": 9860,
      "Ew": 9861,
      "EDI": 9862,
      "Each": 9863,
      "Eseutil": 9864,
      "Effort": 9865,
      "F3": 9866,
      "F6": 9867,
      "FB": 9868,
      "FL": 9869,
      "F12": 9870,
      "F10": 9871,
      "Flow": 9872,
      "Gi": 9873,
      "GAL": 9874,
      "GPI": 9875,
      "HK": 9876,
      "HMD": 9877,
      "Hours": 9878,
      "Iss": 9879,
      "Ju": 9880,
      "KPI": 9881,
      "LM": 9882,
      "Live": 9883,
      "LOP": 9884,
      "L0001": 9885,
      "Mer": 9886,
      "M00": 9887,
      "Mime": 9888,
      "Match": 9889,
      "NL": 9890,
      "NUM": 9891,
      "P2": 9892,
      "Pst": 9893,
      "PER": 9894,
      "Plow": 9895,
      "PRE": 9896,
      "P0LY": 9897,
      "Ray": 9898,
      "RUN": 9899,
      "Rich": 9900,
      "SV": 9901,
      "Sa": 9902,
      "SSO": 9903,
      "SIP": 9904,
      "Step": 9905,
      "SAME": 9906,
      "Src": 9907,
      "Tent": 9908,
      "Tilt": 9909,
      "TTL": 9910,
      "UL": 9911,
      "USE": 9912,
      "UTE": 9913,
      "UXT": 9914,
      "VER": 9915,
      "Volume": 9916,
      "WAI": 9917,
      "WBS": 9918,
      "XBR": 9919,
      "aid": 9920,
      "aim": 9921,
      "around": 9922,
      "affor": 9923,
      "bg": 9924,
      "bits": 9925,
      "blue": 9926,
      "ca": 9927,
      "cf": 9928,
      "cp": 9929,
      "cus": 9930,
      "cur": 9931,
      "clear": 9932,
      "csom": 9933,
      "due": 9934,
      "dance": 9935,
      "duration": 9936,
      "edo": 9937,
      "eval": 9938,
      "empty": 9939,
      "fro": 9940,
      "gain": 9941,
      "glue": 9942,
      "greg": 9943,
      "ha": 9944,
      "hn": 9945,
      "ian": 9946,
      "iis": 9947,
      "iel": 9948,
      "jo": 9949,
      "lish": 9950,
      "none": 9951,
      "pup": 9952,
      "rg": 9953,
      "ru": 9954,
      "ram": 9955,
      "sy": 9956,
      "scan": 9957,
      "vation": 9958,
      "vuforia": 9959,
      "volume": 9960,
      "will": 9961,
      "xref": 9962,
      "xsd": 9963,
      "yy": 9964,
      "yline": 9965,
      "yping": 9966,
      "zer": 9967,
      "zation": 9968,
      "一部分": 9969,
      "下属": 9970,
      "不仅": 9971,
      "不太": 9972,
      "严格": 9973,
      "中文": 9974,
      "主控": 9975,
      "举常量": 9976,
      "二维": 9977,
      "人才": 9978,
      "代替": 9979,
      "以来": 9980,
      "保真": 9981,
      "借助": 9982,
      "值应": 9983,
      "充分": 9984,
      "光线": 9985,
      "免费": 9986,
      "入到": 9987,
      "入职": 9988,
      "减小": 9989,
      "出货": 9990,
      "分号": 9991,
      "列名": 9992,
      "利率": 9993,
      "剔除": 9994,
      "剪辑": 9995,
      "加号": 9996,
      "加拿": 9997,
      "化为": 9998,
      "协同": 9999,
      "协商": 10000,
      "单打": 10001,
      "博客": 10002,
[...]
