{
  "version": "1.0",
  "truncation": null,
  "padding": null,
  "added_tokens": [
    {
      "id": 0,
      "content": "[UNK]",
      "single_word": false,
      "lstrip": false,
      "rstrip": false,
      "normalized": false,
      "special": true
    },
    {
      "id": 1,
      "content": "[PAD]",
      "single_word": false,
      "lstrip": false,
      "rstrip": false,
      "normalized": false,
      "special": true
    },
    {
      "id": 2,
      "content": "[BOS]",
      "single_word": false,
      "lstrip": false,
      "rstrip": false,
      "normalized": false,
      "special": true
    },
    {
      "id": 3,
      "content": "[EOS]",
      "single_word": false,
      "lstrip": false,
      "rstrip": false,
      "normalized": false,
      "special": true
    }
  ],
  "normalizer": null,
  "pre_tokenizer": {
    "type": "Whitespace"
  },
  "post_processor": null,
  "decoder": null,
  "model": {
    "type": "BPE",
    "dropout": null,
    "unk_token": "[UNK]",
    "continuing_subword_prefix": null,
    "end_of_word_suffix": null,
    "fuse_unk": false,
    "vocab": {
      "[UNK]": 0,
      "[PAD]": 1,
      "[BOS]": 2,
      "[EOS]": 3,
      "!": 4,
      "#": 5,
      "$": 6,
      "%": 7,
      "&": 8,
      "(": 9,
      ")": 10,
      "*": 11,
      "+": 12,
      ",": 13,
      "-": 14,
      ".": 15,
      "/": 16,
      "0": 17,
      "1": 18,
      "2": 19,
      "3": 20,
      "4": 21,
      "5": 22,
      "6": 23,
      "7": 24,
      "8": 25,
      "9": 26,
      ":": 27,
      ";": 28,
      "=": 29,
      "?": 30,
      "@": 31,
      "A": 32,
      "B": 33,
      "C": 34,
      "D": 35,
      "E": 36,
      "F": 37,
      "G": 38,
      "H": 39,
      "I": 40,
      "J": 41,
      "K": 42,
      "L": 43,
      "M": 44,
      "N": 45,
      "O": 46,
      "P": 47,
      "Q": 48,
      "R": 49,
      "S": 50,
      "T": 51,
      "U": 52,
      "V": 53,
      "W": 54,
      "X": 55,
      "Y": 56,
      "Z": 57,
      "\\": 58,
      "_": 59,
      "`": 60,
      "a": 61,
      "b": 62,
      "c": 63,
      "d": 64,
      "e": 65,
      "f": 66,
      "g": 67,
      "h": 68,
      "i": 69,
      "j": 70,
      "k": 71,
      "l": 72,
      "m": 73,
      "n": 74,
      "o": 75,
      "p": 76,
      "q": 77,
      "r": 78,
      "s": 79,
      "t": 80,
      "u": 81,
      "v": 82,
      "w": 83,
      "x": 84,
      "y": 85,
      "z": 86,
      "§": 87,
      "´": 88,
      "×": 89,
      "÷": 90,
      "č": 91,
      "​": 92,
      "‐": 93,
      "‑": 94,
      "–": 95,
      "—": 96,
      "‘": 97,
      "’": 98,
      "“": 99,
      "”": 100,
      "†": 101,
      "‡": 102,
      "•": 103,
      "…": 104,
      "−": 105,
      "﻿": 106,
      "th": 107,
      "in": 108,
      "the": 109,
      "re": 110,
      "at": 111,
      "on": 112,
      "an": 113,
      "er": 114,
      "or": 115,
      "en": 116,
      "es": 117,
      "ou": 118,
      "al": 119,
      "to": 120,
      "ti": 121,
      "le": 122,
      "se": 123,
      "is": 124,
      "ing": 125,
      "ed": 126,
      "ro": 127,
      "ic": 128,
      "ow": 129,
      "ent": 130,
      "st": 131,
      "and": 132,
      "ion": 133,
      "ac": 134,
      "ar": 135,
      "you": 136,
      "it": 137,
      "for": 138,
      "ap": 139,
      "of": 140,
      "fi": 141,
      "as": 142,
      "tion": 143,
      "ation": 144,
      "de": 145,
      "ate": 146,
      "ct": 147,
      "&#": 148,
      "12": 149,
      "he": 150,
      "124": 151,
      "ll": 152,
      "co": 153,
      "pro": 154,
      "mp": 155,
      "ch": 156,
      "us": 157,
      "ort": 158,
      "con": 159,
      "el": 160,
      "that": 161,
      "ment": 162,
      "ge": 163,
      "can": 164,
      "are": 165,
      "me": 166,
      "os": 167,
      "nt": 168,
      "port": 169,
      "ab": 170,
      "wi": 171,
      "be": 172,
      "The": 173,
      "In": 174,
      "ex": 175,
      "lo": 176,
      "ur": 177,
      "ers": 178,
      "qu": 179,
      "ce": 180,
      "apos": 181,
      "ay": 182,
      "dat": 183,
      "up": 184,
      "tit": 185,
      "ve": 186,
      "ad": 187,
      "ri": 188,
      "ul": 189,
      "lect": 190,
      "ly": 191,
      "eld": 192,
      "pe": 193,
      "field": 194,
      "ord": 195,
      "vi": 196,
      "fo": 197,
      "em": 198,
      "res": 199,
      "ew": 200,
      "cre": 201,
      "data": 202,
      "mo": 203,
      "di": 204,
      "set": 205,
      "form": 206,
      "age": 207,
      "il": 208,
      "with": 209,
      "ction": 210,
      "ig": 211,
      "ess": 212,
      "ount": 213,
      "ice": 214,
      "et": 215,
      "ter": 216,
      "pl": 217,
      "um": 218,
      "report": 219,
      "use": 220,
      "ot": 221,
      "op": 222,
      "val": 223,
      "ci": 224,
      "llow": 225,
      "tr": 226,
      "un": 227,
      "your": 228,
      "ork": 229,
      "wh": 230,
      "our": 231,
      "title": 232,
      "du": 233,
      "able": 234,
      "follow": 235,
      "sh": 236,
      "ure": 237,
      "ower": 238,
      "ated": 239,
      "te": 240,
      "select": 241,
      "tom": 242,
      "Power": 243,
      "count": 244,
      "rom": 245,
      "ver": 246,
      "so": 247,
      "ty": 248,
      "lic": 249,
      "work": 250,
      "ase": 251,
      "end": 252,
      "per": 253,
      "from": 254,
      "valu": 255,
      "following": 256,
      "cont": 257,
      "ist": 258,
      "ut": 259,
      "po": 260,
      "app": 261,
      "des": 262,
      "ser": 263,
      "You": 264,
      "by": 265,
      "rou": 266,
      "oc": 267,
      "To": 268,
      "iz": 269,
      "cess": 270,
      "ame": 271,
      "lin": 272,
      "BI": 273,
      "ual": 274,
      "fin": 275,
      "ag": 276,
      "ail": 277,
      "Th": 278,
      "ity": 279,
      "comp": 280,
      "this": 281,
      "all": 282,
      "bo": 283,
      "ts": 284,
      "item": 285,
      "inv": 286,
      "ign": 287,
      "order": 288,
      "fe": 289,
      "ain": 290,
      "vice": 291,
      "ans": 292,
      "ustom": 293,
      "tions": 294,
      "ard": 295,
      "ments": 296,
      "Cre": 297,
      "Re": 298,
      "ave": 299,
      "produ": 300,
      "ens": 301,
      "ne": 302,
      "ps": 303,
      "any": 304,
      "This": 305,
      "ations": 306,
      "date": 307,
      "amp": 308,
      "view": 309,
      "su": 310,
      "lick": 311,
      "Create": 312,
      "account": 313,
      "ust": 314,
      "ther": 315,
      "low": 316,
      "li": 317,
      "value": 318,
      "enter": 319,
      "am": 320,
      "will": 321,
      "fig": 322,
      "gt": 323,
      "ant": 324,
      "Se": 325,
      "we": 326,
      "rec": 327,
      "type": 328,
      "custom": 329,
      "ales": 330,
      "ory": 331,
      "flow": 332,
      "vis": 333,
      "tity": 334,
      "Set": 335,
      "ke": 336,
      "umb": 337,
      "art": 338,
      "create": 339,
      "not": 340,
      "cal": 341,
      "have": 342,
      "cl": 343,
      "peci": 344,
      "out": 345,
      "chan": 346,
      "ach": 347,
      "when": 348,
      "service": 349,
      "red": 350,
      "requ": 351,
      "act": 352,
      "one": 353,
      "list": 354,
      "numb": 355,
      "pay": 356,
      "ros": 357,
      "trans": 358,
      "post": 359,
      "mode": 360,
      "les": 361,
      "ting": 362,
      "pre": 363,
      "Ex": 364,
      "visual": 365,
      "dis": 366,
      "ample": 367,
      "Co": 368,
      "new": 369,
      "ties": 370,
      "if": 371,
      "im": 372,
      "own": 373,
      "add": 374,
      "Wh": 375,
      "process": 376,
      "If": 377,
      "invo": 378,
      "grou": 379,
      "Con": 380,
      "how": 381,
      "nal": 382,
      "ok": 383,
      "Select": 384,
      "speci": 385,
      "using": 386,
      "config": 387,
      "col": 388,
      "ass": 389,
      "number": 390,
      "ces": 391,
      "man": 392,
      "od": 393,
      "Ad": 394,
      "cur": 395,
      "used": 396,
      "cri": 397,
      "ance": 398,
      "av": 399,
      "pac": 400,
      "sales": 401,
      "der": 402,
      "but": 403,
      "ash": 404,
      "page": 405,
      "min": 406,
      "ob": 407,
      "formation": 408,
      "model": 409,
      "rent": 410,
      "ste": 411,
      "ext": 412,
      "led": 413,
      "ener": 414,
      "product": 415,
      "ip": 416,
      "time": 417,
      "igh": 418,
      "cost": 419,
      "urch": 420,
      "oft": 421,
      "ension": 422,
      "information": 423,
      "fic": 424,
      "cul": 425,
      "com": 426,
      "loc": 427,
      "est": 428,
      "bu": 429,
      "ma": 430,
      "ld": 431,
      "user": 432,
      "way": 433,
      "defin": 434,
      "je": 435,
      "Click": 436,
      "record": 437,
      "icros": 438,
      "icrosoft": 439,
      "Microsoft": 440,
      "dif": 441,
      "ree": 442,
      "urchase": 443,
      "How": 444,
      "ject": 445,
      "endor": 446,
      "line": 447,
      "Doc": 448,
      "ult": 449,
      "For": 450,
      "other": 451,
      "Pro": 452,
      "must": 453,
      "ource": 454,
      "quot": 455,
      "entory": 456,
      "ning": 457,
      "show": 458,
      "De": 459,
      "gh": 460,
      "id": 461,
      "row": 462,
      "ari": 463,
      "board": 464,
      "ren": 465,
      "do": 466,
      "works": 467,
      "It": 468,
      "au": 469,
      "arch": 470,
      "ich": 471,
      "has": 472,
      "par": 473,
      "created": 474,
      "want": 475,
      "ally": 476,
      "open": 477,
      "rect": 478,
      "pr": 479,
      "00": 480,
      "fa": 481,
      "si": 482,
      "enti": 483,
      "file": 484,
      "str": 485,
      "ization": 486,
      "dim": 487,
      "ased": 488,
      "example": 489,
      "Add": 490,
      "dimension": 491,
      "reports": 492,
      "fil": 493,
      "doc": 494,
      "table": 495,
      "When": 496,
      "bal": 497,
      "entity": 498,
      "invoice": 499,
      "ies": 500,
      "clu": 501,
      "name": 502,
      "plan": 503,
      "ced": 504,
      "exp": 505,
      "which": 506,
      "ta": 507,
      "ates": 508,
      "only": 509,
      "ack": 510,
      "payment": 511,
      "get": 512,
      "Ap": 513,
      "hou": 514,
      "play": 515,
      "items": 516,
      "ashboard": 517,
      "sup": 518,
      "calcul": 519,
      "group": 520,
      "ger": 521,
      "transac": 522,
      "ournal": 523,
      "acti": 524,
      "rel": 525,
      "umn": 526,
      "configur": 527,
      "rol": 528,
      "Docs": 529,
      "docu": 530,
      "ast": 531,
      "requi": 532,
      "purchase": 533,
      "customer": 534,
      "avail": 535,
      "arehou": 536,
      "vendor": 537,
      "ask": 538,
      "these": 539,
      "each": 540,
      "gener": 541,
      "dashboard": 542,
      "ank": 543,
      "more": 544,
      "also": 545,
      "mpl": 546,
      "fun": 547,
      "mport": 548,
      "column": 549,
      "click": 550,
      "section": 551,
      "ind": 552,
      "look": 553,
      "mb": 554,
      "fault": 555,
      "lines": 556,
      "top": 557,
      "vel": 558,
      "diffe": 559,
      "down": 560,
      "then": 561,
      "ck": 562,
      "control": 563,
      "int": 564,
      "reg": 565,
      "atch": 566,
      "arehouse": 567,
      "available": 568,
      "see": 569,
      "inclu": 570,
      "ish": 571,
      "inter": 572,
      "descri": 573,
      "Ac": 574,
      "need": 575,
      "inventory": 576,
      "ould": 577,
      "change": 578,
      "provi": 579,
      "ges": 580,
      "ices": 581,
      "workspac": 582,
      "ron": 583,
      "ite": 584,
      "steps": 585,
      "rece": 586,
      "company": 587,
      "templ": 588,
      "values": 589,
      "assign": 590,
      "based": 591,
      "appl": 592,
      "amount": 593,
      "format": 594,
      "ir": 595,
      "ton": 596,
      "peri": 597,
      "pos": 598,
      "ick": 599,
      "ents": 600,
      "dit": 601,
      "ating": 602,
      "ize": 603,
      "journal": 604,
      "whe": 605,
      "production": 606,
      "Des": 607,
      "mar": 608,
      "xed": 609,
      "function": 610,
      "display": 611,
      "fore": 612,
      "Use": 613,
      "vers": 614,
      "quan": 615,
      "fy": 616,
      "conne": 617,
      "button": 618,
      "tic": 619,
      "gan": 620,
      "ol": 621,
      "Up": 622,
      "On": 623,
      "over": 624,
      "put": 625,
      "ile": 626,
      "users": 627,
      "ress": 628,
      "ery": 629,
      "ight": 630,
      "tab": 631,
      "location": 632,
      "nd": 633,
      "ub": 634,
      "ails": 635,
      "configuration": 636,
      "different": 637,
      "job": 638,
      "lete": 639,
      "ition": 640,
      "default": 641,
      "ters": 642,
      "cap": 643,
      "ret": 644,
      "Po": 645,
      "Ser": 646,
      "urn": 647,
      "content": 648,
      "no": 649,
      "orders": 650,
      "ages": 651,
      "atic": 652,
      "ven": 653,
      "ye": 654,
      "code": 655,
      "appro": 656,
      "rough": 657,
      "Dat": 658,
      "fer": 659,
      "ulti": 660,
      "load": 661,
      "ries": 662,
      "sy": 663,
      "Op": 664,
      "sing": 665,
      "fir": 666,
      "task": 667,
      "fter": 668,
      "through": 669,
      "selected": 670,
      "typ": 671,
      "its": 672,
      "dataset": 673,
      "comm": 674,
      "rop": 675,
      "ources": 676,
      "shows": 677,
      "run": 678,
      "iness": 679,
      "usiness": 680,
      "sub": 681,
      "fields": 682,
      "Data": 683,
      "ive": 684,
      "ded": 685,
      "As": 686,
      "Qu": 687,
      "organ": 688,
      "cy": 689,
      "gr": 690,
      "option": 691,
      "ateg": 692,
      "che": 693,
      "ted": 694,
      "lobal": 695,
      "drop": 696,
      "source": 697,
      "setting": 698,
      "tomatic": 699,
      "specific": 700,
      "dition": 701,
      "workspace": 702,
      "mis": 703,
      "ple": 704,
      "main": 705,
      "ous": 706,
      "asset": 707,
      "portal": 708,
      "Item": 709,
      "warehouse": 710,
      "quantity": 711,
      "ved": 712,
      "support": 713,
      "just": 714,
      "about": 715,
      "document": 716,
      "import": 717,
      "contain": 718,
      "att": 719,
      "template": 720,
      "same": 721,
      "nter": 722,
      "link": 723,
      "version": 724,
      "gu": 725,
      "ial": 726,
      "vari": 727,
      "into": 728,
      "stem": 729,
      "filter": 730,
      "resh": 731,
      "compon": 732,
      "Report": 733,
      "web": 734,
      "thod": 735,
      "ule": 736,
      "ledger": 737,
      "wo": 738,
      "ication": 739,
      "box": 740,
      "sign": 741,
      "been": 742,
      "access": 743,
      "ane": 744,
      "Ch": 745,
      "ref": 746,
      "edit": 747,
      "ble": 748,
      "oper": 749,
      "multi": 750,
      "transactions": 751,
      "cor": 752,
      "text": 753,
      "ched": 754,
      "ship": 755,
      "perform": 756,
      "proced": 757,
      "ures": 758,
      "proper": 759,
      "exist": 760,
      "Cost": 761,
      "manage": 762,
      "ier": 763,
      "should": 764,
      "St": 765,
      "Tr": 766,
      "ption": 767,
      "ility": 768,
      "Inv": 769,
      "organization": 770,
      "start": 771,
      "dep": 772,
      "two": 773,
      "ine": 774,
      "they": 775,
      "Exp": 776,
      "card": 777,
      "read": 778,
      "posted": 779,
      "lu": 780,
      "project": 781,
      "period": 782,
      "them": 783,
      "automatic": 784,
      "Global": 785,
      "ace": 786,
      "chart": 787,
      "tim": 788,
      "check": 789,
      "ose": 790,
      "posting": 791,
      "Or": 792,
      "10": 793,
      "Man": 794,
      "business": 795,
      "sc": 796,
      "method": 797,
      "current": 798,
      "types": 799,
      "bank": 800,
      "Pay": 801,
      "ence": 802,
      "procedure": 803,
      "Vi": 804,
      "ors": 805,
      "design": 806,
      "entries": 807,
      "det": 808,
      "anci": 809,
      "mit": 810,
      "View": 811,
      "En": 812,
      "ill": 813,
      "flows": 814,
      "system": 815,
      "ry": 816,
      "level": 817,
      "categ": 818,
      "stat": 819,
      "accounts": 820,
      "changes": 821,
      "Sales": 822,
      "feat": 823,
      "fied": 824,
      "return": 825,
      "bet": 826,
      "configure": 827,
      "lection": 828,
      "hel": 829,
      "Work": 830,
      "lish": 831,
      "fixed": 832,
      "tive": 833,
      "admin": 834,
      "og": 835,
      "sto": 836,
      "where": 837,
      "uring": 838,
      "dri": 839,
      "ater": 840,
      "capac": 841,
      "refresh": 842,
      "ID": 843,
      "cel": 844,
      "planning": 845,
      "state": 846,
      "describ": 847,
      "multiple": 848,
      "mand": 849,
      "pon": 850,
      "lookup": 851,
      "Account": 852,
      "ierarch": 853,
      "char": 854,
      "ways": 855,
      "parame": 856,
      "solu": 857,
      "apps": 858,
      "visuals": 859,
      "Config": 860,
      "before": 861,
      "first": 862,
      "pri": 863,
      "action": 864,
      "make": 865,
      "mark": 866,
      "hierarch": 867,
      "now": 868,
      "ancial": 869,
      "We": 870,
      "dget": 871,
      "lan": 872,
      "Produ": 873,
      "ding": 874,
      "istr": 875,
      "ary": 876,
      "appe": 877,
      "automatically": 878,
      "ele": 879,
      "preci": 880,
      "Apps": 881,
      "some": 882,
      "Sh": 883,
      "uses": 884,
      "ques": 885,
      "settings": 886,
      "appear": 887,
      "mon": 888,
      "ply": 889,
      "ween": 890,
      "sed": 891,
      "ribu": 892,
      "Custom": 893,
      "Post": 894,
      "book": 895,
      "Name": 896,
      "mplo": 897,
      "soci": 898,
      "bin": 899,
      "sion": 900,
      "head": 901,
      "nam": 902,
      "direct": 903,
      "allow": 904,
      "bile": 905,
      "mobile": 906,
      "tax": 907,
      "Open": 908,
      "details": 909,
      "options": 910,
      "mess": 911,
      "may": 912,
      "sched": 913,
      "There": 914,
      "relation": 915,
      "ditional": 916,
      "OM": 917,
      "avi": 918,
      "polic": 919,
      "required": 920,
      "ys": 921,
      "ue": 922,
      "leg": 923,
      "between": 924,
      "Mo": 925,
      "groups": 926,
      "Fi": 927,
      "site": 928,
      "ange": 929,
      "ality": 930,
      "issu": 931,
      "entities": 932,
      "capacity": 933,
      "Gener": 934,
      "back": 935,
      "ef": 936,
      "An": 937,
      "search": 938,
      "connect": 939,
      "Enter": 940,
      "ho": 941,
      "ules": 942,
      "specify": 943,
      "vas": 944,
      "enable": 945,
      "very": 946,
      "ross": 947,
      "discount": 948,
      "preciation": 949,
      "pres": 950,
      "stand": 951,
      "semb": 952,
      "agree": 953,
      "Expand": 954,
      "move": 955,
      "general": 956,
      "go": 957,
      "workflow": 958,
      "alog": 959,
      "related": 960,
      "price": 961,
      "Service": 962,
      "ually": 963,
      "existing": 964,
      "day": 965,
      "anb": 966,
      "canvas": 967,
      "reporting": 968,
      "records": 969,
      "ublish": 970,
      "mission": 971,
      "BOM": 972,
      "inst": 973,
      "formul": 974,
      "pack": 975,
      "help": 976,
      "Go": 977,
      "there": 978,
      "err": 979,
      "does": 980,
      "ca": 981,
      "mploye": 982,
      "associ": 983,
      "meas": 984,
      "within": 985,
      "transaction": 986,
      "solution": 987,
      "Pre": 988,
      "ense": 989,
      "scre": 990,
      "their": 991,
      "erson": 992,
      "defined": 993,
      "Defin": 994,
      "Au": 995,
      "rele": 996,
      "setup": 997,
      "tree": 998,
      "than": 999,
      "require": 1000,
      "fact": 1001,
      "log": 1002,
      "credit": 1003,
      "ticle": 1004,
      "ound": 1005,
      "respon": 1006,
      "such": 1007,
      "ied": 1008,
      "pane": 1009,
      "activ": 1010,
      "application": 1011,
      "article": 1012,
      "viron": 1013,
      "who": 1014,
      "Comp": 1015,
      "indow": 1016,
      "Res": 1017,
      "enari": 1018,
      "He": 1019,
      "No": 1020,
      "dated": 1021,
      "US": 1022,
      "ities": 1023,
      "status": 1024,
      "files": 1025,
      "Un": 1026,
      "cent": 1027,
      "tific": 1028,
      "resul": 1029,
      "object": 1030,
      "email": 1031,
      "cle": 1032,
      "ical": 1033,
      "transfer": 1034,
      "After": 1035,
      "bar": 1036,
      "share": 1037,
      "hierarchy": 1038,
      "export": 1039,
      "payments": 1040,
      "match": 1041,
      "part": 1042,
      "many": 1043,
      "demand": 1044,
      "hand": 1045,
      "was": 1046,
      "management": 1047,
      "Cont": 1048,
      "environ": 1049,
      "lose": 1050,
      "unit": 1051,
      "calculated": 1052,
      "apply": 1053,
      "Excel": 1054,
      "single": 1055,
      "contains": 1056,
      "gate": 1057,
      "recast": 1058,
      "inte": 1059,
      "ics": 1060,
      "anban": 1061,
      "Yes": 1062,
      "pick": 1063,
      "receip": 1064,
      "properties": 1065,
      "products": 1066,
      "components": 1067,
      "scenari": 1068,
      "let": 1069,
      "contr": 1070,
      "parameters": 1071,
      "message": 1072,
      "ear": 1073,
      "tool": 1074,
      "actions": 1075,
      "financial": 1076,
      "screen": 1077,
      "vices": 1078,
      "key": 1079,
      "stru": 1080,
      "provides": 1081,
      "All": 1082,
      "ending": 1083,
      "define": 1084,
      "dimensions": 1085,
      "include": 1086,
      "update": 1087,
      "assigned": 1088,
      "find": 1089,
      "after": 1090,
      "rule": 1091,
      "budget": 1092,
      "ready": 1093,
      "describes": 1094,
      "cause": 1095,
      "depreciation": 1096,
      "ide": 1097,
      "sum": 1098,
      "ized": 1099,
      "rules": 1100,
      "step": 1101,
      "cop": 1102,
      "connection": 1103,
      "Manage": 1104,
      "sources": 1105,
      "entry": 1106,
      "resource": 1107,
      "rency": 1108,
      "columns": 1109,
      "tain": 1110,
      "ator": 1111,
      "another": 1112,
      "acts": 1113,
      "heet": 1114,
      "termin": 1115,
      "Trans": 1116,
      "Configure": 1117,
      "ribute": 1118,
      "permission": 1119,
      "cription": 1120,
      "adjust": 1121,
      "results": 1122,
      "cord": 1123,
      "als": 1124,
      "apping": 1125,
      "header": 1126,
      "ull": 1127,
      "dialog": 1128,
      "AT": 1129,
      "Det": 1130,
      "RL": 1131,
      "cer": 1132,
      "additional": 1133,
      "documents": 1134,
      "might": 1135,
      "off": 1136,
      "vious": 1137,
      "imum": 1138,
      "employe": 1139,
      "emb": 1140,
      "ability": 1141,
      "feren": 1142,
      "year": 1143,
      "ktop": 1144,
      "recei": 1145,
      "environment": 1146,
      "associated": 1147,
      "Here": 1148,
      "ins": 1149,
      "Be": 1150,
      "anal": 1151,
      "dates": 1152,
      "verage": 1153,
      "request": 1154,
      "formula": 1155,
      "person": 1156,
      "whether": 1157,
      "under": 1158,
      "Design": 1159,
      "Ma": 1160,
      "eri": 1161,
      "forecast": 1162,
      "added": 1163,
      "ful": 1164,
      "la": 1165,
      "resources": 1166,
      "what": 1167,
      "definition": 1168,
      "Di": 1169,
      "Not": 1170,
      "customers": 1171,
      "previous": 1172,
      "What": 1173,
      "codes": 1174,
      "lectron": 1175,
      "izations": 1176,
      "tasks": 1177,
      "aterial": 1178,
      "lectronic": 1179,
      "kanban": 1180,
      "device": 1181,
      "limit": 1182,
      "manag": 1183,
      "Action": 1184,
      "abel": 1185,
      "tables": 1186,
      "legal": 1187,
      "md": 1188,
      "pa": 1189,
      "high": 1190,
      "leted": 1191,
      "policy": 1192,
      "Define": 1193,
      "roll": 1194,
      "righ": 1195,
      "creating": 1196,
      "point": 1197,
      "AP": 1198,
      "Desktop": 1199,
      "agreement": 1200,
      "measure": 1201,
      "93": 1202,
      "sure": 1203,
      "determin": 1204,
      "address": 1205,
      "men": 1206,
      "like": 1207,
      "Inventory": 1208,
      "91": 1209,
      "batch": 1210,
      "gg": 1211,
      "next": 1212,
      "image": 1213,
      "Query": 1214,
      "publish": 1215,
      "calculation": 1216,
      "category": 1217,
      "20": 1218,
      "Bu": 1219,
      "displayed": 1220,
      "class": 1221,
      "Order": 1222,
      "embed": 1223,
      "PO": 1224,
      "oose": 1225,
      "sample": 1226,
      "ev": 1227,
      "window": 1228,
      "query": 1229,
      "11": 1230,
      "assemb": 1231,
      "error": 1232,
      "delete": 1233,
      "Direct": 1234,
      "complete": 1235,
      "topic": 1236,
      "Plan": 1237,
      "af": 1238,
      "output": 1239,
      "receipt": 1240,
      "supported": 1241,
      "Ret": 1242,
      "cr": 1243,
      "ild": 1244,
      "repres": 1245,
      "feature": 1246,
      "Share": 1247,
      "ten": 1248,
      "curity": 1249,
      "Import": 1250,
      "ML": 1251,
      "icon": 1252,
      "component": 1253,
      "Cal": 1254,
      "ither": 1255,
      "memb": 1256,
      "dify": 1257,
      "Change": 1258,
      "material": 1259,
      "ned": 1260,
      "ph": 1261,
      "ister": 1262,
      "role": 1263,
      "supply": 1264,
      "functionality": 1265,
      "Fin": 1266,
      "VAT": 1267,
      "anced": 1268,
      "yout": 1269,
      "ression": 1270,
      "URL": 1271,
      "ling": 1272,
      "pare": 1273,
      "test": 1274,
      "invoices": 1275,
      "specified": 1276,
      "pt": 1277,
      "zure": 1278,
      "ases": 1279,
      "processes": 1280,
      "sider": 1281,
      "active": 1282,
      "General": 1283,
      "lement": 1284,
      "track": 1285,
      "shown": 1286,
      "question": 1287,
      "Fixed": 1288,
      "contract": 1289,
      "right": 1290,
      "ong": 1291,
      "manually": 1292,
      "struct": 1293,
      "Azure": 1294,
      "either": 1295,
      "label": 1296,
      "ynam": 1297,
      "currency": 1298,
      "Val": 1299,
      "Vendor": 1300,
      "imp": 1301,
      "lock": 1302,
      "dashboards": 1303,
      "Using": 1304,
      "loy": 1305,
      "both": 1306,
      "take": 1307,
      "rid": 1308,
      "appears": 1309,
      "experi": 1310,
      "ribut": 1311,
      "approval": 1312,
      "correct": 1313,
      "Purchase": 1314,
      "pages": 1315,
      "tot": 1316,
      "Fil": 1317,
      "brow": 1318,
      "itions": 1319,
      "deli": 1320,
      "tern": 1321,
      "place": 1322,
      "elements": 1323,
      "during": 1324,
      "ner": 1325,
      "designer": 1326,
      "ER": 1327,
      "side": 1328,
      "Invo": 1329,
      "ire": 1330,
      "contact": 1331,
      "identi": 1332,
      "sible": 1333,
      "provide": 1334,
      "eas": 1335,
      "referen": 1336,
      "divi": 1337,
      "Details": 1338,
      "Dis": 1339,
      "Edit": 1340,
      "three": 1341,
      "security": 1342,
      "profile": 1343,
      "Product": 1344,
      "At": 1345,
      "accounting": 1346,
      "Over": 1347,
      "bel": 1348,
      "nel": 1349,
      "ative": 1350,
      "sequ": 1351,
      "ips": 1352,
      "ify": 1353,
      "driven": 1354,
      "Speci": 1355,
      "Warehouse": 1356,
      "cash": 1357,
      "attach": 1358,
      "ason": 1359,
      "ves": 1360,
      "updated": 1361,
      "filters": 1362,
      "Get": 1363,
      "costs": 1364,
      "firm": 1365,
      "iti": 1366,
      "mapping": 1367,
      "ese": 1368,
      "administr": 1369,
      "Anal": 1370,
      "Ty": 1371,
      "br": 1372,
      "close": 1373,
      "Accounts": 1374,
      "15": 1375,
      "don": 1376,
      "endar": 1377,
      "fect": 1378,
      "features": 1379,
      "activity": 1380,
      "POS": 1381,
      "13": 1382,
      "full": 1383,
      "review": 1384,
      "soli": 1385,
      "navi": 1386,
      "ufact": 1387,
      "thor": 1388,
      "rest": 1389,
      "allocation": 1390,
      "These": 1391,
      "vities": 1392,
      "worker": 1393,
      "server": 1394,
      "includes": 1395,
      "commend": 1396,
      "Payment": 1397,
      "center": 1398,
      "save": 1399,
      "expl": 1400,
      "expression": 1401,
      "dist": 1402,
      "demo": 1403,
      "because": 1404,
      "result": 1405,
      "without": 1406,
      "balance": 1407,
      "copy": 1408,
      "ith": 1409,
      "til": 1410,
      "ged": 1411,
      "ving": 1412,
      "inated": 1413,
      "pect": 1414,
      "Form": 1415,
      "ysis": 1416,
      "14": 1417,
      "Us": 1418,
      "recommend": 1419,
      "across": 1420,
      "categor": 1421,
      "Docu": 1422,
      "string": 1423,
      "Production": 1424,
      "Date": 1425,
      "requis": 1426,
      "amounts": 1427,
      "Customer": 1428,
      "menu": 1429,
      "MF": 1430,
      "mi": 1431,
      "overview": 1432,
      "Pane": 1433,
      "away": 1434,
      "vanced": 1435,
      "occur": 1436,
      "Setting": 1437,
      "rows": 1438,
      "grid": 1439,
      "aginated": 1440,
      "various": 1441,
      "Calcul": 1442,
      "ances": 1443,
      "Com": 1444,
      "assembly": 1445,
      "Pr": 1446,
      "bas": 1447,
      "ever": 1448,
      "ired": 1449,
      "ables": 1450,
      "collection": 1451,
      "Inter": 1452,
      "Let": 1453,
      "bound": 1454,
      "ove": 1455,
      "roles": 1456,
      "sett": 1457,
      "operations": 1458,
      "times": 1459,
      "standard": 1460,
      "quick": 1461,
      "Example": 1462,
      "activities": 1463,
      "indic": 1464,
      "From": 1465,
      "gi": 1466,
      "cannot": 1467,
      "base": 1468,
      "vant": 1469,
      "applied": 1470,
      "datasets": 1471,
      "dividu": 1472,
      "Int": 1473,
      "size": 1474,
      "already": 1475,
      "most": 1476,
      "amples": 1477,
      "numbers": 1478,
      "Al": 1479,
      "percent": 1480,
      "jobs": 1481,
      "performance": 1482,
      "less": 1483,
      "cond": 1484,
      "mary": 1485,
      "issue": 1486,
      "Fo": 1487,
      "case": 1488,
      "install": 1489,
      "By": 1490,
      "ible": 1491,
      "reason": 1492,
      "000": 1493,
      "requirements": 1494,
      "gateway": 1495,
      "Now": 1496,
      "aw": 1497,
      "electronic": 1498,
      "subs": 1499,
      "Assign": 1500,
      "Items": 1501,
      "store": 1502,
      "layout": 1503,
      "map": 1504,
      "individu": 1505,
      "remove": 1506,
      "selection": 1507,
      "coll": 1508,
      "possible": 1509,
      "tile": 1510,
      "Enable": 1511,
      "element": 1512,
      "employee": 1513,
      "structure": 1514,
      "below": 1515,
      "Bo": 1516,
      "Bank": 1517,
      "ms": 1518,
      "those": 1519,
      "fill": 1520,
      "lot": 1521,
      "Point": 1522,
      "Posting": 1523,
      "experience": 1524,
      "New": 1525,
      "bility": 1526,
      "ered": 1527,
      "sim": 1528,
      "isn": 1529,
      "valid": 1530,
      "visualization": 1531,
      "Conne": 1532,
      "statement": 1533,
      "Note": 1534,
      "Sup": 1535,
      "few": 1536,
      "yz": 1537,
      "consider": 1538,
      "ships": 1539,
      "veral": 1540,
      "color": 1541,
      "made": 1542,
      "generated": 1543,
      "templates": 1544,
      "USMF": 1545,
      "Col": 1546,
      "property": 1547,
      "total": 1548,
      "abase": 1549,
      "beh": 1550,
      "workspaces": 1551,
      "assets": 1552,
      "Ent": 1553,
      "ax": 1554,
      "rate": 1555,
      "alk": 1556,
      "second": 1557,
      "ilities": 1558,
      "Description": 1559,
      "Server": 1560,
      "doesn": 1561,
      "ributes": 1562,
      "non": 1563,
      "here": 1564,
      "area": 1565,
      "sets": 1566,
      "again": 1567,
      "allery": 1568,
      "issues": 1569,
      "API": 1570,
      "tical": 1571,
      "processing": 1572,
      "manufact": 1573,
      "author": 1574,
      "included": 1575,
      "drill": 1576,
      "eria": 1577,
      "browser": 1578,
      "Run": 1579,
      "face": 1580,
      "last": 1581,
      "ximum": 1582,
      "iteria": 1583,
      "ilar": 1584,
      "16": 1585,
      "Show": 1586,
      "With": 1587,
      "Your": 1588,
      "dr": 1589,
      "Setup": 1590,
      "tics": 1591,
      "relationship": 1592,
      "relationships": 1593,
      "shared": 1594,
      "Te": 1595,
      "Vis": 1596,
      "ade": 1597,
      "ome": 1598,
      "paginated": 1599,
      "Can": 1600,
      "gin": 1601,
      "forms": 1602,
      "ternal": 1603,
      "generate": 1604,
      "functions": 1605,
      "cycle": 1606,
      "Loc": 1607,
      "average": 1608,
      "cure": 1609,
      "denti": 1610,
      "orig": 1611,
      "finish": 1612,
      "ights": 1613,
      "description": 1614,
      "Payments": 1615,
      "schedule": 1616,
      "Invoice": 1617,
      "ctive": 1618,
      "come": 1619,
      "mption": 1620,
      "consoli": 1621,
      "being": 1622,
      "expense": 1623,
      "operation": 1624,
      "lex": 1625,
      "portun": 1626,
      "due": 1627,
      "scenario": 1628,
      "Make": 1629,
      "Le": 1630,
      "sort": 1631,
      "orage": 1632,
      "ster": 1633,
      "calendar": 1634,
      "print": 1635,
      "attribute": 1636,
      "langu": 1637,
      "permissions": 1638,
      "gation": 1639,
      "choose": 1640,
      "cons": 1641,
      "parti": 1642,
      "depend": 1643,
      "enabled": 1644,
      "explain": 1645,
      "origin": 1646,
      "ints": 1647,
      "channel": 1648,
      "expand": 1649,
      "Journal": 1650,
      "Per": 1651,
      "call": 1652,
      "several": 1653,
      "ings": 1654,
      "Reg": 1655,
      "Process": 1656,
      "calculate": 1657,
      "configured": 1658,
      "Web": 1659,
      "Dynam": 1660,
      "block": 1661,
      "enef": 1662,
      "iscal": 1663,
      "working": 1664,
      "devel": 1665,
      "receive": 1666,
      "scenarios": 1667,
      "Before": 1668,
      "ders": 1669,
      "hour": 1670,
      "stage": 1671,
      "ceed": 1672,
      "sumption": 1673,
      "region": 1674,
      "individual": 1675,
      "ging": 1676,
      "database": 1677,
      "Connect": 1678,
      "Job": 1679,
      "ec": 1680,
      "modify": 1681,
      "opens": 1682,
      "directly": 1683,
      "Numb": 1684,
      "gallery": 1685,
      "icing": 1686,
      "ically": 1687,
      "arning": 1688,
      "confirm": 1689,
      "tak": 1690,
      "register": 1691,
      "Update": 1692,
      "attributes": 1693,
      "Retail": 1694,
      "36": 1695,
      "Dim": 1696,
      "Lin": 1697,
      "categories": 1698,
      "Each": 1699,
      "net": 1700,
      "send": 1701,
      "ests": 1702,
      "locations": 1703,
      "configurations": 1704,
      "vendors": 1705,
      "shipment": 1706,
      "interest": 1707,
      "cording": 1708,
      "bill": 1709,
      "ft": 1710,
      "ime": 1711,
      "na": 1712,
      "input": 1713,
      "separ": 1714,
      "local": 1715,
      "days": 1716,
      "reference": 1717,
      "similar": 1718,
      "ration": 1719,
      "tri": 1720,
      "sel": 1721,
      "cell": 1722,
      "models": 1723,
      "planned": 1724,
      "represent": 1725,
      "Ste": 1726,
      "cing": 1727,
      "left": 1728,
      "que": 1729,
      "were": 1730,
      "controls": 1731,
      "mises": 1732,
      "charts": 1733,
      "mium": 1734,
      "Grou": 1735,
      "Time": 1736,
      "ak": 1737,
      "lank": 1738,
      "spac": 1739,
      "premises": 1740,
      "master": 1741,
      "position": 1742,
      "notific": 1743,
      "appropri": 1744,
      "Start": 1745,
      "deploy": 1746,
      "questions": 1747,
      "allows": 1748,
      "relevant": 1749,
      "Business": 1750,
      "Led": 1751,
      "cli": 1752,
      "ep": 1753,
      "registr": 1754,
      "methods": 1755,
      "integr": 1756,
      "determine": 1757,
      "delivery": 1758,
      "Dimension": 1759,
      "17": 1760,
      "ward": 1761,
      "lore": 1762,
      "preview": 1763,
      "intercompany": 1764,
      "gram": 1765,
      "Find": 1766,
      "redu": 1767,
      "creates": 1768,
      "Requ": 1769,
      "Premium": 1770,
      "self": 1771,
      "appropriate": 1772,
      "Ledger": 1773,
      "XML": 1774,
      "ants": 1775,
      "desired": 1776,
      "necess": 1777,
      "stead": 1778,
      "displays": 1779,
      "loaded": 1780,
      "month": 1781,
      "Filter": 1782,
      "One": 1783,
      "Sub": 1784,
      "bit": 1785,
      "word": 1786,
      "tities": 1787,
      "arti": 1788,
      "until": 1789,
      "personal": 1790,
      "embedded": 1791,
      "wr": 1792,
      "incre": 1793,
      "entered": 1794,
      "contin": 1795,
      "Sy": 1796,
      "repl": 1797,
      "storage": 1798,
      "external": 1799,
      "Record": 1800,
      "ensation": 1801,
      "Export": 1802,
      "worksheet": 1803,
      "thentic": 1804,
      "important": 1805,
      "SharePoint": 1806,
      "finished": 1807,
      "Oper": 1808,
      "SS": 1809,
      "would": 1810,
      "metr": 1811,
      "abilities": 1812,
      "units": 1813,
      "completed": 1814,
      "matching": 1815,
      "member": 1816,
      "Visual": 1817,
      "usage": 1818,
      "ctions": 1819,
      "services": 1820,
      "received": 1821,
      "Specify": 1822,
      "greg": 1823,
      "ie": 1824,
      "advanced": 1825,
      "ditions": 1826,
      "tered": 1827,
      "selecting": 1828,
      "actual": 1829,
      "lists": 1830,
      "Default": 1831,
      "illust": 1832,
      "hold": 1833,
      "navigation": 1834,
      "Step": 1835,
      "ibility": 1836,
      "remain": 1837,
      "points": 1838,
      "combin": 1839,
      "mak": 1840,
      "common": 1841,
      "running": 1842,
      "policies": 1843,
      "tracking": 1844,
      "Cur": 1845,
      "ouch": 1846,
      "reser": 1847,
      "prin": 1848,
      "journals": 1849,
      "Move": 1850,
      "collap": 1851,
      "365": 1852,
      "necessary": 1853,
      "Cop": 1854,
      "Rem": 1855,
      "aler": 1856,
      "arge": 1857,
      "ites": 1858,
      "ush": 1859,
      "eting": 1860,
      "correspon": 1861,
      "DirectQuery": 1862,
      "tenant": 1863,
      "Users": 1864,
      "Follow": 1865,
      "ient": 1866,
      "pur": 1867,
      "itor": 1868,
      "prices": 1869,
      "strain": 1870,
      "Appl": 1871,
      "needed": 1872,
      "certific": 1873,
      "Type": 1874,
      "Copy": 1875,
      "Line": 1876,
      "Out": 1877,
      "according": 1878,
      "changed": 1879,
      "Quan": 1880,
      "guide": 1881,
      "started": 1882,
      "event": 1883,
      "ccess": 1884,
      "ring": 1885,
      "eries": 1886,
      "enish": 1887,
      "prove": 1888,
      "examples": 1889,
      "sections": 1890,
      "described": 1891,
      "Entries": 1892,
      "22": 1893,
      "Cl": 1894,
      "ency": 1895,
      "arri": 1896,
      "arget": 1897,
      "program": 1898,
      "conditions": 1899,
      "build": 1900,
      "command": 1901,
      "administrator": 1902,
      "behavi": 1903,
      "uled": 1904,
      "lets": 1905,
      "consumption": 1906,
      "exchange": 1907,
      "exec": 1908,
      "tomate": 1909,
      "aggreg": 1910,
      "buil": 1911,
      "simp": 1912,
      "blank": 1913,
      "could": 1914,
      "ping": 1915,
      "ues": 1916,
      "seg": 1917,
      "arrow": 1918,
      "expect": 1919,
      "Review": 1920,
      "enses": 1921,
      "note": 1922,
      "differen": 1923,
      "criteria": 1924,
      "yze": 1925,
      "Quantity": 1926,
      "AX": 1927,
      "Lo": 1928,
      "Of": 1929,
      "edi": 1930,
      "ople": 1931,
      "adding": 1932,
      "However": 1933,
      "Delete": 1934,
      "formatting": 1935,
      "Track": 1936,
      "names": 1937,
      "explains": 1938,
      "Dynamics": 1939,
      "Allow": 1940,
      "Emb": 1941,
      "ole": 1942,
      "remo": 1943,
      "ences": 1944,
      "itu": 1945,
      "constrain": 1946,
      "cep": 1947,
      "uling": 1948,
      "license": 1949,
      "visualizations": 1950,
      "cessed": 1951,
      "MicrosoftDocs": 1952,
      "quantities": 1953,
      "parameter": 1954,
      "phys": 1955,
      "original": 1956,
      "Embed": 1957,
      "sent": 1958,
      "slic": 1959,
      "sav": 1960,
      "ution": 1961,
      "cies": 1962,
      "route": 1963,
      "coming": 1964,
      "language": 1965,
      "thentication": 1966,
      "IP": 1967,
      "Sched": 1968,
      "benef": 1969,
      "range": 1970,
      "orial": 1971,
      "aging": 1972,
      "compensation": 1973,
      "maximum": 1974,
      "App": 1975,
      "Cash": 1976,
      "Text": 1977,
      "iled": 1978,
      "scri": 1979,
      "turn": 1980,
      "interval": 1981,
      "consist": 1982,
      "18": 1983,
      "sli": 1984,
      "sheet": 1985,
      "walk": 1986,
      "osing": 1987,
      "above": 1988,
      "short": 1989,
      "pose": 1990,
      "serial": 1991,
      "Rece": 1992,
      "Project": 1993,
      "Quick": 1994,
      "package": 1995,
      "letter": 1996,
      "manager": 1997,
      "subscription": 1998,
      "space": 1999,
      "fiscal": 2000,
      "consum": 2001,
      "mem": 2002,
      "queries": 2003,
      "ular": 2004,
      "vide": 2005,
      "foc": 2006,
      "uni": 2007,
      "life": 2008,
      "needs": 2009,
      "applic": 2010,
      "capabilities": 2011,
      "Option": 2012,
      "Planning": 2013,
      "questionna": 2014,
      "fully": 2015,
      "basic": 2016,
      "percentage": 2017,
      "Number": 2018,
      "idate": 2019,
      "later": 2020,
      "ral": 2021,
      "vity": 2022,
      "tice": 2023,
      "tiles": 2024,
      "dataflows": 2025,
      "opportun": 2026,
      "ended": 2027,
      "Access": 2028,
      "provided": 2029,
      "portals": 2030,
      "performed": 2031,
      "every": 2032,
      "ware": 2033,
      "aren": 2034,
      "Stat": 2035,
      "Transfer": 2036,
      "Financial": 2037,
      "Att": 2038,
      "Mon": 2039,
      "Main": 2040,
      "Ver": 2041,
      "pass": 2042,
      "ati": 2043,
      "ale": 2044,
      "cept": 2045,
      "diag": 2046,
      "ensure": 2047,
      "customize": 2048,
      "retail": 2049,
      "Generate": 2050,
      "Automate": 2051,
      "members": 2052,
      "sequence": 2053,
      "curement": 2054,
      "Cent": 2055,
      "oud": 2056,
      "ently": 2057,
      "dataflow": 2058,
      "keep": 2059,
      "cles": 2060,
      "achine": 2061,
      "stock": 2062,
      "Configur": 2063,
      "analysis": 2064,
      "Display": 2065,
      "manufacturing": 2066,
      "hours": 2067,
      "client": 2068,
      "behavior": 2069,
      "Che": 2070,
      "Close": 2071,
      "Multi": 2072,
      "Publish": 2073,
      "global": 2074,
      "rates": 2075,
      "terms": 2076,
      "team": 2077,
      "counting": 2078,
      "Admin": 2079,
      "requires": 2080,
      "interface": 2081,
      "submit": 2082,
      "linked": 2083,
      "Reports": 2084,
      "website": 2085,
      "allowed": 2086,
      "toolti": 2087,
      "parent": 2088,
      "separate": 2089,
      "DAX": 2090,
      "cross": 2091,
      "my": 2092,
      "mat": 2093,
      "instead": 2094,
      "eng": 2095,
      "aring": 2096,
      "fies": 2097,
      "follows": 2098,
      "links": 2099,
      "released": 2100,
      "employees": 2101,
      "Budget": 2102,
      "Common": 2103,
      "metrics": 2104,
      "Check": 2105,
      "even": 2106,
      "light": 2107,
      "ators": 2108,
      "chron": 2109,
      "conver": 2110,
      "while": 2111,
      "Search": 2112,
      "cards": 2113,
      "Document": 2114,
      "given": 2115,
      "Is": 2116,
      "Save": 2117,
      "Task": 2118,
      "fac": 2119,
      "nchron": 2120,
      "wit": 2121,
      "ict": 2122,
      "optim": 2123,
      "workbook": 2124,
      "describe": 2125,
      "currently": 2126,
      "discounts": 2127,
      "errors": 2128,
      "certain": 2129,
      "ggle": 2130,
      "affect": 2131,
      "four": 2132,
      "context": 2133,
      "success": 2134,
      "disable": 2135,
      "ods": 2136,
      "including": 2137,
      "Services": 2138,
      "venue": 2139,
      "maintain": 2140,
      "periods": 2141,
      "limitations": 2142,
      "requisition": 2143,
      "physical": 2144,
      "AN": 2145,
      "Some": 2146,
      "cut": 2147,
      "mer": 2148,
      "processed": 2149,
      "explore": 2150,
      "objects": 2151,
      "represents": 2152,
      "ily": 2153,
      "itive": 2154,
      "medi": 2155,
      "target": 2156,
      "initi": 2157,
      "always": 2158,
      "fix": 2159,
      "cip": 2160,
      "statements": 2161,
      "scheduled": 2162,
      "managed": 2163,
      "trig": 2164,
      "oucher": 2165,
      "unique": 2166,
      "Rel": 2167,
      "Str": 2168,
      "ped": 2169,
      "real": 2170,
      "altern": 2171,
      "memo": 2172,
      "updates": 2173,
      "try": 2174,
      "well": 2175,
      "Adjust": 2176,
      "calculations": 2177,
      "vely": 2178,
      "Assemb": 2179,
      "agreements": 2180,
      "adjustment": 2181,
      "understand": 2182,
      "Overview": 2183,
      "develop": 2184,
      "registration": 2185,
      "System": 2186,
      "Lear": 2187,
      "fit": 2188,
      "ough": 2189,
      "lear": 2190,
      "special": 2191,
      "bins": 2192,
      "Automatic": 2193,
      "Ke": 2194,
      "Me": 2195,
      "Pick": 2196,
      "cat": 2197,
      "tap": 2198,
      "entire": 2199,
      "Apply": 2200,
      "applies": 2201,
      "imported": 2202,
      "Choose": 2203,
      "bookmark": 2204,
      "scheduling": 2205,
      "Unit": 2206,
      "Application": 2207,
      "19": 2208,
      "done": 2209,
      "addition": 2210,
      "rix": 2211,
      "contacts": 2212,
      "answ": 2213,
      "requests": 2214,
      "Once": 2215,
      "Only": 2216,
      "editor": 2217,
      "Ship": 2218,
      "earli": 2219,
      "Verify": 2220,
      "free": 2221,
      "gges": 2222,
      "ptions": 2223,
      "warning": 2224,
      "anies": 2225,
      "workers": 2226,
      "sert": 2227,
      "Credit": 2228,
      "ublic": 2229,
      "depending": 2230,
      "returns": 2231,
      "measures": 2232,
      "Support": 2233,
      "enishment": 2234,
      "Off": 2235,
      "Mar": 2236,
      "bi": 2237,
      "restr": 2238,
      "ature": 2239,
      "quality": 2240,
      "credenti": 2241,
      "umer": 2242,
      "payable": 2243,
      "minimum": 2244,
      "authentication": 2245,
      "materials": 2246,
      "settlement": 2247,
      "collapse": 2248,
      "questionnaire": 2249,
      "30": 2250,
      "Am": 2251,
      "Other": 2252,
      "best": 2253,
      "oid": 2254,
      "acy": 2255,
      "deleted": 2256,
      "cho": 2257,
      "quis": 2258,
      "formats": 2259,
      "Modify": 2260,
      "Field": 2261,
      "labels": 2262,
      "Documents": 2263,
      "write": 2264,
      "AD": 2265,
      "Electronic": 2266,
      "hist": 2267,
      "sche": 2268,
      "people": 2269,
      "picking": 2270,
      "events": 2271,
      "Analysis": 2272,
      "istical": 2273,
      "meet": 2274,
      "images": 2275,
      "owner": 2276,
      "ground": 2277,
      "ested": 2278,
      "clude": 2279,
      "distribu": 2280,
      "saved": 2281,
      "matrix": 2282,
      "Ar": 2283,
      "Fe": 2284,
      "Tab": 2285,
      "know": 2286,
      "ler": 2287,
      "pop": 2288,
      "deci": 2289,
      "profiles": 2290,
      "sugges": 2291,
      "visible": 2292,
      "stored": 2293,
      "against": 2294,
      "Location": 2295,
      "expected": 2296,
      "And": 2297,
      "Peri": 2298,
      "SE": 2299,
      "UI": 2300,
      "cil": 2301,
      "om": 2302,
      "routing": 2303,
      "round": 2304,
      "transl": 2305,
      "recording": 2306,
      "practi": 2307,
      "Orders": 2308,
      "charge": 2309,
      "Mode": 2310,
      "Contact": 2311,
      "connections": 2312,
      "insights": 2313,
      "ram": 2314,
      "ream": 2315,
      "They": 2316,
      "Creating": 2317,
      "ification": 2318,
      "costing": 2319,
      "Dep": 2320,
      "supports": 2321,
      "corner": 2322,
      "starting": 2323,
      "returned": 2324,
      "present": 2325,
      "instance": 2326,
      "formulas": 2327,
      "witch": 2328,
      "earlier": 2329,
      "credentials": 2330,
      "SO": 2331,
      "ek": 2332,
      "emp": 2333,
      "gre": 2334,
      "lay": 2335,
      "mail": 2336,
      "pin": 2337,
      "sti": 2338,
      "voucher": 2339,
      "recon": 2340,
      "revenue": 2341,
      "ante": 2342,
      "arr": 2343,
      "arante": 2344,
      "means": 2345,
      "izing": 2346,
      "filled": 2347,
      "Acti": 2348,
      "posal": 2349,
      "prior": 2350,
      "Notice": 2351,
      "Link": 2352,
      "integration": 2353,
      "Mark": 2354,
      "Window": 2355,
      "cases": 2356,
      "long": 2357,
      "mig": 2358,
      "estim": 2359,
      "listed": 2360,
      "Code": 2361,
      "guarante": 2362,
      "Value": 2363,
      "implement": 2364,
      "identify": 2365,
      "Format": 2366,
      "Sample": 2367,
      "User": 2368,
      "ived": 2369,
      "replace": 2370,
      "reak": 2371,
      "sell": 2372,
      "aph": 2373,
      "asing": 2374,
      "Inst": 2375,
      "modi": 2376,
      "fective": 2377,
      "Chan": 2378,
      "effect": 2379,
      "logic": 2380,
      "paid": 2381,
      "consolid": 2382,
      "Amount": 2383,
      "quisition": 2384,
      "Put": 2385,
      "Sign": 2386,
      "machine": 2387,
      "tle": 2388,
      "debit": 2389,
      "upload": 2390,
      "useful": 2391,
      "series": 2392,
      "feed": 2393,
      "internal": 2394,
      "grant": 2395,
      "summary": 2396,
      "Operations": 2397,
      "segment": 2398,
      "still": 2399,
      "Cap": 2400,
      "File": 2401,
      "sp": 2402,
      "sale": 2403,
      "demon": 2404,
      "promp": 2405,
      "versions": 2406,
      "filtering": 2407,
      "reflect": 2408,
      "Typ": 2409,
      "shortcut": 2410,
      "demonstr": 2411,
      "Av": 2412,
      "Categ": 2413,
      "Im": 2414,
      "Table": 2415,
      "bles": 2416,
      "frequ": 2417,
      "rever": 2418,
      "least": 2419,
      "iced": 2420,
      "wid": 2421,
      "peat": 2422,
      "ured": 2423,
      "tech": 2424,
      "Toggle": 2425,
      "Ext": 2426,
      "organizational": 2427,
      "charges": 2428,
      "messages": 2429,
      "tools": 2430,
      "copied": 2431,
      "articles": 2432,
      "corresponding": 2433,
      "Do": 2434,
      "Source": 2435,
      "flex": 2436,
      "mits": 2437,
      "ses": 2438,
      "istics": 2439,
      "stream": 2440,
      "gether": 2441,
      "begin": 2442,
      "losed": 2443,
      "creation": 2444,
      "utorial": 2445,
      "download": 2446,
      "approved": 2447,
      "synchron": 2448,
      "runs": 2449,
      "Organ": 2450,
      "validation": 2451,
      "notification": 2452,
      "certificate": 2453,
      "memory": 2454,
      "Page": 2455,
      "Role": 2456,
      "bot": 2457,
      "dynam": 2458,
      "fl": 2459,
      "purch": 2460,
      "ision": 2461,
      "eline": 2462,
      "workflows": 2463,
      "See": 2464,
      "Alloc": 2465,
      "receiv": 2466,
      "deployment": 2467,
      "simple": 2468,
      "guarantee": 2469,
      "100": 2470,
      "Employe": 2471,
      "HT": 2472,
      "Tot": 2473,
      "WIP": 2474,
      "hav": 2475,
      "large": 2476,
      "sm": 2477,
      "ytics": 2478,
      "ination": 2479,
      "lying": 2480,
      "typically": 2481,
      "depart": 2482,
      "Under": 2483,
      "impact": 2484,
      "indicates": 2485,
      "Inte": 2486,
      "Perform": 2487,
      "Register": 2488,
      "continue": 2489,
      "List": 2490,
      "Next": 2491,
      "Port": 2492,
      "ds": 2493,
      "den": 2494,
      "fresh": 2495,
      "online": 2496,
      "abor": 2497,
      "dest": 2498,
      "notes": 2499,
      "outbound": 2500,
      "interact": 2501,
      "provider": 2502,
      "overri": 2503,
      "release": 2504,
      "Group": 2505,
      "Tracking": 2506,
      "Method": 2507,
      "catalog": 2508,
      "ken": 2509,
      "lder": 2510,
      "ately": 2511,
      "condition": 2512,
      "folder": 2513,
      "ety": 2514,
      "pool": 2515,
      "compare": 2516,
      "colors": 2517,
      "posit": 2518,
      "graph": 2519,
      "background": 2520,
      "underlying": 2521,
      "occurs": 2522,
      "Print": 2523,
      "Book": 2524,
      "Templ": 2525,
      "End": 2526,
      "Pri": 2527,
      "equ": 2528,
      "give": 2529,
      "pat": 2530,
      "sence": 2531,
      "rection": 2532,
      "star": 2533,
      "five": 2534,
      "dered": 2535,
      "urance": 2536,
      "rie": 2537,
      "ansion": 2538,
      "views": 2539,
      "definitions": 2540,
      "Depreciation": 2541,
      "domain": 2542,
      "expansion": 2543,
      "positions": 2544,
      "hoot": 2545,
      "confirmation": 2546,
      "increase": 2547,
      "slicer": 2548,
      "bleshoot": 2549,
      "24": 2550,
      "break": 2551,
      "cti": 2552,
      "pip": 2553,
      "situ": 2554,
      "onger": 2555,
      "together": 2556,
      "devices": 2557,
      "upper": 2558,
      "uture": 2559,
      "ardware": 2560,
      "improve": 2561,
      "invoiced": 2562,
      "ficient": 2563,
      "Entity": 2564,
      "levels": 2565,
      "Any": 2566,
      "host": 2567,
      "determines": 2568,
      "alert": 2569,
      "focus": 2570,
      "cili": 2571,
      "width": 2572,
      "CS": 2573,
      "Par": 2574,
      "longer": 2575,
      "instru": 2576,
      "plit": 2577,
      "Refresh": 2578,
      "week": 2579,
      "Settle": 2580,
      "comes": 2581,
      "defines": 2582,
      "party": 2583,
      "optional": 2584,
      "variants": 2585,
      "analyze": 2586,
      "drag": 2587,
      "replenishment": 2588,
      "video": 2589,
      "consolidation": 2590,
      "21": 2591,
      "PA": 2592,
      "future": 2593,
      "uch": 2594,
      "thing": 2595,
      "things": 2596,
      "atory": 2597,
      "dio": 2598,
      "ession": 2599,
      "trade": 2600,
      "cloud": 2601,
      "invol": 2602,
      "balances": 2603,
      "hierarchies": 2604,
      "Company": 2605,
      "Finance": 2606,
      "remaining": 2607,
      "Remove": 2608,
      "script": 2609,
      "Windows": 2610,
      "Total": 2611,
      "200": 2612,
      "Ab": 2613,
      "Center": 2614,
      "bon": 2615,
      "closed": 2616,
      "switch": 2617,
      "fee": 2618,
      "Repeat": 2619,
      "extension": 2620,
      "often": 2621,
      "poses": 2622,
      "organizations": 2623,
      "solutions": 2624,
      "centers": 2625,
      "Return": 2626,
      "easy": 2627,
      "basis": 2628,
      "collections": 2629,
      "ciliation": 2630,
      "Jap": 2631,
      "stages": 2632,
      "plans": 2633,
      "tract": 2634,
      "sugg": 2635,
      "idance": 2636,
      "render": 2637,
      "approach": 2638,
      "variable": 2639,
      "handle": 2640,
      "pair": 2641,
      "quickly": 2642,
      "lifecycle": 2643,
      "empty": 2644,
      "small": 2645,
      "Japan": 2646,
      "CR": 2647,
      "Test": 2648,
      "old": 2649,
      "acing": 2650,
      "gets": 2651,
      "cancel": 2652,
      "exact": 2653,
      "exceed": 2654,
      "pective": 2655,
      "limits": 2656,
      "cular": 2657,
      "strateg": 2658,
      "availability": 2659,
      "Customize": 2660,
      "goods": 2661,
      "clear": 2662,
      "handling": 2663,
      "Overri": 2664,
      "Calculate": 2665,
      "axis": 2666,
      "draw": 2667,
      "Team": 2668,
      "taken": 2669,
      "Central": 2670,
      "Configuration": 2671,
      "restric": 2672,
      "25": 2673,
      "Bas": 2674,
      "Fill": 2675,
      "High": 2676,
      "Mess": 2677,
      "Person": 2678,
      "fr": 2679,
      "happ": 2680,
      "ont": 2681,
      "alled": 2682,
      "procurement": 2683,
      "resol": 2684,
      "final": 2685,
      "acters": 2686,
      "Appro": 2687,
      "iration": 2688,
      "retrie": 2689,
      "projects": 2690,
      "detail": 2691,
      "helps": 2692,
      "receipts": 2693,
      "Because": 2694,
      "particular": 2695,
      "purposes": 2696,
      "difference": 2697,
      "consists": 2698,
      "history": 2699,
      "distribution": 2700,
      "23": 2701,
      "Are": 2702,
      "ute": 2703,
      "inde": 2704,
      "incoming": 2705,
      "theme": 2706,
      "tore": 2707,
      "areas": 2708,
      "abling": 2709,
      "Then": 2710,
      "libr": 2711,
      "recur": 2712,
      "prepayment": 2713,
      "looks": 2714,
      "node": 2715,
      "Therefore": 2716,
      "Preview": 2717,
      "adjustments": 2718,
      "attachments": 2719,
      "Intr": 2720,
      "Altern": 2721,
      "Schedule": 2722,
      "slip": 2723,
      "opportunity": 2724,
      "password": 2725,
      "receivable": 2726,
      "Day": 2727,
      "Dri": 2728,
      "Fun": 2729,
      "lat": 2730,
      "nown": 2731,
      "sk": 2732,
      "tes": 2733,
      "ermin": 2734,
      "encies": 2735,
      "leting": 2736,
      "istered": 2737,
      "rodu": 2738,
      "accr": 2739,
      "acquisition": 2740,
      "ely": 2741,
      "ading": 2742,
      "valuation": 2743,
      "Consider": 2744,
      "Advanced": 2745,
      "comments": 2746,
      "filtered": 2747,
      "astat": 2748,
      "operating": 2749,
      "going": 2750,
      "packing": 2751,
      "transferred": 2752,
      "summar": 2753,
      "correctly": 2754,
      "navigate": 2755,
      "notifications": 2756,
      "Currency": 2757,
      "removed": 2758,
      "diagram": 2759,
      "tooltip": 2760,
      "SEPA": 2761,
      "Intrastat": 2762,
      "99": 2763,
      "Bal": 2764,
      "Dem": 2765,
      "Down": 2766,
      "La": 2767,
      "RE": 2768,
      "SK": 2769,
      "gress": 2770,
      "her": 2771,
      "much": 2772,
      "wa": 2773,
      "reorder": 2774,
      "enc": 2775,
      "aced": 2776,
      "deleg": 2777,
      "Include": 2778,
      "ensity": 2779,
      "weight": 2780,
      "avor": 2781,
      "registered": 2782,
      "ird": 2783,
      "Accounting": 2784,
      "insurance": 2785,
      "tenance": 2786,
      "indicate": 2787,
      "atively": 2788,
      "Category": 2789,
      "bottom": 2790,
      "HTML": 2791,
      "instructions": 2792,
      "QL": 2793,
      "Year": 2794,
      "density": 2795,
      "tag": 2796,
      "tance": 2797,
      "vent": 2798,
      "won": 2799,
      "ones": 2800,
      "once": 2801,
      "root": 2802,
      "conversion": 2803,
      "cile": 2804,
      "utes": 2805,
      "Why": 2806,
      "avoid": 2807,
      "expenses": 2808,
      "variables": 2809,
      "editing": 2810,
      "shipped": 2811,
      "checks": 2812,
      "response": 2813,
      "responsi": 2814,
      "exported": 2815,
      "previously": 2816,
      "sequences": 2817,
      "building": 2818,
      "disabled": 2819,
      "Understand": 2820,
      "..": 2821,
      "Cr": 2822,
      "Identi": 2823,
      "Pa": 2824,
      "Pack": 2825,
      "ides": 2826,
      "por": 2827,
      "public": 2828,
      "vate": 2829,
      "yth": 2830,
      "alty": 2831,
      "dec": 2832,
      "deta": 2833,
      "izes": 2834,
      "companies": 2835,
      "manual": 2836,
      "pricing": 2837,
      "buttons": 2838,
      "grade": 2839,
      "guidance": 2840,
      "Reporting": 2841,
      "Workflow": 2842,
      "characters": 2843,
      "primary": 2844,
      "monitor": 2845,
      "connector": 2846,
      "activate": 2847,
      "requested": 2848,
      "fulfill": 2849,
      "published": 2850,
      "expressions": 2851,
      "Column": 2852,
      "Lines": 2853,
      "network": 2854,
      "illustration": 2855,
      "engine": 2856,
      "initial": 2857,
      "Key": 2858,
      "answer": 2859,
      "dynamic": 2860,
      "pattern": 2861,
      "detailed": 2862,
      "Flow": 2863,
      "Gu": 2864,
      "Home": 2865,
      "IF": 2866,
      "Nor": 2867,
      "Navi": 2868,
      "Word": 2869,
      "pie": 2870,
      "scan": 2871,
      "third": 2872,
      "ince": 2873,
      "refer": 2874,
      "anch": 2875,
      "enables": 2876,
      "verify": 2877,
      "Recon": 2878,
      "Active": 2879,
      "better": 2880,
      "installed": 2881,
      "Contacts": 2882,
      "Management": 2883,
      "highlight": 2884,
      "Filters": 2885,
      "Calculation": 2886,
      "benefit": 2887,
      "learn": 2888,
      "Period": 2889,
      "rounding": 2890,
      "Basic": 2891,
      "Demand": 2892,
      "Mapping": 2893,
      "Pyth": 2894,
      "SQL": 2895,
      "ires": 2896,
      "push": 2897,
      "sn": 2898,
      "td": 2899,
      "tual": 2900,
      "uary": 2901,
      "toler": 2902,
      "lead": 2903,
      "leave": 2904,
      "itself": 2905,
      "child": 2906,
      "direction": 2907,
      "plate": 2908,
      "shap": 2909,
      "sharing": 2910,
      "tect": 2911,
      "prepare": 2912,
      "mind": 2913,
      "located": 2914,
      "shipping": 2915,
      "exists": 2916,
      "connected": 2917,
      "home": 2918,
      "Respon": 2919,
      "Build": 2920,
      "easily": 2921,
      "considerations": 2922,
      "partial": 2923,
      "Current": 2924,
      "reserv": 2925,
      "execution": 2926,
      "cepts": 2927,
      "benefits": 2928,
      "Model": 2929,
      "array": 2930,
      "Python": 2931,
      "27": 2932,
      "But": 2933,
      "Count": 2934,
      "hardware": 2935,
      "numer": 2936,
      "inside": 2937,
      "outs": 2938,
      "Ins": 2939,
      "recorded": 2940,
      "regular": 2941,
      "maintenance": 2942,
      "variance": 2943,
      "books": 2944,
      "Fix": 2945,
      "phone": 2946,
      "attachment": 2947,
      "purpose": 2948,
      "String": 2949,
      "popul": 2950,
      "migration": 2951,
      "Extension": 2952,
      "Teams": 2953,
      "Batch": 2954,
      "Dashboard": 2955,
      "Git": 2956,
      "Map": 2957,
      "ake": 2958,
      "ines": 2959,
      "absence": 2960,
      "contents": 2961,
      "viewing": 2962,
      "vision": 2963,
      "cla": 2964,
      "transport": 2965,
      "Costs": 2966,
      "stores": 2967,
      "mandatory": 2968,
      "Monitor": 2969,
      "Tasks": 2970,
      "trigger": 2971,
      "reconciliation": 2972,
      "Install": 2973,
      "Capac": 2974,
      "Types": 2975,
      "override": 2976,
      "index": 2977,
      "DE": 2978,
      "Email": 2979,
      "Fast": 2980,
      "found": 2981,
      "ified": 2982,
      "known": 2983,
      "lt": 2984,
      "prec": 2985,
      "udio": 2986,
      "ero": 2987,
      "alent": 2988,
      "osite": 2989,
      "trace": 2990,
      "workload": 2991,
      "ends": 2992,
      "live": 2993,
      "quote": 2994,
      "rencies": 2995,
      "Adding": 2996,
      "variant": 2997,
      "capacities": 2998,
      "connectors": 2999,
      "associate": 3000,
      "whole": 3001,
      "Transactions": 3002,
      "classic": 3003,
      "manufactured": 3004,
      "developer": 3005,
      "reduce": 3006,
      "Records": 3007,
      "modified": 3008,
      "Identify": 3009,
      "Fir": 3010,
      "Hub": 3011,
      "ST": 3012,
      "lower": 3013,
      "util": 3014,
      "enh": 3015,
      "ouble": 3016,
      "coverage": 3017,
      "vile": 3018,
      "Rele": 3019,
      "immedi": 3020,
      "invoicing": 3021,
      "Additional": 3022,
      "audit": 3023,
      "BOMs": 3024,
      "packages": 3025,
      "Transaction": 3026,
      "receiving": 3027,
      "attached": 3028,
      "reasons": 3029,
      "Level": 3030,
      "Dimensions": 3031,
      "combination": 3032,
      "alerts": 3033,
      "constraints": 3034,
      "Multiple": 3035,
      "decide": 3036,
      "practices": 3037,
      "prompted": 3038,
      "Organization": 3039,
      "Portal": 3040,
      "Act": 3041,
      "Er": 3042,
      "KP": 3043,
      "Li": 3044,
      "Log": 3045,
      "mal": 3046,
      "raw": 3047,
      "sens": 3048,
      "session": 3049,
      "tutorial": 3050,
      "ang": 3051,
      "icated": 3052,
      "decre": 3053,
      "progress": 3054,
      "urther": 3055,
      "uplic": 3056,
      "tection": 3057,
      "complex": 3058,
      "keys": 3059,
      "Stand": 3060,
      "statistical": 3061,
      "requirement": 3062,
      "path": 3063,
      "totals": 3064,
      "easier": 3065,
      "recommended": 3066,
      "requisites": 3067,
      "Supply": 3068,
      "channels": 3069,
      "built": 3070,
      "Status": 3071,
      "Attribute": 3072,
      "schema": 3073,
      "suggestions": 3074,
      "Avail": 3075,
      "department": 3076,
      "Message": 3077,
      "Site": 3078,
      "SAP": 3079,
      "Walk": 3080,
      "carri": 3081,
      "fail": 3082,
      "past": 3083,
      "scal": 3084,
      "reposit": 3085,
      "along": 3086,
      "station": 3087,
      "meta": 3088,
      "resize": 3089,
      "ets": 3090,
      "called": 3091,
      "While": 3092,
      "minutes": 3093,
      "dock": 3094,
      "aster": 3095,
      "Manually": 3096,
      "Compon": 3097,
      "Maximum": 3098,
      "Buil": 3099,
      "loyalty": 3100,
      "deliver": 3101,
      "subscri": 3102,
      "Collection": 3103,
      "Office": 3104,
      "starts": 3105,
      "Alternatively": 3106,
      "FastTab": 3107,
      "Standard": 3108,
      "repository": 3109,
      "metadata": 3110,
      "28": 3111,
      "40": 3112,
      "DF": 3113,
      "FQ": 3114,
      "Pos": 3115,
      "PDF": 3116,
      "aign": 3117,
      "bul": 3118,
      "bine": 3119,
      "fers": 3120,
      "favor": 3121,
      "gative": 3122,
      "pan": 3123,
      "insert": 3124,
      "too": 3125,
      "iting": 3126,
      "forward": 3127,
      "ablish": 3128,
      "Information": 3129,
      "direc": 3130,
      "uman": 3131,
      "ampaign": 3132,
      "transform": 3133,
      "fication": 3134,
      "combine": 3135,
      "buy": 3136,
      "Polic": 3137,
      "procedures": 3138,
      "Studio": 3139,
      "Prepare": 3140,
      "Resource": 3141,
      "higher": 3142,
      "classification": 3143,
      "aft": 3144,
      "Analyze": 3145,
      "branch": 3146,
      "collabor": 3147,
      "makes": 3148,
      "consumed": 3149,
      "Learning": 3150,
      "having": 3151,
      "Actual": 3152,
      "Err": 3153,
      "Fact": 3154,
      "Hand": 3155,
      "Mig": 3156,
      "Ob": 3157,
      "PN": 3158,
      "Vari": 3159,
      "evalu": 3160,
      "ran": 3161,
      "uro": 3162,
      "uter": 3163,
      "inbound": 3164,
      "profit": 3165,
      "proposal": 3166,
      "dating": 3167,
      "unch": 3168,
      "topics": 3169,
      "descriptions": 3170,
      "Opportun": 3171,
      "Manag": 3172,
      "marketing": 3173,
      "anbans": 3174,
      "publishing": 3175,
      "Calendar": 3176,
      "installation": 3177,
      "consolidated": 3178,
      "printed": 3179,
      "takes": 3180,
      "continu": 3181,
      "Embedded": 3182,
      "walkthrough": 3183,
      "Learn": 3184,
      "library": 3185,
      "recurring": 3186,
      "outside": 3187,
      "Back": 3188,
      "Imp": 3189,
      "Kanban": 3190,
      "PBI": 3191,
      "bind": 3192,
      "pbi": 3193,
      "sco": 3194,
      "reb": 3195,
      "reight": 3196,
      "roid": 3197,
      "around": 3198,
      "cover": 3199,
      "closing": 3200,
      "posts": 3201,
      "Conver": 3202,
      "quotation": 3203,
      "identity": 3204,
      "regard": 3205,
      "positive": 3206,
      "designed": 3207,
      "Customers": 3208,
      "contracts": 3209,
      "addresses": 3210,
      "Vendors": 3211,
      "identifi": 3212,
      "distribute": 3213,
      "Formul": 3214,
      "settle": 3215,
      "Box": 3216,
      "Output": 3217,
      "Class": 3218,
      "differences": 3219,
      "opportunities": 3220,
      "Administr": 3221,
      "submitted": 3222,
      "convert": 3223,
      "successfully": 3224,
      "explorer": 3225,
      "alternate": 3226,
      "Android": 3227,
      "reverse": 3228,
      "Allocation": 3229,
      "decision": 3230,
      "First": 3231,
      "Euro": 3232,
      "OCR": 3233,
      "Red": 3234,
      "Su": 3235,
      "Send": 3236,
      "Watch": 3237,
      "aS": 3238,
      "hy": 3239,
      "press": 3240,
      "yet": 3241,
      "zero": 3242,
      "though": 3243,
      "remin": 3244,
      "alf": 3245,
      "lean": 3246,
      "proble": 3247,
      "mental": 3248,
      "mean": 3249,
      "vered": 3250,
      "via": 3251,
      "That": 3252,
      "redic": 3253,
      "predefined": 3254,
      "currencies": 3255,
      "Proper": 3256,
      "Online": 3257,
      "Chart": 3258,
      "Content": 3259,
      "Control": 3260,
      "afety": 3261,
      "selections": 3262,
      "Entry": 3263,
      "Groups": 3264,
      "making": 3265,
      "princi": 3266,
      "applications": 3267,
      "Optional": 3268,
      "converted": 3269,
      "Assembly": 3270,
      "techn": 3271,
      "Template": 3272,
      "Criteria": 3273,
      "Capacity": 3274,
      "Walkthrough": 3275,
      "31": 3276,
      "AV": 3277,
      "Average": 3278,
      "Ef": 3279,
      "ISO": 3280,
      "My": 3281,
      "Where": 3282,
      "zard": 3283,
      "acter": 3284,
      "force": 3285,
      "elim": 3286,
      "wizard": 3287,
      "finance": 3288,
      "computer": 3289,
      "invit": 3290,
      "fees": 3291,
      "Exchange": 3292,
      "Comb": 3293,
      "faul": 3294,
      "interactive": 3295,
      "iring": 3296,
      "approver": 3297,
      "dedicated": 3298,
      "Ques": 3299,
      "State": 3300,
      "projected": 3301,
      "mploy": 3302,
      "keyboard": 3303,
      "offline": 3304,
      "gives": 3305,
      "regions": 3306,
      "Attach": 3307,
      "Maintain": 3308,
      "development": 3309,
      "Supported": 3310,
      "Employee": 3311,
      "destination": 3312,
      "Parame": 3313,
      "About": 3314,
      "suggested": 3315,
      "Overrides": 3316,
      "claim": 3317,
      "50": 3318,
      "Based": 3319,
      "Net": 3320,
      "NAV": 3321,
      "Row": 3322,
      "further": 3323,
      "kanbans": 3324,
      "ners": 3325,
      "ra": 3326,
      "stop": 3327,
      "split": 3328,
      "vs": 3329,
      "tified": 3330,
      "youts": 3331,
      "conform": 3332,
      "concepts": 3333,
      "gered": 3334,
      "advant": 3335,
      "vir": 3336,
      "unless": 3337,
      "temp": 3338,
      "sold": 3339,
      "Reorder": 3340,
      "Procurement": 3341,
      "rendered": 3342,
      "parts": 3343,
      "rectang": 3344,
      "approve": 3345,
      "subcontract": 3346,
      "ills": 3347,
      "refreshes": 3348,
      "character": 3349,
      "privile": 3350,
      "activated": 3351,
      "Complete": 3352,
      "resulting": 3353,
      "offset": 3354,
      "paste": 3355,
      "references": 3356,
      "Forecast": 3357,
      "dependent": 3358,
      "princip": 3359,
      "walks": 3360,
      "tooltips": 3361,
      "triggered": 3362,
      "alternative": 3363,
      "Depending": 3364,
      "feedback": 3365,
      "graphic": 3366,
      "accrual": 3367,
      "GitHub": 3368,
      "immediately": 3369,
      "Error": 3370,
      "Object": 3371,
      "Europe": 3372,
      "BL": 3373,
      "FA": 3374,
      "Full": 3375,
      "Purch": 3376,
      "Sum": 3377,
      "Trou": 3378,
      "Tax": 3379,
      "bbon": 3380,
      "car": 3381,
      "pers": 3382,
      "plot": 3383,
      "spe": 3384,
      "ture": 3385,
      "reco": 3386,
      "ancing": 3387,
      "tips": 3388,
      "tify": 3389,
      "ache": 3390,
      "conditional": 3391,
      "elig": 3392,
      "wise": 3393,
      "aining": 3394,
      "changing": 3395,
      "achie": 3396,
      "Confirm": 3397,
      "others": 3398,
      "failed": 3399,
      "ential": 3400,
      "suppl": 3401,
      "scroll": 3402,
      "IDs": 3403,
      "Weight": 3404,
      "logy": 3405,
      "forecasting": 3406,
      "limited": 3407,
      "Validate": 3408,
      "administration": 3409,
      "Load": 3410,
      "Receive": 3411,
      "situations": 3412,
      "20022": 3413,
      "strategy": 3414,
      "Download": 3415,
      "FactBox": 3416,
      "Troubleshoot": 3417,
      "26": 3418,
      "Card": 3419,
      "CSS": 3420,
      "Fiscal": 3421,
      "Human": 3422,
      "Master": 3423,
      "RFQ": 3424,
      "Sc": 3425,
      "Sing": 3426,
      "SPN": 3427,
      "Take": 3428,
      "rating": 3429,
      "warehou": 3430,
      "token": 3431,
      "usually": 3432,
      "conside": 3433,
      "become": 3434,
      "Insert": 3435,
      "validate": 3436,
      "sume": 3437,
      "prerequisites": 3438,
      "ift": 3439,
      "Which": 3440,
      "derived": 3441,
      "showing": 3442,
      "downloaded": 3443,
      "introdu": 3444,
      "interaction": 3445,
      "commun": 3446,
      "Associ": 3447,
      "webpage": 3448,
      "scr": 3449,
      "admins": 3450,
      "Defining": 3451,
      "matches": 3452,
      "analytics": 3453,
      "2016": 3454,
      "Planned": 3455,
      "languages": 3456,
      "Request": 3457,
      "holding": 3458,
      "slicers": 3459,
      "Centers": 3460,
      "Activity": 3461,
      "purchasing": 3462,
      "Personal": 3463,
      "Approval": 3464,
      "Manager": 3465,
      "considered": 3466,
      "32": 3467,
      "FT": 3468,
      "Fr": 3469,
      "Sort": 3470,
      "aight": 3471,
      "freight": 3472,
      "lar": 3473,
      "sur": 3474,
      "sending": 3475,
      "repair": 3476,
      "alle": 3477,
      "toso": 3478,
      "learning": 3479,
      "ital": 3480,
      "itment": 3481,
      "ctor": 3482,
      "eli": 3483,
      "ribbon": 3484,
      "reported": 3485,
      "licenses": 3486,
      "apped": 3487,
      "produced": 3488,
      "customized": 3489,
      "colle": 3490,
      "locate": 3491,
      "paralle": 3492,
      "expiration": 3493,
      "clicking": 3494,
      "throughout": 3495,
      "headers": 3496,
      "named": 3497,
      "Notific": 3498,
      "picked": 3499,
      "adjusted": 3500,
      "Products": 3501,
      "itivity": 3502,
      "recommendations": 3503,
      "calls": 3504,
      "Require": 3505,
      "AppSource": 3506,
      "Configurations": 3507,
      "facility": 3508,
      "optimized": 3509,
      "merge": 3510,
      "bookmarks": 3511,
      "priority": 3512,
      "tolerance": 3513,
      "numeric": 3514,
      "virtual": 3515,
      "parallel": 3516,
      "Best": 3517,
      "CO": 3518,
      "Dif": 3519,
      "Es": 3520,
      "Id": 3521,
      "OS": 3522,
      "RT": 3523,
      "She": 3524,
      "Store": 3525,
      "Two": 3526,
      "care": 3527,
      "campaign": 3528,
      "flu": 3529,
      "ml": 3530,
      "since": 3531,
      "vol": 3532,
      "reject": 3533,
      "aces": 3534,
      "accur": 3535,
      "accep": 3536,
      "proceed": 3537,
      "met": 3538,
      "selects": 3539,
      "Read": 3540,
      "Consoli": 3541,
      "Contoso": 3542,
      "Devel": 3543,
      "autom": 3544,
      "0000": 3545,
      "grouping": 3546,
      "interactions": 3547,
      "boxes": 3548,
      "Ensure": 3549,
      "Working": 3550,
      "screens": 3551,
      "Resources": 3552,
      "environments": 3553,
      "Determin": 3554,
      "Shared": 3555,
      "icons": 3556,
      "Valid": 3557,
      "Usage": 3558,
      "Price": 3559,
      "authority": 3560,
      "Leg": 3561,
      "constraint": 3562,
      "Assemble": 3563,
      "frequently": 3564,
      "beginning": 3565,
      "frame": 3566,
      "Insights": 3567,
      "transportation": 3568,
      "colleag": 3569,
      "Benef": 3570,
      "Cross": 3571,
      "Gr": 3572,
      "HAN": 3573,
      "JSO": 3574,
      "Lim": 3575,
      "RS": 3576,
      "Tap": 3577,
      "cou": 3578,
      "cand": 3579,
      "duplic": 3580,
      "gn": 3581,
      "hide": 3582,
      "zone": 3583,
      "argu": 3584,
      "conven": 3585,
      "elines": 3586,
      "moving": 3587,
      "tra": 3588,
      "yourself": 3589,
      "shot": 3590,
      "Tool": 3591,
      "postdated": 3592,
      "idden": 3593,
      "Approve": 3594,
      "intended": 3595,
      "older": 3596,
      "tabs": 3597,
      "Assets": 3598,
      "missing": 3599,
      "containing": 3600,
      "Explore": 3601,
      "effective": 3602,
      "factor": 3603,
      "USD": 3604,
      "partner": 3605,
      "ference": 3606,
      "belong": 3607,
      "Getting": 3608,
      "APIs": 3609,
      "cells": 3610,
      "reserved": 3611,
      "segments": 3612,
      "applicable": 3613,
      "Statistical": 3614,
      "Month": 3615,
      "Integr": 3616,
      "testing": 3617,
      "delegation": 3618,
      "Single": 3619,
      "JSON": 3620,
      "CD": 3621,
      "Dist": 3622,
      "During": 3623,
      "IS": 3624,
      "Many": 3625,
      "Top": 3626,
      "Wr": 3627,
      "bur": 3628,
      "cache": 3629,
      "sites": 3630,
      "reach": 3631,
      "atures": 3632,
      "secure": 3633,
      "upgrade": 3634,
      "ourcing": 3635,
      "dule": 3636,
      "ensive": 3637,
      "negative": 3638,
      "Sell": 3639,
      "customizations": 3640,
      "visibility": 3641,
      "prefer": 3642,
      "Coll": 3643,
      "assort": 3644,
      "oftware": 3645,
      "opened": 3646,
      "generating": 3647,
      "shipments": 3648,
      "Manufact": 3649,
      "Viewing": 3650,
      "statuses": 3651,
      "Workspace": 3652,
      "marked": 3653,
      "movement": 3654,
      "respond": 3655,
      "exporting": 3656,
      "forecasts": 3657,
      "Invoices": 3658,
      "strings": 3659,
      "settled": 3660,
      "aggregation": 3661,
      "aggregate": 3662,
      "Look": 3663,
      "itude": 3664,
      "Automatically": 3665,
      "choice": 3666,
      "Deploy": 3667,
      "great": 3668,
      "replacement": 3669,
      "Path": 3670,
      "Reconcile": 3671,
      "carrier": 3672,
      "Components": 3673,
      "Effective": 3674,
      "ISO20022": 3675,
      "principal": 3676,
      "Weighted": 3677,
      "HANA": 3678,
      "500": 3679,
      "Esc": 3680,
      "So": 3681,
      "ber": 3682,
      "ben": 3683,
      "dy": 3684,
      "fficient": 3685,
      "gain": 3686,
      "los": 3687,
      "tests": 3688,
      "vacy": 3689,
      "iter": 3690,
      "ational": 3691,
      "const": 3692,
      "why": 3693,
      "Repl": 3694,
      "produce": 3695,
      "viewed": 3696,
      "among": 3697,
      "specifies": 3698,
      "collect": 3699,
      "looking": 3700,
      "nodes": 3701,
      "Options": 3702,
      "typical": 3703,
      "dedu": 3704,
      "Quot": 3705,
      "container": 3706,
      "signed": 3707,
      "prise": 3708,
      "Author": 3709,
      "central": 3710,
      "letes": 3711,
      "rollup": 3712,
      "determined": 3713,
      "Discount": 3714,
      "administrators": 3715,
      "Permission": 3716,
      "Numbers": 3717,
      "combinations": 3718,
      "Outlook": 3719,
      "Cloud": 3720,
      "commands": 3721,
      "answers": 3722,
      "Marketing": 3723,
      "Returns": 3724,
      "happens": 3725,
      "retrieve": 3726,
      "encry": 3727,
      "populated": 3728,
      "preced": 3729,
      "scale": 3730,
      "directive": 3731,
      "Handling": 3732,
      "Opportunity": 3733,
      "mployment": 3734,
      "33": 3735,
      "Brow": 3736,
      "Deli": 3737,
      "EU": 3738,
      "IT": 3739,
      "Min": 3740,
      "Match": 3741,
      "Meas": 3742,
      "Public": 3743,
      "Sim": 3744,
      "Tri": 3745,
      "hidden": 3746,
      "mapped": 3747,
      "power": 3748,
      "pict": 3749,
      "tre": 3750,
      "ume": 3751,
      "vot": 3752,
      "indu": 3753,
      "remit": 3754,
      "sty": 3755,
      "offer": 3756,
      "detect": 3757,
      "chain": 3758,
      "becomes": 3759,
      "module": 3760,
      "tracts": 3761,
      "ender": 3762,
      "isters": 3763,
      "payroll": 3764,
      "prevent": 3765,
      "bud": 3766,
      "capability": 3767,
      "loading": 3768,
      "Char": 3769,
      "checkbox": 3770,
      "1099": 3771,
      "Eng": 3772,
      "refreshed": 3773,
      "efficient": 3774,
      "good": 3775,
      "helpful": 3776,
      "logs": 3777,
      "Companies": 3778,
      "Restr": 3779,
      "barcode": 3780,
      "highl": 3781,
      "featured": 3782,
      "Editor": 3783,
      "mappings": 3784,
      "Analytics": 3785,
      "aware": 3786,
      "seconds": 3787,
      "Cancel": 3788,
      "sorting": 3789,
      "dependencies": 3790,
      "blocks": 3791,
      "SSO": 3792,
      "ength": 3793,
      "Related": 3794,
      "Adjustment": 3795,
      "Shipping": 3796,
      "Fields": 3797,
      "estimated": 3798,
      "shortcuts": 3799,
      "Image": 3800,
      "pipeline": 3801,
      "pipelines": 3802,
      "restrictions": 3803,
      "Function": 3804,
      "Balance": 3805,
      "Collections": 3806,
      "colleagues": 3807,
      "Limit": 3808,
      "29": 3809,
      "64": 3810,
      "Bin": 3811,
      "Clear": 3812,
      "Dr": 3813,
      "Hel": 3814,
      "LC": 3815,
      "Label": 3816,
      "Ne": 3817,
      "Sol": 3818,
      "Talent": 3819,
      "dic": 3820,
      "kind": 3821,
      "nor": 3822,
      "pas": 3823,
      "predic": 3824,
      "inqu": 3825,
      "enough": 3826,
      "enabling": 3827,
      "static": 3828,
      "accept": 3829,
      "promo": 3830,
      "proved": 3831,
      "fold": 3832,
      "mod": 3833,
      "entering": 3834,
      "Seg": 3835,
      "ific": 3836,
      "comment": 3837,
      "establish": 3838,
      "stry": 3839,
      "relations": 3840,
      "purchased": 3841,
      "funds": 3842,
      "documentation": 3843,
      "guides": 3844,
      "themes": 3845,
      "something": 3846,
      "factors": 3847,
      "Reser": 3848,
      "offers": 3849,
      "layouts": 3850,
      "managing": 3851,
      "identification": 3852,
      "copying": 3853,
      "Dynamic": 3854,
      "billing": 3855,
      "Shipment": 3856,
      "presented": 3857,
      "layer": 3858,
      "granted": 3859,
      "techno": 3860,
      "synchronization": 3861,
      "rendering": 3862,
      "portion": 3863,
      "Guest": 3864,
      "Response": 3865,
      "subscriptions": 3866,
      "ranges": 3867,
      "Convert": 3868,
      "Formula": 3869,
      "conformance": 3870,
      "Help": 3871,
      "passed": 3872,
      "Bar": 3873,
      "Jan": 3874,
      "Met": 3875,
      "Pe": 3876,
      "Pin": 3877,
      "Part": 3878,
      "Ro": 3879,
      "cus": 3880,
      "cending": 3881,
      "fails": 3882,
      "font": 3883,
      "gor": 3884,
      "nual": 3885,
      "software": 3886,
      "inser": 3887,
      "atur": 3888,
      "ention": 3889,
      "algor": 3890,
      "sector": 3891,
      "ison": 3892,
      "arison": 3893,
      "meeting": 3894,
      "ception": 3895,
      "placed": 3896,
      "sufficient": 3897,
      "discus": 3898,
      "cript": 3899,
      "ippe": 3900,
      "fici": 3901,
      "overn": 3902,
      "commer": 3903,
      "signment": 3904,
      "Payroll": 3905,
      "schedules": 3906,
      "goal": 3907,
      "USRT": 3908,
      "letters": 3909,
      "toolbar": 3910,
      "embedding": 3911,
      "Alt": 3912,
      "Lead": 3913,
      "printing": 3914,
      "turned": 3915,
      "intervals": 3916,
      "Receip": 3917,
      "consumers": 3918,
      "Relation": 3919,
      "reflects": 3920,
      "flush": 3921,
      "Performance": 3922,
      "Layout": 3923,
      "SKU": 3924,
      "Currently": 3925,
      "Availability": 3926,
      "Builder": 3927,
      "collaboration": 3928,
      "hyper": 3929,
      "privileges": 3930,
      "Shell": 3931,
      "Develop": 3932,
      "algorith": 3933,
      "Cy": 3934,
      "Don": 3935,
      "Mob": 3936,
      "Ph": 3937,
      "Round": 3938,
      "gins": 3939,
      "gency": 3940,
      "had": 3941,
      "hiring": 3942,
      "io": 3943,
      "iOS": 3944,
      "land": 3945,
      "nos": 3946,
      "pot": 3947,
      "sourcing": 3948,
      "wor": 3949,
      "influ": 3950,
      "ission": 3951,
      "defaul": 3952,
      "height": 3953,
      "geo": 3954,
      "except": 3955,
      "lots": 3956,
      "did": 3957,
      "cid": 3958,
      "trust": 3959,
      "true": 3960,
      "tell": 3961,
      "PowerShell": 3962,
      "uted": 3963,
      "body": 3964,
      "clature": 3965,
      "whenever": 3966,
      "transfers": 3967,
      "disp": 3968,
      "owners": 3969,
      "extend": 3970,
      "Address": 3971,
      "cket": 3972,
      "assignment": 3973,
      "formatted": 3974,
      "overall": 3975,
      "statistics": 3976,
      "Workflows": 3977,
      "directed": 3978,
      "connecting": 3979,
      "RLS": 3980,
      "years": 3981,
      "menclature": 3982,
      "Directory": 3983,
      "Values": 3984,
      "Color": 3985,
      "Locations": 3986,
      "calendars": 3987,
      "Journals": 3988,
      "registrations": 3989,
      "reduction": 3990,
      "illustrates": 3991,
      "arrival": 3992,
      "blanket": 3993,
      "focuses": 3994,
      "realized": 3995,
      "Employees": 3996,
      "pbix": 3997,
      "scope": 3998,
      "principle": 3999,
      "Parameters": 4000,
      "Associate": 4001,
      "Manufacturing": 4002,
      "loss": 4003,
      "constant": 4004,
      "remittance": 4005,
      "Mobile": 4006,
      "Ag": 4007,
      "Away": 4008,
      "Call": 4009,
      "Lot": 4010,
      "OData": 4011,
      "Pl": 4012,
      "bid": 4013,
      "bases": 4014,
      "lass": 4015,
      "national": 4016,
      "sers": 4017,
      "safety": 4018,
      "info": 4019,
      "reset": 4020,
      "revers": 4021,
      "reward": 4022,
      "oubleshoot": 4023,
      "tip": 4024,
      "andbox": 4025,
      "provision": 4026,
      "conf": 4027,
      "ntax": 4028,
      "Indic": 4029,
      "loan": 4030,
      "titles": 4031,
      "ulate": 4032,
      "ordin": 4033,
      "ressed": 4034,
      "troubleshoot": 4035,
      "ensures": 4036,
      "discre": 4037,
      "Selecting": 4038,
      "aries": 4039,
      "configuring": 4040,
      "asked": 4041,
      "controlled": 4042,
      "assigning": 4043,
      "iry": 4044,
      "foreign": 4045,
      "sym": 4046,
      "commission": 4047,
      "reshold": 4048,
      "signature": 4049,
      "Expense": 4050,
      "mandate": 4051,
      "responsible": 4052,
      "Head": 4053,
      "partners": 4054,
      "applying": 4055,
      "Actions": 4056,
      "browsers": 4057,
      "Disable": 4058,
      "Editing": 4059,
      "grids": 4060,
      "Interface": 4061,
      "Letter": 4062,
      "Region": 4063,
      "Jobs": 4064,
      "represented": 4065,
      "words": 4066,
      "successful": 4067,
      "Changing": 4068,
      "frequency": 4069,
      "equal": 4070,
      "latest": 4071,
      "reservation": 4072,
      "Button": 4073,
      "sensitivity": 4074,
      "bulk": 4075,
      "Policy": 4076,
      "rebate": 4077,
      "Question": 4078,
      "claims": 4079,
      "rectangle": 4080,
      "carry": 4081,
      "achieve": 4082,
      "larger": 4083,
      "AI": 4084,
      "AR": 4085,
      "Cor": 4086,
      "Cli": 4087,
      "Every": 4088,
      "Material": 4089,
      "Pal": 4090,
      "Press": 4091,
      "Qty": 4092,
      "aways": 4093,
      "fall": 4094,
      "pending": 4095,
      "samples": 4096,
      "wants": 4097,
      "threshold": 4098,
      "atter": 4099,
      "enroll": 4100,
      "ouse": 4101,
      "allocations": 4102,
      "ittance": 4103,
      "protection": 4104,
      "Instead": 4105,
      "shop": 4106,
      "controll": 4107,
      "comparison": 4108,
      "bol": 4109,
      "Rever": 4110,
      "Recur": 4111,
      "lik": 4112,
      "customization": 4113,
      "clar": 4114,
      "External": 4115,
      "adds": 4116,
      "extended": 4117,
      "bub": 4118,
      "defining": 4119,
      "quotes": 4120,
      "Depart": 4121,
      "Debit": 4122,
      "acked": 4123,
      "calculating": 4124,
      "scatter": 4125,
      "packs": 4126,
      "Contin": 4127,
      "contrast": 4128,
      "analy": 4129,
      "Mak": 4130,
      "Max": 4131,
      "rights": 4132,
      "identified": 4133,
      "bring": 4134,
      "categorical": 4135,
      "requisitions": 4136,
      "Required": 4137,
      "Submit": 4138,
      "Operation": 4139,
      "reserve": 4140,
      "Remittance": 4141,
      "correspond": 4142,
      "olean": 4143,
      "atio": 4144,
      "Keep": 4145,
      "Periods": 4146,
      "translated": 4147,
      "implementation": 4148,
      "Changes": 4149,
      "demonstrates": 4150,
      "Drive": 4151,
      "wait": 4152,
      "IFO": 4153,
      "enhanced": 4154,
      "reminder": 4155,
      "Estim": 4156,
      "Browse": 4157,
      "Delivery": 4158,
      "folders": 4159,
      "January": 4160,
      "algorithm": 4161,
      "defaults": 4162,
      "60": 4163,
      "GU": 4164,
      "Ger": 4165,
      "HR": 4166,
      "Jul": 4167,
      "Paginated": 4168,
      "SI": 4169,
      "Tim": 4170,
      "aily": 4171,
      "dot": 4172,
      "idates": 4173,
      "tren": 4174,
      "vary": 4175,
      "wave": 4176,
      "xml": 4177,
      "inations": 4178,
      "reli": 4179,
      "oring": 4180,
      "oriz": 4181,
      "ority": 4182,
      "ici": 4183,
      "icity": 4184,
      "cture": 4185,
      "cance": 4186,
      "wide": 4187,
      "Incoming": 4188,
      "cial": 4189,
      "unmanaged": 4190,
      "izable": 4191,
      "ferent": 4192,
      "Reason": 4193,
      "Reference": 4194,
      "Examples": 4195,
      "Exec": 4196,
      "Contracts": 4197,
      "obtain": 4198,
      "Proceed": 4199,
      "relative": 4200,
      "mber": 4201,
      "providing": 4202,
      "syntax": 4203,
      "variety": 4204,
      "Worksheet": 4205,
      "legacy": 4206,
      "More": 4207,
      "therefore": 4208,
      "logical": 4209,
      "assemble": 4210,
      "bruary": 4211,
      "axes": 4212,
      "authoring": 4213,
      "Percent": 4214,
      "sends": 4215,
      "argets": 4216,
      "Recei": 4217,
      "Optionally": 4218,
      "diagnos": 4219,
      "February": 4220,
      "practice": 4221,
      "flyout": 4222,
      "purchases": 4223,
      "Templates": 4224,
      "ctivity": 4225,
      "situation": 4226,
      "involved": 4227,
      "snap": 4228,
      "snippe": 4229,
      "KPIs": 4230,
      "rather": 4231,
      "recogn": 4232,
      "Different": 4233,
      "Legal": 4234,
      "industry": 4235,
      "dispatch": 4236,
      "canceled": 4237,
      "Bet": 4238,
      "Cer": 4239,
      "LCS": 4240,
      "Mod": 4241,
      "Split": 4242,
      "Tutorial": 4243,
      "cach": 4244,
      "length": 4245,
      "rank": 4246,
      "racing": 4247,
      "son": 4248,
      "tt": 4249,
      "tour": 4250,
      "income": 4251,
      "orical": 4252,
      "allocate": 4253,
      "today": 4254,
      "aper": 4255,
      "concept": 4256,
      "Initi": 4257,
      "lored": 4258,
      "uration": 4259,
      "qual": 4260,
      "quar": 4261,
      "cir": 4262,
      "training": 4263,
      "composite": 4264,
      "recent": 4265,
      "reclass": 4266,
      "imbur": 4267,
      "improved": 4268,
      "Consumption": 4269,
      "max": 4270,
      "opening": 4271,
      "straight": 4272,
      "balancing": 4273,
      "grouped": 4274,
      "relate": 4275,
      "Upload": 4276,
      "Optim": 4277,
      "typing": 4278,
      "Dataset": 4279,
      "editable": 4280,
      "Costing": 4281,
      "drive": 4282,
      "Configuring": 4283,
      "marking": 4284,
      "someone": 4285,
      "logged": 4286,
      "Composite": 4287,
      "Unified": 4288,
      "gateways": 4289,
      "launch": 4290,
      "batches": 4291,
      "eves": 4292,
      "sequent": 4293,
      "Specific": 4294,
      "Analyz": 4295,
      "Settings": 4296,
      "Calculated": 4297,
      "Calculating": 4298,
      "maps": 4299,
      "Both": 4300,
      "bills": 4301,
      "spaces": 4302,
      "combined": 4303,
      "collapsed": 4304,
      "Closing": 4305,
      "scrip": 4306,
      "Issu": 4307,
      "media": 4308,
      "Offset": 4309,
      "restrict": 4310,
      "haven": 4311,
      "Books": 4312,
      "exactly": 4313,
      "happen": 4314,
      "skip": 4315,
      "responsibility": 4316,
      "Understanding": 4317,
      "Navigate": 4318,
      "pieces": 4319,
      "reservations": 4320,
      "favorite": 4321,
      "PBIX": 4322,
      "binding": 4323,
      "problem": 4324,
      "Properties": 4325,
      "advantage": 4326,
      "Summary": 4327,
      "argument": 4328,
      "Recurring": 4329,
      "orizont": 4330,
      "BAN": 4331,
      "CE": 4332,
      "Foc": 4333,
      "Hide": 4334,
      "IBAN": 4335,
      "Machine": 4336,
      "ON": 4337,
      "Tit": 4338,
      "bro": 4339,
      "cum": 4340,
      "hire": 4341,
      "iries": 4342,
      "mouse": 4343,
      "nc": 4344,
      "slow": 4345,
      "sizes": 4346,
      "twe": 4347,
      "ze": 4348,
      "revaluation": 4349,
      "esti": 4350,
      "letion": 4351,
      "seven": 4352,
      "states": 4353,
      "core": 4354,
      "pros": 4355,
      "consignment": 4356,
      "extra": 4357,
      "logo": 4358,
      "quid": 4359,
      "moved": 4360,
      "term": 4361,
      "serve": 4362,
      "ampling": 4363,
      "Security": 4364,
      "assum": 4365,
      "ighting": 4366,
      "auto": 4367,
      "fast": 4368,
      "getting": 4369,
      "generation": 4370,
      "registers": 4371,
      "notice": 4372,
      "subreport": 4373,
      "Datasets": 4374,
      "guest": 4375,
      "edited": 4376,
      "performing": 4377,
      "properly": 4378,
      "periodic": 4379,
      "timeline": 4380,
      "privacy": 4381,
      "allowance": 4382,
      "Another": 4383,
      "handled": 4384,
      "analyz": 4385,
      "structures": 4386,
      "experiences": 4387,
      "delivered": 4388,
      "Intercompany": 4389,
      "Always": 4390,
      "authorized": 4391,
      "sorted": 4392,
      "inputs": 4393,
      "replaced": 4394,
      "illustrate": 4395,
      "certificates": 4396,
      "aggregated": 4397,
      "constrained": 4398,
      "memos": 4399,
      "separately": 4400,
      "affected": 4401,
      "ANK": 4402,
      "demonstration": 4403,
      "exceeds": 4404,
      "resolve": 4405,
      "Drill": 4406,
      "summarized": 4407,
      "decrease": 4408,
      "regardless": 4409,
      "identifier": 4410,
      "Administrator": 4411,
      "meaning": 4412,
      "invitation": 4413,
      "BLANK": 4414,
      "perspective": 4415,
      "Notifications": 4416,
      "Tooltip": 4417,
      "preferred": 4418,
      "ificant": 4419,
      "People": 4420,
      "symbol": 4421,
      "Questionna": 4422,
      "Moder": 4423,
      "Focus": 4424,
      "CT": 4425,
      "Double": 4426,
      "Hour": 4427,
      "IN": 4428,
      "LE": 4429,
      "Non": 4430,
      "Sel": 4431,
      "Sheet": 4432,
      "Ter": 4433,
      "Turn": 4434,
      "big": 4435,
      "bilities": 4436,
      "double": 4437,
      "facts": 4438,
      "gross": 4439,
      "nav": 4440,
      "ptive": 4441,
      "rich": 4442,
      "sw": 4443,
      "sampling": 4444,
      "inbox": 4445,
      "attemp": 4446,
      "alcul": 4447,
      "isk": 4448,
      "arrows": 4449,
      "depreci": 4450,
      "exception": 4451,
      "uploaded": 4452,
      "adap": 4453,
      "dataView": 4454,
      "etch": 4455,
      "whose": 4456,
      "ourse": 4457,
      "shift": 4458,
      "poll": 4459,
      "Created": 4460,
      "Sequ": 4461,
      "recalcul": 4462,
      "clos": 4463,
      "Who": 4464,
      "Contract": 4465,
      "however": 4466,
      "Deleting": 4467,
      "calculates": 4468,
      "descriptive": 4469,
      "margin": 4470,
      "versus": 4471,
      "nomenclature": 4472,
      "commitment": 4473,
      "subject": 4474,
      "dropdown": 4475,
      "importing": 4476,
      "significant": 4477,
      "accessible": 4478,
      "accessibility": 4479,
      "coring": 4480,
      "Storage": 4481,
      "ancially": 4482,
      "marks": 4483,
      "taxes": 4484,
      "instances": 4485,
      "Auto": 4486,
      "Reset": 4487,
      "classes": 4488,
      "windows": 4489,
      "cru": 4490,
      "URLs": 4491,
      "Files": 4492,
      "Prices": 4493,
      "Interact": 4494,
      "behalf": 4495,
      "draft": 4496,
      "queue": 4497,
      "Subcontract": 4498,
      "remains": 4499,
      "removing": 4500,
      "slider": 4501,
      "optimize": 4502,
      "distributions": 4503,
      "Arch": 4504,
      "greater": 4505,
      "pinned": 4506,
      "Activate": 4507,
      "estimate": 4508,
      "Avoid": 4509,
      "Methods": 4510,
      "SKUs": 4511,
      "shape": 4512,
      "panel": 4513,
      "continuity": 4514,
      "Redu": 4515,
      "elimination": 4516,
      "Statement": 4517,
      "characteristics": 4518,
      "warehousing": 4519,
      "Grant": 4520,
      "Integration": 4521,
      "CDM": 4522,
      "picture": 4523,
      "Cycle": 4524,
      "scripts": 4525,
      "Title": 4526,
      "Modern": 4527,
      "35": 4528,
      "CP": 4529,
      "EN": 4530,
      "Even": 4531,
      "Ker": 4532,
      "Last": 4533,
      "QR": 4534,
      "Tips": 4535,
      "Termin": 4536,
      "daily": 4537,
      "flo": 4538,
      "hover": 4539,
      "ness": 4540,
      "oom": 4541,
      "pull": 4542,
      "rated": 4543,
      "sandbox": 4544,
      "incorrect": 4545,
      "ories": 4546,
      "toggle": 4547,
      "room": 4548,
      "acle": 4549,
      "delay": 4550,
      "else": 4551,
      "emails": 4552,
      "plat": 4553,
      "plus": 4554,
      "counted": 4555,
      "contribut": 4556,
      "posed": 4557,
      "financially": 4558,
      "agn": 4559,
      "invite": 4560,
      "Selection": 4561,
      "aving": 4562,
      "combo": 4563,
      "quotations": 4564,
      "arily": 4565,
      "rename": 4566,
      "doing": 4567,
      "auge": 4568,
      "tabular": 4569,
      "Ask": 4570,
      "accessorial": 4571,
      "Expiration": 4572,
      "Oracle": 4573,
      "Authentication": 4574,
      "Contain": 4575,
      "picks": 4576,
      "earning": 4577,
      "assembled": 4578,
      "approvals": 4579,
      "Special": 4580,
      "Specifies": 4581,
      "0001": 4582,
      "individually": 4583,
      "Collect": 4584,
      "nonconformance": 4585,
      "reducing": 4586,
      "months": 4587,
      "programs": 4588,
      "execute": 4589,
      "consistent": 4590,
      "historical": 4591,
      "meets": 4592,
      "translation": 4593,
      "reconcile": 4594,
      "departments": 4595,
      "Interest": 4596,
      "bonus": 4597,
      "workloads": 4598,
      "Released": 4599,
      "KPI": 4600,
      "Migration": 4601,
      "Combine": 4602,
      "eligibility": 4603,
      "Troubleshooting": 4604,
      "Scenari": 4605,
      "scrap": 4606,
      "Write": 4607,
      "beros": 4608,
      "Replenishment": 4609,
      "Minimum": 4610,
      "Charges": 4611,
      "Draft": 4612,
      "technology": 4613,
      "inserted": 4614,
      "cident": 4615,
      "Client": 4616,
      "Terms": 4617,
      "Kerberos": 4618,
      "01": 4619,
      "Den": 4620,
      "Emer": 4621,
      "Lic": 4622,
      "OK": 4623,
      "Ori": 4624,
      "Rou": 4625,
      "Rout": 4626,
      "Sa": 4627,
      "cas": 4628,
      "duration": 4629,
      "hip": 4630,
      "hensive": 4631,
      "horizont": 4632,
      "json": 4633,
      "oter": 4634,
      "pted": 4635,
      "plots": 4636,
      "rics": 4637,
      "vance": 4638,
      "inher": 4639,
      "rede": 4640,
      "rehensive": 4641,
      "annot": 4642,
      "era": 4643,
      "enfor": 4644,
      "encount": 4645,
      "alse": 4646,
      "tire": 4647,
      "istic": 4648,
      "deleting": 4649,
      "llig": 4650,
      "Incre": 4651,
      "upon": 4652,
      "updating": 4653,
      "rieves": 4654,
      "ulation": 4655,
      "modes": 4656,
      "etary": 4657,
      "places": 4658,
      "PowerApps": 4659,
      "never": 4660,
      "limin": 4661,
      "amera": 4662,
      "recently": 4663,
      "actually": 4664,
      "oney": 4665,
      "minim": 4666,
      "Provide": 4667,
      "six": 4668,
      "generates": 4669,
      "fund": 4670,
      "posals": 4671,
      "connectivity": 4672,
      "overdue": 4673,
      "subsequent": 4674,
      "reader": 4675,
      "Manual": 4676,
      "Managing": 4677,
      "systems": 4678,
      "Posted": 4679,
      "directory": 4680,
      "issued": 4681,
      "Answ": 4682,
      "causes": 4683,
      "gging": 4684,
      "classify": 4685,
      "Importing": 4686,
      "divided": 4687,
      "Boolean": 4688,
      "depends": 4689,
      "representative": 4690,
      "holds": 4691,
      "developers": 4692,
      "United": 4693,
      "translations": 4694,
      "rames": 4695,
      "arran": 4696,
      "Channel": 4697,
      "dragging": 4698,
      "suggest": 4699,
      "drawal": 4700,
      "skills": 4701,
      "REST": 4702,
      "reordering": 4703,
      "tags": 4704,
      "fulfillment": 4705,
      "Flows": 4706,
      "Position": 4707,
      "branches": 4708,
      "surface": 4709,
      "Validation": 4710,
      "Benefits": 4711,
      "couple": 4712,
      "preceding": 4713,
      "budgets": 4714,
      "Segments": 4715,
      "Reserv": 4716,
      "Metrics": 4717,
      "hyperlink": 4718,
      "Place": 4719,
      "Header": 4720,
      "likely": 4721,
      "bubble": 4722,
      "July": 4723,
      "Emergency": 4724,
      "34": 4725,
      "80": 4726,
      "Base": 4727,
      "Blank": 4728,
      "Case": 4729,
      "DB": 4730,
      "DOM": 4731,
      "Element": 4732,
      "Flex": 4733,
      "Give": 4734,
      "MS": 4735,
      "Parti": 4736,
      "Range": 4737,
      "Sto": 4738,
      "Tables": 4739,
      "Target": 4740,
      "UE": 4741,
      "Vers": 4742,
      "cry": 4743,
      "ell": 4744,
      "gauge": 4745,
      "holder": 4746,
      "ivot": 4747,
      "late": 4748,
      "mes": 4749,
      "mill": 4750,
      "money": 4751,
      "nested": 4752,
      "pital": 4753,
      "paper": 4754,
      "ratio": 4755,
      "ricity": 4756,
      "spre": 4757,
      "scoring": 4758,
      "targets": 4759,
      "unt": 4760,
      "ink": 4761,
      "recip": 4762,
      "annual": 4763,
      "orient": 4764,
      "staf": 4765,
      "arrange": 4766,
      "ited": 4767,
      "apid": 4768,
      "aspect": 4769,
      "deb": 4770,
      "ospital": 4771,
      "cember": 4772,
      "ays": 4773,
      "lectricity": 4774,
      "respective": 4775,
      "une": 4776,
      "vertical": 4777,
      "routes": 4778,
      "izer": 4779,
      "Replace": 4780,
      "near": 4781,
      "Separ": 4782,
      "clust": 4783,
      "disposal": 4784,
      "modeling": 4785,
      "username": 4786,
      "Provi": 4787,
      "December": 4788,
      "auth": 4789,
      "001": 4790,
      "dimensional": 4791,
      "rolled": 4792,
      "overhead": 4793,
      "loads": 4794,
      "deprec": 4795,
      "checker": 4796,
      "ribution": 4797,
      "goals": 4798,
      "caused": 4799,
      "insight": 4800,
      "pointment": 4801,
      "publisher": 4802,
      "Bud": 4803,
      "browse": 4804,
      "identifies": 4805,
      "DateTime": 4806,
      "Internal": 4807,
      "Introdu": 4808,
      "consolidate": 4809,
      "expanded": 4810,
      "interesting": 4811,
      "trial": 4812,
      "OneDrive": 4813,
      "replenish": 4814,
      "Visuals": 4815,
      "saving": 4816,
      "Projected": 4817,
      "Displays": 4818,
      "Stru": 4819,
      "warnings": 4820,
      "Otherwise": 4821,
      "choices": 4822,
      "Amounts": 4823,
      "CSV": 4824,
      "strategies": 4825,
      "Days": 4826,
      "patterns": 4827,
      "Norway": 4828,
      "shapes": 4829,
      "enhance": 4830,
      "Release": 4831,
      "sensitive": 4832,
      "decisions": 4833,
      "Success": 4834,
      "subcontracted": 4835,
      "volume": 4836,
      "automated": 4837,
      "Similar": 4838,
      "Restrict": 4839,
      "highlighting": 4840,
      "LCY": 4841,
      "modules": 4842,
      "overnment": 4843,
      "Receipt": 4844,
      "Relationship": 4845,
      "potential": 4846,
      "Correct": 4847,
      "Reverse": 4848,
      "Continue": 4849,
      "snapshot": 4850,
      "imburse": 4851,
      "Sequence": 4852,
      "Origin": 4853,
      "Route": 4854,
      "spread": 4855,
      "Introduction": 4856,
      "44": 4857,
      "Block": 4858,
      "CA": 4859,
      "Edu": 4860,
      "Ge": 4861,
      "Gallery": 4862,
      "MT": 4863,
      "Pres": 4864,
      "Rate": 4865,
      "Whe": 4866,
      "cs": 4867,
      "fu": 4868,
      "frames": 4869,
      "jo": 4870,
      "natur": 4871,
      "pow": 4872,
      "sor": 4873,
      "talent": 4874,
      "water": 4875,
      "zip": 4876,
      "reuse": 4877,
      "resemb": 4878,
      "anim": 4879,
      "ordered": 4880,
      "enumer": 4881,
      "align": 4882,
      "alph": 4883,
      "tied": 4884,
      "fort": 4885,
      "deposit": 4886,
      "consume": 4887,
      "geting": 4888,
      "Info": 4889,
      "Income": 4890,
      "excep": 4891,
      "tracing": 4892,
      "endit": 4893,
      "valued": 4894,
      "uting": 4895,
      "investi": 4896,
      "igno": 4897,
      "Repair": 4898,
      "viewer": 4899,
      "visualize": 4900,
      "funding": 4901,
      "downtime": 4902,
      "Acquisition": 4903,
      "providers": 4904,
      "displaying": 4905,
      "differently": 4906,
      "capture": 4907,
      "Database": 4908,
      "operators": 4909,
      "lue": 4910,
      "monetary": 4911,
      "goti": 4912,
      "Audit": 4913,
      "logon": 4914,
      "whom": 4915,
      "Compare": 4916,
      "Resol": 4917,
      "Units": 4918,
      "clearing": 4919,
      "bars": 4920,
      "matched": 4921,
      "ferences": 4922,
      "Begin": 4923,
      "Notes": 4924,
      "managers": 4925,
      "ggers": 4926,
      "outputs": 4927,
      "Finally": 4928,
      "Attract": 4929,
      "baseline": 4930,
      "Also": 4931,
      "percentages": 4932,
      "Local": 4933,
      "consent": 4934,
      "confirmed": 4935,
      "clients": 4936,
      "personalize": 4937,
      "increases": 4938,
      "certification": 4939,
      "simpli": 4940,
      "Publishing": 4941,
      "choosing": 4942,
      "scheme": 4943,
      "Links": 4944,
      "Instances": 4945,
      "breaks": 4946,
      "ctively": 4947,
      "involve": 4948,
      "weighted": 4949,
      "referred": 4950,
      "directional": 4951,
      "Monitoring": 4952,
      "utils": 4953,
      "Liquid": 4954,
      "docking": 4955,
      "evaluate": 4956,
      "Objects": 4957,
      "speak": 4958,
      "accepted": 4959,
      "framework": 4960,
      "duplicate": 4961,
      "assortment": 4962,
      "Lookup": 4963,
      "bene": 4964,
      "Measure": 4965,
      "style": 4966,
      "inquiry": 4967,
      "conflic": 4968,
      "Percentage": 4969,
      "snippet": 4970,
      "Between": 4971,
      "Initial": 4972,
      "Geo": 4973,
      "Whether": 4974,
      "natural": 4975,
      "exceptions": 4976,
      "Ctr": 4977,
      "Dates": 4978,
      "Drop": 4979,
      "Ful": 4980,
      "GB": 4981,
      "Gate": 4982,
      "Jav": 4983,
      "Mem": 4984,
      "Pare": 4985,
      "Push": 4986,
      "Render": 4987,
      "Scre": 4988,
      "Wa": 4989,
      "cation": 4990,
      "cmd": 4991,
      "employment": 4992,
      "gator": 4993,
      "jor": 4994,
      "pag": 4995,
      "ru": 4996,
      "rad": 4997,
      "sl": 4998,
      "inality": 4999,
      "revi": 5000,
      "restart": 5001,
      "alth": 5002,
      "titi": 5003,
      "itten": 5004,
      "apse": 5005,
      "dee": 5006,
      "detection": 5007,
      "declar": 5008,
      "covered": 5009,
      "protect": 5010,
      "ared": 5011,
      "bered": 5012,
      "Input": 5013,
      "Inbound": 5014,
      "exclude": 5015,
      "ples": 5016,
      "undo": 5017,
      "sol": 5018,
      "licit": 5019,
      "endpoint": 5020,
      "perip": 5021,
      "aged": 5022,
      "completion": 5023,
      "Reques": 5024,
      "figures": 5025,
      "recru": 5026,
      "assist": 5027,
      "critical": 5028,
      "fictiti": 5029,
      "bug": 5030,
      "otherwise": 5031,
      "planner": 5032,
      "house": 5033,
      "actices": 5034,
      "funnel": 5035,
      "assignments": 5036,
      "Used": 5037,
      "Upgrade": 5038,
      "capt": 5039,
      "Serial": 5040,
      "grad": 5041,
      "corpor": 5042,
      "designers": 5043,
      "Environ": 5044,
      "private": 5045,
      "Enterprise": 5046,
      "Resize": 5047,
      "ember": 5048,
      "Designer": 5049,
      "lake": 5050,
      "mention": 5051,
      "tracked": 5052,
      "mixed": 5053,
      "occurred": 5054,
      "Practices": 5055,
      "behind": 5056,
      "Leave": 5057,
      "blocking": 5058,
      "blocked": 5059,
      "taking": 5060,
      "reduced": 5061,
      "writing": 5062,
      "written": 5063,
      "Synchron": 5064,
      "maker": 5065,
      "Outbound": 5066,
      "guidelines": 5067,
      "executed": 5068,
      "Scheduled": 5069,
      "videos": 5070,
      "questionnaires": 5071,
      "Feature": 5072,
      "Features": 5073,
      "effects": 5074,
      "reversed": 5075,
      "flexibility": 5076,
      "synchronize": 5077,
      "Portals": 5078,
      "destinations": 5079,
      "compared": 5080,
      "approaches": 5081,
      "retrieved": 5082,
      "Functions": 5083,
      "responsive": 5084,
      "...": 5085,
      "DEMF": 5086,
      "Available": 5087,
      "Policies": 5088,
      "Implement": 5089,
      "identifiers": 5090,
      "aScript": 5091,
      "problems": 5092,
      "Purchases": 5093,
      "eligible": 5094,
      "supplied": 5095,
      "France": 5096,
      "Determining": 5097,
      "candidate": 5098,
      "candidates": 5099,
      "Collapse": 5100,
      "Permissions": 5101,
      "encryption": 5102,
      "Solution": 5103,
      "kinds": 5104,
      "normal": 5105,
      "controller": 5106,
      "Department": 5107,
      "Receiving": 5108,
      "quarter": 5109,
      "Analyzer": 5110,
      "prospective": 5111,
      "Container": 5112,
      "SaaS": 5113,
      "Partial": 5114,
      "powered": 5115,
      "Ctrl": 5116,
      "Fulfill": 5117,
      "JavaScript": 5118,
      "Parent": 5119,
      "Screen": 5120,
      "peripher": 5121,
      "fictitious": 5122,
      "Ax": 5123,
      "Est": 5124,
      "Event": 5125,
      "Fl": 5126,
      "Frequ": 5127,
      "LA": 5128,
      "LIFO": 5129,
      "Pass": 5130,
      "RI": 5131,
      "Right": 5132,
      "Sk": 5133,
      "Shou": 5134,
      "Size": 5135,
      "Sending": 5136,
      "Side": 5137,
      "Switch": 5138,
      "border": 5139,
      "dle": 5140,
      "eight": 5141,
      "grow": 5142,
      "hoc": 5143,
      "ival": 5144,
      "lig": 5145,
      "mist": 5146,
      "mask": 5147,
      "pen": 5148,
      "panci": 5149,
      "risk": 5150,
      "sense": 5151,
      "ube": 5152,
      "inting": 5153,
      "independent": 5154,
      "repe": 5155,
      "reassign": 5156,
      "remember": 5157,
      "atis": 5158,
      "onto": 5159,
      "ali": 5160,
      "allocated": 5161,
      "toward": 5162,
      "isol": 5163,
      "acqu": 5164,
      "accom": 5165,
      "aps": 5166,
      "deletes": 5167,
      "prob": 5168,
      "proposals": 5169,
      "propag": 5170,
      "chos": 5171,
      "exclu": 5172,
      "footer": 5173,
      "dig": 5174,
      "duties": 5175,
      "followed": 5176,
      "PowerBI": 5177,
      "endance": 5178,
      "desktop": 5179,
      "agre": 5180,
      "compli": 5181,
      "completes": 5182,
      "lowest": 5183,
      "Several": 5184,
      "transition": 5185,
      "pret": 5186,
      "prelimin": 5187,
      "Codes": 5188,
      "manip": 5189,
      "Addition": 5190,
      "fications": 5191,
      "ficult": 5192,
      "bucket": 5193,
      "difficult": 5194,
      "Profile": 5195,
      "ided": 5196,
      "archive": 5197,
      "hasn": 5198,
      "entially": 5199,
      "expendit": 5200,
      "generally": 5201,
      "organize": 5202,
      "attendance": 5203,
      "operator": 5204,
      "Expenses": 5205,
      "Enabling": 5206,
      "IDE": 5207,
      "marker": 5208,
      "Most": 5209,
      "Entering": 5210,
      "Compensation": 5211,
      "clean": 5212,
      "budgeted": 5213,
      "receives": 5214,
      "measurements": 5215,
      "phones": 5216,
      "ributed": 5217,
      "Commission": 5218,
      "Pricing": 5219,
      "timesheet": 5220,
      "indicator": 5221,
      "Aler": 5222,
      "drillthrough": 5223,
      "Within": 5224,
      "particip": 5225,
      "Registr": 5226,
      "Processes": 5227,
      "Processing": 5228,
      "Connecting": 5229,
      "interested": 5230,
      "triggers": 5231,
      "deployed": 5232,
      "integrated": 5233,
      "Subscri": 5234,
      "artifact": 5235,
      "Remo": 5236,
      "Allowed": 5237,
      "teams": 5238,
      "Sometimes": 5239,
      "decimal": 5240,
      "prioriti": 5241,
      "Priority": 5242,
      "equival": 5243,
      "hosted": 5244,
      "involves": 5245,
      "Absence": 5246,
      "smaller": 5247,
      "Override": 5248,
      "Dayforce": 5249,
      "scanner": 5250,
      "precision": 5251,
      "deliveries": 5252,
      "transformations": 5253,
      "Impact": 5254,
      "Property": 5255,
      "communic": 5256,
      "Quotes": 5257,
      "Functionality": 5258,
      "Limitations": 5259,
      "ownership": 5260,
      "troubleshooting": 5261,
      "analyst": 5262,
      "diagnostic": 5263,
      "reclassification": 5264,
      "broken": 5265,
      "meaningful": 5266,
      "Questionnaire": 5267,
      "platform": 5268,
      "License": 5269,
      "Version": 5270,
      "mentioned": 5271,
      "Flush": 5272,
      "Should": 5273,
      "pancies": 5274,
      "chosen": 5275,
      "preliminary": 5276,
      "Additionally": 5277,
      "Bel": 5278,
      "CC": 5279,
      "Cance": 5280,
      "ES": 5281,
      "Employment": 5282,
      "Fac": 5283,
      "Lan": 5284,
      "None": 5285,
      "OP": 5286,
      "Ow": 5287,
      "PR": 5288,
      "Ren": 5289,
      "Sale": 5290,
      "Since": 5291,
      "Ten": 5292,
      "Warehou": 5293,
      "ahead": 5294,
      "cceed": 5295,
      "camera": 5296,
      "ff": 5297,
      "false": 5298,
      "gest": 5299,
      "jur": 5300,
      "magn": 5301,
      "pain": 5302,
      "touch": 5303,
      "ui": 5304,
      "wall": 5305,
      "xy": 5306,
      "ym": 5307,
      "think": 5308,
      "inct": 5309,
      "inform": 5310,
      "indirect": 5311,
      "reve": 5312,
      "reopen": 5313,
      "redirect": 5314,
      "anti": 5315,
      "especi": 5316,
      "tives": 5317,
      "sters": 5318,
      "andom": 5319,
      "appointment": 5320,
      "ascending": 5321,
      "promis": 5322,
      "explan": 5323,
      "urning": 5324,
      "datas": 5325,
      "riend": 5326,
      "restore": 5327,
      "vali": 5328,
      "trav": 5329,
      "uncheck": 5330,
      "white": 5331,
      "worked": 5332,
      "isting": 5333,
      "ained": 5334,
      "Revenue": 5335,
      "succeed": 5336,
      "enterprise": 5337,
      "outli": 5338,
      "Existing": 5339,
      "Conversion": 5340,
      "Selected": 5341,
      "cursor": 5342,
      "ledge": 5343,
      "major": 5344,
      "masters": 5345,
      "renam": 5346,
      "faster": 5347,
      "Adds": 5348,
      "super": 5349,
      "ished": 5350,
      "rong": 5351,
      "ront": 5352,
      "cape": 5353,
      "notified": 5354,
      "sync": 5355,
      "gran": 5356,
      "signing": 5357,
      "signatures": 5358,
      "performs": 5359,
      "States": 5360,
      "Try": 5361,
      "cardinality": 5362,
      "postings": 5363,
      "PayPal": 5364,
      "designing": 5365,
      "Accountant": 5366,
      "hierarchical": 5367,
      "Shap": 5368,
      "Short": 5369,
      "appearance": 5370,
      "Definition": 5371,
      "Definitions": 5372,
      "Resul": 5373,
      "handles": 5374,
      "early": 5375,
      "Transl": 5376,
      "certified": 5377,
      "2013": 5378,
      "Retrieves": 5379,
      "paren": 5380,
      "Valu": 5381,
      "placeholder": 5382,
      "Gets": 5383,
      "pected": 5384,
      "gridlines": 5385,
      "authorities": 5386,
      "representing": 5387,
      "Grouping": 5388,
      "monthly": 5389,
      "artifacts": 5390,
      "increased": 5391,
      "SSL": 5392,
      "corresponds": 5393,
      "accordingly": 5394,
      "Schedules": 5395,
      "applicant": 5396,
      "rounded": 5397,
      "Linked": 5398,
      "migrate": 5399,
      "estimates": 5400,
      "Typically": 5401,
      "synchronized": 5402,
      "pools": 5403,
      "Party": 5404,
      "Highlight": 5405,
      "resolved": 5406,
      "Launch": 5407,
      "Packing": 5408,
      "Navigation": 5409,
      "highlighted": 5410,
      "utilization": 5411,
      "rebates": 5412,
      "advantages": 5413,
      "FAQ": 5414,
      "Scroll": 5415,
      "warehouses": 5416,
      "introduced": 5417,
      "Frame": 5418,
      "rejected": 5419,
      "accuracy": 5420,
      "Consolid": 5421,
      "Determine": 5422,
      "belongs": 5423,
      "Collabor": 5424,
      "assortments": 5425,
      "commerce": 5426,
      "reversal": 5427,
      "discrepancies": 5428,
      "enrollment": 5429,
      "GUID": 5430,
      "German": 5431,
      "Optimize": 5432,
      "Sheets": 5433,
      "CPU": 5434,
      "encounter": 5435,
      "Stock": 5436,
      "authors": 5437,
      "fuel": 5438,
      "Gateway": 5439,
      "Requests": 5440,
      "accommo": 5441,
      "Langu": 5442,
      "especially": 5443,
      "riendly": 5444,
      "37": 5445,
      "38": 5446,
      "BW": 5447,
      "DK": 5448,
      "FI": 5449,
      "Gi": 5450,
      "Hover": 5451,
      "Hardware": 5452,
      "May": 5453,
      "Mass": 5454,
      "OT": 5455,
      "Plat": 5456,
      "Pivot": 5457,
      "Rapid": 5458,
      "Sources": 5459,
      "Safety": 5460,
      "TR": 5461,
      "UK": 5462,
      "Vir": 5463,
      "Wiz": 5464,
      "brid": 5465,
      "course": 5466,
      "far": 5467,
      "fam": 5468,
      "his": 5469,
      "ia": 5470,
      "mid": 5471,
      "native": 5472,
      "sal": 5473,
      "sences": 5474,
      "satis": 5475,
      "vents": 5476,
      "wrong": 5477,
      "instate": 5478,
      "rely": 5479,
      "rections": 5480,
      "reinstate": 5481,
      "seen": 5482,
      "icit": 5483,
      "stated": 5484,
      "staging": 5485,
      "accessed": 5486,
      "dead": 5487,
      "defect": 5488,
      "covers": 5489,
      "construct": 5490,
      "mechan": 5491,
      "osion": 5492,
      "loop": 5493,
      "pection": 5494,
      "creators": 5495,
      "ilest": 5496,
      "withdrawal": 5497,
      "umbered": 5498,
      "PowerPoint": 5499,
      "descending": 5500,
      "completing": 5501,
      "anything": 5502,
      "customizing": 5503,
      "outcome": 5504,
      "differ": 5505,
      "Program": 5506,
      "Profit": 5507,
      "possi": 5508,
      "functional": 5509,
      "notify": 5510,
      "specifically": 5511,
      "contained": 5512,
      "attention": 5513,
      "Expression": 5514,
      "reads": 5515,
      "Enroll": 5516,
      "sometimes": 5517,
      "backward": 5518,
      "preser": 5519,
      "association": 5520,
      "logging": 5521,
      "handler": 5522,
      "Transform": 5523,
      "inspection": 5524,
      "highest": 5525,
      "explicit": 5526,
      "distributed": 5527,
      "Interactions": 5528,
      "Internet": 5529,
      "Letters": 5530,
      "gian": 5531,
      "Assigning": 5532,
      "Suppl": 5533,
      "nonstock": 5534,
      "locale": 5535,
      "Starting": 5536,
      "Exporting": 5537,
      "SSRS": 5538,
      "metric": 5539,
      "Visualizations": 5540,
      "simply": 5541,
      "Loan": 5542,
      "physically": 5543,
      "Scheduling": 5544,
      "QuickBooks": 5545,
      "everyone": 5546,
      "Searching": 5547,
      "witter": 5548,
      "optimization": 5549,
      "affects": 5550,
      "Picking": 5551,
      "suggests": 5552,
      "Activities": 5553,
      "implemented": 5554,
      "selling": 5555,
      "modifications": 5556,
      "Capture": 5557,
      "spent": 5558,
      "prompt": 5559,
      "flexible": 5560,
      "Organizations": 5561,
      "dynamically": 5562,
      "overrides": 5563,
      "improvements": 5564,
      "extensions": 5565,
      "CRON": 5566,
      "libraries": 5567,
      "encers": 5568,
      "tolerances": 5569,
      "leads": 5570,
      "Organizational": 5571,
      "decreases": 5572,
      "Positive": 5573,
      "bulleted": 5574,
      "Migrate": 5575,
      "regarding": 5576,
      "settlements": 5577,
      "techni": 5578,
      "technici": 5579,
      "tempor": 5580,
      "Reordering": 5581,
      "Purchasing": 5582,
      "SPNs": 5583,
      "FTI": 5584,
      "Identity": 5585,
      "Consolidate": 5586,
      "Benefit": 5587,
      "Distribute": 5588,
      "reached": 5589,
      "bench": 5590,
      "Quote": 5591,
      "centralized": 5592,
      "Trial": 5593,
      "commercial": 5594,
      "Phone": 5595,
      "world": 5596,
      "Agree": 5597,
      "ranking": 5598,
      "Hours": 5599,
      "Self": 5600,
      "attempt": 5601,
      "Scenario": 5602,
      "staff": 5603,
      "debits": 5604,
      "deprecated": 5605,
      "Structure": 5606,
      "spreadsheet": 5607,
      "Environment": 5608,
      "Establish": 5609,
      "Registration": 5610,
      "equivalent": 5611,
      "Tenant": 5612,
      "jury": 5613,
      "datasource": 5614,
      "outliers": 5615,
      "accommodate": 5616,
      "Platform": 5617,
      "Virtual": 5618,
      "Wizard": 5619,
      "CRONUS": 5620,
      "41": 5621,
      "46": 5622,
      "AS": 5623,
      "Agg": 5624,
      "Cues": 5625,
      "DL": 5626,
      "Kit": 5627,
      "MB": 5628,
      "Nam": 5629,
      "Rule": 5630,
      "Sche": 5631,
      "Twitter": 5632,
      "Voucher": 5633,
      "WH": 5634,
      "Wid": 5635,
      "ban": 5636,
      "numbered": 5637,
      "rs": 5638,
      "racked": 5639,
      "say": 5640,
      "zoom": 5641,
      "eni": 5642,
      "oun": 5643,
      "semi": 5644,
      "ingu": 5645,
      "enters": 5646,
      "accomp": 5647,
      "health": 5648,
      "coordin": 5649,
      "proportion": 5650,
      "Inqu": 5651,
      "rief": 5652,
      "ulations": 5653,
      "viz": 5654,
      "creator": 5655,
      "moder": 5656,
      "moves": 5657,
      "div": 5658,
      "ili": 5659,
      "etencies": 5660,
      "unlock": 5661,
      "counts": 5662,
      "soon": 5663,
      "sored": 5664,
      "workbench": 5665,
      "fine": 5666,
      "compat": 5667,
      "anyone": 5668,
      "accountant": 5669,
      "antine": 5670,
      "wegian": 5671,
      "outgoing": 5672,
      "prepar": 5673,
      "prepayments": 5674,
      "discover": 5675,
      "newly": 5676,
      "owned": 5677,
      "Conditional": 5678,
      "manner": 5679,
      "pace": 5680,
      "salesperson": 5681,
      "Deci": 5682,
      "parties": 5683,
      "Added": 5684,
      "tablet": 5685,
      "configurable": 5686,
      "generic": 5687,
      "margins": 5688,
      "overwrite": 5689,
      "Points": 5690,
      "atically": 5691,
      "commonly": 5692,
      "submission": 5693,
      "cycles": 5694,
      "accessing": 5695,
      "Trade": 5696,
      "readers": 5697,
      "Encry": 5698,
      "illness": 5699,
      "Worker": 5700,
      "ponsored": 5701,
      "charged": 5702,
      "Week": 5703,
      "Shift": 5704,
      "effe": 5705,
      "effort": 5706,
      "searching": 5707,
      "Prefix": 5708,
      "creditor": 5709,
      "responses": 5710,
      "activation": 5711,
      "Completed": 5712,
      "Node": 5713,
      "tification": 5714,
      "cleared": 5715,
      "integer": 5716,
      "screenshot": 5717,
      "dialogs": 5718,
      "certify": 5719,
      "office": 5720,
      "yearly": 5721,
      "fulfilled": 5722,
      "2015": 5723,
      "Finished": 5724,
      "experimental": 5725,
      "referenced": 5726,
      "Overflow": 5727,
      "International": 5728,
      "electronically": 5729,
      "substit": 5730,
      "Enabled": 5731,
      "Connection": 5732,
      "operational": 5733,
      "dependency": 5734,
      "regional": 5735,
      "personalization": 5736,
      "incremental": 5737,
      "makers": 5738,
      "behaviors": 5739,
      "Loading": 5740,
      "Allows": 5741,
      "consumer": 5742,
      "keeping": 5743,
      "faces": 5744,
      "workbooks": 5745,
      "initiate": 5746,
      "Applying": 5747,
      "green": 5748,
      "span": 5749,
      "demonstrate": 5750,
      "exceeded": 5751,
      "Areas": 5752,
      "Columns": 5753,
      "Keyboard": 5754,
      "Norwegian": 5755,
      "Periodic": 5756,
      "populate": 5757,
      "panes": 5758,
      "buyer": 5759,
      "Variable": 5760,
      "profitability": 5761,
      "pbiviz": 5762,
      "score": 5763,
      "Sugg": 5764,
      "principles": 5765,
      "technical": 5766,
      "Questions": 5767,
      "Rows": 5768,
      "subcontracting": 5769,
      "recovery": 5770,
      "RFQs": 5771,
      "Notification": 5772,
      "conventions": 5773,
      "Discounts": 5774,
      "encrypted": 5775,
      "EUR": 5776,
      "ITE": 5777,
      "Measures": 5778,
      "Engine": 5779,
      "English": 5780,
      "Partner": 5781,
      "discusses": 5782,
      "flushing": 5783,
      "Rounding": 5784,
      "influencers": 5785,
      "Indicates": 5786,
      "Regional": 5787,
      "trends": 5788,
      "reliability": 5789,
      "Worksheets": 5790,
      "qualified": 5791,
      "circle": 5792,
      "assumes": 5793,
      "adaptive": 5794,
      "Routing": 5795,
      "redeem": 5796,
      "lligence": 5797,
      "Answer": 5798,
      "orientation": 5799,
      "Education": 5800,
      "csv": 5801,
      "benefici": 5802,
      "captured": 5803,
      "graded": 5804,
      "compliance": 5805,
      "Cancell": 5806,
      "reveal": 5807,
      "travel": 5808,
      "granular": 5809,
      "Aggreg": 5810,
      "accomplish": 5811,
      "modern": 5812,
      "39": 5813,
      "42": 5814,
      "43": 5815,
      "BA": 5816,
      "Bins": 5817,
      "Bills": 5818,
      "Duplic": 5819,
      "ED": 5820,
      "Electricity": 5821,
      "Hist": 5822,
      "MPOS": 5823,
      "OF": 5824,
      "Oc": 5825,
      "Pros": 5826,
      "Play": 5827,
      "Qual": 5828,
      "SV": 5829,
      "SW": 5830,
      "Simp": 5831,
      "TP": 5832,
      "WAP": 5833,
      "Zone": 5834,
      "bed": 5835,
      "blue": 5836,
      "fession": 5837,
      "hub": 5838,
      "half": 5839,
      "ients": 5840,
      "lack": 5841,
      "mally": 5842,
      "miti": 5843,
      "narrow": 5844,
      "ost": 5845,
      "ology": 5846,
      "sa": 5847,
      "watch": 5848,
      "xim": 5849,
      "zones": 5850,
      "inline": 5851,
      "invalid": 5852,
      "informs": 5853,
      "incident": 5854,
      "reply": 5855,
      "ond": 5856,
      "onym": 5857,
      "enrolled": 5858,
      "ism": 5859,
      "isis": 5860,
      "fire": 5861,
      "delimit": 5862,
      "debug": 5863,
      "held": 5864,
      "coded": 5865,
      "usion": 5866,
      "concurrent": 5867,
      "conom": 5868,
      "portation": 5869,
      "abe": 5870,
      "abases": 5871,
      "absences": 5872,
      "upgraded": 5873,
      "peak": 5874,
      "pegging": 5875,
      "viol": 5876,
      "trash": 5877,
      "complet": 5878,
      "Reading": 5879,
      "produces": 5880,
      "negoti": 5881,
      "suite": 5882,
      "visor": 5883,
      "notation": 5884,
      "reques": 5885,
      "prefix": 5886,
      "disposition": 5887,
      "Core": 5888,
      "numbering": 5889,
      "aves": 5890,
      "renders": 5891,
      "archived": 5892,
      "printer": 5893,
      "sidi": 5894,
      "balanced": 5895,
      "expressed": 5896,
      "interacts": 5897,
      "approvers": 5898,
      "commit": 5899,
      "subgrid": 5900,
      "Dataflows": 5901,
      "Ass": 5902,
      "Quar": 5903,
      "operate": 5904,
      "reading": 5905,
      "checked": 5906,
      "Entities": 5907,
      "Workspaces": 5908,
      "whereas": 5909,
      "Customizer": 5910,
      "Modi": 5911,
      "Moving": 5912,
      "connects": 5913,
      "hoto": 5914,
      "discounted": 5915,
      "Prepayments": 5916,
      "logies": 5917,
      "Result": 5918,
      "Transportation": 5919,
      "Dete": 5920,
      "Directly": 5921,
      "locked": 5922,
      "reviewed": 5923,
      "explosion": 5924,
      "distance": 5925,
      "distinct": 5926,
      "distingu": 5927,
      "indicated": 5928,
      "Although": 5929,
      "installing": 5930,
      "Assignment": 5931,
      "Tell": 5932,
      "Started": 5933,
      "Requires": 5934,
      "XMLA": 5935,
      "Subs": 5936,
      "programm": 5937,
      "removes": 5938,
      "Accessorial": 5939,
      "Statistics": 5940,
      "Attributes": 5941,
      "atives": 5942,
      "Admins": 5943,
      "Relate": 5944,
      "Straight": 5945,
      "trying": 5946,
      "Supports": 5947,
      "Putting": 5948,
      "spot": 5949,
      "Improve": 5950,
      "receivables": 5951,
      "HTTP": 5952,
      "denied": 5953,
      "interacting": 5954,
      "Primary": 5955,
      "ctives": 5956,
      "resolution": 5957,
      "Approved": 5958,
      "summarize": 5959,
      "Balancing": 5960,
      "IFT": 5961,
      "North": 5962,
      "Reconciliation": 5963,
      "Counting": 5964,
      "Dashboards": 5965,
      "Component": 5966,
      "directives": 5967,
      "collaborate": 5968,
      "evaluated": 5969,
      "Calendars": 5970,
      "Formulas": 5971,
      "reminders": 5972,
      "Controls": 5973,
      "Parameter": 5974,
      "rectangles": 5975,
      "accurate": 5976,
      "acceptable": 5977,
      "automation": 5978,
      "respondents": 5979,
      "Deployment": 5980,
      "deductions": 5981,
      "highlights": 5982,
      "inquiries": 5983,
      "Root": 5984,
      "ficiency": 5985,
      "lands": 5986,
      "didn": 5987,
      "trusted": 5988,
      "Timeline": 5989,
      "trend": 5990,
      "Execution": 5991,
      "cached": 5992,
      "Reduce": 5993,
      "Denmark": 5994,
      "horizontal": 5995,
      "enforced": 5996,
      "Reservations": 5997,
      "ellips": 5998,
      "untracked": 5999,
      "aspects": 6000,
      "resembles": 6001,
      "ignored": 6002,
      "Resolve": 6003,
      "conflicts": 6004,
      "deeper": 6005,
      "corporate": 6006,
      "peripherals": 6007,
      "alias": 6008,
      "Removing": 6009,
      "Owner": 6010,
      "Shape": 6011,
      "parenthe": 6012,
      "Collaborate": 6013,
      "technician": 6014,
      "Prospect": 6015,
      "Quality": 6016,
      "completely": 6017,
      "--": 6018,
      "48": 6019,
      "52": 6020,
      "53": 6021,
      "57": 6022,
      "AL": 6023,
      "Ability": 6024,
      "B2": 6025,
      "Bul": 6026,
      "EH": 6027,
      "ET": 6028,
      "FO": 6029,
      "Favor": 6030,
      "Have": 6031,
      "Hiring": 6032,
      "Hospital": 6033,
      "Host": 6034,
      "IVisual": 6035,
      "June": 6036,
      "Long": 6037,
      "MD": 6038,
      "MR": 6039,
      "Must": 6040,
      "March": 6041,
      "OR": 6042,
      "Pur": 6043,
      "Predic": 6044,
      "Redi": 6045,
      "SN": 6046,
      "Si": 6047,
      "Slic": 6048,
      "Tre": 6049,
      "UT": 6050,
      "Will": 6051,
      "air": 6052,
      "cow": 6053,
      "econom": 6054,
      "fetch": 6055,
      "flake": 6056,
      "got": 6057,
      "iseconds": 6058,
      "kens": 6059,
      "lap": 6060,
      "med": 6061,
      "mass": 6062,
      "none": 6063,
      "nie": 6064,
      "photo": 6065,
      "rd": 6066,
      "rup": 6067,
      "tapping": 6068,
      "utions": 6069,
      "vo": 6070,
      "ined": 6071,
      "inactive": 6072,
      "reign": 6073,
      "reimburse": 6074,
      "onboard": 6075,
      "alone": 6076,
      "tored": 6077,
      "tokens": 6078,
      "asser": 6079,
      "cook": 6080,
      "coding": 6081,
      "profession": 6082,
      "oses": 6083,
      "begins": 6084,
      "exts": 6085,
      "exam": 6086,
      "lost": 6087,
      "resides": 6088,
      "cret": 6089,
      "trun": 6090,
      "contribute": 6091,
      "pointing": 6092,
      "Token": 6093,
      "lined": 6094,
      "Three": 6095,
      "competencies": 6096,
      "Reassign": 6097,
      "Recru": 6098,
      "ensing": 6099,
      "anywhere": 6100,
      "lies": 6101,
      "Second": 6102,
      "Sets": 6103,
      "distr": 6104,
      "rence": 6105,
      "dom": 6106,
      "authentic": 6107,
      "automate": 6108,
      "audio": 6109,
      "tablets": 6110,
      "expire": 6111,
      "expired": 6112,
      "interfaces": 6113,
      "Accr": 6114,
      "versa": 6115,
      "overrid": 6116,
      "substring": 6117,
      "subsidi": 6118,
      "ously": 6119,
      "variances": 6120,
      "webpages": 6121,
      "refers": 6122,
      "designated": 6123,
      "helper": 6124,
      "driver": 6125,
      "market": 6126,
      "nowflake": 6127,
      "heading": 6128,
      "legend": 6129,
      "legends": 6130,
      "Generated": 6131,
      "searches": 6132,
      "specifying": 6133,
      "movements": 6134,
      "Autom": 6135,
      "login": 6136,
      "Comprehensive": 6137,
      "ATO": 6138,
      "measurement": 6139,
      "Directed": 6140,
      "Disposal": 6141,
      "requisite": 6142,
      "indicating": 6143,
      "Intro": 6144,
      "consideration": 6145,
      "authorization": 6146,
      "sorts": 6147,
      "partially": 6148,
      "explained": 6149,
      "Website": 6150,
      "takt": 6151,
      "locally": 6152,
      "representation": 6153,
      "Steps": 6154,
      "integrate": 6155,
      "integrity": 6156,
      "Subject": 6157,
      "Movement": 6158,
      "Applied": 6159,
      "aggregations": 6160,
      "slips": 6161,
      "consuming": 6162,
      "Accessing": 6163,
      "maintained": 6164,
      "fixes": 6165,
      "understanding": 6166,
      "developing": 6167,
      "Systems": 6168,
      "Picks": 6169,
      "Offline": 6170,
      "ADCS": 6171,
      "schemes": 6172,
      "Arrow": 6173,
      "Arnie": 6174,
      "Feed": 6175,
      "knowledge": 6176,
      "consolidations": 6177,
      "spend": 6178,
      "reflected": 6179,
      "Extend": 6180,
      "Does": 6181,
      "Allocate": 6182,
      "Allocations": 6183,
      "graphical": 6184,
      "Private": 6185,
      "drawer": 6186,
      "Persons": 6187,
      "Area": 6188,
      "delegate": 6189,
      "numerical": 6190,
      "favorites": 6191,
      "Opportunities": 6192,
      "invited": 6193,
      "Attachments": 6194,
      "achieved": 6195,
      "Cards": 6196,
      "ratings": 6197,
      "communication": 6198,
      "scratch": 6199,
      "coupon": 6200,
      "Authoring": 6201,
      "promotion": 6202,
      "geographic": 6203,
      "rewards": 6204,
      "provisioning": 6205,
      "Makers": 6206,
      "dotted": 6207,
      "Issue": 6208,
      "tweets": 6209,
      "analyzing": 6210,
      "symbols": 6211,
      "AutoML": 6212,
      "Terminate": 6213,
      "floor": 6214,
      "contributors": 6215,
      "Increase": 6216,
      "minimize": 6217,
      "milliseconds": 6218,
      "cluster": 6219,
      "Similarly": 6220,
      "waterfall": 6221,
      "alphabe": 6222,
      "cmdlets": 6223,
      "declaration": 6224,
      "repeated": 6225,
      "agreed": 6226,
      "Flushing": 6227,
      "Below": 6228,
      "Facility": 6229,
      "Shortcut": 6230,
      "Valuation": 6231,
      "Language": 6232,
      "RapidStart": 6233,
      "defects": 6234,
      "mechanism": 6235,
      "techniques": 6236,
      "banner": 6237,
      "Inquiries": 6238,
      "beneficiary": 6239,
      "Cancellations": 6240,
      "SWIFT": 6241,
      "safe": 6242,
      "Detect": 6243,
      "EHF": 6244,
      "Redirect": 6245,
      "cowork": 6246,
      "overridden": 6247,
      "alphabetical": 6248,
      "1000": 6249,
      "45": 6250,
      "51": 6251,
      "70": 6252,
      "940": 6253,
      "Bind": 6254,
      "Bill": 6255,
      "Break": 6256,
      "DS": 6257,
      "Dial": 6258,
      "Emp": 6259,
      "Events": 6260,
      "FR": 6261,
      "Flic": 6262,
      "FIFO": 6263,
      "Fetch": 6264,
      "Gant": 6265,
      "Hierarch": 6266,
      "IC": 6267,
      "IAP": 6268,
      "King": 6269,
      "KID": 6270,
      "Large": 6271,
      "Ltd": 6272,
      "Mi": 6273,
      "P2": 6274,
      "Rates": 6275,
      "Sm": 6276,
      "Sn": 6277,
      "Sus": 6278,
      "Scan": 6279,
      "Sam": 6280,
      "SLA": 6281,
      "Tests": 6282,
      "XT": 6283,
      "gger": 6284,
      "government": 6285,
      "hard": 6286,
      "haps": 6287,
      "iPhone": 6288,
      "jus": 6289,
      "ked": 6290,
      "lit": 6291,
      "mic": 6292,
      "nut": 6293,
      "null": 6294,
      "noun": 6295,
      "random": 6296,
      "sponsored": 6297,
      "ued": 6298,
      "wish": 6299,
      "zed": 6300,
      "inet": 6301,
      "independ": 6302,
      "injury": 6303,
      "repo": 6304,
      "reality": 6305,
      "repeat": 6306,
      "retire": 6307,
      "tier": 6308,
      "tial": 6309,
      "edu": 6310,
      "stay": 6311,
      "accepts": 6312,
      "deal": 6313,
      "defer": 6314,
      "deactivated": 6315,
      "mptom": 6316,
      "elcome": 6317,
      "abinet": 6318,
      "expose": 6319,
      "databases": 6320,
      "ulated": 6321,
      "resub": 6322,
      "resched": 6323,
      "unable": 6324,
      "unders": 6325,
      "unrealized": 6326,
      "duty": 6327,
      "shif": 6328,
      "solete": 6329,
      "workaround": 6330,
      "pointer": 6331,
      "serv": 6332,
      "Toler": 6333,
      "ailing": 6334,
      "Through": 6335,
      "compute": 6336,
      "Reb": 6337,
      "Reject": 6338,
      "Recent": 6339,
      "Remember": 6340,
      "suit": 6341,
      "Sept": 6342,
      "customizable": 6343,
      "visit": 6344,
      "Sett": 6345,
      "outcomes": 6346,
      "Expected": 6347,
      "disabling": 6348,
      "addressed": 6349,
      "obsolete": 6350,
      "ficial": 6351,
      "recordings": 6352,
      "differs": 6353,
      "Forward": 6354,
      "Promo": 6355,
      "Dec": 6356,
      "audi": 6357,
      "express": 6358,
      "asking": 6359,
      "According": 6360,
      "Updating": 6361,
      "putting": 6362,
      "approves": 6363,
      "runtime": 6364,
      "subset": 6365,
      "Assume": 6366,
      "optionally": 6367,
      "signs": 6368,
      "multipl": 6369,
      "multidimensional": 6370,
      "depth": 6371,
      "Enables": 6372,
      "Workers": 6373,
      "ogle": 6374,
      "refreshing": 6375,
      "lookups": 6376,
      "allowing": 6377,
      "backup": 6378,
      "Annual": 6379,
      "searchable": 6380,
      "presents": 6381,
      "Previous": 6382,
      "Undo": 6383,
      "Unpaid": 6384,
      "wasn": 6385,
      "Contribut": 6386,
      "idea": 6387,
      "summ": 6388,
      "highly": 6389,
      "2014": 6390,
      "Invoicing": 6391,
      "150": 6392,
      "Comment": 6393,
      "Interactive": 6394,
      "simulation": 6395,
      "secondary": 6396,
      "Shows": 6397,
      "Vision": 6398,
      "Canvas": 6399,
      "Lean": 6400,
      "originally": 6401,
      "originating": 6402,
      "registering": 6403,
      "separated": 6404,
      "localizable": 6405,
      "clip": 6406,
      "metry": 6407,
      "Visualize": 6408,
      "combines": 6409,
      "Copying": 6410,
      "arrive": 6411,
      "arrives": 6412,
      "sheets": 6413,
      "Transferring": 6414,
      "Checks": 6415,
      "facet": 6416,
      "optimal": 6417,
      "oughnut": 6418,
      "caten": 6419,
      "suggesting": 6420,
      "segmented": 6421,
      "Categories": 6422,
      "flag": 6423,
      "compares": 6424,
      "summarization": 6425,
      "waiting": 6426,
      "Crisis": 6427,
      "regularly": 6428,
      "Maps": 6429,
      "sessions": 6430,
      "Building": 6431,
      "Background": 6432,
      "Administrators": 6433,
      "pressing": 6434,
      "stopped": 6435,
      "privilege": 6436,
      "persist": 6437,
      "speed": 6438,
      "supplier": 6439,
      "arguments": 6440,
      "convenient": 6441,
      "Trigger": 6442,
      "detects": 6443,
      "efficiently": 6444,
      "Negative": 6445,
      "modity": 6446,
      "Segment": 6447,
      "Roles": 6448,
      "Receipts": 6449,
      "Addresses": 6450,
      "provisioned": 6451,
      "Estimate": 6452,
      "Germany": 6453,
      "Execute": 6454,
      "straightforward": 6455,
      "tweet": 6456,
      "TooltipService": 6457,
      "recalculation": 6458,
      "significantly": 6459,
      "Subcontracting": 6460,
      "Archive": 6461,
      "Archived": 6462,
      "inherited": 6463,
      "Blanket": 6464,
      "recipients": 6465,
      "Budgets": 6466,
      "Beginning": 6467,
      "speaker": 6468,
      "slice": 6469,
      "licitation": 6470,
      "Frequently": 6471,
      "mistake": 6472,
      "propagation": 6473,
      "expenditure": 6474,
      "Alerts": 6475,
      "Warehouses": 6476,
      "magnitude": 6477,
      "promising": 6478,
      "validated": 6479,
      "constructor": 6480,
      "Supplies": 6481,
      "Agreement": 6482,
      "Names": 6483,
      "effectively": 6484,
      "SVG": 6485,
      "onymous": 6486,
      "distinguish": 6487,
      "Siri": 6488,
      "economic": 6489,
      "onboarding": 6490,
      "coworkers": 6491,
      "Dialog": 6492,
      "Gantt": 6493,
      "Kingdom": 6494,
      "little": 6495,
      "independently": 6496,
      "shifts": 6497,
      "September": 6498,
      "03": 6499,
      "05": 6500,
      "3D": 6501,
      "49": 6502,
      "54": 6503,
      "55": 6504,
      "56": 6505,
      "58": 6506,
      "59": 6507,
      "AAD": 6508,
      "BRL": 6509,
      "Car": 6510,
      "Care": 6511,
      "Closed": 6512,
      "Campaign": 6513,
      "Clean": 6514,
      "Due": 6515,
      "Deri": 6516,
      "East": 6517,
      "Fab": 6518,
      "GIS": 6519,
      "Government": 6520,
      "IM": 6521,
      "IO": 6522,
      "Live": 6523,
      "Lef": 6524,
      "NET": 6525,
      "OD": 6526,
      "Pad": 6527,
      "Rew": 6528,
      "RDL": 6529,
      "Sal": 6530,
      "Sun": 6531,
      "Sty": 6532,
      "Sens": 6533,
      "Satur": 6534,
      "Tube": 6535,
      "UN": 6536,
      "URI": 6537,
      "XBRL": 6538,
      "bs": 6539,
      "btt": 6540,
      "cGIS": 6541,
      "fence": 6542,
      "front": 6543,
      "friendly": 6544,
      "ise": 6545,
      "ifies": 6546,
      "iPad": 6547,
      "ju": 6548,
      "kam": 6549,
      "mas": 6550,
      "omy": 6551,
      "pal": 6552,
      "scop": 6553,
      "tries": 6554,
      "tender": 6555,
      "yond": 6556,
      "zen": 6557,
      "thro": 6558,
      "incorrectly": 6559,
      "reci": 6560,
      "recreate": 6561,
      "resell": 6562,
      "ats": 6563,
      "erk": 6564,
      "eried": 6565,
      "orti": 6566,
      "ene": 6567,
      "ensed": 6568,
      "alloc": 6569,
      "almost": 6570,
      "tood": 6571,
      "togg": 6572,
      "tick": 6573,
      "secret": 6574,
      "story": 6575,
      "accum": 6576,
      "asy": 6577,
      "asers": 6578,
      "proxy": 6579,
      "concer": 6580,
      "geos": 6581,
      "ably": 6582,
      "beyond": 6583,
      "Inbox": 6584,
      "extract": 6585,
      "lob": 6586,
      "loon": 6587,
      "ural": 6588,
      "quate": 6589,
      "queried": 6590,
      "adver": 6591,
      "ril": 6592,
      "rival": 6593,
      "rikam": 6594,
      "withholding": 6595,
      "ette": 6596,
      "plu": 6597,
      "traf": 6598,
      "unmark": 6599,
      "unsupported": 6600,
      "unexpected": 6601,
      "country": 6602,
      "sole": 6603,
      "lications": 6604,
      "valuations": 6605,
      "contribution": 6606,
      "uters": 6607,
      "appended": 6608,
      "YouTube": 6609,
      "agent": 6610,
      "agents": 6611,
      "comprehensive": 6612,
      "ordering": 6613,
      "Recording": 6614,
      "Reclassify": 6615,
      "weights": 6616,
      "recall": 6617,
      "clerk": 6618,
      "pays": 6619,
      "transitions": 6620,
      "postal": 6621,
      "preted": 6622,
      "Exclu": 6623,
      "Experi": 6624,
      "Coverage": 6625,
      "Colored": 6626,
      "Whole": 6627,
      "asses": 6628,
      "manently": 6629,
      "minute": 6630,
      "oblig": 6631,
      "lineage": 6632,
      "Profiles": 6633,
      "Device": 6634,
      "Deactivate": 6635,
      "archite": 6636,
      "expires": 6637,
      "Apple": 6638,
      "April": 6639,
      "requiring": 6640,
      "international": 6641,
      "interpreted": 6642,
      "Accept": 6643,
      "Accru": 6644,
      "capital": 6645,
      "returning": 6646,
      "nothing": 6647,
      "venues": 6648,
      "throughput": 6649,
      "subledger": 6650,
      "subarea": 6651,
      "Que": 6652,
      "Queries": 6653,
      "grain": 6654,
      "Cho": 6655,
      "Trace": 6656,
      "Trici": 6657,
      "checking": 6658,
      "Salesforce": 6659,
      "lang": 6660,
      "precise": 6661,
      "issuing": 6662,
      "efficiency": 6663,
      "searched": 6664,
      "goes": 6665,
      "helping": 6666,
      "Google": 6667,
      "thereby": 6668,
      "releases": 6669,
      "activates": 6670,
      "intelligence": 6671,
      "finds": 6672,
      "2012": 6673,
      "Buy": 6674,
      "Finite": 6675,
      "implications": 6676,
      "referential": 6677,
      "reviews": 6678,
      "categorize": 6679,
      "categorized": 6680,
      "Comments": 6681,
      "giro": 6682,
      "nonspecific": 6683,
      "Running": 6684,
      "Tech": 6685,
      "Visio": 6686,
      "adequate": 6687,
      "Locate": 6688,
      "hourly": 6689,
      "sender": 6690,
      "registry": 6691,
      "reduces": 6692,
      "ouchers": 6693,
      "Offer": 6694,
      "Received": 6695,
      "Monday": 6696,
      "retailer": 6697,
      "stocking": 6698,
      "parental": 6699,
      "matter": 6700,
      "facilities": 6701,
      "merch": 6702,
      "Shipments": 6703,
      "Creditor": 6704,
      "Modifying": 6705,
      "ArcGIS": 6706,
      "Arrival": 6707,
      "Fee": 6708,
      "suggestion": 6709,
      "translate": 6710,
      "Modeling": 6711,
      "presentation": 6712,
      "priorities": 6713,
      "longest": 6714,
      "Codeunit": 6715,
      "Formatting": 6716,
      "debited": 6717,
      "prompts": 6718,
      "Images": 6719,
      "Organize": 6720,
      "Lists": 6721,
      "Ending": 6722,
      "Prior": 6723,
      "Privacy": 6724,
      "restriction": 6725,
      "Messages": 6726,
      "retrieval": 6727,
      "Alternative": 6728,
      "skill": 6729,
      "Considerations": 6730,
      "summarizes": 6731,
      "Balances": 6732,
      "Layouts": 6733,
      "Yearly": 6734,
      "responsibilities": 6735,
      "Guided": 6736,
      "Navigator": 6737,
      "Responsi": 6738,
      "TransactionsGroups": 6739,
      "carried": 6740,
      "failures": 6741,
      "pasting": 6742,
      "Variance": 6743,
      "Variables": 6744,
      "faulty": 6745,
      "BLUE": 6746,
      "Confirmation": 6747,
      "FactBoxes": 6748,
      "Personalize": 6749,
      "Requirements": 6750,
      "carefully": 6751,
      "convention": 6752,
      "Distribution": 6753,
      "Wrap": 6754,
      "deduct": 6755,
      "powerbi": 6756,
      "treated": 6757,
      "styles": 6758,
      "detected": 6759,
      "budgeting": 6760,
      "Restric": 6761,
      "Drag": 6762,
      "normally": 6763,
      "technologies": 6764,
      "discuss": 6765,
      "loaner": 6766,
      "analytical": 6767,
      "Times": 6768,
      "recognize": 6769,
      "recognized": 6770,
      "earnings": 6771,
      "casion": 6772,
      "recipient": 6773,
      "Budgeting": 6774,
      "enhancements": 6775,
      "MT940": 6776,
      "Presents": 6777,
      "animation": 6778,
      "simplified": 6779,
      "Initialize": 6780,
      "radio": 6781,
      "revised": 6782,
      "protected": 6783,
      "Synchronize": 6784,
      "Axis": 6785,
      "Sidebar": 6786,
      "pencil": 6787,
      "probability": 6788,
      "manipulate": 6789,
      "communicate": 6790,
      "Rename": 6791,
      "anticip": 6792,
      "Results": 6793,
      "middle": 6794,
      "ilestone": 6795,
      "WHITE": 6796,
      "Width": 6797,
      "compatible": 6798,
      "Duplicate": 6799,
      "programmatically": 6800,
      "landscape": 6801,
      "ellipsis": 6802,
      "Bulk": 6803,
      "IVisualHost": 6804,
      "Purpose": 6805,
      "rdl": 6806,
      "professional": 6807,
      "trunc": 6808,
      "Shortcuts": 6809,
      "Mixed": 6810,
      "understood": 6811,
      "Settlement": 6812,
      "clipboard": 6813,
      "Derived": 6814,
      "Fabrikam": 6815,
      "Left": 6816,
      "Reward": 6817,
      "Sunday": 6818,
      "Sensitivity": 6819,
      "bttn": 6820,
      "jump": 6821,
      "thrott": 6822,
      "traffic": 6823,
      "Tricia": 6824,
      "02": 6825,
      "2000": 6826,
      "47": 6827,
      "61": 6828,
      "65": 6829,
      "AC": 6830,
      "Alic": 6831,
      "Bi": 6832,
      "Bra": 6833,
      "Course": 6834,
      "D3": 6835,
      "DPR": 6836,
      "Free": 6837,
      "Fren": 6838,
      "Gen": 6839,
      "GDPR": 6840,
      "HQ": 6841,
      "Hire": 6842,
      "IV": 6843,
      "Known": 6844,
      "Lat": 6845,
      "LSE": 6846,
      "Our": 6847,
      "PM": 6848,
      "Pages": 6849,
      "Rating": 6850,
      "Sou": 6851,
      "Say": 6852,
      "Scr": 6853,
      "Scat": 6854,
      "Spain": 6855,
      "Space": 6856,
      "Snowflake": 6857,
      "TD": 6858,
      "Tag": 6859,
      "Tele": 6860,
      "TXT": 6861,
      "VM": 6862,
      "Wave": 6863,
      "Ways": 6864,
      "YTD": 6865,
      "Zoom": 6866,
      "``": 6867,
      "ather": 6868,
      "ault": 6869,
      "ailed": 6870,
      "bing": 6871,
      "bly": 6872,
      "brief": 6873,
      "city": 6874,
      "catch": 6875,
      "clock": 6876,
      "cading": 6877,
      "evaluation": 6878,
      "fing": 6879,
      "gers": 6880,
      "gust": 6881,
      "govern": 6882,
      "hospital": 6883,
      "iFrame": 6884,
      "kes": 6885,
      "ls": 6886,
      "mun": 6887,
      "nical": 6888,
      "pto": 6889,
      "pend": 6890,
      "rame": 6891,
      "sis": 6892,
      "she": 6893,
      "squ": 6894,
      "sizing": 6895,
      "texts": 6896,
      "uck": 6897,
      "vg": 6898,
      "vage": 6899,
      "vouchers": 6900,
      "wind": 6901,
      "xls": 6902,
      "yes": 6903,
      "zing": 6904,
      "incur": 6905,
      "atile": 6906,
      "enced": 6907,
      "engin": 6908,
      "tocol": 6909,
      "lements": 6910,
      "segreg": 6911,
      "edge": 6912,
      "edits": 6913,
      "stances": 6914,
      "ars": 6915,
      "forcing": 6916,
      "api": 6917,
      "decess": 6918,
      "deactivate": 6919,
      "hex": 6920,
      "mpt": 6921,
      "confi": 6922,
      "convers": 6923,
      "concurrently": 6924,
      "consequences": 6925,
      "wild": 6926,
      "widget": 6927,
      "Inclu": 6928,
      "excl": 6929,
      "exposed": 6930,
      "upcoming": 6931,
      "vey": 6932,
      "advance": 6933,
      "foot": 6934,
      "emer": 6935,
      "reside": 6936,
      "moment": 6937,
      "unavailable": 6938,
      "urer": 6939,
      "tele": 6940,
      "selector": 6941,
      "verification": 6942,
      "solicitation": 6943,
      "licensing": 6944,
      "perhaps": 6945,
      "append": 6946,
      "Things": 6947,
      "invites": 6948,
      "fered": 6949,
      "Creates": 6950,
      "Reapply": 6951,
      "Reimburse": 6952,
      "producing": 6953,
      "ensuring": 6954,
      "amless": 6955,
      "weren": 6956,
      "recorder": 6957,
      "listing": 6958,
      "prepaid": 6959,
      "preferences": 6960,
      "predecess": 6961,
      "processor": 6962,
      "Cons": 6963,
      "Adap": 6964,
      "minor": 6965,
      "minors": 6966,
      "obje": 6967,
      "jection": 6968,
      "Prod": 6969,
      "Prompt": 6970,
      "entiment": 6971,
      "balloon": 6972,
      "expiry": 6973,
      "actively": 6974,
      "Updates": 6975,
      "overpayment": 6976,
      "retention": 6977,
      "Poll": 6978,
      "nose": 6979,
      "approxim": 6980,
      "subcategories": 6981,
      "submits": 6982,
      "subtotals": 6983,
      "organized": 6984,
      "variations": 6985,
      "multilevel": 6986,
      "correction": 6987,
      "Static": 6988,
      "Tracing": 6989,
      "periodically": 6990,
      "timer": 6991,
      "timing": 6992,
      "scales": 6993,
      "Enumer": 6994,
      "mandates": 6995,
      "Shop": 6996,
      "OpenSSL": 6997,
      "Generally": 6998,
      "Prepayment": 6999,
      "August": 7000,
      "releasing": 7001,
      "ounds": 7002,
      "Height": 7003,
      "USP2": 7004,
      "Unable": 7005,
      "picker": 7006,
      "Detail": 7007,
      "persons": 7008,
      "forecasted": 7009,
      "limitation": 7010,
      "rolling": 7011,
      "determining": 7012,
      "menus": 7013,
      "Dispose": 7014,
      "sequential": 7015,
      "brings": 7016,
      "reviewing": 7017,
      "navig": 7018,
      "occurring": 7019,
      "Calculations": 7020,
      "Combo": 7021,
      "Commer": 7022,
      "Commodity": 7023,
      "lesson": 7024,
      "installer": 7025,
      "award": 7026,
      "filling": 7027,
      "validations": 7028,
      "Connections": 7029,
      "fewer": 7030,
      "nonconform": 7031,
      "Without": 7032,
      "Cannot": 7033,
      "calling": 7034,
      "Registers": 7035,
      "separator": 7036,
      "deployments": 7037,
      "Requested": 7038,
      "personalized": 7039,
      "replaces": 7040,
      "worksheets": 7041,
      "SSAS": 7042,
      "illustrated": 7043,
      "builder": 7044,
      "Tracker": 7045,
      "Embedding": 7046,
      "applicants": 7047,
      "diagnose": 7048,
      "Multipl": 7049,
      "Administer": 7050,
      "engage": 7051,
      "evenly": 7052,
      "facets": 7053,
      "AND": 7054,
      "mediate": 7055,
      "initiating": 7056,
      "Relations": 7057,
      "earliest": 7058,
      "quisitions": 7059,
      "pinning": 7060,
      "spans": 7061,
      "Typical": 7062,
      "demonstrating": 7063,
      "streaming": 7064,
      "conditionally": 7065,
      "Privile": 7066,
      "equals": 7067,
      "patial": 7068,
      "domains": 7069,
      "breakdown": 7070,
      "Centralized": 7071,
      "Higher": 7072,
      "indexed": 7073,
      "accrued": 7074,
      "waive": 7075,
      "Package": 7076,
      "monitoring": 7077,
      "initialization": 7078,
      "piece": 7079,
      "scanning": 7080,
      "scanned": 7081,
      "Mappings": 7082,
      "shaping": 7083,
      "Responding": 7084,
      "Insurance": 7085,
      "Capacities": 7086,
      "immediate": 7087,
      "Like": 7088,
      "Logical": 7089,
      "failure": 7090,
      "subscribe": 7091,
      "continuous": 7092,
      "bindings": 7093,
      "Classification": 7094,
      "Administration": 7095,
      "Sender": 7096,
      "elimin": 7097,
      "Forecasts": 7098,
      "supplies": 7099,
      "introduce": 7100,
      "community": 7101,
      "Personalizing": 7102,
      "FTP": 7103,
      "surplus": 7104,
      "careful": 7105,
      "Legacy": 7106,
      "Explorer": 7107,
      "ISV": 7108,
      "Deploying": 7109,
      "collected": 7110,
      "precedence": 7111,
      "pictures": 7112,
      "vote": 7113,
      "Need": 7114,
      "prediction": 7115,
      "Reserve": 7116,
      "hyperlinks": 7117,
      "Development": 7118,
      "Phys": 7119,
      "potentially": 7120,
      "tells": 7121,
      "ordinary": 7122,
      "commissions": 7123,
      "Making": 7124,
      "Estimated": 7125,
      "relies": 7126,
      "Receiv": 7127,
      "Certific": 7128,
      "caching": 7129,
      "qualify": 7130,
      "circum": 7131,
      "Specifically": 7132,
      "assumed": 7133,
      "depreciated": 7134,
      "recalculate": 7135,
      "cascading": 7136,
      "horizontally": 7137,
      "inherit": 7138,
      "Reservation": 7139,
      "million": 7140,
      "Separate": 7141,
      "Provider": 7142,
      "replenished": 7143,
      "Original": 7144,
      "enumeration": 7145,
      "investigate": 7146,
      "solver": 7147,
      "recruitment": 7148,
      "risks": 7149,
      "isolation": 7150,
      "acquire": 7151,
      "Subscriptions": 7152,
      "OPER": 7153,
      "explanation": 7154,
      "renaming": 7155,
      "supervisor": 7156,
      "Consolidation": 7157,
      "Giro": 7158,
      "famili": 7159,
      "salary": 7160,
      "deadline": 7161,
      "preserve": 7162,
      "explicitly": 7163,
      "temporary": 7164,
      "coordinator": 7165,
      "Decide": 7166,
      "History": 7167,
      "delimiter": 7168,
      "Northwind": 7169,
      "B2B": 7170,
      "Favorites": 7171,
      "examine": 7172,
      "subsidiary": 7173,
      "Empty": 7174,
      "Hierarchy": 7175,
      "Susan": 7176,
      "mptoms": 7177,
      "Tolerance": 7178,
      "audience": 7179,
      "multiplied": 7180,
      "faceted": 7181,
      "Style": 7182,
      "Saturday": 7183,
      "geospatial": 7184,
      "architecture": 7185,
      "Technical": 7186,
      "Alicia": 7187,
      "Braz": 7188,
      "French": 7189,
      "Scrap": 7190,
      "Scatter": 7191,
      "xlsx": 7192,
      "engines": 7193,
      "segregation": 7194,
      "circumstances": 7195,
      "familiar": 7196,
      "63": 7197,
      "75": 7198,
      "90": 7199,
      "98": 7200,
      "Aged": 7201,
      "Aging": 7202,
      "BS": 7203,
      "Bing": 7204,
      "CL": 7205,
      "Cou": 7206,
      "Cle": 7207,
      "Cue": 7208,
      "Carri": 7209,
      "CFO": 7210,
      "Cabinet": 7211,
      "FF": 7212,
      "Flo": 7213,
      "Further": 7214,
      "GL": 7215,
      "GS": 7216,
      "Half": 7217,
      "Icel": 7218,
      "Jo": 7219,
      "Just": 7220,
      "LV": 7221,
      "Low": 7222,
      "Late": 7223,
      "Length": 7224,
      "LOT": 7225,
      "Mer": 7226,
      "Mex": 7227,
      "M00": 7228,
      "Memb": 7229,
      "M0001": 7230,
      "Member": 7231,
      "NO": 7232,
      "PI": 7233,
      "Rest": 7234,
      "Ratio": 7235,
      "Sco": 7236,
      "Scal": 7237,
      "Stop": 7238,
      "SDK": 7239,
      "Speak": 7240,
      "Til": 7241,
      "Tues": 7242,
      "UR": 7243,
      "Util": 7244,
      "WY": 7245,
      "Warning": 7246,
      "WBS": 7247,
      "YY": 7248,
      "`.": 7249,
      "adata": 7250,
      "black": 7251,
      "came": 7252,
      "centi": 7253,
      "dll": 7254,
      "doughnut": 7255,
      "employ": 7256,
      "electricity": 7257,
      "ffer": 7258,
      "gl": 7259,
      "gri": 7260,
      "gover": 7261,
      "grows": 7262,
      "havi": 7263,
      "human": 7264,
      "ilored": 7265,
      "kit": 7266,
      "lights": 7267,
      "ng": 7268,
      "pm": 7269,
      "spare": 7270,
      "saw": 7271,
      "slight": 7272,
      "ud": 7273,
      "uity": 7274,
      "uff": 7275,
      "v4": 7276,
      "vac": 7277,
      "yalty": 7278,
      "thumb": 7279,
      "instruct": 7280,
      "revision": 7281,
      "refine": 7282,
      "onomy": 7283,
      "anonymous": 7284,
      "enforce": 7285,
      "although": 7286,
      "topo": 7287,
      "took": 7288,
      "tober": 7289,
      "tiate": 7290,
      "leaving": 7291,
      "sees": 7292,
      "seamless": 7293,
      "ising": 7294,
      "rozen": 7295,
      "ico": 7296,
      "icts": 7297,
      "stacked": 7298,
      "ands": 7299,
      "accel": 7300,
      "acquisitions": 7301,
      "apo": 7302,
      "offered": 7303,
      "fier": 7304,
      "fiers": 7305,
      "aser": 7306,
      "assume": 7307,
      "dev": 7308,
      "deals": 7309,
      "defective": 7310,
      "ateObject": 7311,
      "cting": 7312,
      "llis": 7313,
      "lling": 7314,
      "cores": 7315,
      "covery": 7316,
      "colored": 7317,
      "protocol": 7318,
      "els": 7319,
      "gear": 7320,
      "arest": 7321,
      "wider": 7322,
      "behave": 7323,
      "Individu": 7324,
      "excess": 7325,
      "quart": 7326,
      "quire": 7327,
      "pectives": 7328,
      "dian": 7329,
      "division": 7330,
      "directions": 7331,
      "etc": 7332,
      "unposted": 7333,
      "unnecessary": 7334,
      "unchanged": 7335,
      "unpaid": 7336,
      "PowerApp": 7337,
      "verity": 7338,
      "permanently": 7339,
      "appreci": 7340,
      "servers": 7341,
      "occasion": 7342,
      "lining": 7343,
      "agine": 7344,
      "agency": 7345,
      "compose": 7346,
      "comparing": 7347,
      "computed": 7348,
      "computing": 7349,
      "Revers": 7350,
      "Recall": 7351,
      "nearest": 7352,
      "Section": 7353,
      "weak": 7354,
      "kept": 7355,
      "clusion": 7356,
      "modeled": 7357,
      "prerequisite": 7358,
      "Exclude": 7359,
      "disappear": 7360,
      "invoke": 7361,
      "Constrain": 7362,
      "manages": 7363,
      "ashion": 7364,
      "buffer": 7365,
      "Clicking": 7366,
      "Propose": 7367,
      "Progress": 7368,
      "Decre": 7369,
      "Deleted": 7370,
      "iders": 7371,
      "rences": 7372,
      "aud": 7373,
      "parse": 7374,
      "paring": 7375,
      "docs": 7376,
      "playing": 7377,
      "supple": 7378,
      "groupings": 7379,
      "relates": 7380,
      "relating": 7381,
      "clicks": 7382,
      "indent": 7383,
      "interim": 7384,
      "interactivity": 7385,
      "Acquire": 7386,
      "needing": 7387,
      "Descri": 7388,
      "oldest": 7389,
      "retained": 7390,
      "yellow": 7391,
      "synon": 7392,
      "typed": 7393,
      "specification": 7394,
      "supporting": 7395,
      "signal": 7396,
      "Child": 7397,
      "CostCenter": 7398,
      "Stages": 7399,
      "Stream": 7400,
      "True": 7401,
      "104": 7402,
      "Payable": 7403,
      "mitted": 7404,
      "Viewer": 7405,
      "stops": 7406,
      "describing": 7407,
      "hierarchically": 7408,
      "Sharing": 7409,
      "Customizing": 7410,
      "Postal": 7411,
      "naming": 7412,
      "taxonomy": 7413,
      "relational": 7414,
      "Generating": 7415,
      "causing": 7416,
      "Preparing": 7417,
      "Defines": 7418,
      "setups": 7419,
      "logistics": 7420,
      "credited": 7421,
      "Complex": 7422,
      "Restore": 7423,
      "Unless": 7424,
      "transferring": 7425,
      "Contents": 7426,
      "copies": 7427,
      "termination": 7428,
      "adjusts": 7429,
      "adjusting": 7430,
      "Behavi": 7431,
      "personnel": 7432,
      "2020": 7433,
      "Bucket": 7434,
      "POs": 7435,
      "Retrie": 7436,
      "phr": 7437,
      "phase": 7438,
      "tested": 7439,
      "Overwrite": 7440,
      "administrative": 7441,
      "brand": 7442,
      "brack": 7443,
      "POST": 7444,
      "explor": 7445,
      "exploring": 7446,
      "recommendation": 7447,
      "mix": 7448,
      "occurrences": 7449,
      "Commun": 7450,
      "basics": 7451,
      "Interval": 7452,
      "settles": 7453,
      "0002": 7454,
      "Suppose": 7455,
      "colorPal": 7456,
      "authorizes": 7457,
      "cured": 7458,
      "Regression": 7459,
      "confirms": 7460,
      "Finding": 7461,
      "appropriately": 7462,
      "necessarily": 7463,
      "Operating": 7464,
      "Operator": 7465,
      "holders": 7466,
      "Currencies": 7467,
      "Remaining": 7468,
      "Applic": 7469,
      "Outcome": 7470,
      "arrived": 7471,
      "execu": 7472,
      "executing": 7473,
      "aggregates": 7474,
      "Loyalty": 7475,
      "Append": 7476,
      "slide": 7477,
      "Projects": 7478,
      "focused": 7479,
      "Verti": 7480,
      "Displaying": 7481,
      "Published": 7482,
      "submitting": 7483,
      "converts": 7484,
      "merged": 7485,
      "Keys": 7486,
      "bike": 7487,
      "bikes": 7488,
      "umeric": 7489,
      "layers": 7490,
      "uploading": 7491,
      "segmentation": 7492,
      "revert": 7493,
      "streams": 7494,
      "10000": 7495,
      "Registering": 7496,
      "Bookable": 7497,
      "instruction": 7498,
      "weeks": 7499,
      "clearly": 7500,
      "restricted": 7501,
      "fraud": 7502,
      "recurrence": 7503,
      "accrue": 7504,
      "PaaS": 7505,
      "publicly": 7506,
      "initialize": 7507,
      "Guidance": 7508,
      "prepared": 7509,
      "complexity": 7510,
      "Positions": 7511,
      "favorable": 7512,
      "pancy": 7513,
      "Handle": 7514,
      "Migrating": 7515,
      "Various": 7516,
      "continued": 7517,
      "Converts": 7518,
      "Classic": 7519,
      "Classify": 7520,
      "Combines": 7521,
      "Combined": 7522,
      "Attached": 7523,
      "FALSE": 7524,
      "Summar": 7525,
      "Associated": 7526,
      "Sorting": 7527,
      "Requirement": 7528,
      "accurately": 7529,
      "00002": 7530,
      "00004": 7531,
      "gnitive": 7532,
      "Replenish": 7533,
      "Authorize": 7534,
      "Matching": 7535,
      "powerful": 7536,
      "treem": 7537,
      "Binary": 7538,
      "Solver": 7539,
      "predicted": 7540,
      "established": 7541,
      "Metadata": 7542,
      "Indicator": 7543,
      "discrepancy": 7544,
      "ARP": 7545,
      "controlling": 7546,
      "comparisons": 7547,
      "clarify": 7548,
      "Departments": 7549,
      "SILV": 7550,
      "obtained": 7551,
      "snippets": 7552,
      "quarantine": 7553,
      "reclassify": 7554,
      "Analyzing": 7555,
      "Questionnaires": 7556,
      "LECT": 7557,
      "closes": 7558,
      "ENT": 7559,
      "ENXML": 7560,
      "hovering": 7561,
      "Collected": 7562,
      "Scenarios": 7563,
      "Denied": 7564,
      "redemption": 7565,
      "lligent": 7566,
      "Incremental": 7567,
      "Answers": 7568,
      "arranged": 7569,
      "Flexible": 7570,
      "Provides": 7571,
      "Geolocation": 7572,
      "Memos": 7573,
      "Wait": 7574,
      "Waive": 7575,
      "solve": 7576,
      "assisted": 7577,
      "growth": 7578,
      "masks": 7579,
      "excluded": 7580,
      "excluding": 7581,
      "Subscribe": 7582,
      "prioritize": 7583,
      "OPENXML": 7584,
      "succeeded": 7585,
      "renamed": 7586,
      "Consolidations": 7587,
      "bridging": 7588,
      "Profitability": 7589,
      "possibilities": 7590,
      "proportional": 7591,
      "Encrypted": 7592,
      "Suggested": 7593,
      "granularity": 7594,
      "October": 7595,
      "Simple": 7596,
      "mitigate": 7597,
      "firewall": 7598,
      "negotiated": 7599,
      "requester": 7600,
      "Substit": 7601,
      "parenthesis": 7602,
      "MRP": 7603,
      "Prediction": 7604,
      "Slicers": 7605,
      "Treat": 7606,
      "repeatedly": 7607,
      "justification": 7608,
      "retirement": 7609,
      "resubmit": 7610,
      "adverti": 7611,
      "Excluded": 7612,
      "assessed": 7613,
      "obligation": 7614,
      "Accrued": 7615,
      "Wrapper": 7616,
      "anticipated": 7617,
      "South": 7618,
      "square": 7619,
      "conversation": 7620,
      "Including": 7621,
      "emergency": 7622,
      "predecessor": 7623,
      "Adaptive": 7624,
      "eliminate": 7625,
      "Physical": 7626,
      "Carrier": 7627,
      "Iceland": 7628,
      "LOT1": 7629,
      "Members": 7630,
      "Tiles": 7631,
      "Tuesday": 7632,
      "grill": 7633,
      "slightly": 7634,
      "acceler": 7635,
      "ateObjectInstances": 7636,
      "quarters": 7637,
      "Behavior": 7638,
      "colorPalette": 7639,
      "SILVER": 7640,
      "300": 7641,
      "400": 7642,
      "62": 7643,
      "67": 7644,
      "88": 7645,
      "Amand": 7646,
      "BPM": 7647,
      "Cat": 7648,
      "Cand": 7649,
      "Cach": 7650,
      "Ceri": 7651,
      "Evalu": 7652,
      "Either": 7653,
      "EAR": 7654,
      "F5": 7655,
      "FM": 7656,
      "Freight": 7657,
      "Front": 7658,
      "Friendly": 7659,
      "GT": 7660,
      "Gross": 7661,
      "Hou": 7662,
      "Has": 7663,
      "Hold": 7664,
      "Having": 7665,
      "IIS": 7666,
      "ION": 7667,
      "Kind": 7668,
      "LS": 7669,
      "LAT": 7670,
      "MM": 7671,
      "Mis": 7672,
      "Mid": 7673,
      "Medi": 7674,
      "MIM": 7675,
      "Never": 7676,
      "OPOS": 7677,
      "OFQ": 7678,
      "OLE": 7679,
      "OIO": 7680,
      "PG": 7681,
      "PS": 7682,
      "Ple": 7683,
      "Pop": 7684,
      "Patch": 7685,
      "Pie": 7686,
      "Phy": 7687,
      "PIN": 7688,
      "RSS": 7689,
      "RFM": 7690,
      "SA": 7691,
      "SH": 7692,
      "SL": 7693,
      "Sta": 7694,
      "Sandbox": 7695,
      "Score": 7696,
      "Saving": 7697,
      "Svg": 7698,
      "Teach": 7699,
      "Targets": 7700,
      "UOM": 7701,
      "UBL": 7702,
      "Vend": 7703,
      "VID": 7704,
      "West": 7705,
      "Water": 7706,
      "WMS": 7707,
      "Xero": 7708,
      "Yod": 7709,
      "YEAR": 7710,
      "Zip": 7711,
      "aim": 7712,
      "bough": 7713,
      "cues": 7714,
      "dash": 7715,
      "ech": 7716,
      "faction": 7717,
      "fashion": 7718,
      "hit": 7719,
      "hides": 7720,
      "htt": 7721,
      "ian": 7722,
      "ius": 7723,
      "iving": 7724,
      "lapping": 7725,
      "labor": 7726,
      "lene": 7727,
      "mach": 7728,
      "nes": 7729,
      "png": 7730,
      "tw": 7731,
      "tor": 7732,
      "tlene": 7733,
      "x64": 7734,
      "yy": 7735,
      "thick": 7736,
      "reused": 7737,
      "repos": 7738,
      "reapply": 7739,
      "reallocation": 7740,
      "redirected": 7741,
      "rearrange": 7742,
      "revenues": 7743,
      "onts": 7744,
      "ongoing": 7745,
      "announ": 7746,
      "enclosed": 7747,
      "encoded": 7748,
      "lee": 7749,
      "semic": 7750,
      "ston": 7751,
      "stries": 7752,
      "ardi": 7753,
      "fili": 7754,
      "dees": 7755,
      "decor": 7756,
      "deletion": 7757,
      "atever": 7758,
      "125": 7759,
      "chall": 7760,
      "chose": 7761,
      "usual": 7762,
      "concaten": 7763,
      "cancell": 7764,
      "Incident": 7765,
      "lographic": 7766,
      "datapo": 7767,
      "vember": 7768,
      "ulates": 7769,
      "ulating": 7770,
      "resume": 7771,
      "restored": 7772,
      "diem": 7773,
      "placing": 7774,
      "umes": 7775,
      "ops": 7776,
      "trick": 7777,
      "traction": 7778,
      "trading": 7779,
      "unlimited": 7780,
      "whatever": 7781,
      "verifies": 7782,
      "endpoints": 7783,
      "pertain": 7784,
      "permitted": 7785,
      "serves": 7786,
      "routed": 7787,
      "Together": 7788,
      "lind": 7789,
      "finite": 7790,
      "finding": 7791,
      "Those": 7792,
      "boolean": 7793,
      "answe": 7794,
      "ardo": 7795,
      "Rec": 7796,
      "React": 7797,
      "Replan": 7798,
      "Retire": 7799,
      "figure": 7800,
      "customizer": 7801,
      "outbox": 7802,
      "Extra": 7803,
      "Exception": 7804,
      "dispose": 7805,
      "discovery": 7806,
      "Cognitive": 7807,
      "iframe": 7808,
      "invoked": 7809,
      "Consum": 7810,
      "Concer": 7811,
      "Consignment": 7812,
      "avy": 7813,
      "timeout": 7814,
      "buck": 7815,
      "ultant": 7816,
      "Proxy": 7817,
      "Dev": 7818,
      "strong": 7819,
      "tailored": 7820,
      "playback": 7821,
      "asks": 7822,
      "generative": 7823,
      "intention": 7824,
      "interpret": 7825,
      "Descript": 7826,
      "olon": 7827,
      "overflow": 7828,
      "Series": 7829,
      "noti": 7830,
      "veness": 7831,
      "syn": 7832,
      "Opt": 7833,
      "subcomponent": 7834,
      "Asset": 7835,
      "Assort": 7836,
      "grading": 7837,
      "dropped": 7838,
      "please": 7839,
      "imports": 7840,
      "atten": 7841,
      "guided": 7842,
      "varies": 7843,
      "Stacked": 7844,
      "lump": 7845,
      "checkmark": 7846,
      "Ordered": 7847,
      "Vide": 7848,
      "designs": 7849,
      "designate": 7850,
      "administer": 7851,
      "drivers": 7852,
      "mandated": 7853,
      "solute": 7854,
      "ributions": 7855,
      "Postdated": 7856,
      "headings": 7857,
      "Opening": 7858,
      "holi": 7859,
      "hood": 7860,
      "holographic": 7861,
      "pressed": 7862,
      "standing": 7863,
      "packed": 7864,
      "Goods": 7865,
      "Prerequisites": 7866,
      "Auth": 7867,
      "relevance": 7868,
      "Nomenclature": 7869,
      "November": 7870,
      "USSI": 7871,
      "Unlike": 7872,
      "handful": 7873,
      "tooling": 7874,
      "ideas": 7875,
      "terminal": 7876,
      "terminology": 7877,
      "Transfers": 7878,
      "offsets": 7879,
      "insured": 7880,
      "Direction": 7881,
      "pause": 7882,
      "assemblies": 7883,
      "affili": 7884,
      "criter": 7885,
      "tenants": 7886,
      "Final": 7887,
      "Valery": 7888,
      "impair": 7889,
      "corrected": 7890,
      "placement": 7891,
      "placeholders": 7892,
      "Invoke": 7893,
      "brary": 7894,
      "reviewer": 7895,
      "Forms": 7896,
      "overviews": 7897,
      "Interpret": 7898,
      "boundary": 7899,
      "standards": 7900,
      "quickstart": 7901,
      "Intune": 7902,
      "0004": 7903,
      "simulate": 7904,
      "Withdrawal": 7905,
      "consolidating": 7906,
      "considers": 7907,
      "separation": 7908,
      "localized": 7909,
      "akes": 7910,
      "deploying": 7911,
      "Filtering": 7912,
      "increasing": 7913,
      "continues": 7914,
      "Sync": 7915,
      "Visualization": 7916,
      "Following": 7917,
      "TypeDescript": 7918,
      "Clust": 7919,
      "differentiate": 7920,
      "removal": 7921,
      "remote": 7922,
      "turnover": 7923,
      "Quickbooks": 7924,
      "Accessibility": 7925,
      "diagon": 7926,
      "retailers": 7927,
      "stockkeeping": 7928,
      "maintaining": 7929,
      "initiated": 7930,
      "alternatives": 7931,
      "Assembled": 7932,
      "Assembling": 7933,
      "entirely": 7934,
      "Margin": 7935,
      "credential": 7936,
      "chool": 7937,
      "chooses": 7938,
      "schemas": 7939,
      "popular": 7940,
      "routings": 7941,
      "longitude": 7942,
      "migrated": 7943,
      "sells": 7944,
      "Signals": 7945,
      "Signature": 7946,
      "spending": 7947,
      "Improved": 7948,
      "Extended": 7949,
      "downloading": 7950,
      "downloadable": 7951,
      "Totals": 7952,
      "impacted": 7953,
      "catalogs": 7954,
      "graphics": 7955,
      "improvement": 7956,
      "Anyone": 7957,
      "clouds": 7958,
      "drawn": 7959,
      "latitude": 7960,
      "RED": 7961,
      "RECE": 7962,
      "Packages": 7963,
      "Packaging": 7964,
      "scanners": 7965,
      "preparer": 7966,
      "STS": 7967,
      "utility": 7968,
      "auditing": 7969,
      "Library": 7970,
      "failing": 7971,
      "scaling": 7972,
      "docked": 7973,
      "asterisk": 7974,
      "Built": 7975,
      "evaluating": 7976,
      "Rede": 7977,
      "invitations": 7978,
      "principals": 7979,
      "speech": 7980,
      "scrolling": 7981,
      "Loaded": 7982,
      "introduces": 7983,
      "Personalization": 7984,
      "FTE": 7985,
      "largest": 7986,
      "CON": 7987,
      "COVID": 7988,
      "career": 7989,
      "campaigns": 7990,
      "volatile": 7991,
      "Ready": 7992,
      "Developer": 7993,
      "duplication": 7994,
      "Integrate": 7995,
      "CDS": 7996,
      "securely": 7997,
      "deduction": 7998,
      "Simulate": 7999,
      "treat": 8000,
      "trees": 8001,
      "industries": 8002,
      "Negoti": 8003,
      "predictions": 8004,
      "promote": 8005,
      "promoted": 8006,
      "ifications": 8007,
      "Relationships": 8008,
      "landing": 8009,
      "worth": 8010,
      "influence": 8011,
      "influences": 8012,
      "Agent": 8013,
      "bids": 8014,
      "reversing": 8015,
      "carrying": 8016,
      "bubbles": 8017,
      "Reasons": 8018,
      "diagnostics": 8019,
      "dispatcher": 8020,
      "Issuing": 8021,
      "analyzes": 8022,
      "analyzed": 8023,
      "depreciate": 8024,
      "closer": 8025,
      "annotation": 8026,
      "annotations": 8027,
      "crypto": 8028,
      "clustered": 8029,
      "join": 8030,
      "joins": 8031,
      "enumerateObjectInstances": 8032,
      "simplify": 8033,
      "Dropbox": 8034,
      "Rendering": 8035,
      "cmdlet": 8036,
      "declarations": 8037,
      "Synchronization": 8038,
      "Frequency": 8039,
      "LAST": 8040,
      "RIES": 8041,
      "Skills": 8042,
      "propagate": 8043,
      "digits": 8044,
      "expenditures": 8045,
      "cleanup": 8046,
      "Commissions": 8047,
      "Alert": 8048,
      "Resulting": 8049,
      "Framework": 8050,
      "Given": 8051,
      "PivotTable": 8052,
      "temporarily": 8053,
      "Virtualization": 8054,
      "eniority": 8055,
      "preparing": 8056,
      "Encryption": 8057,
      "Suggest": 8058,
      "Aggregate": 8059,
      "BACS": 8060,
      "violations": 8061,
      "committed": 8062,
      "Assist": 8063,
      "Quarter": 8064,
      "Quarantine": 8065,
      "gotten": 8066,
      "voke": 8067,
      "assertion": 8068,
      "cookies": 8069,
      "Recruitment": 8070,
      "districts": 8071,
      "Accrual": 8072,
      "Automated": 8073,
      "Feeds": 8074,
      "alphabetically": 8075,
      "Snap": 8076,
      "servicing": 8077,
      "Decision": 8078,
      "Accordingly": 8079,
      "TooltipServiceWrapper": 8080,
      "AADSTS": 8081,
      "scoped": 8082,
      "resellers": 8083,
      "ortize": 8084,
      "accumulated": 8085,
      "Prioriti": 8086,
      "Responsibilities": 8087,
      "deducted": 8088,
      "throttling": 8089,
      "IVE": 8090,
      "finger": 8091,
      "wildcard": 8092,
      "approximately": 8093,
      "nonconformances": 8094,
      "Multiplicity": 8095,
      "Privilege": 8096,
      "Couple": 8097,
      "Clearing": 8098,
      "Mexico": 8099,
      "Restart": 8100,
      "Scope": 8101,
      "vacation": 8102,
      "Individual": 8103,
      "Reversing": 8104,
      "brackets": 8105,
      "exploration": 8106,
      "treemap": 8107,
      "Treatment": 8108,
      "advertise": 8109,
      "accelerated": 8110,
      "Amanda": 8111,
      "Catalog": 8112,
      "Ceridian": 8113,
      "GTIN": 8114,
      "Houston": 8115,
      "MIME": 8116,
      "OFQTR": 8117,
      "OIOUBL": 8118,
      "Please": 8119,
      "Phyllis": 8120,
      "Staff": 8121,
      "Yodlee": 8122,
      "bought": 8123,
      "tleneck": 8124,
      "semicolon": 8125,
      "challen": 8126,
      "tricks": 8127,
      "answered": 8128,
      "Concerning": 8129,
      "buckets": 8130,
      "criterion": 8131,
      "impairment": 8132,
      "TypeDescriptor": 8133,
      "RECEIVE": 8134,
      "010": 8135,
      "1st": 8136,
      "72": 8137,
      "78": 8138,
      "81": 8139,
      "BY": 8140,
      "Bus": 8141,
      "Bases": 8142,
      "Brief": 8143,
      "Cos": 8144,
      "City": 8145,
      "Clock": 8146,
      "Cache": 8147,
      "Camera": 8148,
      "Dedu": 8149,
      "Earning": 8150,
      "Elig": 8151,
      "Elements": 8152,
      "FS": 8153,
      "Fit": 8154,
      "Fam": 8155,
      "Face": 8156,
      "Found": 8157,
      "Font": 8158,
      "False": 8159,
      "GP": 8160,
      "Gre": 8161,
      "Grid": 8162,
      "Hoc": 8163,
      "HAR": 8164,
      "Icon": 8165,
      "M9": 8166,
      "Mat": 8167,
      "Mand": 8168,
      "Milestone": 8169,
      "MENT": 8170,
      "Nested": 8171,
      "Ok": 8172,
      "OAuth": 8173,
      "PE": 8174,
      "Pan": 8175,
      "Prom": 8176,
      "Prec": 8177,
      "Pending": 8178,
      "Rad": 8179,
      "Rank": 8180,
      "Rules": 8181,
      "Random": 8182,
      "Saf": 8183,
      "Situ": 8184,
      "Such": 8185,
      "Sold": 8186,
      "Spend": 8187,
      "SFTP": 8188,
      "Tree": 8189,
      "Tren": 8190,
      "T00": 8191,
      "Vol": 8192,
      "VAL": 8193,
      "Vault": 8194,
      "Welcome": 8195,
      "ZIP": 8196,
      "azure": 8197,
      "aise": 8198,
      "b5": 8199,
      "bor": 8200,
      "bad": 8201,
      "borders": 8202,
      "cau": 8203,
      "dum": 8204,
      "elect": 8205,
      "fits": 8206,
      "frozen": 8207,
      "fonts": 8208,
      "gx64": 8209,
      "hone": 8210,
      "hires": 8211,
      "ix": 8212,
      "iest": 8213,
      "kr": 8214,
      "lers": 8215,
      "liter": 8216,
      "lbs": 8217,
      "mor": 8218,
      "mos": 8219,
      "mely": 8220,
      "ns": 8221,
      "oth": 8222,
      "oms": 8223,
      "px": 8224,
      "pad": 8225,
      "pended": 8226,
      "pivot": 8227,
      "ris": 8228,
      "rack": 8229,
      "rapid": 8230,
      "sap": 8231,
      "sus": 8232,
      "smo": 8233,
      "sory": 8234,
      "shel": 8235,
      "sentiment": 8236,
      "school": 8237,
      "vin": 8238,
      "vest": 8239,
      "warran": 8240,
      "welcome": 8241,
      "yms": 8242,
      "thous": 8243,
      "threads": 8244,
      "inch": 8245,
      "informat": 8246,
      "infix": 8247,
      "incid": 8248,
      "incorporate": 8249,
      "incenti": 8250,
      "rew": 8251,
      "reti": 8252,
      "redi": 8253,
      "reet": 8254,
      "renew": 8255,
      "recreated": 8256,
      "really": 8257,
      "reaction": 8258,
      "research": 8259,
      "rebuild": 8260,
      "reimbur": 8261,
      "refund": 8262,
      "rearran": 8263,
      "remely": 8264,
      "oned": 8265,
      "orized": 8266,
      "esides": 8267,
      "aling": 8268,
      "tiers": 8269,
      "leaf": 8270,
      "severity": 8271,
      "ingredi": 8272,
      "rome": 8273,
      "road": 8274,
      "stations": 8275,
      "storing": 8276,
      "accord": 8277,
      "forgotten": 8278,
      "official": 8279,
      "llup": 8280,
      "coach": 8281,
      "prog": 8282,
      "protest": 8283,
      "promi": 8284,
      "usability": 8285,
      "conversions": 8286,
      "console": 8287,
      "meant": 8288,
      "absolute": 8289,
      "Them": 8290,
      "Indu": 8291,
      "exe": 8292,
      "exit": 8293,
      "exper": 8294,
      "quidate": 8295,
      "ups": 8296,
      "titative": 8297,
      "advi": 8298,
      "adop": 8299,
      "additions": 8300,
      "ulatory": 8301,
      "pectively": 8302,
      "resid": 8303,
      "respectively": 8304,
      "dataPoints": 8305,
      "ilit": 8306,
      "ilies": 8307,
      "essential": 8308,
      "oppos": 8309,
      "cimal": 8310,
      "train": 8311,
      "trailing": 8312,
      "und": 8313,
      "unapproved": 8314,
      "undle": 8315,
      "dual": 8316,
      "ducting": 8317,
      "teach": 8318,
      "verified": 8319,
      "contributes": 8320,
      "poor": 8321,
      "izers": 8322,
      "comply": 8323,
      "compress": 8324,
      "complement": 8325,
      "compressed": 8326,
      "bold": 8327,
      "invent": 8328,
      "invest": 8329,
      "feel": 8330,
      "fecycle": 8331,
      "Real": 8332,
      "Reuse": 8333,
      "Reopen": 8334,
      "Recommend": 8335,
      "anymore": 8336,
      "ampener": 8337,
      "viewport": 8338,
      "usted": 8339,
      "lix": 8340,
      "liability": 8341,
      "liquid": 8342,
      "ambig": 8343,
      "Secure": 8344,
      "Sector": 8345,
      "rective": 8346,
      "customizers": 8347,
      "umbr": 8348,
      "cloned": 8349,
      "outlines": 8350,
      "outlined": 8351,
      "outstanding": 8352,
      "redraw": 8353,
      "actly": 8354,
      "payables": 8355,
      "transformation": 8356,
      "preset": 8357,
      "Expl": 8358,
      "Exactly": 8359,
      "visualTransform": 8360,
      "disbur": 8361,
      "disposed": 8362,
      "disrup": 8363,
      "Concurrent": 8364,
      "aved": 8365,
      "mini": 8366,
      "minus": 8367,
      "extremely": 8368,
      "ledgers": 8369,
      "ipment": 8370,
      "culture": 8371,
      "linear": 8372,
      "Defer": 8373,
      "Deleg": 8374,
      "rowing": 8375,
      "prints": 8376,
      "sive": 8377,
      "simpl": 8378,
      "expensed": 8379,
      "plays": 8380,
      "player": 8381,
      "intensive": 8382,
      "seeing": 8383,
      "productions": 8384,
      "quantified": 8385,
      "quantitative": 8386,
      "overloaded": 8387,
      "overlap": 8388,
      "overlapping": 8389,
      "tablix": 8390,
      "retrieves": 8391,
      "vention": 8392,
      "codeunit": 8393,
      "approving": 8394,
      "ferred": 8395,
      "symptoms": 8396,
      "rophone": 8397,
      "subreports": 8398,
      "subtract": 8399,
      "Dataflow": 8400,
      "DataPoint": 8401,
      "miss": 8402,
      "importance": 8403,
      "linking": 8404,
      "reshuff": 8405,
      "websites": 8406,
      "Charge": 8407,
      "Chrome": 8408,
      "correlation": 8409,
      "corrections": 8410,
      "corrective": 8411,
      "Std": 8412,
      "Star": 8413,
      "Stay": 8414,
      "Stri": 8415,
      "Stage": 8416,
      "Training": 8417,
      "Investi": 8418,
      "readable": 8419,
      "themsel": 8420,
      "10th": 8421,
      "banks": 8422,
      "Views": 8423,
      "Enh": 8424,
      "Envest": 8425,
      "Workbooks": 8426,
      "allowances": 8427,
      "taxable": 8428,
      "Generic": 8429,
      "backend": 8430,
      "backflush": 8431,
      "Anna": 8432,
      "presence": 8433,
      "standalone": 8434,
      "standardi": 8435,
      "packaging": 8436,
      "errone": 8437,
      "Predefined": 8438,
      "Prevent": 8439,
      "ersonate": 8440,
      "logos": 8441,
      "Computers": 8442,
      "shares": 8443,
      "demands": 8444,
      "handlers": 8445,
      "Controlling": 8446,
      "letting": 8447,
      "earn": 8448,
      "earned": 8449,
      "keyword": 8450,
      "terminals": 8451,
      "ATP": 8452,
      "offsetting": 8453,
      "inspect": 8454,
      "underpayment": 8455,
      "law": 8456,
      "paq": 8457,
      "measured": 8458,
      "gged": 8459,
      "classifications": 8460,
      "querying": 8461,
      "Imported": 8462,
      "Importance": 8463,
      "Vali": 8464,
      "implicit": 8465,
      "ERR": 8466,
      "Invoiced": 8467,
      "easiest": 8468,
      "referencing": 8469,
      "divide": 8470,
      "Disposition": 8471,
      "Overhead": 8472,
      "Overdue": 8473,
      "cashier": 8474,
      "Analy": 8475,
      "solid": 8476,
      "Usually": 8477,
      "Prin": 8478,
      "Printing": 8479,
      "indicators": 8480,
      "FromExternal": 8481,
      "giving": 8482,
      "Foreign": 8483,
      "installs": 8484,
      "reasonable": 8485,
      "0006": 8486,
      "00014": 8487,
      "structured": 8488,
      "authorize": 8489,
      "drilling": 8490,
      "drilldown": 8491,
      "Withholding": 8492,
      "adecimal": 8493,
      "Lock": 8494,
      "dential": 8495,
      "finishes": 8496,
      "printers": 8497,
      "modifying": 8498,
      "confirmations": 8499,
      "billable": 8500,
      "localization": 8501,
      "cellent": 8502,
      "representatives": 8503,
      "leftmost": 8504,
      "175": 8505,
      "LedgerJournal": 8506,
      "itories": 8507,
      "Applies": 8508,
      "builds": 8509,
      "Often": 8510,
      "Allowing": 8511,
      "consistency": 8512,
      "shortage": 8513,
      "uniqu": 8514,
      "unified": 8515,
      "Financials": 8516,
      "FinancialReports": 8517,
      "Maintenance": 8518,
      "passes": 8519,
      "Displayed": 8520,
      "Budgeted": 8521,
      "optimizing": 8522,
      "fourth": 8523,
      "contextual": 8524,
      "initially": 8525,
      "realistic": 8526,
      "learned": 8527,
      "ggestions": 8528,
      "Amortize": 8529,
      "decides": 8530,
      "SELECT": 8531,
      "ciling": 8532,
      "practical": 8533,
      "emptied": 8534,
      "mailing": 8535,
      "Marking": 8536,
      "Market": 8537,
      "estimation": 8538,
      "guaranteed": 8539,
      "identifying": 8540,
      "seller": 8541,
      "modification": 8542,
      "feeds": 8543,
      "Capabilities": 8544,
      "frequent": 8545,
      "Domain": 8546,
      "streamline": 8547,
      "synchronous": 8548,
      "bottleneck": 8549,
      "1001": 8550,
      "Intelligent": 8551,
      "Booking": 8552,
      "ctible": 8553,
      "uppercase": 8554,
      "CompanyInfo": 8555,
      "restricts": 8556,
      "250": 8557,
      "Highlights": 8558,
      "fraction": 8559,
      "latency": 8560,
      "waits": 8561,
      "waived": 8562,
      "encumbr": 8563,
      "Guide": 8564,
      "Extensions": 8565,
      "clause": 8566,
      "Installing": 8567,
      "indexes": 8568,
      "foundation": 8569,
      "Firm": 8570,
      "Levels": 8571,
      "Liquidate": 8572,
      "Lifecycle": 8573,
      "decreased": 8574,
      "paths": 8575,
      "subscribing": 8576,
      "FastTabs": 8577,
      "Errors": 8578,
      "Backward": 8579,
      "Converting": 8580,
      "Suggestions": 8581,
      "eliminations": 8582,
      "Statements": 8583,
      "Purchasers": 8584,
      "plotting": 8585,
      "Confirmed": 8586,
      "introduction": 8587,
      "elihood": 8588,
      "CORS": 8589,
      "Differences": 8590,
      "IdP": 8591,
      "volunt": 8592,
      "proceeds": 8593,
      "Validations": 8594,
      "Graph": 8595,
      "duplicating": 8596,
      "secured": 8597,
      "Selling": 8598,
      "Social": 8599,
      "iterate": 8600,
      "deductible": 8601,
      "Authority": 8602,
      "Browser": 8603,
      "Deliver": 8604,
      "Characters": 8605,
      "1099entries": 8606,
      "Engage": 8607,
      "Solutions": 8608,
      "predictive": 8609,
      "establishes": 8610,
      "Barcode": 8611,
      "Rollup": 8612,
      "Cycles": 8613,
      "geolocation": 8614,
      "Agents": 8615,
      "discrete": 8616,
      "Headers": 8617,
      "Buttons": 8618,
      "falls": 8619,
      "Revert": 8620,
      "likelihood": 8621,
      "Continuity": 8622,
      "recognition": 8623,
      "Better": 8624,
      "Certify": 8625,
      "Issues": 8626,
      "CEO": 8627,
      "broad": 8628,
      "prospect": 8629,
      "BLANKs": 8630,
      "Nonstock": 8631,
      "Seleni": 8632,
      "biggest": 8633,
      "dataViewMappings": 8634,
      "Reduced": 8635,
      "Termination": 8636,
      "delays": 8637,
      "delayed": 8638,
      "platforms": 8639,
      "encountered": 8640,
      "minimal": 8641,
      "staffer": 8642,
      "Struct": 8643,
      "CAMT": 8644,
      "Eduardo": 8645,
      "resemble": 8646,
      "animated": 8647,
      "alignment": 8648,
      "ignore": 8649,
      "Resolution": 8650,
      "Memo": 8651,
      "Memory": 8652,
      "radius": 8653,
      "recruiting": 8654,
      "Featured": 8655,
      "Fulfillment": 8656,
      "peripheral": 8657,
      "towards": 8658,
      "agrees": 8659,
      "timesheets": 8660,
      "communications": 8661,
      "Warehousing": 8662,
      "paint": 8663,
      "informed": 8664,
      "promissory": 8665,
      "Translator": 8666,
      "LinkedIn": 8667,
      "Stockkeeping": 8668,
      "FICE": 8669,
      "TRUE": 8670,
      "salvage": 8671,
      "deadlines": 8672,
      "ilestones": 8673,
      "Scheme": 8674,
      "Schema": 8675,
      "preparation": 8676,
      "Aggregation": 8677,
      "accomplished": 8678,
      "OFFICE": 8679,
      "mitigation": 8680,
      "requesting": 8681,
      "Assess": 8682,
      "Modified": 8683,
      "Subscription": 8684,
      "spotlight": 8685,
      "parentheses": 8686,
      "MDM": 8687,
      "laptop": 8688,
      "voice": 8689,
      "reimbursement": 8690,
      "assertions": 8691,
      "cookie": 8692,
      "district": 8693,
      "authenticate": 8694,
      "authenticated": 8695,
      "Accrue": 8696,
      "Binding": 8697,
      "Billable": 8698,
      "DSR": 8699,
      "Small": 8700,
      "reschedule": 8701,
      "Rebate": 8702,
      "Rebates": 8703,
      "Contributor": 8704,
      "Contributors": 8705,
      "summing": 8706,
      "allocating": 8707,
      "toggles": 8708,
      "asynchron": 8709,
      "concern": 8710,
      "Experiment": 8711,
      "Queue": 8712,
      "precisely": 8713,
      "merchand": 8714,
      "truncated": 8715,
      "Spacebar": 8716,
      "hexadecimal": 8717,
      "confidential": 8718,
      "telemetry": 8719,
      "navigating": 8720,
      "ISVs": 8721,
      "Certificate": 8722,
      "inheritance": 8723,
      "Brazil": 8724,
      "Merge": 8725,
      "Scale": 8726,
      "Speaker": 8727,
      "glance": 8728,
      "topology": 8729,
      "appreciation": 8730,
      "occasionally": 8731,
      "Constraint": 8732,
      "Decrease": 8733,
      "synonyms": 8734,
      "Retrieve": 8735,
      "Vertipaq": 8736,
      "SvgText": 8737,
      "VendPay": 8738,
      "aimed": 8739,
      "machines": 8740,
      "twice": 8741,
      "datapoints": 8742,
      "synced": 8743,
      "Redeem": 8744,
      "Negotiate": 8745,
      "Assisted": 8746,
      "BYOK": 8747,
      "Cosmos": 8748,
      "Deduction": 8749,
      "Eligibility": 8750,
      "Facebook": 8751,
      "Matrix": 8752,
      "VALUE": 8753,
      "dummy": 8754,
      "gx64kr": 8755,
      "sapcrypto": 8756,
      "smooth": 8757,
      "shelf": 8758,
      "inches": 8759,
      "informative": 8760,
      "incidents": 8761,
      "retired": 8762,
      "reimbursed": 8763,
      "accordance": 8764,
      "Industry": 8765,
      "opposite": 8766,
      "disburse": 8767,
      "themselves": 8768,
      "Envestnet": 8769,
      "FromExternalApplication": 8770,
      "Selenium": 8771,
      "gx64krb5": 8772,
      "04": 8773,
      "480": 8774,
      "5a": 8775,
      "66": 8776,
      "765": 8777,
      "94": 8778,
      "95": 8779,
      "AA": 8780,
      "AM": 8781,
      "Aust": 8782,
      "ACT": 8783,
      "Br": 8784,
      "Bed": 8785,
      "Bod": 8786,
      "Bring": 8787,
      "Blue": 8788,
      "Blob": 8789,
      "Besides": 8790,
      "CI": 8791,
      "Cs": 8792,
      "Cri": 8793,
      "Cust": 8794,
      "Cir": 8795,
      "DI": 8796,
      "Ded": 8797,
      "Dig": 8798,
      "Dual": 8799,
      "Draw": 8800,
      "DLC": 8801,
      "Daily": 8802,
      "DUN": 8803,
      "Dampener": 8804,
      "EF": 8805,
      "Eas": 8806,
      "EFT": 8807,
      "Elimin": 8808,
      "EFO": 8809,
      "Fri": 8810,
      "Fail": 8811,
      "GM": 8812,
      "Gain": 8813,
      "Horizont": 8814,
      "Ig": 8815,
      "JBA": 8816,
      "Kanbans": 8817,
      "Later": 8818,
      "L0001": 8819,
      "Lbs": 8820,
      "MX": 8821,
      "Men": 8822,
      "MIS": 8823,
      "Mailing": 8824,
      "MPS": 8825,
      "NS": 8826,
      "Nate": 8827,
      "Narr": 8828,
      "NOT": 8829,
      "Nud": 8830,
      "Numeric": 8831,
      "Pat": 8832,
      "Pen": 8833,
      "Pers": 8834,
      "Pip": 8835,
      "Paper": 8836,
      "PPG": 8837,
      "Rich": 8838,
      "RDLC": 8839,
      "SU": 8840,
      "Sur": 8841,
      "Same": 8842,
      "Sli": 8843,
      "Sove": 8844,
      "Session": 8845,
      "Software": 8846,
      "Script": 8847,
      "Saved": 8848,
      "TE": 8849,
      "Tare": 8850,
      "Twe": 8851,
      "Tier": 8852,
      "URE": 8853,
      "UDE": 8854,
      "Win": 8855,
      "Wor": 8856,
      "Want": 8857,
      "X50": 8858,
      "Xml": 8859,
      "Zend": 8860,
      "ais": 8861,
      "aac": 8862,
      "astructure": 8863,
      "bic": 8864,
      "band": 8865,
      "bust": 8866,
      "brough": 8867,
      "bread": 8868,
      "brevi": 8869,
      "blob": 8870,
      "blind": 8871,
      "clo": 8872,
      "cup": 8873,
      "cart": 8874,
      "cros": 8875,
      "dd": 8876,
      "dence": 8877,
      "fly": 8878,
      "gent": 8879,
      "gree": 8880,
      "gather": 8881,
      "hn": 8882,
      "hot": 8883,
      "hund": 8884,
      "ilo": 8885,
      "iers": 8886,
      "ieves": 8887,
      "ibly": 8888,
      "jun": 8889,
      "lm": 8890,
      "lading": 8891,
      "lighting": 8892,
      "microsoft": 8893,
      "mals": 8894,
      "milestone": 8895,
      "ni": 8896,
      "nine": 8897,
      "nature": 8898,
      "omin": 8899,
      "pure": 8900,
      "pone": 8901,
      "pounds": 8902,
      "pix": 8903,
      "rations": 8904,
      "rices": 8905,
      "swi": 8906,
      "surch": 8907,
      "sday": 8908,
      "sList": 8909,
      "sounds": 8910,
      "seniority": 8911,
      "talk": 8912,
      "uations": 8913,
      "uous": 8914,
      "uistic": 8915,
      "v2": 8916,
      "vation": 8917,
      "voc": 8918,
      "void": 8919,
      "waves": 8920,
      "xes": 8921,
      "zation": 8922,
      "thus": 8923,
      "ina": 8924,
      "ini": 8925,
      "indirectly": 8926,
      "inclusion": 8927,
      "replan": 8928,
      "replay": 8929,
      "restructure": 8930,
      "refunds": 8931,
      "reapplying": 8932,
      "remed": 8933,
      "revaluations": 8934,
      "rejection": 8935,
      "regenerative": 8936,
      "revoc": 8937,
      "atulations": 8938,
      "ana": 8939,
      "org": 8940,
      "oric": 8941,
      "eners": 8942,
      "entitle": 8943,
      "encoding": 8944,
      "esk": 8945,
      "esting": 8946,
      "ala": 8947,
      "titive": 8948,
      "ticket": 8949,
      "leverage": 8950,
      "leading": 8951,
      "istive": 8952,
      "island": 8953,
      "rooms": 8954,
      "robust": 8955,
      "icted": 8956,
      "stri": 8957,
      "stamp": 8958,
      "stale": 8959,
      "studio": 8960,
      "stories": 8961,
      "stays": 8962,
      "ark": 8963,
      "fif": 8964,
      "del": 8965,
      "dex": 8966,
      "devi": 8967,
      "degree": 8968,
      "ctuations": 8969,
      "120": 8970,
      "procured": 8971,
      "chat": 8972,
      "convey": 8973,
      "mentary": 8974,
      "ports": 8975,
      "abbrevi": 8976,
      "Their": 8977,
      "Incorrect": 8978,
      "Insufficient": 8979,
      "Injury": 8980,
      "excellent": 8981,
      "ursday": 8982,
      "dator": 8983,
      "datac": 8984,
      "upgrading": 8985,
      "aders": 8986,
      "advice": 8987,
      "advis": 8988,
      "uler": 8989,
      "ulting": 8990,
      "ulative": 8991,
      "lymor": 8992,
      "vides": 8993,
      "respect": 8994,
      "resourcing": 8995,
      "diam": 8996,
      "illed": 8997,
      "essentially": 8998,
      "plint": 8999,
      "opposed": 9000,
      "cities": 9001,
      "ciled": 9002,
      "tray": 9003,
      "trail": 9004,
      "unshare": 9005,
      "unately": 9006,
      "unrelate": 9007,
      "unresolved": 9008,
      "unnecessarily": 9009,
      "whse": 9010,
      "ourses": 9011,
      "shade": 9012,
      "selectors": 9013,
      "licensed": 9014,
      "contributions": 9015,
      "uton": 9016,
      "deselect": 9017,
      "rout": 9018,
      "Too": 9019,
      "agination": 9020,
      "Thursday": 9021,
      "compe": 9022,
      "computers": 9023,
      "compris": 9024,
      "fere": 9025,
      "Creation": 9026,
      "Recalculate": 9027,
      "References": 9028,
      "productivity": 9029,
      "ensitive": 9030,
      "neg": 9031,
      "suited": 9032,
      "accountants": 9033,
      "lio": 9034,
      "antly": 9035,
      "Sean": 9036,
      "recalled": 9037,
      "visits": 9038,
      "visitor": 9039,
      "visited": 9040,
      "SetSPN": 9041,
      "umber": 9042,
      "noted": 9043,
      "notate": 9044,
      "clut": 9045,
      "clone": 9046,
      "achieves": 9047,
      "redo": 9048,
      "lest": 9049,
      "prep": 9050,
      "premium": 9051,
      "prevents": 9052,
      "Extract": 9053,
      "visually": 9054,
      "visualized": 9055,
      "discard": 9056,
      "disables": 9057,
      "disabilities": 9058,
      "news": 9059,
      "imize": 9060,
      "imbalance": 9061,
      "addTooltip": 9062,
      "Const": 9063,
      "Congr": 9064,
      "Condition": 9065,
      "Context": 9066,
      "Concept": 9067,
      "Concaten": 9068,
      "assistive": 9069,
      "salespeople": 9070,
      "modeler": 9071,
      "modelers": 9072,
      "extent": 9073,
      "extends": 9074,
      "comma": 9075,
      "bugging": 9076,
      "Dock": 9077,
      "ultane": 9078,
      "Proced": 9079,
      "Deb": 9080,
[...]
