{
  "version": "1.0",
  "truncation": null,
  "padding": null,
  "added_tokens": [
    {
      "id": 0,
      "content": "[UNK]",
      "single_word": false,
      "lstrip": false,
      "rstrip": false,
      "normalized": false,
      "special": true
    },
    {
      "id": 1,
      "content": "[PAD]",
      "single_word": false,
      "lstrip": false,
      "rstrip": false,
      "normalized": false,
      "special": true
    },
    {
      "id": 2,
      "content": "[BOS]",
      "single_word": false,
      "lstrip": false,
      "rstrip": false,
      "normalized": false,
      "special": true
    },
    {
      "id": 3,
      "content": "[EOS]",
      "single_word": false,
      "lstrip": false,
      "rstrip": false,
      "normalized": false,
      "special": true
    }
  ],
  "normalizer": null,
  "pre_tokenizer": {
    "type": "Whitespace"
  },
  "post_processor": null,
  "decoder": null,
  "model": {
    "type": "BPE",
    "dropout": null,
    "unk_token": "[UNK]",
    "continuing_subword_prefix": null,
    "end_of_word_suffix": null,
    "fuse_unk": false,
    "vocab": {
      "[UNK]": 0,
      "[PAD]": 1,
      "[BOS]": 2,
      "[EOS]": 3,
      "!": 4,
      "#": 5,
      "$": 6,
      "%": 7,
      "&": 8,
      "(": 9,
      ")": 10,
      "*": 11,
      "+": 12,
      ",": 13,
      "-": 14,
      ".": 15,
      "/": 16,
      "0": 17,
      "1": 18,
      "2": 19,
      "3": 20,
      "4": 21,
      "5": 22,
      "6": 23,
      "7": 24,
      "8": 25,
      "9": 26,
      ":": 27,
      ";": 28,
      "=": 29,
      "?": 30,
      "@": 31,
      "A": 32,
      "B": 33,
      "C": 34,
      "D": 35,
      "E": 36,
      "F": 37,
      "G": 38,
      "H": 39,
      "I": 40,
      "J": 41,
      "K": 42,
      "L": 43,
      "M": 44,
      "N": 45,
      "O": 46,
      "P": 47,
      "Q": 48,
      "R": 49,
      "S": 50,
      "T": 51,
      "U": 52,
      "V": 53,
      "W": 54,
      "X": 55,
      "Y": 56,
      "Z": 57,
      "\\": 58,
      "_": 59,
      "`": 60,
      "a": 61,
      "b": 62,
      "c": 63,
      "d": 64,
      "e": 65,
      "f": 66,
      "g": 67,
      "h": 68,
      "i": 69,
      "j": 70,
      "k": 71,
      "l": 72,
      "m": 73,
      "n": 74,
      "o": 75,
      "p": 76,
      "q": 77,
      "r": 78,
      "s": 79,
      "t": 80,
      "u": 81,
      "v": 82,
      "w": 83,
      "x": 84,
      "y": 85,
      "z": 86,
      "´": 87,
      "×": 88,
      "à": 89,
      "â": 90,
      "ç": 91,
      "ñ": 92,
      "÷": 93,
      "ü": 94,
      "ă": 95,
      "č": 96,
      "š": 97,
      "ų": 98,
      "Ε": 99,
      "ά": 100,
      "η": 101,
      "ι": 102,
      "κ": 103,
      "λ": 104,
      "ν": 105,
      "Р": 106,
      "а": 107,
      "з": 108,
      "и": 109,
      "й": 110,
      "к": 111,
      "н": 112,
      "р": 113,
      "с": 114,
      "у": 115,
      "ь": 116,
      "ї": 117,
      "Қ": 118,
      "қ": 119,
      "​": 120,
      "‐": 121,
      "‑": 122,
      "–": 123,
      "—": 124,
      "‘": 125,
      "’": 126,
      "“": 127,
      "”": 128,
      "†": 129,
      "•": 130,
      "…": 131,
      "−": 132,
      "日": 133,
      "本": 134,
      "語": 135,
      "국": 136,
      "어": 137,
      "한": 138,
      "﻿": 139,
      "th": 140,
      "in": 141,
      "the": 142,
      "re": 143,
      "on": 144,
      "at": 145,
      "an": 146,
      "er": 147,
      "or": 148,
      "en": 149,
      "es": 150,
      "ou": 151,
      "al": 152,
      "ti": 153,
      "le": 154,
      "to": 155,
      "se": 156,
      "ing": 157,
      "is": 158,
      "ed": 159,
      "ic": 160,
      "ro": 161,
      "ow": 162,
      "ent": 163,
      "st": 164,
      "ion": 165,
      "and": 166,
      "ar": 167,
      "ac": 168,
      "for": 169,
      "it": 170,
      "you": 171,
      "fi": 172,
      "tion": 173,
      "ation": 174,
      "ap": 175,
      "as": 176,
      "ate": 177,
      "of": 178,
      "ct": 179,
      "el": 180,
      "&#": 181,
      "12": 182,
      "124": 183,
      "de": 184,
      "he": 185,
      "co": 186,
      "ll": 187,
      "mp": 188,
      "ch": 189,
      "pro": 190,
      "ort": 191,
      "us": 192,
      "con": 193,
      "ment": 194,
      "ge": 195,
      "are": 196,
      "me": 197,
      "that": 198,
      "nt": 199,
      "can": 200,
      "port": 201,
      "ab": 202,
      "os": 203,
      "The": 204,
      "In": 205,
      "wi": 206,
      "be": 207,
      "lo": 208,
      "ur": 209,
      "ex": 210,
      "up": 211,
      "ers": 212,
      "eld": 213,
      "lect": 214,
      "ad": 215,
      "qu": 216,
      "tit": 217,
      "ri": 218,
      "field": 219,
      "ul": 220,
      "ay": 221,
      "ce": 222,
      "dat": 223,
      "ve": 224,
      "apos": 225,
      "ly": 226,
      "pe": 227,
      "fo": 228,
      "vi": 229,
      "ord": 230,
      "em": 231,
      "ew": 232,
      "set": 233,
      "lic": 234,
      "cre": 235,
      "res": 236,
      "di": 237,
      "form": 238,
      "mo": 239,
      "ice": 240,
      "age": 241,
      "ount": 242,
      "il": 243,
      "ction": 244,
      "with": 245,
      "data": 246,
      "et": 247,
      "ess": 248,
      "ig": 249,
      "um": 250,
      "llow": 251,
      "ist": 252,
      "op": 253,
      "val": 254,
      "report": 255,
      "un": 256,
      "ci": 257,
      "use": 258,
      "ork": 259,
      "follow": 260,
      "ter": 261,
      "ower": 262,
      "te": 263,
      "app": 264,
      "able": 265,
      "our": 266,
      "title": 267,
      "Power": 268,
      "count": 269,
      "your": 270,
      "du": 271,
      "select": 272,
      "sh": 273,
      "cont": 274,
      "ure": 275,
      "tom": 276,
      "wh": 277,
      "ty": 278,
      "ated": 279,
      "ver": 280,
      "rom": 281,
      "following": 282,
      "end": 283,
      "valu": 284,
      "work": 285,
      "ot": 286,
      "ase": 287,
      "per": 288,
      "pl": 289,
      "so": 290,
      "from": 291,
      "ut": 292,
      "To": 293,
      "ost": 294,
      "tr": 295,
      "des": 296,
      "BI": 297,
      "ser": 298,
      "rou": 299,
      "ame": 300,
      "iz": 301,
      "You": 302,
      "inv": 303,
      "by": 304,
      "cess": 305,
      "ag": 306,
      "lin": 307,
      "fin": 308,
      "ail": 309,
      "ity": 310,
      "lick": 311,
      "ual": 312,
      "item": 313,
      "Cre": 314,
      "comp": 315,
      "vice": 316,
      "Th": 317,
      "all": 318,
      "ign": 319,
      "ts": 320,
      "order": 321,
      "ustom": 322,
      "Re": 323,
      "tions": 324,
      "this": 325,
      "oc": 326,
      "bo": 327,
      "ain": 328,
      "ans": 329,
      "fe": 330,
      "ps": 331,
      "ments": 332,
      "Create": 333,
      "date": 334,
      "ations": 335,
      "ard": 336,
      "produ": 337,
      "enter": 338,
      "account": 339,
      "value": 340,
      "view": 341,
      "ens": 342,
      "amp": 343,
      "ne": 344,
      "li": 345,
      "This": 346,
      "fig": 347,
      "ave": 348,
      "Se": 349,
      "any": 350,
      "gt": 351,
      "su": 352,
      "ust": 353,
      "type": 354,
      "Set": 355,
      "custom": 356,
      "ales": 357,
      "am": 358,
      "umb": 359,
      "ther": 360,
      "cal": 361,
      "ant": 362,
      "rec": 363,
      "low": 364,
      "ory": 365,
      "tity": 366,
      "cl": 367,
      "ting": 368,
      "create": 369,
      "will": 370,
      "ke": 371,
      "vis": 372,
      "list": 373,
      "service": 374,
      "invo": 375,
      "we": 376,
      "Ex": 377,
      "numb": 378,
      "peci": 379,
      "del": 380,
      "post": 381,
      "flow": 382,
      "art": 383,
      "pre": 384,
      "ach": 385,
      "les": 386,
      "chan": 387,
      "out": 388,
      "ok": 389,
      "requ": 390,
      "pay": 391,
      "trans": 392,
      "ties": 393,
      "one": 394,
      "Select": 395,
      "dis": 396,
      "new": 397,
      "own": 398,
      "have": 399,
      "Con": 400,
      "act": 401,
      "Click": 402,
      "ample": 403,
      "not": 404,
      "red": 405,
      "when": 406,
      "visual": 407,
      "grou": 408,
      "add": 409,
      "Ad": 410,
      "number": 411,
      "ass": 412,
      "process": 413,
      "nal": 414,
      "config": 415,
      "using": 416,
      "Wh": 417,
      "fic": 418,
      "cri": 419,
      "im": 420,
      "col": 421,
      "speci": 422,
      "cur": 423,
      "sales": 424,
      "ener": 425,
      "ces": 426,
      "urch": 427,
      "formation": 428,
      "but": 429,
      "man": 430,
      "der": 431,
      "pac": 432,
      "used": 433,
      "page": 434,
      "ext": 435,
      "ros": 436,
      "cost": 437,
      "min": 438,
      "ste": 439,
      "ance": 440,
      "av": 441,
      "how": 442,
      "information": 443,
      "led": 444,
      "od": 445,
      "If": 446,
      "cul": 447,
      "ob": 448,
      "time": 449,
      "ip": 450,
      "rent": 451,
      "product": 452,
      "model": 453,
      "ect": 454,
      "com": 455,
      "loc": 456,
      "igh": 457,
      "if": 458,
      "bu": 459,
      "urchase": 460,
      "endor": 461,
      "ject": 462,
      "ash": 463,
      "ension": 464,
      "Pro": 465,
      "ol": 466,
      "line": 467,
      "defin": 468,
      "record": 469,
      "user": 470,
      "ma": 471,
      "ree": 472,
      "est": 473,
      "invoice": 474,
      "De": 475,
      "po": 476,
      "way": 477,
      "ult": 478,
      "par": 479,
      "For": 480,
      "ource": 481,
      "dif": 482,
      "ocu": 483,
      "ari": 484,
      "open": 485,
      "do": 486,
      "entory": 487,
      "other": 488,
      "arch": 489,
      "id": 490,
      "row": 491,
      "ren": 492,
      "works": 493,
      "must": 494,
      "How": 495,
      "Add": 496,
      "au": 497,
      "bal": 498,
      "oft": 499,
      "ning": 500,
      "imp": 501,
      "It": 502,
      "calcul": 503,
      "show": 504,
      "rect": 505,
      "entity": 506,
      "hou": 507,
      "pr": 508,
      "Ap": 509,
      "table": 510,
      "str": 511,
      "gh": 512,
      "ger": 513,
      "enti": 514,
      "created": 515,
      "ization": 516,
      "file": 517,
      "ical": 518,
      "click": 519,
      "rol": 520,
      "has": 521,
      "group": 522,
      "fa": 523,
      "arehou": 524,
      "reports": 525,
      "get": 526,
      "purchase": 527,
      "name": 528,
      "example": 529,
      "clu": 530,
      "configur": 531,
      "00": 532,
      "payment": 533,
      "fun": 534,
      "ournal": 535,
      "sup": 536,
      "want": 537,
      "vendor": 538,
      "items": 539,
      "dim": 540,
      "dimension": 541,
      "exp": 542,
      "plan": 543,
      "transac": 544,
      "ased": 545,
      "Mic": 546,
      "ich": 547,
      "play": 548,
      "rosoft": 549,
      "ates": 550,
      "Microsoft": 551,
      "look": 552,
      "customer": 553,
      "ask": 554,
      "rel": 555,
      "section": 556,
      "ack": 557,
      "ast": 558,
      "gener": 559,
      "avail": 560,
      "umn": 561,
      "down": 562,
      "these": 563,
      "ank": 564,
      "ices": 565,
      "control": 566,
      "arehouse": 567,
      "mpl": 568,
      "ta": 569,
      "fil": 570,
      "ub": 571,
      "board": 572,
      "docu": 573,
      "reg": 574,
      "only": 575,
      "When": 576,
      "more": 577,
      "acti": 578,
      "ld": 579,
      "Ac": 580,
      "mb": 581,
      "dit": 582,
      "quot": 583,
      "ced": 584,
      "ies": 585,
      "int": 586,
      "requi": 587,
      "which": 588,
      "ron": 589,
      "top": 590,
      "each": 591,
      "ton": 592,
      "vel": 593,
      "descri": 594,
      "lines": 595,
      "ck": 596,
      "column": 597,
      "Co": 598,
      "fault": 599,
      "available": 600,
      "steps": 601,
      "si": 602,
      "inclu": 603,
      "atch": 604,
      "format": 605,
      "workspac": 606,
      "templ": 607,
      "ges": 608,
      "ish": 609,
      "inventory": 610,
      "rece": 611,
      "button": 612,
      "change": 613,
      "diffe": 614,
      "need": 615,
      "ind": 616,
      "also": 617,
      "amount": 618,
      "values": 619,
      "journal": 620,
      "ters": 621,
      "inter": 622,
      "ize": 623,
      "Des": 624,
      "ents": 625,
      "function": 626,
      "pos": 627,
      "tic": 628,
      "ite": 629,
      "see": 630,
      "dro": 631,
      "ating": 632,
      "bi": 633,
      "xed": 634,
      "provi": 635,
      "assign": 636,
      "then": 637,
      "mar": 638,
      "peri": 639,
      "On": 640,
      "no": 641,
      "ye": 642,
      "ashboard": 643,
      "ick": 644,
      "code": 645,
      "production": 646,
      "ery": 647,
      "lete": 648,
      "fy": 649,
      "display": 650,
      "Ser": 651,
      "ould": 652,
      "ir": 653,
      "Use": 654,
      "gan": 655,
      "ata": 656,
      "ails": 657,
      "configuration": 658,
      "ress": 659,
      "ption": 660,
      "over": 661,
      "ries": 662,
      "content": 663,
      "location": 664,
      "users": 665,
      "dashboard": 666,
      "drop": 667,
      "fer": 668,
      "ition": 669,
      "put": 670,
      "tab": 671,
      "task": 672,
      "based": 673,
      "company": 674,
      "typ": 675,
      "option": 676,
      "ages": 677,
      "lobal": 678,
      "nd": 679,
      "conne": 680,
      "orders": 681,
      "quan": 682,
      "ight": 683,
      "cap": 684,
      "ven": 685,
      "fir": 686,
      "default": 687,
      "whe": 688,
      "ulti": 689,
      "fields": 690,
      "selected": 691,
      "Data": 692,
      "different": 693,
      "As": 694,
      "ateg": 695,
      "comm": 696,
      "cy": 697,
      "job": 698,
      "its": 699,
      "warehouse": 700,
      "Up": 701,
      "fore": 702,
      "ocs": 703,
      "sing": 704,
      "iness": 705,
      "usiness": 706,
      "vers": 707,
      "ources": 708,
      "ret": 709,
      "asset": 710,
      "Docs": 711,
      "load": 712,
      "support": 713,
      "portal": 714,
      "ledger": 715,
      "organ": 716,
      "appro": 717,
      "setting": 718,
      "cel": 719,
      "urn": 720,
      "dition": 721,
      "sub": 722,
      "ive": 723,
      "rough": 724,
      "template": 725,
      "sy": 726,
      "Report": 727,
      "ded": 728,
      "fter": 729,
      "heck": 730,
      "nter": 731,
      "main": 732,
      "text": 733,
      "ically": 734,
      "shows": 735,
      "workspace": 736,
      "dataset": 737,
      "through": 738,
      "source": 739,
      "tomat": 740,
      "Item": 741,
      "ial": 742,
      "Ch": 743,
      "Qu": 744,
      "ved": 745,
      "just": 746,
      "run": 747,
      "vari": 748,
      "about": 749,
      "Exp": 750,
      "gr": 751,
      "compon": 752,
      "ule": 753,
      "ple": 754,
      "let": 755,
      "specific": 756,
      "ane": 757,
      "wo": 758,
      "att": 759,
      "sc": 760,
      "mis": 761,
      "document": 762,
      "Fi": 763,
      "box": 764,
      "web": 765,
      "ier": 766,
      "posting": 767,
      "Global": 768,
      "import": 769,
      "transactions": 770,
      "Op": 771,
      "ship": 772,
      "manage": 773,
      "Tr": 774,
      "same": 775,
      "ous": 776,
      "into": 777,
      "thod": 778,
      "gu": 779,
      "sign": 780,
      "contain": 781,
      "quantity": 782,
      "access": 783,
      "edit": 784,
      "ched": 785,
      "Cost": 786,
      "resh": 787,
      "oper": 788,
      "types": 789,
      "Inv": 790,
      "link": 791,
      "multi": 792,
      "stem": 793,
      "been": 794,
      "proper": 795,
      "two": 796,
      "No": 797,
      "10": 798,
      "ble": 799,
      "entries": 800,
      "exist": 801,
      "ine": 802,
      "ref": 803,
      "lookup": 804,
      "organization": 805,
      "ry": 806,
      "ures": 807,
      "dep": 808,
      "ility": 809,
      "posted": 810,
      "bank": 811,
      "cor": 812,
      "card": 813,
      "det": 814,
      "project": 815,
      "Vi": 816,
      "perform": 817,
      "St": 818,
      "filter": 819,
      "Account": 820,
      "Config": 821,
      "business": 822,
      "tim": 823,
      "should": 824,
      "check": 825,
      "parame": 826,
      "categ": 827,
      "version": 828,
      "View": 829,
      "ding": 830,
      "automat": 831,
      "ence": 832,
      "accounts": 833,
      "period": 834,
      "Or": 835,
      "current": 836,
      "Man": 837,
      "chart": 838,
      "read": 839,
      "ierarch": 840,
      "lu": 841,
      "istr": 842,
      "En": 843,
      "applic": 844,
      "Apps": 845,
      "Work": 846,
      "ater": 847,
      "Sales": 848,
      "hierarch": 849,
      "We": 850,
      "lection": 851,
      "method": 852,
      "admin": 853,
      "cial": 854,
      "ose": 855,
      "dget": 856,
      "pub": 857,
      "ace": 858,
      "design": 859,
      "og": 860,
      "preci": 861,
      "pri": 862,
      "them": 863,
      "level": 864,
      "ors": 865,
      "stat": 866,
      "char": 867,
      "bet": 868,
      "changes": 869,
      "fixed": 870,
      "book": 871,
      "mplo": 872,
      "ditional": 873,
      "hel": 874,
      "mobi": 875,
      "mobile": 876,
      "dri": 877,
      "Gener": 878,
      "ID": 879,
      "fied": 880,
      "Post": 881,
      "uring": 882,
      "they": 883,
      "ques": 884,
      "configure": 885,
      "tax": 886,
      "describ": 887,
      "Expand": 888,
      "An": 889,
      "ary": 890,
      "capac": 891,
      "details": 892,
      "sto": 893,
      "feat": 894,
      "pon": 895,
      "visuals": 896,
      "settings": 897,
      "ys": 898,
      "ancial": 899,
      "lan": 900,
      "tive": 901,
      "lish": 902,
      "now": 903,
      "mark": 904,
      "first": 905,
      "Open": 906,
      "workflow": 907,
      "ele": 908,
      "polic": 909,
      "Custom": 910,
      "system": 911,
      "mit": 912,
      "planning": 913,
      "action": 914,
      "ribu": 915,
      "preciation": 916,
      "multiple": 917,
      "Produ": 918,
      "make": 919,
      "ween": 920,
      "Pay": 921,
      "state": 922,
      "where": 923,
      "refresh": 924,
      "mon": 925,
      "direct": 926,
      "discount": 927,
      "sched": 928,
      "ways": 929,
      "start": 930,
      "head": 931,
      "proced": 932,
      "groups": 933,
      "OM": 934,
      "stand": 935,
      "general": 936,
      "return": 937,
      "solu": 938,
      "agree": 939,
      "price": 940,
      "automatically": 941,
      "Mo": 942,
      "Name": 943,
      "mand": 944,
      "lose": 945,
      "Sh": 946,
      "soci": 947,
      "Enter": 948,
      "some": 949,
      "relation": 950,
      "ange": 951,
      "Go": 952,
      "options": 953,
      "entities": 954,
      "appe": 955,
      "between": 956,
      "BOM": 957,
      "allow": 958,
      "mploye": 959,
      "site": 960,
      "vas": 961,
      "ality": 962,
      "appear": 963,
      "ply": 964,
      "reporting": 965,
      "nam": 966,
      "rele": 967,
      "There": 968,
      "mess": 969,
      "tific": 970,
      "apps": 971,
      "sion": 972,
      "alog": 973,
      "setup": 974,
      "ef": 975,
      "ules": 976,
      "bin": 977,
      "capacity": 978,
      "ue": 979,
      "credit": 980,
      "avi": 981,
      "leg": 982,
      "canvas": 983,
      "scre": 984,
      "semb": 985,
      "move": 986,
      "very": 987,
      "meas": 988,
      "Defin": 989,
      "ticle": 990,
      "Yes": 991,
      "article": 992,
      "within": 993,
      "ross": 994,
      "before": 995,
      "related": 996,
      "day": 997,
      "Service": 998,
      "hierarchy": 999,
      "uses": 1000,
      "specify": 1001,
      "parameters": 1002,
      "existing": 1003,
      "pres": 1004,
      "enable": 1005,
      "formul": 1006,
      "connect": 1007,
      "ense": 1008,
      "search": 1009,
      "He": 1010,
      "back": 1011,
      "ound": 1012,
      "required": 1013,
      "issu": 1014,
      "unit": 1015,
      "Comp": 1016,
      "procedure": 1017,
      "pack": 1018,
      "may": 1019,
      "associ": 1020,
      "Pre": 1021,
      "files": 1022,
      "Un": 1023,
      "enari": 1024,
      "flows": 1025,
      "inst": 1026,
      "financial": 1027,
      "Excel": 1028,
      "depreciation": 1029,
      "mission": 1030,
      "log": 1031,
      "viron": 1032,
      "records": 1033,
      "require": 1034,
      "management": 1035,
      "err": 1036,
      "vices": 1037,
      "object": 1038,
      "application": 1039,
      "Au": 1040,
      "transfer": 1041,
      "ities": 1042,
      "solution": 1043,
      "Res": 1044,
      "than": 1045,
      "respon": 1046,
      "help": 1047,
      "transaction": 1048,
      "does": 1049,
      "codes": 1050,
      "Cont": 1051,
      "screen": 1052,
      "cent": 1053,
      "fact": 1054,
      "Configure": 1055,
      "cer": 1056,
      "pane": 1057,
      "defined": 1058,
      "apply": 1059,
      "cription": 1060,
      "properties": 1061,
      "After": 1062,
      "year": 1063,
      "Trans": 1064,
      "export": 1065,
      "resul": 1066,
      "anb": 1067,
      "environ": 1068,
      "entry": 1069,
      "email": 1070,
      "pick": 1071,
      "ized": 1072,
      "calculated": 1073,
      "single": 1074,
      "their": 1075,
      "such": 1076,
      "Imp": 1077,
      "cle": 1078,
      "part": 1079,
      "rule": 1080,
      "recast": 1081,
      "products": 1082,
      "budget": 1083,
      "define": 1084,
      "indow": 1085,
      "tool": 1086,
      "erson": 1087,
      "components": 1088,
      "ually": 1089,
      "bar": 1090,
      "employe": 1091,
      "recei": 1092,
      "All": 1093,
      "go": 1094,
      "curren": 1095,
      "UR": 1096,
      "ted": 1097,
      "activ": 1098,
      "scenari": 1099,
      "update": 1100,
      "lectron": 1101,
      "describes": 1102,
      "sources": 1103,
      "there": 1104,
      "Action": 1105,
      "who": 1106,
      "class": 1107,
      "gate": 1108,
      "rules": 1109,
      "sum": 1110,
      "contr": 1111,
      "ending": 1112,
      "What": 1113,
      "anal": 1114,
      "heet": 1115,
      "adjust": 1116,
      "step": 1117,
      "topic": 1118,
      "contains": 1119,
      "hand": 1120,
      "invoices": 1121,
      "many": 1122,
      "demand": 1123,
      "was": 1124,
      "actions": 1125,
      "additional": 1126,
      "stru": 1127,
      "include": 1128,
      "tasks": 1129,
      "ca": 1130,
      "acts": 1131,
      "apping": 1132,
      "receip": 1133,
      "anban": 1134,
      "lectronic": 1135,
      "eri": 1136,
      "provides": 1137,
      "Manage": 1138,
      "cord": 1139,
      "ear": 1140,
      "match": 1141,
      "key": 1142,
      "imum": 1143,
      "ribute": 1144,
      "Here": 1145,
      "ktop": 1146,
      "resource": 1147,
      "share": 1148,
      "ready": 1149,
      "status": 1150,
      "message": 1151,
      "inte": 1152,
      "dated": 1153,
      "Define": 1154,
      "dialog": 1155,
      "find": 1156,
      "Det": 1157,
      "calculation": 1158,
      "header": 1159,
      "close": 1160,
      "als": 1161,
      "payments": 1162,
      "columns": 1163,
      "aterial": 1164,
      "policy": 1165,
      "20": 1166,
      "emb": 1167,
      "agreement": 1168,
      "environment": 1169,
      "complete": 1170,
      "documents": 1171,
      "General": 1172,
      "another": 1173,
      "ability": 1174,
      "dates": 1175,
      "dimensions": 1176,
      "formula": 1177,
      "results": 1178,
      "Bu": 1179,
      "tain": 1180,
      "abel": 1181,
      "11": 1182,
      "ator": 1183,
      "sed": 1184,
      "anced": 1185,
      "verage": 1186,
      "permission": 1187,
      "address": 1188,
      "assigned": 1189,
      "added": 1190,
      "connection": 1191,
      "Ma": 1192,
      "ull": 1193,
      "cop": 1194,
      "ill": 1195,
      "tle": 1196,
      "category": 1197,
      "after": 1198,
      "md": 1199,
      "forecast": 1200,
      "ide": 1201,
      "under": 1202,
      "appli": 1203,
      "Desktop": 1204,
      "Po": 1205,
      "termin": 1206,
      "Query": 1207,
      "la": 1208,
      "off": 1209,
      "device": 1210,
      "measure": 1211,
      "associated": 1212,
      "91": 1213,
      "93": 1214,
      "Di": 1215,
      "Plan": 1216,
      "legal": 1217,
      "men": 1218,
      "pa": 1219,
      "ins": 1220,
      "resources": 1221,
      "Change": 1222,
      "AT": 1223,
      "US": 1224,
      "limit": 1225,
      "embed": 1226,
      "Be": 1227,
      "kanban": 1228,
      "vious": 1229,
      "izations": 1230,
      "regist": 1231,
      "Accounts": 1232,
      "batch": 1233,
      "ph": 1234,
      "zure": 1235,
      "query": 1236,
      "ild": 1237,
      "Order": 1238,
      "material": 1239,
      "ten": 1240,
      "righ": 1241,
      "customers": 1242,
      "Design": 1243,
      "supported": 1244,
      "AP": 1245,
      "ER": 1246,
      "high": 1247,
      "rid": 1248,
      "manag": 1249,
      "definition": 1250,
      "component": 1251,
      "cr": 1252,
      "ics": 1253,
      "roll": 1254,
      "feren": 1255,
      "curity": 1256,
      "tables": 1257,
      "ned": 1258,
      "tree": 1259,
      "image": 1260,
      "Inventory": 1261,
      "Cal": 1262,
      "Purchase": 1263,
      "ev": 1264,
      "URL": 1265,
      "cause": 1266,
      "Azure": 1267,
      "creating": 1268,
      "functionality": 1269,
      "displayed": 1270,
      "Edit": 1271,
      "oose": 1272,
      "sample": 1273,
      "assemb": 1274,
      "request": 1275,
      "specified": 1276,
      "leted": 1277,
      "Share": 1278,
      "currency": 1279,
      "Vendor": 1280,
      "ful": 1281,
      "itions": 1282,
      "what": 1283,
      "Invo": 1284,
      "Import": 1285,
      "gg": 1286,
      "previous": 1287,
      "costs": 1288,
      "pare": 1289,
      "delete": 1290,
      "like": 1291,
      "Over": 1292,
      "ither": 1293,
      "ling": 1294,
      "pages": 1295,
      "window": 1296,
      "shown": 1297,
      "bas": 1298,
      "person": 1299,
      "accounting": 1300,
      "Fixed": 1301,
      "publish": 1302,
      "question": 1303,
      "feature": 1304,
      "receipt": 1305,
      "ML": 1306,
      "Speci": 1307,
      "label": 1308,
      "might": 1309,
      "determin": 1310,
      "Direct": 1311,
      "driven": 1312,
      "sure": 1313,
      "repres": 1314,
      "error": 1315,
      "Dis": 1316,
      "15": 1317,
      "af": 1318,
      "icon": 1319,
      "ire": 1320,
      "vanced": 1321,
      "ally": 1322,
      "cash": 1323,
      "either": 1324,
      "profile": 1325,
      "ysis": 1326,
      "Val": 1327,
      "ong": 1328,
      "memb": 1329,
      "experi": 1330,
      "mode": 1331,
      "rows": 1332,
      "whether": 1333,
      "ered": 1334,
      "loy": 1335,
      "output": 1336,
      "ression": 1337,
      "elements": 1338,
      "Pane": 1339,
      "tot": 1340,
      "next": 1341,
      "processes": 1342,
      "dify": 1343,
      "struct": 1344,
      "right": 1345,
      "three": 1346,
      "firm": 1347,
      "mapping": 1348,
      "endar": 1349,
      "both": 1350,
      "point": 1351,
      "correct": 1352,
      "during": 1353,
      "ner": 1354,
      "ason": 1355,
      "App": 1356,
      "Get": 1357,
      "VAT": 1358,
      "yout": 1359,
      "tern": 1360,
      "13": 1361,
      "At": 1362,
      "requis": 1363,
      "lock": 1364,
      "administr": 1365,
      "standard": 1366,
      "Fin": 1367,
      "security": 1368,
      "active": 1369,
      "Details": 1370,
      "mi": 1371,
      "designer": 1372,
      "Using": 1373,
      "Warehouse": 1374,
      "bel": 1375,
      "soli": 1376,
      "track": 1377,
      "Product": 1378,
      "eas": 1379,
      "test": 1380,
      "ynam": 1381,
      "divi": 1382,
      "sider": 1383,
      "attach": 1384,
      "role": 1385,
      "contact": 1386,
      "string": 1387,
      "Date": 1388,
      "Int": 1389,
      "ips": 1390,
      "allocation": 1391,
      "identi": 1392,
      "supply": 1393,
      "take": 1394,
      "appears": 1395,
      "Anal": 1396,
      "sible": 1397,
      "categor": 1398,
      "br": 1399,
      "don": 1400,
      "ese": 1401,
      "sequ": 1402,
      "ctor": 1403,
      "vities": 1404,
      "deli": 1405,
      "public": 1406,
      "grid": 1407,
      "ove": 1408,
      "pt": 1409,
      "ative": 1410,
      "Fo": 1411,
      "center": 1412,
      "ribut": 1413,
      "includes": 1414,
      "inated": 1415,
      "worker": 1416,
      "place": 1417,
      "PO": 1418,
      "ufact": 1419,
      "ired": 1420,
      "These": 1421,
      "14": 1422,
      "ith": 1423,
      "ome": 1424,
      "without": 1425,
      "collection": 1426,
      "balance": 1427,
      "side": 1428,
      "overview": 1429,
      "Ret": 1430,
      "ile": 1431,
      "aginated": 1432,
      "amples": 1433,
      "ify": 1434,
      "filters": 1435,
      "bill": 1436,
      "provide": 1437,
      "roles": 1438,
      "manually": 1439,
      "Form": 1440,
      "Customer": 1441,
      "contract": 1442,
      "bound": 1443,
      "nel": 1444,
      "rest": 1445,
      "ances": 1446,
      "MicrosoftDocs": 1447,
      "ves": 1448,
      "referen": 1449,
      "Example": 1450,
      "approval": 1451,
      "Fil": 1452,
      "Inter": 1453,
      "Server": 1454,
      "Calcul": 1455,
      "Pr": 1456,
      "away": 1457,
      "Setup": 1458,
      "iti": 1459,
      "navi": 1460,
      "save": 1461,
      "ving": 1462,
      "across": 1463,
      "ables": 1464,
      "result": 1465,
      "activities": 1466,
      "Description": 1467,
      "subs": 1468,
      "employee": 1469,
      "menu": 1470,
      "16": 1471,
      "From": 1472,
      "Ty": 1473,
      "base": 1474,
      "thor": 1475,
      "sector": 1476,
      "Production": 1477,
      "activity": 1478,
      "Bo": 1479,
      "Can": 1480,
      "ell": 1481,
      "expl": 1482,
      "quick": 1483,
      "Setting": 1484,
      "expression": 1485,
      "Assign": 1486,
      "Let": 1487,
      "coll": 1488,
      "fect": 1489,
      "operations": 1490,
      "Enable": 1491,
      "copy": 1492,
      "dist": 1493,
      "electronic": 1494,
      "full": 1495,
      "pect": 1496,
      "server": 1497,
      "processing": 1498,
      "Com": 1499,
      "assembly": 1500,
      "features": 1501,
      "Docu": 1502,
      "New": 1503,
      "amounts": 1504,
      "aw": 1505,
      "ax": 1506,
      "map": 1507,
      "vant": 1508,
      "requirements": 1509,
      "certific": 1510,
      "Point": 1511,
      "Sup": 1512,
      "reason": 1513,
      "veral": 1514,
      "color": 1515,
      "mary": 1516,
      "assets": 1517,
      "numbers": 1518,
      "various": 1519,
      "experience": 1520,
      "Us": 1521,
      "til": 1522,
      "ases": 1523,
      "install": 1524,
      "ged": 1525,
      "review": 1526,
      "here": 1527,
      "Conne": 1528,
      "commend": 1529,
      "dividu": 1530,
      "Ent": 1531,
      "few": 1532,
      "allery": 1533,
      "jobs": 1534,
      "Posting": 1535,
      "Invoice": 1536,
      "Show": 1537,
      "ds": 1538,
      "remove": 1539,
      "tile": 1540,
      "tical": 1541,
      "cannot": 1542,
      "recommend": 1543,
      "selection": 1544,
      "Payment": 1545,
      "total": 1546,
      "Col": 1547,
      "ade": 1548,
      "forms": 1549,
      "calculate": 1550,
      "Web": 1551,
      "eria": 1552,
      "paginated": 1553,
      "icing": 1554,
      "iteria": 1555,
      "percent": 1556,
      "000": 1557,
      "workspaces": 1558,
      "applied": 1559,
      "ible": 1560,
      "non": 1561,
      "individu": 1562,
      "already": 1563,
      "consoli": 1564,
      "ships": 1565,
      "calendar": 1566,
      "structure": 1567,
      "below": 1568,
      "Run": 1569,
      "cure": 1570,
      "ms": 1571,
      "sort": 1572,
      "updated": 1573,
      "settle": 1574,
      "datasets": 1575,
      "Items": 1576,
      "denti": 1577,
      "sim": 1578,
      "iscal": 1579,
      "beh": 1580,
      "because": 1581,
      "indic": 1582,
      "times": 1583,
      "store": 1584,
      "element": 1585,
      "gateway": 1586,
      "API": 1587,
      "Bank": 1588,
      "hol": 1589,
      "size": 1590,
      "due": 1591,
      "Reg": 1592,
      "issue": 1593,
      "Vis": 1594,
      "brow": 1595,
      "hour": 1596,
      "rate": 1597,
      "configurations": 1598,
      "expense": 1599,
      "tics": 1600,
      "Al": 1601,
      "With": 1602,
      "ximum": 1603,
      "mption": 1604,
      "area": 1605,
      "abase": 1606,
      "occur": 1607,
      "generated": 1608,
      "performance": 1609,
      "schedule": 1610,
      "yz": 1611,
      "several": 1612,
      "most": 1613,
      "ilities": 1614,
      "manufact": 1615,
      "vendors": 1616,
      "statement": 1617,
      "portun": 1618,
      "valid": 1619,
      "mast": 1620,
      "author": 1621,
      "description": 1622,
      "possible": 1623,
      "Note": 1624,
      "relationship": 1625,
      "relationships": 1626,
      "layout": 1627,
      "fill": 1628,
      "working": 1629,
      "Project": 1630,
      "Now": 1631,
      "Numb": 1632,
      "lot": 1633,
      "sets": 1634,
      "again": 1635,
      "visualization": 1636,
      "templates": 1637,
      "functions": 1638,
      "Loc": 1639,
      "Your": 1640,
      "dr": 1641,
      "orage": 1642,
      "lex": 1643,
      "ilar": 1644,
      "Requ": 1645,
      "Make": 1646,
      "explain": 1647,
      "Per": 1648,
      "Ste": 1649,
      "bility": 1650,
      "isn": 1651,
      "stage": 1652,
      "cycle": 1653,
      "attribute": 1654,
      "istration": 1655,
      "categories": 1656,
      "POS": 1657,
      "Pub": 1658,
      "gin": 1659,
      "secon": 1660,
      "advanced": 1661,
      "ternal": 1662,
      "parti": 1663,
      "enabled": 1664,
      "register": 1665,
      "average": 1666,
      "gallery": 1667,
      "region": 1668,
      "dashboards": 1669,
      "Update": 1670,
      "questions": 1671,
      "permissions": 1672,
      "Specify": 1673,
      "delivery": 1674,
      "ributes": 1675,
      "Le": 1676,
      "Led": 1677,
      "ec": 1678,
      "na": 1679,
      "enef": 1680,
      "finish": 1681,
      "locations": 1682,
      "ights": 1683,
      "generate": 1684,
      "drill": 1685,
      "scenario": 1686,
      "ings": 1687,
      "consider": 1688,
      "sumption": 1689,
      "scenarios": 1690,
      "Journal": 1691,
      "demo": 1692,
      "confirm": 1693,
      "shipment": 1694,
      "Ledger": 1695,
      "case": 1696,
      "ctive": 1697,
      "print": 1698,
      "property": 1699,
      "days": 1700,
      "doesn": 1701,
      "17": 1702,
      "less": 1703,
      "Record": 1704,
      "Process": 1705,
      "Te": 1706,
      "block": 1707,
      "call": 1708,
      "ging": 1709,
      "orig": 1710,
      "database": 1711,
      "made": 1712,
      "imple": 1713,
      "langu": 1714,
      "directly": 1715,
      "individual": 1716,
      "MF": 1717,
      "ever": 1718,
      "those": 1719,
      "input": 1720,
      "lore": 1721,
      "controls": 1722,
      "included": 1723,
      "ders": 1724,
      "gi": 1725,
      "alk": 1726,
      "units": 1727,
      "preview": 1728,
      "planned": 1729,
      "thentic": 1730,
      "deploy": 1731,
      "Connect": 1732,
      "Step": 1733,
      "Job": 1734,
      "lear": 1735,
      "choose": 1736,
      "cons": 1737,
      "ensation": 1738,
      "Before": 1739,
      "master": 1740,
      "origin": 1741,
      "By": 1742,
      "Dynam": 1743,
      "Sub": 1744,
      "net": 1745,
      "wr": 1746,
      "ouch": 1747,
      "devel": 1748,
      "come": 1749,
      "local": 1750,
      "desired": 1751,
      "position": 1752,
      "depend": 1753,
      "configured": 1754,
      "issues": 1755,
      "shared": 1756,
      "mium": 1757,
      "browser": 1758,
      "ep": 1759,
      "ft": 1760,
      "face": 1761,
      "gation": 1762,
      "ines": 1763,
      "ints": 1764,
      "sel": 1765,
      "relevant": 1766,
      "left": 1767,
      "appropri": 1768,
      "operation": 1769,
      "interest": 1770,
      "XML": 1771,
      "cing": 1772,
      "ific": 1773,
      "slic": 1774,
      "send": 1775,
      "spac": 1776,
      "models": 1777,
      "SharePoint": 1778,
      "36": 1779,
      "SS": 1780,
      "last": 1781,
      "ests": 1782,
      "separ": 1783,
      "examples": 1784,
      "opens": 1785,
      "worksheet": 1786,
      "ime": 1787,
      "pur": 1788,
      "sli": 1789,
      "receive": 1790,
      "intercompany": 1791,
      "cell": 1792,
      "cording": 1793,
      "tenant": 1794,
      "self": 1795,
      "appropriate": 1796,
      "Oper": 1797,
      "greg": 1798,
      "usage": 1799,
      "being": 1800,
      "services": 1801,
      "were": 1802,
      "channel": 1803,
      "month": 1804,
      "embedded": 1805,
      "represent": 1806,
      "similar": 1807,
      "Emb": 1808,
      "Sy": 1809,
      "Time": 1810,
      "ie": 1811,
      "lank": 1812,
      "cies": 1813,
      "Export": 1814,
      "premis": 1815,
      "displays": 1816,
      "Premium": 1817,
      "analysis": 1818,
      "collap": 1819,
      "Visual": 1820,
      "Embed": 1821,
      "premises": 1822,
      "Cur": 1823,
      "Lo": 1824,
      "One": 1825,
      "Option": 1826,
      "free": 1827,
      "enses": 1828,
      "lists": 1829,
      "methods": 1830,
      "integr": 1831,
      "Follow": 1832,
      "Business": 1833,
      "Each": 1834,
      "ward": 1835,
      "ency": 1836,
      "modify": 1837,
      "attributes": 1838,
      "policies": 1839,
      "Number": 1840,
      "Dim": 1841,
      "edi": 1842,
      "lient": 1843,
      "ken": 1844,
      "ration": 1845,
      "redu": 1846,
      "storage": 1847,
      "arti": 1848,
      "ites": 1849,
      "Configur": 1850,
      "personal": 1851,
      "Line": 1852,
      "iqu": 1853,
      "orial": 1854,
      "itor": 1855,
      "abilities": 1856,
      "actual": 1857,
      "expand": 1858,
      "journals": 1859,
      "notific": 1860,
      "letter": 1861,
      "allows": 1862,
      "second": 1863,
      "ptions": 1864,
      "tri": 1865,
      "star": 1866,
      "according": 1867,
      "consumption": 1868,
      "exchange": 1869,
      "external": 1870,
      "reser": 1871,
      "needed": 1872,
      "common": 1873,
      "basic": 1874,
      "finished": 1875,
      "ak": 1876,
      "bit": 1877,
      "word": 1878,
      "tities": 1879,
      "ush": 1880,
      "contin": 1881,
      "completed": 1882,
      "necess": 1883,
      "Default": 1884,
      "sections": 1885,
      "gram": 1886,
      "subscription": 1887,
      "thentication": 1888,
      "Dimension": 1889,
      "AX": 1890,
      "ants": 1891,
      "metr": 1892,
      "aggreg": 1893,
      "Delete": 1894,
      "formatting": 1895,
      "charts": 1896,
      "received": 1897,
      "matching": 1898,
      "Budget": 1899,
      "questionna": 1900,
      "18": 1901,
      "22": 1902,
      "Cash": 1903,
      "Grou": 1904,
      "Out": 1905,
      "fiscal": 1906,
      "repl": 1907,
      "ceed": 1908,
      "creates": 1909,
      "selecting": 1910,
      "compensation": 1911,
      "stead": 1912,
      "loaded": 1913,
      "USMF": 1914,
      "certificate": 1915,
      "curement": 1916,
      "Find": 1917,
      "Rem": 1918,
      "sheet": 1919,
      "arri": 1920,
      "above": 1921,
      "short": 1922,
      "prin": 1923,
      "registration": 1924,
      "command": 1925,
      "started": 1926,
      "released": 1927,
      "determine": 1928,
      "reference": 1929,
      "Allow": 1930,
      "Multi": 1931,
      "ied": 1932,
      "ution": 1933,
      "uled": 1934,
      "ctions": 1935,
      "mak": 1936,
      "strain": 1937,
      "Generate": 1938,
      "Payments": 1939,
      "Move": 1940,
      "names": 1941,
      "illust": 1942,
      "necessary": 1943,
      "ping": 1944,
      "until": 1945,
      "build": 1946,
      "parameter": 1947,
      "Transfer": 1948,
      "member": 1949,
      "Entries": 1950,
      "365": 1951,
      "later": 1952,
      "enish": 1953,
      "entered": 1954,
      "ditions": 1955,
      "ople": 1956,
      "payable": 1957,
      "pose": 1958,
      "running": 1959,
      "event": 1960,
      "tracking": 1961,
      "Cop": 1962,
      "ient": 1963,
      "remain": 1964,
      "osing": 1965,
      "exec": 1966,
      "license": 1967,
      "follows": 1968,
      "customize": 1969,
      "employees": 1970,
      "criteria": 1971,
      "navigation": 1972,
      "behavi": 1973,
      "Copy": 1974,
      "Is": 1975,
      "Text": 1976,
      "tar": 1977,
      "ues": 1978,
      "uling": 1979,
      "Review": 1980,
      "coming": 1981,
      "prices": 1982,
      "differen": 1983,
      "Quan": 1984,
      "Track": 1985,
      "correspon": 1986,
      "Att": 1987,
      "Type": 1988,
      "hours": 1989,
      "blank": 1990,
      "ral": 1991,
      "ring": 1992,
      "would": 1993,
      "seg": 1994,
      "arrow": 1995,
      "opportun": 1996,
      "Rece": 1997,
      "buil": 1998,
      "points": 1999,
      "described": 2000,
      "receiv": 2001,
      "explains": 2002,
      "Ver": 2003,
      "ibility": 2004,
      "range": 2005,
      "sav": 2006,
      "diag": 2007,
      "currently": 2008,
      "Unit": 2009,
      "phys": 2010,
      "DirectQuery": 2011,
      "administrator": 2012,
      "Dynamics": 2013,
      "rates": 2014,
      "incre": 2015,
      "lets": 2016,
      "constrain": 2017,
      "workbook": 2018,
      "calculations": 2019,
      "Services": 2020,
      "portals": 2021,
      "important": 2022,
      "yze": 2023,
      "separate": 2024,
      "Of": 2025,
      "ccess": 2026,
      "ho": 2027,
      "ences": 2028,
      "conditions": 2029,
      "Credit": 2030,
      "achine": 2031,
      "combin": 2032,
      "maximum": 2033,
      "explore": 2034,
      "needs": 2035,
      "retail": 2036,
      "Start": 2037,
      "discounts": 2038,
      "Planning": 2039,
      "requisition": 2040,
      "Retail": 2041,
      "Users": 2042,
      "Quantity": 2043,
      "DAX": 2044,
      "Mon": 2045,
      "global": 2046,
      "mat": 2047,
      "turn": 2048,
      "vouch": 2049,
      "aler": 2050,
      "consum": 2051,
      "optim": 2052,
      "tomate": 2053,
      "keep": 2054,
      "Admin": 2055,
      "Appro": 2056,
      "including": 2057,
      "Stat": 2058,
      "Display": 2059,
      "sequence": 2060,
      "settlement": 2061,
      "Close": 2062,
      "benef": 2063,
      "cut": 2064,
      "pass": 2065,
      "ware": 2066,
      "vide": 2067,
      "eting": 2068,
      "counting": 2069,
      "Search": 2070,
      "changed": 2071,
      "Access": 2072,
      "interval": 2073,
      "package": 2074,
      "adjustment": 2075,
      "parent": 2076,
      "members": 2077,
      "Publish": 2078,
      "space": 2079,
      "Check": 2080,
      "IP": 2081,
      "Sched": 2082,
      "cat": 2083,
      "fac": 2084,
      "idate": 2085,
      "sent": 2086,
      "eng": 2087,
      "tiles": 2088,
      "program": 2089,
      "expect": 2090,
      "lication": 2091,
      "life": 2092,
      "cles": 2093,
      "adding": 2094,
      "quantities": 2095,
      "venue": 2096,
      "website": 2097,
      "stock": 2098,
      "allowed": 2099,
      "toolti": 2100,
      "Cl": 2101,
      "Electronic": 2102,
      "Pick": 2103,
      "four": 2104,
      "medi": 2105,
      "walk": 2106,
      "remo": 2107,
      "aren": 2108,
      "answ": 2109,
      "agreements": 2110,
      "percentage": 2111,
      "Main": 2112,
      "cross": 2113,
      "ole": 2114,
      "ati": 2115,
      "ators": 2116,
      "eries": 2117,
      "ular": 2118,
      "ili": 2119,
      "capabilities": 2120,
      "Assemb": 2121,
      "periods": 2122,
      "Support": 2123,
      "language": 2124,
      "19": 2125,
      "User": 2126,
      "team": 2127,
      "ended": 2128,
      "route": 2129,
      "aging": 2130,
      "visualizations": 2131,
      "ggle": 2132,
      "Overview": 2133,
      "consist": 2134,
      "collapse": 2135,
      "questionnaire": 2136,
      "behavior": 2137,
      "Cent": 2138,
      "client": 2139,
      "nch": 2140,
      "conver": 2141,
      "memo": 2142,
      "terms": 2143,
      "serial": 2144,
      "disable": 2145,
      "authentication": 2146,
      "describe": 2147,
      "measures": 2148,
      "limitations": 2149,
      "manager": 2150,
      "original": 2151,
      "nchron": 2152,
      "Str": 2153,
      "light": 2154,
      "ale": 2155,
      "contacts": 2156,
      "requires": 2157,
      "provided": 2158,
      "Choose": 2159,
      "Field": 2160,
      "charge": 2161,
      "objects": 2162,
      "Automat": 2163,
      "physical": 2164,
      "every": 2165,
      "my": 2166,
      "vity": 2167,
      "ict": 2168,
      "umer": 2169,
      "cip": 2170,
      "note": 2171,
      "Filter": 2172,
      "manufacturing": 2173,
      "receivable": 2174,
      "Verify": 2175,
      "Me": 2176,
      "Rel": 2177,
      "could": 2178,
      "lar": 2179,
      "mer": 2180,
      "wit": 2181,
      "altern": 2182,
      "tice": 2183,
      "itu": 2184,
      "context": 2185,
      "Adjust": 2186,
      "interface": 2187,
      "prior": 2188,
      "statements": 2189,
      "scheduled": 2190,
      "represents": 2191,
      "Application": 2192,
      "fully": 2193,
      "write": 2194,
      "System": 2195,
      "Ke": 2196,
      "Lear": 2197,
      "Task": 2198,
      "cus": 2199,
      "itive": 2200,
      "scri": 2201,
      "instead": 2202,
      "recon": 2203,
      "dataflows": 2204,
      "cessed": 2205,
      "performed": 2206,
      "bookmark": 2207,
      "scheduling": 2208,
      "labels": 2209,
      "Common": 2210,
      "Document": 2211,
      "given": 2212,
      "Some": 2213,
      "well": 2214,
      "sell": 2215,
      "profiles": 2216,
      "mem": 2217,
      "while": 2218,
      "Creating": 2219,
      "impro": 2220,
      "Apply": 2221,
      "guide": 2222,
      "versions": 2223,
      "materials": 2224,
      "metrics": 2225,
      "Not": 2226,
      "Save": 2227,
      "fies": 2228,
      "special": 2229,
      "Reports": 2230,
      "maintain": 2231,
      "Automate": 2232,
      "certain": 2233,
      "managed": 2234,
      "events": 2235,
      "Analysis": 2236,
      "consolid": 2237,
      "ique": 2238,
      "target": 2239,
      "Mar": 2240,
      "iled": 2241,
      "ped": 2242,
      "initi": 2243,
      "restr": 2244,
      "anies": 2245,
      "queries": 2246,
      "ister": 2247,
      "round": 2248,
      "ensure": 2249,
      "minimum": 2250,
      "applies": 2251,
      "AD": 2252,
      "List": 2253,
      "ily": 2254,
      "estim": 2255,
      "istical": 2256,
      "cho": 2257,
      "met": 2258,
      "quis": 2259,
      "quality": 2260,
      "cep": 2261,
      "Only": 2262,
      "editor": 2263,
      "linked": 2264,
      "Modify": 2265,
      "bins": 2266,
      "understand": 2267,
      "develop": 2268,
      "voucher": 2269,
      "Am": 2270,
      "IS": 2271,
      "real": 2272,
      "revenue": 2273,
      "ently": 2274,
      "arning": 2275,
      "gets": 2276,
      "ading": 2277,
      "credenti": 2278,
      "sert": 2279,
      "success": 2280,
      "clude": 2281,
      "returns": 2282,
      "errors": 2283,
      "earli": 2284,
      "Book": 2285,
      "enishment": 2286,
      "AN": 2287,
      "Table": 2288,
      "done": 2289,
      "people": 2290,
      "utorial": 2291,
      "requests": 2292,
      "recording": 2293,
      "posal": 2294,
      "good": 2295,
      "distribu": 2296,
      "Off": 2297,
      "30": 2298,
      "Jap": 2299,
      "even": 2300,
      "pop": 2301,
      "rix": 2302,
      "peat": 2303,
      "unique": 2304,
      "Settle": 2305,
      "ground": 2306,
      "vely": 2307,
      "supports": 2308,
      "release": 2309,
      "ification": 2310,
      "saved": 2311,
      "Japan": 2312,
      "BL": 2313,
      "Other": 2314,
      "hist": 2315,
      "ram": 2316,
      "rast": 2317,
      "aring": 2318,
      "fix": 2319,
      "Inst": 2320,
      "addition": 2321,
      "try": 2322,
      "However": 2323,
      "entire": 2324,
      "formats": 2325,
      "links": 2326,
      "depart": 2327,
      "charges": 2328,
      "Ship": 2329,
      "picking": 2330,
      "affect": 2331,
      "Intrast": 2332,
      "Location": 2333,
      "slip": 2334,
      "Intrastat": 2335,
      "Sign": 2336,
      "emp": 2337,
      "fit": 2338,
      "ote": 2339,
      "oid": 2340,
      "cept": 2341,
      "trade": 2342,
      "fective": 2343,
      "Once": 2344,
      "depending": 2345,
      "corner": 2346,
      "cards": 2347,
      "Organ": 2348,
      "connections": 2349,
      "billing": 2350,
      "Documents": 2351,
      "credentials": 2352,
      "Ar": 2353,
      "Cap": 2354,
      "cili": 2355,
      "om": 2356,
      "sp": 2357,
      "tap": 2358,
      "rever": 2359,
      "arr": 2360,
      "updates": 2361,
      "modi": 2362,
      "ured": 2363,
      "workers": 2364,
      "definitions": 2365,
      "Dep": 2366,
      "Chan": 2367,
      "stored": 2368,
      "present": 2369,
      "Value": 2370,
      "shortcut": 2371,
      "catalog": 2372,
      "Mark": 2373,
      "21": 2374,
      "Par": 2375,
      "best": 2376,
      "ived": 2377,
      "mail": 2378,
      "oud": 2379,
      "aph": 2380,
      "dataflow": 2381,
      "routing": 2382,
      "images": 2383,
      "Code": 2384,
      "internal": 2385,
      "submit": 2386,
      "sche": 2387,
      "against": 2388,
      "slicer": 2389,
      "quisition": 2390,
      "ciliation": 2391,
      "machine": 2392,
      "ink": 2393,
      "asing": 2394,
      "izing": 2395,
      "listed": 2396,
      "transl": 2397,
      "owner": 2398,
      "ested": 2399,
      "filled": 2400,
      "imported": 2401,
      "Contact": 2402,
      "Financial": 2403,
      "Perform": 2404,
      "integration": 2405,
      "Configuration": 2406,
      "trig": 2407,
      "matrix": 2408,
      "expected": 2409,
      "earlier": 2410,
      "Peri": 2411,
      "bles": 2412,
      "gre": 2413,
      "devices": 2414,
      "deleted": 2415,
      "debit": 2416,
      "abor": 2417,
      "creation": 2418,
      "visible": 2419,
      "logic": 2420,
      "paid": 2421,
      "insights": 2422,
      "Register": 2423,
      "Operations": 2424,
      "articles": 2425,
      "witch": 2426,
      "consolidation": 2427,
      "Period": 2428,
      "Categ": 2429,
      "EU": 2430,
      "HT": 2431,
      "Source": 2432,
      "UI": 2433,
      "equ": 2434,
      "gges": 2435,
      "ses": 2436,
      "ature": 2437,
      "enc": 2438,
      "demon": 2439,
      "abs": 2440,
      "posit": 2441,
      "provider": 2442,
      "Notice": 2443,
      "filtering": 2444,
      "returned": 2445,
      "messages": 2446,
      "identify": 2447,
      "segment": 2448,
      "demonstr": 2449,
      "Av": 2450,
      "Do": 2451,
      "Fe": 2452,
      "Put": 2453,
      "Sample": 2454,
      "frequ": 2455,
      "ler": 2456,
      "pin": 2457,
      "reak": 2458,
      "istics": 2459,
      "processed": 2460,
      "tech": 2461,
      "views": 2462,
      "outbound": 2463,
      "organizational": 2464,
      "automatic": 2465,
      "Model": 2466,
      "formulas": 2467,
      "instance": 2468,
      "Remove": 2469,
      "Amount": 2470,
      "Next": 2471,
      "WIP": 2472,
      "mig": 2473,
      "purch": 2474,
      "ytics": 2475,
      "iced": 2476,
      "They": 2477,
      "uture": 2478,
      "Toggle": 2479,
      "series": 2480,
      "See": 2481,
      "Acti": 2482,
      "Quick": 2483,
      "variable": 2484,
      "tools": 2485,
      "Overri": 2486,
      "Print": 2487,
      "deployment": 2488,
      "hoot": 2489,
      "bleshoot": 2490,
      "100": 2491,
      "25": 2492,
      "Employe": 2493,
      "Page": 2494,
      "SE": 2495,
      "ek": 2496,
      "fresh": 2497,
      "sti": 2498,
      "warning": 2499,
      "eline": 2500,
      "meet": 2501,
      "ardware": 2502,
      "notes": 2503,
      "practi": 2504,
      "reflect": 2505,
      "effect": 2506,
      "summary": 2507,
      "End": 2508,
      "Mess": 2509,
      "future": 2510,
      "know": 2511,
      "rection": 2512,
      "always": 2513,
      "deci": 2514,
      "upper": 2515,
      "sugges": 2516,
      "synchron": 2517,
      "Templ": 2518,
      "Tot": 2519,
      "long": 2520,
      "sale": 2521,
      "ream": 2522,
      "ante": 2523,
      "ough": 2524,
      "ision": 2525,
      "arante": 2526,
      "Repeat": 2527,
      "acters": 2528,
      "Advanced": 2529,
      "domain": 2530,
      "render": 2531,
      "approved": 2532,
      "grant": 2533,
      "graph": 2534,
      "Orders": 2535,
      "levels": 2536,
      "background": 2537,
      "Under": 2538,
      "Finance": 2539,
      "collections": 2540,
      "Format": 2541,
      "confirmation": 2542,
      "Tracking": 2543,
      "corresponding": 2544,
      "Method": 2545,
      "still": 2546,
      "Are": 2547,
      "Window": 2548,
      "fl": 2549,
      "flex": 2550,
      "mall": 2551,
      "pip": 2552,
      "replace": 2553,
      "useful": 2554,
      "compare": 2555,
      "Refresh": 2556,
      "invoiced": 2557,
      "Ext": 2558,
      "download": 2559,
      "poses": 2560,
      "Reporting": 2561,
      "guarante": 2562,
      "basis": 2563,
      "Typ": 2564,
      "24": 2565,
      "pat": 2566,
      "wid": 2567,
      "urance": 2568,
      "upload": 2569,
      "rie": 2570,
      "costing": 2571,
      "Depreciation": 2572,
      "party": 2573,
      "optional": 2574,
      "Any": 2575,
      "centers": 2576,
      "Curren": 2577,
      "starting": 2578,
      "Bas": 2579,
      "Link": 2580,
      "Role": 2581,
      "den": 2582,
      "lder": 2583,
      "sk": 2584,
      "accr": 2585,
      "ately": 2586,
      "procurement": 2587,
      "lying": 2588,
      "folder": 2589,
      "plit": 2590,
      "plans": 2591,
      "fee": 2592,
      "invoicing": 2593,
      "ficient": 2594,
      "availability": 2595,
      "typically": 2596,
      "organizations": 2597,
      "Entity": 2598,
      "Alloc": 2599,
      "adjustments": 2600,
      "pair": 2601,
      "continue": 2602,
      "23": 2603,
      "CS": 2604,
      "Dri": 2605,
      "Day": 2606,
      "Tab": 2607,
      "bot": 2608,
      "dynam": 2609,
      "simple": 2610,
      "things": 2611,
      "ones": 2612,
      "five": 2613,
      "promp": 2614,
      "gether": 2615,
      "Additional": 2616,
      "balances": 2617,
      "impact": 2618,
      "tak": 2619,
      "positions": 2620,
      "guid": 2621,
      "hierarchies": 2622,
      "Customize": 2623,
      "registered": 2624,
      "Filters": 2625,
      "purposes": 2626,
      "diagram": 2627,
      "guarantee": 2628,
      "Cr": 2629,
      "host": 2630,
      "rodu": 2631,
      "stream": 2632,
      "acy": 2633,
      "child": 2634,
      "ety": 2635,
      "dest": 2636,
      "File": 2637,
      "operating": 2638,
      "characters": 2639,
      "clear": 2640,
      "analyze": 2641,
      "underlying": 2642,
      "determines": 2643,
      "password": 2644,
      "99": 2645,
      "Fun": 2646,
      "Identi": 2647,
      "bon": 2648,
      "break": 2649,
      "cases": 2650,
      "mits": 2651,
      "instru": 2652,
      "incoming": 2653,
      "ession": 2654,
      "ansion": 2655,
      "feed": 2656,
      "libr": 2657,
      "expansion": 2658,
      "overri": 2659,
      "workflows": 2660,
      "closed": 2661,
      "Column": 2662,
      "validation": 2663,
      "implement": 2664,
      "Group": 2665,
      "replenishment": 2666,
      "video": 2667,
      "restric": 2668,
      "200": 2669,
      "Gu": 2670,
      "PA": 2671,
      "small": 2672,
      "tes": 2673,
      "uary": 2674,
      "thing": 2675,
      "ination": 2676,
      "ont": 2677,
      "online": 2678,
      "onger": 2679,
      "condition": 2680,
      "begin": 2681,
      "exact": 2682,
      "adata": 2683,
      "Why": 2684,
      "colors": 2685,
      "comments": 2686,
      "pool": 2687,
      "often": 2688,
      "node": 2689,
      "variance": 2690,
      "variables": 2691,
      "Fix": 2692,
      "Fill": 2693,
      "primary": 2694,
      "axis": 2695,
      "notification": 2696,
      "tooltip": 2697,
      "large": 2698,
      "Total": 2699,
      "width": 2700,
      "Batch": 2701,
      "High": 2702,
      "La": 2703,
      "Port": 2704,
      "Sc": 2705,
      "longer": 2706,
      "numer": 2707,
      "atory": 2708,
      "abling": 2709,
      "valuation": 2710,
      "old": 2711,
      "defines": 2712,
      "iration": 2713,
      "detail": 2714,
      "copied": 2715,
      "tenance": 2716,
      "Inte": 2717,
      "Calculate": 2718,
      "navigate": 2719,
      "quickly": 2720,
      "indicates": 2721,
      "drag": 2722,
      "draw": 2723,
      "reconciliation": 2724,
      "empty": 2725,
      "Organization": 2726,
      "Im": 2727,
      "Pa": 2728,
      "Pri": 2729,
      "Person": 2730,
      "UBL": 2731,
      "sn": 2732,
      "switch": 2733,
      "anch": 2734,
      "least": 2735,
      "stages": 2736,
      "Include": 2737,
      "resol": 2738,
      "shap": 2739,
      "prepayment": 2740,
      "cular": 2741,
      "comes": 2742,
      "interact": 2743,
      "ird": 2744,
      "ighted": 2745,
      "retrie": 2746,
      "approach": 2747,
      "runs": 2748,
      "books": 2749,
      "Company": 2750,
      "packing": 2751,
      "Preview": 2752,
      "transferred": 2753,
      "summar": 2754,
      "insurance": 2755,
      "attachment": 2756,
      "hold": 2757,
      "particular": 2758,
      "remaining": 2759,
      "opportunity": 2760,
      "improve": 2761,
      "Category": 2762,
      "HTML": 2763,
      "Basic": 2764,
      "Center": 2765,
      "Dem": 2766,
      "ON": 2767,
      "pan": 2768,
      "td": 2769,
      "tutorial": 2770,
      "vate": 2771,
      "ermin": 2772,
      "lead": 2773,
      "together": 2774,
      "dio": 2775,
      "tract": 2776,
      "companies": 2777,
      "Rele": 2778,
      "cloud": 2779,
      "week": 2780,
      "aving": 2781,
      "expenses": 2782,
      "looks": 2783,
      "aster": 2784,
      "variants": 2785,
      "shipping": 2786,
      "projects": 2787,
      "solutions": 2788,
      "requisites": 2789,
      "easy": 2790,
      "occurs": 2791,
      "purpose": 2792,
      "notifications": 2793,
      "increase": 2794,
      "engine": 2795,
      "Automatic": 2796,
      "Key": 2797,
      "distribution": 2798,
      "history": 2799,
      "Understand": 2800,
      "Currency": 2801,
      "Fr": 2802,
      "KP": 2803,
      "Sto": 2804,
      "fr": 2805,
      "her": 2806,
      "nown": 2807,
      "tual": 2808,
      "vent": 2809,
      "inde": 2810,
      "theme": 2811,
      "dered": 2812,
      "conversion": 2813,
      "focus": 2814,
      "final": 2815,
      "Then": 2816,
      "recur": 2817,
      "invol": 2818,
      "pricing": 2819,
      "buttons": 2820,
      "monitor": 2821,
      "correctly": 2822,
      "benefits": 2823,
      "Schedule": 2824,
      "initial": 2825,
      "rounding": 2826,
      "SEPA": 2827,
      "Message": 2828,
      "instructions": 2829,
      "But": 2830,
      "Hub": 2831,
      "Pl": 2832,
      "QL": 2833,
      "cti": 2834,
      "uro": 2835,
      "yth": 2836,
      "third": 2837,
      "encies": 2838,
      "alloc": 2839,
      "leting": 2840,
      "aced": 2841,
      "acquisition": 2842,
      "cancel": 2843,
      "cile": 2844,
      "Recon": 2845,
      "Consider": 2846,
      "funds": 2847,
      "maintenance": 2848,
      "Transaction": 2849,
      "handling": 2850,
      "Build": 2851,
      "easily": 2852,
      "Current": 2853,
      "difference": 2854,
      "building": 2855,
      "answer": 2856,
      "script": 2857,
      "memory": 2858,
      "department": 2859,
      "Identify": 2860,
      "Git": 2861,
      "Map": 2862,
      "Pack": 2863,
      "Site": 2864,
      "lt": 2865,
      "tag": 2866,
      "once": 2867,
      "root": 2868,
      "acing": 2869,
      "deleg": 2870,
      "coverage": 2871,
      "tered": 2872,
      "limits": 2873,
      "prepare": 2874,
      "extension": 2875,
      "strateg": 2876,
      "Accounting": 2877,
      "associate": 2878,
      "Contacts": 2879,
      "classification": 2880,
      "phone": 2881,
      "Return": 2882,
      "Calculation": 2883,
      "Altern": 2884,
      "manufactured": 2885,
      "partial": 2886,
      "Team": 2887,
      "Optional": 2888,
      "Multiple": 2889,
      "alert": 2890,
      "removed": 2891,
      "Central": 2892,
      "String": 2893,
      "popul": 2894,
      "Install": 2895,
      "array": 2896,
      "absence": 2897,
      "pattern": 2898,
      "Demand": 2899,
      "Euro": 2900,
      "Lines": 2901,
      "Pyth": 2902,
      "Year": 2903,
      "pie": 2904,
      "scan": 2905,
      "dec": 2906,
      "conditional": 2907,
      "areas": 2908,
      "pective": 2909,
      "direction": 2910,
      "workload": 2911,
      "Conver": 2912,
      "droid": 2913,
      "gui": 2914,
      "Android": 2915,
      "connector": 2916,
      "Respon": 2917,
      "response": 2918,
      "handle": 2919,
      "Entry": 2920,
      "considerations": 2921,
      "Embedded": 2922,
      "execution": 2923,
      "consists": 2924,
      "disabled": 2925,
      "metadata": 2926,
      "cepts": 2927,
      "Capac": 2928,
      "Parame": 2929,
      "Windows": 2930,
      "guidance": 2931,
      "Python": 2932,
      "Count": 2933,
      "Pos": 2934,
      "SQL": 2935,
      "ake": 2936,
      "dic": 2937,
      "hardware": 2938,
      "raw": 2939,
      "uch": 2940,
      "refer": 2941,
      "reposit": 2942,
      "ang": 2943,
      "ely": 2944,
      "means": 2945,
      "contents": 2946,
      "utes": 2947,
      "izes": 2948,
      "grade": 2949,
      "Workflow": 2950,
      "Compon": 2951,
      "responsi": 2952,
      "Control": 2953,
      "Transactions": 2954,
      "activate": 2955,
      "receipts": 2956,
      "sequences": 2957,
      "reserv": 2958,
      "explorer": 2959,
      "Monitor": 2960,
      "Supported": 2961,
      "goods": 2962,
      "reverse": 2963,
      "modified": 2964,
      "Types": 2965,
      "index": 2966,
      "repository": 2967,
      "27": 2968,
      "DE": 2969,
      "FT": 2970,
      "Fir": 2971,
      "Navi": 2972,
      "Ob": 2973,
      "RE": 2974,
      "RF": 2975,
      "RL": 2976,
      "bur": 2977,
      "gress": 2978,
      "lower": 2979,
      "ute": 2980,
      "won": 2981,
      "inbound": 2982,
      "portation": 2983,
      "quote": 2984,
      "ends": 2985,
      "plate": 2986,
      "trace": 2987,
      "closing": 2988,
      "keys": 2989,
      "imit": 2990,
      "mind": 2991,
      "avor": 2992,
      "Adding": 2993,
      "audit": 2994,
      "taken": 2995,
      "filtered": 2996,
      "Online": 2997,
      "shipped": 2998,
      "exists": 2999,
      "Stand": 3000,
      "applications": 3001,
      "statistical": 3002,
      "expressions": 3003,
      "Level": 3004,
      "Records": 3005,
      "Attribute": 3006,
      "lifecycle": 3007,
      "bottom": 3008,
      "dynamic": 3009,
      "Criteria": 3010,
      "Ab": 3011,
      "CSS": 3012,
      "Test": 3013,
      "Word": 3014,
      "happ": 3015,
      "ires": 3016,
      "ners": 3017,
      "scal": 3018,
      "inside": 3019,
      "oring": 3020,
      "station": 3021,
      "youts": 3022,
      "proposal": 3023,
      "vile": 3024,
      "sharing": 3025,
      "descriptions": 3026,
      "editing": 3027,
      "stores": 3028,
      "receiving": 3029,
      "going": 3030,
      "Maximum": 3031,
      "Because": 3032,
      "subscri": 3033,
      "collabor": 3034,
      "Supply": 3035,
      "network": 3036,
      "Learning": 3037,
      "schema": 3038,
      "Overrides": 3039,
      "Europe": 3040,
      "Standard": 3041,
      "Down": 3042,
      "Master": 3043,
      "found": 3044,
      "situ": 3045,
      "session": 3046,
      "enables": 3047,
      "alent": 3048,
      "along": 3049,
      "itself": 3050,
      "complex": 3051,
      "ensity": 3052,
      "sugg": 3053,
      "avoid": 3054,
      "bud": 3055,
      "Procurement": 3056,
      "identity": 3057,
      "Active": 3058,
      "better": 3059,
      "mploy": 3060,
      "helps": 3061,
      "capacities": 3062,
      "connected": 3063,
      "Resource": 3064,
      "requested": 3065,
      "administration": 3066,
      "attachments": 3067,
      "branch": 3068,
      "indicate": 3069,
      "Avail": 3070,
      "Extension": 3071,
      "Bal": 3072,
      "DF": 3073,
      "Email": 3074,
      "Flow": 3075,
      "Home": 3076,
      "IO": 3077,
      "Mapping": 3078,
      "PN": 3079,
      "SK": 3080,
      "Tax": 3081,
      "density": 3082,
      "give": 3083,
      "home": 3084,
      "ified": 3085,
      "lay": 3086,
      "much": 3087,
      "push": 3088,
      "sens": 3089,
      "util": 3090,
      "ince": 3091,
      "ero": 3092,
      "ouble": 3093,
      "alled": 3094,
      "leave": 3095,
      "force": 3096,
      "Ins": 3097,
      "tra": 3098,
      "Confirm": 3099,
      "While": 3100,
      "manual": 3101,
      "recorded": 3102,
      "commit": 3103,
      "commun": 3104,
      "BOMs": 3105,
      "Complete": 3106,
      "Prepare": 3107,
      "requirement": 3108,
      "currencies": 3109,
      "contracts": 3110,
      "keyboard": 3111,
      "higher": 3112,
      "highlight": 3113,
      "Calendar": 3114,
      "published": 3115,
      "attached": 3116,
      "Collection": 3117,
      "illustration": 3118,
      "opportunities": 3119,
      "constraints": 3120,
      "atively": 3121,
      "Tasks": 3122,
      "migration": 3123,
      "31": 3124,
      "Act": 3125,
      "Del": 3126,
      "Fact": 3127,
      "PDF": 3128,
      "SAP": 3129,
      "Where": 3130,
      "bul": 3131,
      "known": 3132,
      "ra": 3133,
      "reb": 3134,
      "outs": 3135,
      "toler": 3136,
      "icated": 3137,
      "deta": 3138,
      "progress": 3139,
      "dating": 3140,
      "licenses": 3141,
      "resize": 3142,
      "unch": 3143,
      "ender": 3144,
      "ampa": 3145,
      "live": 3146,
      "immedi": 3147,
      "parts": 3148,
      "mandatory": 3149,
      "packages": 3150,
      "classic": 3151,
      "2016": 3152,
      "fulfill": 3153,
      "aft": 3154,
      "learn": 3155,
      "developer": 3156,
      "alerts": 3157,
      "Assembly": 3158,
      "trigger": 3159,
      "Template": 3160,
      "recurring": 3161,
      "Capacity": 3162,
      "Object": 3163,
      "detailed": 3164,
      "28": 3165,
      "Ef": 3166,
      "Net": 3167,
      "OIO": 3168,
      "carri": 3169,
      "plot": 3170,
      "warehou": 3171,
      "yet": 3172,
      "insert": 3173,
      "alty": 3174,
      "elig": 3175,
      "cover": 3176,
      "via": 3177,
      "uman": 3178,
      "tect": 3179,
      "finance": 3180,
      "ock": 3181,
      "fees": 3182,
      "cla": 3183,
      "prerequisites": 3184,
      "Proper": 3185,
      "regular": 3186,
      "Chart": 3187,
      "checks": 3188,
      "procedures": 3189,
      "connectors": 3190,
      "installed": 3191,
      "topics": 3192,
      "Management": 3193,
      "Buil": 3194,
      "Planned": 3195,
      "totals": 3196,
      "reasons": 3197,
      "consolidated": 3198,
      "Request": 3199,
      "differences": 3200,
      "alternate": 3201,
      "accrual": 3202,
      "library": 3203,
      "override": 3204,
      "GitHub": 3205,
      "Teams": 3206,
      "First": 3207,
      "Actual": 3208,
      "ampaign": 3209,
      "OIOUBL": 3210,
      "Hand": 3211,
      "car": 3212,
      "fail": 3213,
      "mal": 3214,
      "por": 3215,
      "reorder": 3216,
      "enh": 3217,
      "alf": 3218,
      "forward": 3219,
      "mental": 3220,
      "sett": 3221,
      "vision": 3222,
      "predefined": 3223,
      "achie": 3224,
      "transform": 3225,
      "fication": 3226,
      "minutes": 3227,
      "Devel": 3228,
      "fund": 3229,
      "Associ": 3230,
      "Opportun": 3231,
      "privile": 3232,
      "Therefore": 3233,
      "Content": 3234,
      "exported": 3235,
      "partner": 3236,
      "Polic": 3237,
      "limited": 3238,
      "previously": 3239,
      "identifi": 3240,
      "Box": 3241,
      "Public": 3242,
      "Load": 3243,
      "princip": 3244,
      "Receive": 3245,
      "combination": 3246,
      "Status": 3247,
      "benefit": 3248,
      "Class": 3249,
      "convert": 3250,
      "priority": 3251,
      "Employee": 3252,
      "practices": 3253,
      "prompted": 3254,
      "RFQ": 3255,
      "26": 3256,
      "Bill": 3257,
      "Er": 3258,
      "Full": 3259,
      "NA": 3260,
      "Purch": 3261,
      "Row": 3262,
      "fers": 3263,
      "hy": 3264,
      "prec": 3265,
      "past": 3266,
      "lean": 3267,
      "acter": 3268,
      "profit": 3269,
      "concepts": 3270,
      "osite": 3271,
      "urther": 3272,
      "mod": 3273,
      "verify": 3274,
      "viewing": 3275,
      "posts": 3276,
      "derived": 3277,
      "approver": 3278,
      "Char": 3279,
      "Manag": 3280,
      "whole": 3281,
      "strings": 3282,
      "installation": 3283,
      "selections": 3284,
      "continu": 3285,
      "Dimensions": 3286,
      "makes": 3287,
      "Attach": 3288,
      "built": 3289,
      "facility": 3290,
      "answers": 3291,
      "ISO": 3292,
      "Office": 3293,
      "burse": 3294,
      "..": 3295,
      "Back": 3296,
      "Benef": 3297,
      "FO": 3298,
      "Fast": 3299,
      "Fiscal": 3300,
      "Log": 3301,
      "Rou": 3302,
      "Su": 3303,
      "Sing": 3304,
      "aight": 3305,
      "bind": 3306,
      "split": 3307,
      "ture": 3308,
      "udio": 3309,
      "zero": 3310,
      "tips": 3311,
      "lement": 3312,
      "around": 3313,
      "acting": 3314,
      "conform": 3315,
      "ablish": 3316,
      "exceed": 3317,
      "direc": 3318,
      "tection": 3319,
      "Which": 3320,
      "buy": 3321,
      "quotation": 3322,
      "introdu": 3323,
      "dedicated": 3324,
      "variant": 3325,
      "Costs": 3326,
      "Manually": 3327,
      "character": 3328,
      "Customers": 3329,
      "forecasting": 3330,
      "Forecast": 3331,
      "Output": 3332,
      "walkthrough": 3333,
      "bleshooting": 3334,
      "suggestions": 3335,
      "numeric": 3336,
      "decision": 3337,
      "FactBox": 3338,
      "outside": 3339,
      "NAV": 3340,
      "Dashboard": 3341,
      "OS": 3342,
      "Red": 3343,
      "Sort": 3344,
      "SPN": 3345,
      "Trou": 3346,
      "Two": 3347,
      "Watch": 3348,
      "bine": 3349,
      "dock": 3350,
      "gative": 3351,
      "pbi": 3352,
      "zard": 3353,
      "too": 3354,
      "core": 3355,
      "wizard": 3356,
      "reported": 3357,
      "shot": 3358,
      "combine": 3359,
      "rectang": 3360,
      "regard": 3361,
      "Comb": 3362,
      "admins": 3363,
      "designed": 3364,
      "layouts": 3365,
      "path": 3366,
      "Editor": 3367,
      "Validate": 3368,
      "easier": 3369,
      "Analyze": 3370,
      "deliver": 3371,
      "Formul": 3372,
      "recommended": 3373,
      "learning": 3374,
      "reduce": 3375,
      "Configurations": 3376,
      "Centers": 3377,
      "Learn": 3378,
      "development": 3379,
      "graphic": 3380,
      "Allocation": 3381,
      "Portal": 3382,
      "Image": 3383,
      "Alternatively": 3384,
      "Deli": 3385,
      "Err": 3386,
      "Clear": 3387,
      "Jan": 3388,
      "My": 3389,
      "Mig": 3390,
      "Part": 3391,
      "Sum": 3392,
      "Take": 3393,
      "Vari": 3394,
      "aS": 3395,
      "ait": 3396,
      "bbon": 3397,
      "favor": 3398,
      "rating": 3399,
      "simp": 3400,
      "remin": 3401,
      "repair": 3402,
      "alle": 3403,
      "token": 3404,
      "sty": 3405,
      "conside": 3406,
      "Information": 3407,
      "exce": 3408,
      "vir": 3409,
      "ourcing": 3410,
      "Read": 3411,
      "aining": 3412,
      "weight": 3413,
      "paralle": 3414,
      "fast": 3415,
      "Studio": 3416,
      "screens": 3417,
      "classes": 3418,
      "analytics": 3419,
      "Determin": 3420,
      "addresses": 3421,
      "publishing": 3422,
      "rowsers": 3423,
      "loyalty": 3424,
      "Price": 3425,
      "distribute": 3426,
      "holding": 3427,
      "Require": 3428,
      "regions": 3429,
      "languages": 3430,
      "Look": 3431,
      "consumed": 3432,
      "optimized": 3433,
      "Approve": 3434,
      "Approval": 3435,
      "walks": 3436,
      "Assemble": 3437,
      "converted": 3438,
      "techn": 3439,
      "purchasing": 3440,
      "takes": 3441,
      "20022": 3442,
      "testing": 3443,
      "mployment": 3444,
      "immediately": 3445,
      "considered": 3446,
      "parallel": 3447,
      "Card": 3448,
      "Dif": 3449,
      "HAN": 3450,
      "Human": 3451,
      "JS": 3452,
      "Min": 3453,
      "PBI": 3454,
      "Tap": 3455,
      "campaign": 3456,
      "ran": 3457,
      "sending": 3458,
      "reco": 3459,
      "proble": 3460,
      "advant": 3461,
      "ribbon": 3462,
      "apped": 3463,
      "Reorder": 3464,
      "imburse": 3465,
      "Coll": 3466,
      "positive": 3467,
      "loading": 3468,
      "approve": 3469,
      "projected": 3470,
      "State": 3471,
      "Working": 3472,
      "Weighted": 3473,
      "Defining": 3474,
      "resulting": 3475,
      "adjusted": 3476,
      "offset": 3477,
      "paste": 3478,
      "Getting": 3479,
      "belong": 3480,
      "references": 3481,
      "itivity": 3482,
      "APIs": 3483,
      "channels": 3484,
      "making": 3485,
      "tooltips": 3486,
      "Maintain": 3487,
      "alternative": 3488,
      "bookmarks": 3489,
      "successfully": 3490,
      "decide": 3491,
      "skill": 3492,
      "Personal": 3493,
      "Parameters": 3494,
      "scale": 3495,
      "ISO20022": 3496,
      "Single": 3497,
      "Error": 3498,
      "HANA": 3499,
      "--": 3500,
      "Best": 3501,
      "Based": 3502,
      "Dist": 3503,
      "Es": 3504,
      "Limit": 3505,
      "ben": 3506,
      "browsers": 3507,
      "further": 3508,
      "having": 3509,
      "press": 3510,
      "reight": 3511,
      "const": 3512,
      "Insert": 3513,
      "uplic": 3514,
      "validate": 3515,
      "called": 3516,
      "Exchange": 3517,
      "changing": 3518,
      "extend": 3519,
      "olu": 3520,
      "suppl": 3521,
      "generating": 3522,
      "intended": 3523,
      "overn": 3524,
      "checkbox": 3525,
      "Ensure": 3526,
      "refreshes": 3527,
      "named": 3528,
      "Head": 3529,
      "factor": 3530,
      "determined": 3531,
      "afety": 3532,
      "icons": 3533,
      "AppSource": 3534,
      "princi": 3535,
      "realized": 3536,
      "Depending": 3537,
      "shortcuts": 3538,
      "great": 3539,
      "frequently": 3540,
      "France": 3541,
      "Effective": 3542,
      "principal": 3543,
      "Manager": 3544,
      "virtual": 3545,
      "29": 3546,
      "40": 3547,
      "Average": 3548,
      "Cross": 3549,
      "IT": 3550,
      "Kanban": 3551,
      "Meas": 3552,
      "Shel": 3553,
      "Wr": 3554,
      "flu": 3555,
      "reject": 3556,
      "ital": 3557,
      "elines": 3558,
      "mean": 3559,
      "ets": 3560,
      "yourself": 3561,
      "selects": 3562,
      "shif": 3563,
      "invit": 3564,
      "That": 3565,
      "produced": 3566,
      "ensive": 3567,
      "customized": 3568,
      "showing": 3569,
      "clicking": 3570,
      "0000": 3571,
      "interactions": 3572,
      "iring": 3573,
      "Ques": 3574,
      "webpage": 3575,
      "Options": 3576,
      "container": 3577,
      "Manufact": 3578,
      "movement": 3579,
      "logy": 3580,
      "respond": 3581,
      "Invoices": 3582,
      "Valid": 3583,
      "requisitions": 3584,
      "administrators": 3585,
      "Products": 3586,
      "Usage": 3587,
      "Leg": 3588,
      "calls": 3589,
      "slicers": 3590,
      "arrival": 3591,
      "Administr": 3592,
      "Automatically": 3593,
      "choice": 3594,
      "Deploy": 3595,
      "Store": 3596,
      "delegation": 3597,
      "subscriptions": 3598,
      "claim": 3599,
      "JSON": 3600,
      "Shell": 3601,
      "33": 3602,
      "CR": 3603,
      "Hel": 3604,
      "Li": 3605,
      "Label": 3606,
      "mapped": 3607,
      "stop": 3608,
      "sourcing": 3609,
      "vs": 3610,
      "zone": 3611,
      "elim": 3612,
      "decre": 3613,
      "unless": 3614,
      "PowerShell": 3615,
      "dule": 3616,
      "prefer": 3617,
      "assort": 3618,
      "colle": 3619,
      "ippe": 3620,
      "rendered": 3621,
      "faul": 3622,
      "interactive": 3623,
      "assignment": 3624,
      "tabs": 3625,
      "Viewing": 3626,
      "applicable": 3627,
      "Workspace": 3628,
      "headers": 3629,
      "effective": 3630,
      "environments": 3631,
      "Discount": 3632,
      "grids": 3633,
      "recommendations": 3634,
      "sorting": 3635,
      "printed": 3636,
      "writ": 3637,
      "reserved": 3638,
      "aggregate": 3639,
      "Month": 3640,
      "Statistical": 3641,
      "merge": 3642,
      "Adjustment": 3643,
      "estimated": 3644,
      "encry": 3645,
      "restrictions": 3646,
      "Path": 3647,
      "Button": 3648,
      "strategy": 3649,
      "populated": 3650,
      "Convert": 3651,
      "collaboration": 3652,
      "carrier": 3653,
      "settled": 3654,
      "Delivery": 3655,
      "January": 3656,
      "Help": 3657,
      "50": 3658,
      "During": 3659,
      "EUR": 3660,
      "Round": 3661,
      "ST": 3662,
      "Sim": 3663,
      "Sell": 3664,
      "Tit": 3665,
      "Talent": 3666,
      "ber": 3667,
      "cou": 3668,
      "care": 3669,
      "evalu": 3670,
      "font": 3671,
      "gn": 3672,
      "hide": 3673,
      "lat": 3674,
      "inser": 3675,
      "atures": 3676,
      "tify": 3677,
      "tified": 3678,
      "accur": 3679,
      "offer": 3680,
      "proceed": 3681,
      "licit": 3682,
      "sold": 3683,
      "uted": 3684,
      "Tool": 3685,
      "tracts": 3686,
      "among": 3687,
      "prevent": 3688,
      "discus": 3689,
      "Consoli": 3690,
      "collect": 3691,
      "ential": 3692,
      "purchased": 3693,
      "downloaded": 3694,
      "typical": 3695,
      "commer": 3696,
      "scroll": 3697,
      "shipments": 3698,
      "Notific": 3699,
      "statistics": 3700,
      "schedules": 3701,
      "exporting": 3702,
      "partners": 3703,
      "highl": 3704,
      "Vendors": 3705,
      "authority": 3706,
      "dependent": 3707,
      "reduction": 3708,
      "Issu": 3709,
      "techno": 3710,
      "pipeline": 3711,
      "pipelines": 3712,
      "Integr": 3713,
      "retrieve": 3714,
      "Components": 3715,
      "Handling": 3716,
      "carry": 3717,
      "privileges": 3718,
      "FastTab": 3719,
      "constant": 3720,
      "colleag": 3721,
      "32": 3722,
      "Bar": 3723,
      "Brow": 3724,
      "Cer": 3725,
      "Match": 3726,
      "Top": 3727,
      "cand": 3728,
      "freight": 3729,
      "gain": 3730,
      "iOS": 3731,
      "kind": 3732,
      "los": 3733,
      "ml": 3734,
      "pict": 3735,
      "atform": 3736,
      "aces": 3737,
      "geo": 3738,
      "ntax": 3739,
      "become": 3740,
      "becomes": 3741,
      "foc": 3742,
      "module": 3743,
      "Seg": 3744,
      "transportation": 3745,
      "comment": 3746,
      "located": 3747,
      "autom": 3748,
      "grouping": 3749,
      "failed": 3750,
      "expiration": 3751,
      "looking": 3752,
      "nodes": 3753,
      "Upload": 3754,
      "Explore": 3755,
      "letters": 3756,
      "scr": 3757,
      "boxes": 3758,
      "istrations": 3759,
      "efficient": 3760,
      "central": 3761,
      "years": 3762,
      "managing": 3763,
      "rollup": 3764,
      "mappings": 3765,
      "Analytics": 3766,
      "Cancel": 3767,
      "Required": 3768,
      "gives": 3769,
      "commands": 3770,
      "constraint": 3771,
      "turned": 3772,
      "consumers": 3773,
      "Relation": 3774,
      "Related": 3775,
      "itude": 3776,
      "Performance": 3777,
      "equal": 3778,
      "rendering": 3779,
      "Guest": 3780,
      "Reconcile": 3781,
      "guides": 3782,
      "RLS": 3783,
      "Download": 3784,
      "suggested": 3785,
      "layer": 3786,
      "Insights": 3787,
      "Collections": 3788,
      "Develop": 3789,
      "conformance": 3790,
      "Formula": 3791,
      "01": 3792,
      "Bin": 3793,
      "Den": 3794,
      "Gr": 3795,
      "Many": 3796,
      "Mob": 3797,
      "OData": 3798,
      "Qty": 3799,
      "Tips": 3800,
      "Walk": 3801,
      "fficient": 3802,
      "hid": 3803,
      "iv": 3804,
      "pas": 3805,
      "pers": 3806,
      "though": 3807,
      "tip": 3808,
      "toso": 3809,
      "ission": 3810,
      "ache": 3811,
      "accep": 3812,
      "iter": 3813,
      "conven": 3814,
      "geting": 3815,
      "wise": 3816,
      "quar": 3817,
      "trou": 3818,
      "Rever": 3819,
      "Repl": 3820,
      "Security": 3821,
      "sume": 3822,
      "Contoso": 3823,
      "fici": 3824,
      "generation": 3825,
      "mber": 3826,
      "syntax": 3827,
      "signment": 3828,
      "editable": 3829,
      "1099": 3830,
      "prise": 3831,
      "themes": 3832,
      "connecting": 3833,
      "Restr": 3834,
      "factors": 3835,
      "aware": 3836,
      "Alt": 3837,
      "Locations": 3838,
      "blocks": 3839,
      "cells": 3840,
      "Groups": 3841,
      "segments": 3842,
      "intervals": 3843,
      "media": 3844,
      "Fields": 3845,
      "Marketing": 3846,
      "submitted": 3847,
      "synchronization": 3848,
      "destination": 3849,
      "Scenari": 3850,
      "snippe": 3851,
      "situations": 3852,
      "commitment": 3853,
      "rebate": 3854,
      "tolerance": 3855,
      "Associate": 3856,
      "Opportunity": 3857,
      "Manufacturing": 3858,
      "colleagues": 3859,
      "Mobile": 3860,
      "passed": 3861,
      "500": 3862,
      "And": 3863,
      "CD": 3864,
      "Id": 3865,
      "LCS": 3866,
      "Pe": 3867,
      "RS": 3868,
      "So": 3869,
      "dy": 3870,
      "power": 3871,
      "since": 3872,
      "ancing": 3873,
      "enabling": 3874,
      "secure": 3875,
      "ison": 3876,
      "arison": 3877,
      "height": 3878,
      "usually": 3879,
      "uration": 3880,
      "moving": 3881,
      "temp": 3882,
      "Reason": 3883,
      "customizations": 3884,
      "aries": 3885,
      "others": 3886,
      "registrations": 3887,
      "commission": 3888,
      "foreign": 3889,
      "throughout": 3890,
      "documentation": 3891,
      "statuses": 3892,
      "IDs": 3893,
      "directed": 3894,
      "logs": 3895,
      "Resources": 3896,
      "picked": 3897,
      "matches": 3898,
      "forecasts": 3899,
      "mencl": 3900,
      "embedding": 3901,
      "Disable": 3902,
      "Letter": 3903,
      "copying": 3904,
      "starts": 3905,
      "aggregation": 3906,
      "Outlook": 3907,
      "flush": 3908,
      "replacement": 3909,
      "Layout": 3910,
      "frame": 3911,
      "Currently": 3912,
      "achieve": 3913,
      "directive": 3914,
      "Title": 3915,
      "Dr": 3916,
      "Sol": 3917,
      "Tim": 3918,
      "cending": 3919,
      "nual": 3920,
      "pending": 3921,
      "sur": 3922,
      "tests": 3923,
      "uct": 3924,
      "uter": 3925,
      "wor": 3926,
      "inqu": 3927,
      "inations": 3928,
      "revers": 3929,
      "allocations": 3930,
      "promo": 3931,
      "conf": 3932,
      "gered": 3933,
      "upgrade": 3934,
      "ulate": 3935,
      "fold": 3936,
      "did": 3937,
      "dustr": 3938,
      "why": 3939,
      "trust": 3940,
      "complet": 3941,
      "entering": 3942,
      "negative": 3943,
      "postdated": 3944,
      "cript": 3945,
      "specifies": 3946,
      "Proceed": 3947,
      "establish": 3948,
      "Depart": 3949,
      "opened": 3950,
      "calculating": 3951,
      "asked": 3952,
      "acked": 3953,
      "assigning": 3954,
      "overall": 3955,
      "capability": 3956,
      "Assets": 3957,
      "signed": 3958,
      "Eng": 3959,
      "something": 3960,
      "allowance": 3961,
      "Companies": 3962,
      "packs": 3963,
      "responsible": 3964,
      "goal": 3965,
      "activated": 3966,
      "ference": 3967,
      "Editing": 3968,
      "Shared": 3969,
      "identification": 3970,
      "Settings": 3971,
      "certificates": 3972,
      "holds": 3973,
      "Permission": 3974,
      "Percent": 3975,
      "Submit": 3976,
      "dependencies": 3977,
      "separately": 3978,
      "atio": 3979,
      "improved": 3980,
      "Shipment": 3981,
      "Changing": 3982,
      "triggered": 3983,
      "Activity": 3984,
      "Understanding": 3985,
      "KPIs": 3986,
      "About": 3987,
      "Availability": 3988,
      "warehousing": 3989,
      "Minimum": 3990,
      "loss": 3991,
      "hidden": 3992,
      "menclature": 3993,
      "dustry": 3994,
      "34": 3995,
      "Cy": 3996,
      "Don": 3997,
      "Hide": 3998,
      "LC": 3999,
      "Met": 4000,
      "Ne": 4001,
      "Ph": 4002,
      "Pin": 4003,
      "ian": 4004,
      "nc": 4005,
      "patch": 4006,
      "safety": 4007,
      "tour": 4008,
      "wave": 4009,
      "wait": 4010,
      "info": 4011,
      "reign": 4012,
      "atter": 4013,
      "ention": 4014,
      "andbox": 4015,
      "ational": 4016,
      "meeting": 4017,
      "Initi": 4018,
      "loan": 4019,
      "lots": 4020,
      "titles": 4021,
      "cid": 4022,
      "controll": 4023,
      "izable": 4024,
      "comparison": 4025,
      "computer": 4026,
      "viewed": 4027,
      "Exec": 4028,
      "obtain": 4029,
      "Debit": 4030,
      "Address": 4031,
      "relations": 4032,
      "interaction": 4033,
      "scatter": 4034,
      "missing": 4035,
      "Reser": 4036,
      "toolbar": 4037,
      "barcode": 4038,
      "Actions": 4039,
      "contrast": 4040,
      "2015": 4041,
      "bases": 4042,
      "featured": 4043,
      "calendars": 4044,
      "represented": 4045,
      "Optionally": 4046,
      "reserve": 4047,
      "sheets": 4048,
      "illustrates": 4049,
      "Receip": 4050,
      "ength": 4051,
      "memos": 4052,
      "Drill": 4053,
      "Function": 4054,
      "beginning": 4055,
      "summarized": 4056,
      "Response": 4057,
      "budgets": 4058,
      "Policy": 4059,
      "hyper": 4060,
      "Estim": 4061,
      "Header": 4062,
      "Browse": 4063,
      "35": 4064,
      "AI": 4065,
      "Ag": 4066,
      "Cor": 4067,
      "FA": 4068,
      "FI": 4069,
      "HR": 4070,
      "Material": 4071,
      "Pal": 4072,
      "Press": 4073,
      "Ro": 4074,
      "Send": 4075,
      "Tri": 4076,
      "bid": 4077,
      "cach": 4078,
      "cache": 4079,
      "gor": 4080,
      "ia": 4081,
      "idates": 4082,
      "samples": 4083,
      "sites": 4084,
      "volu": 4085,
      "influ": 4086,
      "reset": 4087,
      "reach": 4088,
      "revaluation": 4089,
      "algor": 4090,
      "argu": 4091,
      "Indic": 4092,
      "lored": 4093,
      "ural": 4094,
      "term": 4095,
      "ferent": 4096,
      "sufficient": 4097,
      "clos": 4098,
      "External": 4099,
      "payroll": 4100,
      "defining": 4101,
      "oftware": 4102,
      "calculates": 4103,
      "straight": 4104,
      "cket": 4105,
      "formatted": 4106,
      "iry": 4107,
      "Dataset": 4108,
      "Expense": 4109,
      "Expiration": 4110,
      "containing": 4111,
      "Storage": 4112,
      "periodic": 4113,
      "marked": 4114,
      "marketing": 4115,
      "Payroll": 4116,
      "refreshed": 4117,
      "More": 4118,
      "helpful": 4119,
      "Contin": 4120,
      "analy": 4121,
      "offers": 4122,
      "offline": 4123,
      "Calculated": 4124,
      "maps": 4125,
      "Color": 4126,
      "settlements": 4127,
      "Registration": 4128,
      "spaces": 4129,
      "Operation": 4130,
      "printing": 4131,
      "optimize": 4132,
      "successful": 4133,
      "frequency": 4134,
      "Employees": 4135,
      "granted": 4136,
      "Drive": 4137,
      "feedback": 4138,
      "Prior": 4139,
      "KPI": 4140,
      "pieces": 4141,
      "reservations": 4142,
      "sensitivity": 4143,
      "bulk": 4144,
      "rather": 4145,
      "Properties": 4146,
      "Builder": 4147,
      "preced": 4148,
      "rectangle": 4149,
      "Different": 4150,
      "ranges": 4151,
      "uplicate": 4152,
      "Legal": 4153,
      "claims": 4154,
      "Tooltip": 4155,
      "algorith": 4156,
      "64": 4157,
      "Away": 4158,
      "CO": 4159,
      "Client": 4160,
      "Double": 4161,
      "GU": 4162,
      "Ger": 4163,
      "Liqu": 4164,
      "Machine": 4165,
      "Turn": 4166,
      "Tutorial": 4167,
      "aways": 4168,
      "gency": 4169,
      "hip": 4170,
      "hiring": 4171,
      "land": 4172,
      "mbo": 4173,
      "nor": 4174,
      "oint": 4175,
      "sizes": 4176,
      "tre": 4177,
      "wants": 4178,
      "ze": 4179,
      "thresh": 4180,
      "income": 4181,
      "reimburse": 4182,
      "detect": 4183,
      "consignment": 4184,
      "updating": 4185,
      "ordin": 4186,
      "moved": 4187,
      "etch": 4188,
      "etary": 4189,
      "unmanaged": 4190,
      "PowerApps": 4191,
      "shop": 4192,
      "placed": 4193,
      "body": 4194,
      "recent": 4195,
      "clar": 4196,
      "owners": 4197,
      "Who": 4198,
      "ighting": 4199,
      "poll": 4200,
      "providing": 4201,
      "variety": 4202,
      "static": 4203,
      "Author": 4204,
      "applying": 4205,
      "Mak": 4206,
      "USD": 4207,
      "rights": 4208,
      "URLs": 4209,
      "Values": 4210,
      "Analyz": 4211,
      "categorical": 4212,
      "bruary": 4213,
      "Intercompany": 4214,
      "Both": 4215,
      "axes": 4216,
      "Numbers": 4217,
      "seconds": 4218,
      "Jobs": 4219,
      "Dynamic": 4220,
      "SSO": 4221,
      "aggregated": 4222,
      "replaced": 4223,
      "correspond": 4224,
      "blanket": 4225,
      "Keep": 4226,
      "Books": 4227,
      "distributions": 4228,
      "Offset": 4229,
      "Shipping": 4230,
      "Changes": 4231,
      "February": 4232,
      "Activate": 4233,
      "reflects": 4234,
      "snap": 4235,
      "resolve": 4236,
      "Released": 4237,
      "Navigate": 4238,
      "communic": 4239,
      "Charges": 4240,
      "Route": 4241,
      "Redu": 4242,
      "principle": 4243,
      "Question": 4244,
      "picture": 4245,
      "Walkthrough": 4246,
      "mbol": 4247,
      "CT": 4248,
      "Call": 4249,
      "LI": 4250,
      "Paginated": 4251,
      "RT": 4252,
      "Sel": 4253,
      "cli": 4254,
      "govern": 4255,
      "had": 4256,
      "io": 4257,
      "iries": 4258,
      "iving": 4259,
      "lass": 4260,
      "pot": 4261,
      "rank": 4262,
      "spe": 4263,
      "software": 4264,
      "tren": 4265,
      "uit": 4266,
      "vary": 4267,
      "reli": 4268,
      "oriz": 4269,
      "orical": 4270,
      "enough": 4271,
      "esti": 4272,
      "today": 4273,
      "arrows": 4274,
      "acle": 4275,
      "defaul": 4276,
      "cope": 4277,
      "chain": 4278,
      "except": 4279,
      "cir": 4280,
      "ampling": 4281,
      "limin": 4282,
      "customization": 4283,
      "Examples": 4284,
      "Selecting": 4285,
      "Contracts": 4286,
      "rename": 4287,
      "auto": 4288,
      "ivered": 4289,
      "Costing": 4290,
      "Configuring": 4291,
      "Oracle": 4292,
      "logged": 4293,
      "Auto": 4294,
      "picks": 4295,
      "Specific": 4296,
      "Calculating": 4297,
      "behalf": 4298,
      "authoring": 4299,
      "authorized": 4300,
      "draft": 4301,
      "Journals": 4302,
      "inputs": 4303,
      "Visuals": 4304,
      "United": 4305,
      "combined": 4306,
      "combinations": 4307,
      "restrict": 4308,
      "departments": 4309,
      "translated": 4310,
      "demonstration": 4311,
      "Avoid": 4312,
      "purchases": 4313,
      "exactly": 4314,
      "shape": 4315,
      "involved": 4316,
      "allocate": 4317,
      "reservation": 4318,
      "happens": 4319,
      "Balance": 4320,
      "SKU": 4321,
      "enhanced": 4322,
      "modity": 4323,
      "Benefits": 4324,
      "pbix": 4325,
      "advantage": 4326,
      "shift": 4327,
      "Administrator": 4328,
      "inserted": 4329,
      "Scenario": 4330,
      "folders": 4331,
      "algorithm": 4332,
      "44": 4333,
      "Bet": 4334,
      "EN": 4335,
      "Foc": 4336,
      "Ge": 4337,
      "Hour": 4338,
      "Ori": 4339,
      "SI": 4340,
      "Split": 4341,
      "dot": 4342,
      "duration": 4343,
      "flo": 4344,
      "fall": 4345,
      "hire": 4346,
      "nos": 4347,
      "national": 4348,
      "ptive": 4349,
      "son": 4350,
      "slow": 4351,
      "sandbox": 4352,
      "xml": 4353,
      "industry": 4354,
      "enroll": 4355,
      "ouse": 4356,
      "toggle": 4357,
      "provision": 4358,
      "cance": 4359,
      "extra": 4360,
      "que": 4361,
      "ays": 4362,
      "dataView": 4363,
      "vertical": 4364,
      "training": 4365,
      "produce": 4366,
      "lik": 4367,
      "Selection": 4368,
      "delines": 4369,
      "delivered": 4370,
      "transfers": 4371,
      "whenever": 4372,
      "adds": 4373,
      "dern": 4374,
      "bub": 4375,
      "max": 4376,
      "opening": 4377,
      "configuring": 4378,
      "controlled": 4379,
      "posals": 4380,
      "dropdown": 4381,
      "capture": 4382,
      "guest": 4383,
      "properly": 4384,
      "Workflows": 4385,
      "marks": 4386,
      "marking": 4387,
      "directory": 4388,
      "issued": 4389,
      "Reset": 4390,
      "classific": 4391,
      "phones": 4392,
      "assemble": 4393,
      "Directory": 4394,
      "structures": 4395,
      "mixed": 4396,
      "bills": 4397,
      "certification": 4398,
      "sorted": 4399,
      "slider": 4400,
      "illustrate": 4401,
      "constrained": 4402,
      "estimate": 4403,
      "Arch": 4404,
      "presented": 4405,
      "Templates": 4406,
      "Days": 4407,
      "Interest": 4408,
      "Release": 4409,
      "ctivity": 4410,
      "Returns": 4411,
      "Position": 4412,
      "happen": 4413,
      "branches": 4414,
      "eligible": 4415,
      "binding": 4416,
      "style": 4417,
      "recogn": 4418,
      "Write": 4419,
      "Integration": 4420,
      "Grant": 4421,
      "Reverse": 4422,
      "People": 4423,
      "orizont": 4424,
      "Focus": 4425,
      "Geo": 4426,
      "canceled": 4427,
      "classifications": 4428,
      "80": 4429,
      "BAN": 4430,
      "CC": 4431,
      "IBAN": 4432,
      "Rate": 4433,
      "Ter": 4434,
      "bilities": 4435,
      "fails": 4436,
      "nav": 4437,
      "pital": 4438,
      "sampling": 4439,
      "vance": 4440,
      "reh": 4441,
      "rop": 4442,
      "concept": 4443,
      "ospital": 4444,
      "Incre": 4445,
      "Instead": 4446,
      "Incoming": 4447,
      "resto": 4448,
      "une": 4449,
      "counted": 4450,
      "invite": 4451,
      "predic": 4452,
      "dispatch": 4453,
      "Consumption": 4454,
      "assum": 4455,
      "combo": 4456,
      "grouped": 4457,
      "funding": 4458,
      "relate": 4459,
      "Accr": 4460,
      "Acquisition": 4461,
      "quotes": 4462,
      "assignments": 4463,
      "margin": 4464,
      "nomenclature": 4465,
      "tabular": 4466,
      "Datasets": 4467,
      "Ask": 4468,
      "loads": 4469,
      "subcontract": 4470,
      "scoring": 4471,
      "importing": 4472,
      "Optim": 4473,
      "signature": 4474,
      "accessibility": 4475,
      "performing": 4476,
      "Star": 4477,
      "Mode": 4478,
      "financially": 4479,
      "logical": 4480,
      "Resize": 4481,
      "gateways": 4482,
      "launch": 4483,
      "batches": 4484,
      "eves": 4485,
      "Special": 4486,
      "divided": 4487,
      "identified": 4488,
      "Interact": 4489,
      "nonconformance": 4490,
      "Lead": 4491,
      "months": 4492,
      "words": 4493,
      "executed": 4494,
      "Closing": 4495,
      "reconcile": 4496,
      "developers": 4497,
      "affected": 4498,
      "Channel": 4499,
      "demonstrates": 4500,
      "practice": 4501,
      "flyout": 4502,
      "destinations": 4503,
      "implementation": 4504,
      "shapes": 4505,
      "ctively": 4506,
      "tags": 4507,
      "workloads": 4508,
      "responsibility": 4509,
      "portion": 4510,
      "identifier": 4511,
      "Summary": 4512,
      "reminder": 4513,
      "Measure": 4514,
      "meaning": 4515,
      "elimination": 4516,
      "focuses": 4517,
      "Denmark": 4518,
      "ivot": 4519,
      "Replenishment": 4520,
      "CDM": 4521,
      "Percentage": 4522,
      "defaults": 4523,
      "Origin": 4524,
      "Terms": 4525,
      "CA": 4526,
      "Case": 4527,
      "DB": 4528,
      "Jul": 4529,
      "Ker": 4530,
      "Lot": 4531,
      "Last": 4532,
      "PR": 4533,
      "Pare": 4534,
      "Render": 4535,
      "Tables": 4536,
      "aily": 4537,
      "cum": 4538,
      "employment": 4539,
      "gins": 4540,
      "kanb": 4541,
      "late": 4542,
      "length": 4543,
      "mouse": 4544,
      "oter": 4545,
      "pull": 4546,
      "plots": 4547,
      "rich": 4548,
      "racing": 4549,
      "ratio": 4550,
      "sw": 4551,
      "tt": 4552,
      "vacy": 4553,
      "incorrect": 4554,
      "rede": 4555,
      "align": 4556,
      "letion": 4557,
      "aspect": 4558,
      "protection": 4559,
      "wide": 4560,
      "uploaded": 4561,
      "cember": 4562,
      "respective": 4563,
      "undo": 4564,
      "appoint": 4565,
      "ourse": 4566,
      "whose": 4567,
      "endpoint": 4568,
      "perip": 4569,
      "plied": 4570,
      "places": 4571,
      "true": 4572,
      "desktop": 4573,
      "serve": 4574,
      "composite": 4575,
      "reclass": 4576,
      "clust": 4577,
      "notation": 4578,
      "critical": 4579,
      "Provi": 4580,
      "username": 4581,
      "December": 4582,
      "archive": 4583,
      "auge": 4584,
      "generates": 4585,
      "descriptive": 4586,
      "six": 4587,
      "overhead": 4588,
      "overdue": 4589,
      "subreport": 4590,
      "symbol": 4591,
      "timeline": 4592,
      "reader": 4593,
      "Enroll": 4594,
      "systems": 4595,
      "Composite": 4596,
      "Authentication": 4597,
      "Contain": 4598,
      "analyz": 4599,
      "handled": 4600,
      "windows": 4601,
      "Specifies": 4602,
      "experiences": 4603,
      "Introdu": 4604,
      "sequent": 4605,
      "Foreign": 4606,
      "Interface": 4607,
      "simul": 4608,
      "sends": 4609,
      "representative": 4610,
      "OneDrive": 4611,
      "wards": 4612,
      "reducing": 4613,
      "Remo": 4614,
      "diagnos": 4615,
      "Displays": 4616,
      "olean": 4617,
      "larger": 4618,
      "Notes": 4619,
      "translations": 4620,
      "greater": 4621,
      "Methods": 4622,
      "skip": 4623,
      "CSV": 4624,
      "dragging": 4625,
      "panel": 4626,
      "Place": 4627,
      "DEMF": 4628,
      "eligibility": 4629,
      "Billing": 4630,
      "continuity": 4631,
      "characteristics": 4632,
      "Migration": 4633,
      "favorite": 4634,
      "exception": 4635,
      "Lookup": 4636,
      "invitation": 4637,
      "preferred": 4638,
      "Similar": 4639,
      "beros": 4640,
      "couple": 4641,
      "latest": 4642,
      "highlighting": 4643,
      "technology": 4644,
      "Relationship": 4645,
      "troubleshooting": 4646,
      "Solution": 4647,
      "Department": 4648,
      "Initial": 4649,
      "cident": 4650,
      "threshold": 4651,
      "snapshot": 4652,
      "liminary": 4653,
      "rehensive": 4654,
      "Kerberos": 4655,
      "Parent": 4656,
      "kanbans": 4657,
      "peripher": 4658,
      "Introduction": 4659,
      "60": 4660,
      "Drop": 4661,
      "Even": 4662,
      "Flex": 4663,
      "Gallery": 4664,
      "Lic": 4665,
      "Non": 4666,
      "Nor": 4667,
      "Pres": 4668,
      "Push": 4669,
      "QR": 4670,
      "Sa": 4671,
      "Sk": 4672,
      "Ten": 4673,
      "Tar": 4674,
      "bro": 4675,
      "double": 4676,
      "ival": 4677,
      "jor": 4678,
      "json": 4679,
      "ness": 4680,
      "pted": 4681,
      "rics": 4682,
      "spre": 4683,
      "scope": 4684,
      "twe": 4685,
      "inbox": 4686,
      "encount": 4687,
      "tire": 4688,
      "states": 4689,
      "staf": 4690,
      "arrange": 4691,
      "ited": 4692,
      "apse": 4693,
      "deb": 4694,
      "declar": 4695,
      "upon": 4696,
      "qual": 4697,
      "dig": 4698,
      "ilest": 4699,
      "agn": 4700,
      "Recur": 4701,
      "Reques": 4702,
      "Sequ": 4703,
      "visibility": 4704,
      "oney": 4705,
      "discre": 4706,
      "extended": 4707,
      "Provide": 4708,
      "Deleting": 4709,
      "dimensional": 4710,
      "versus": 4711,
      "subject": 4712,
      "accessorial": 4713,
      "operators": 4714,
      "Manual": 4715,
      "Managing": 4716,
      "applicant": 4717,
      "Posted": 4718,
      "taxes": 4719,
      "Another": 4720,
      "monetary": 4721,
      "mandate": 4722,
      "tification": 4723,
      "Bud": 4724,
      "Max": 4725,
      "measurements": 4726,
      "assembled": 4727,
      "DateTime": 4728,
      "bring": 4729,
      "placehol": 4730,
      "baseline": 4731,
      "0001": 4732,
      "individually": 4733,
      "Region": 4734,
      "browse": 4735,
      "Always": 4736,
      "ificant": 4737,
      "collapsed": 4738,
      "Outbound": 4739,
      "programs": 4740,
      "Cloud": 4741,
      "removing": 4742,
      "historical": 4743,
      "translation": 4744,
      "Periods": 4745,
      "Periodic": 4746,
      "equival": 4747,
      "pinned": 4748,
      "synchronize": 4749,
      "hosted": 4750,
      "bonus": 4751,
      "Guid": 4752,
      "patterns": 4753,
      "REST": 4754,
      "sensitive": 4755,
      "Troubleshoot": 4756,
      "Troubleshooting": 4757,
      "docking": 4758,
      "Combine": 4759,
      "PBIX": 4760,
      "Collapse": 4761,
      "skills": 4762,
      "bene": 4763,
      "Rounding": 4764,
      "Notifications": 4765,
      "quarter": 4766,
      "Draft": 4767,
      "conflic": 4768,
      "Cycle": 4769,
      "Metrics": 4770,
      "hyperlink": 4771,
      "Correct": 4772,
      "volume": 4773,
      "argument": 4774,
      "Continue": 4775,
      "Liquid": 4776,
      "Questionna": 4777,
      "bubble": 4778,
      "spread": 4779,
      "CE": 4780,
      "Every": 4781,
      "Element": 4782,
      "Fac": 4783,
      "Ful": 4784,
      "GB": 4785,
      "Give": 4786,
      "Hardware": 4787,
      "IN": 4788,
      "SL": 4789,
      "Sou": 4790,
      "Shou": 4791,
      "Vir": 4792,
      "gauge": 4793,
      "horizont": 4794,
      "jo": 4795,
      "lig": 4796,
      "money": 4797,
      "ric": 4798,
      "ued": 4799,
      "inher": 4800,
      "restart": 4801,
      "annual": 4802,
      "enumer": 4803,
      "alth": 4804,
      "tives": 4805,
      "room": 4806,
      "accom": 4807,
      "accept": 4808,
      "fort": 4809,
      "else": 4810,
      "depreci": 4811,
      "deleting": 4812,
      "promis": 4813,
      "proposals": 4814,
      "lectric": 4815,
      "riend": 4816,
      "modes": 4817,
      "uncheck": 4818,
      "contribut": 4819,
      "endit": 4820,
      "worked": 4821,
      "plus": 4822,
      "aged": 4823,
      "Created": 4824,
      "compli": 4825,
      "Reference": 4826,
      "viewer": 4827,
      "figures": 4828,
      "preliminary": 4829,
      "bug": 4830,
      "doing": 4831,
      "house": 4832,
      "relative": 4833,
      "downtime": 4834,
      "rong": 4835,
      "displaying": 4836,
      "typing": 4837,
      "Upgrade": 4838,
      "Quote": 4839,
      "significant": 4840,
      "accessible": 4841,
      "States": 4842,
      "Accountant": 4843,
      "private": 4844,
      "privacy": 4845,
      "drive": 4846,
      "Answ": 4847,
      "ribution": 4848,
      "legacy": 4849,
      "Compensation": 4850,
      "Audit": 4851,
      "Impro": 4852,
      "therefore": 4853,
      "contracting": 4854,
      "causes": 4855,
      "insight": 4856,
      "Begin": 4857,
      "registers": 4858,
      "Importing": 4859,
      "publisher": 4860,
      "outputs": 4861,
      "approvals": 4862,
      "Internal": 4863,
      "Boolean": 4864,
      "Letters": 4865,
      "consolidate": 4866,
      "Aler": 4867,
      "Leave": 4868,
      "Loading": 4869,
      "questionnaires": 4870,
      "remains": 4871,
      "Publishing": 4872,
      "scrip": 4873,
      "Instances": 4874,
      "arran": 4875,
      "Override": 4876,
      "compared": 4877,
      "Organizational": 4878,
      "approaches": 4879,
      "allocated": 4880,
      "guidelines": 4881,
      "Available": 4882,
      "Flows": 4883,
      "SKUs": 4884,
      "utils": 4885,
      "community": 4886,
      "Purchases": 4887,
      "decisions": 4888,
      "regardless": 4889,
      "belongs": 4890,
      "encryption": 4891,
      "commerce": 4892,
      "Restrict": 4893,
      "framework": 4894,
      "Reserv": 4895,
      "Receipt": 4896,
      "normal": 4897,
      "July": 4898,
      "Fulfill": 4899,
      "Should": 4900,
      "Virtual": 4901,
      "lectricity": 4902,
      "riendly": 4903,
      "37": 4904,
      "Agg": 4905,
      "Bel": 4906,
      "Base": 4907,
      "Blank": 4908,
      "CP": 4909,
      "Dat": 4910,
      "Deri": 4911,
      "Esc": 4912,
      "Employment": 4913,
      "FR": 4914,
      "Fl": 4915,
      "MT": 4916,
      "OCR": 4917,
      "Pass": 4918,
      "Pivot": 4919,
      "Scre": 4920,
      "Size": 4921,
      "Sending": 4922,
      "Sheet": 4923,
      "Tre": 4924,
      "Termin": 4925,
      "Vers": 4926,
      "Whe": 4927,
      "big": 4928,
      "cs": 4929,
      "cation": 4930,
      "cmd": 4931,
      "duplicate": 4932,
      "fam": 4933,
      "facts": 4934,
      "hoc": 4935,
      "hover": 4936,
      "ides": 4937,
      "oom": 4938,
      "pain": 4939,
      "rated": 4940,
      "wrong": 4941,
      "reuse": 4942,
      "recip": 4943,
      "ories": 4944,
      "istic": 4945,
      "andom": 4946,
      "aptive": 4947,
      "deposit": 4948,
      "pros": 4949,
      "Info": 4950,
      "Income": 4951,
      "urning": 4952,
      "exclude": 4953,
      "quire": 4954,
      "rieves": 4955,
      "ressed": 4956,
      "endance": 4957,
      "routes": 4958,
      "completion": 4959,
      "Replace": 4960,
      "ensures": 4961,
      "disposal": 4962,
      "Contract": 4963,
      "visualize": 4964,
      "fications": 4965,
      "Profile": 4966,
      "hasn": 4967,
      "001": 4968,
      "expendit": 4969,
      "actices": 4970,
      "providers": 4971,
      "Serial": 4972,
      "connectivity": 4973,
      "sync": 4974,
      "Expenses": 4975,
      "attention": 4976,
      "attendance": 4977,
      "edited": 4978,
      "deprec": 4979,
      "Environ": 4980,
      "Enabling": 4981,
      "Short": 4982,
      "someone": 4983,
      "Compare": 4984,
      "Units": 4985,
      "instances": 4986,
      "logo": 4987,
      "Resol": 4988,
      "Transportation": 4989,
      "Implement": 4990,
      "goals": 4991,
      "caused": 4992,
      "mention": 4993,
      "USRT": 4994,
      "ferences": 4995,
      "gging": 4996,
      "ggers": 4997,
      "Attract": 4998,
      "Finally": 4999,
      "identifies": 5000,
      "Files": 5001,
      "Internet": 5002,
      "Practices": 5003,
      "behind": 5004,
      "Projected": 5005,
      "regional": 5006,
      "deployed": 5007,
      "Connecting": 5008,
      "dependency": 5009,
      "monthly": 5010,
      "Synchron": 5011,
      "Visualizations": 5012,
      "trial": 5013,
      "replenish": 5014,
      "Allowed": 5015,
      "saving": 5016,
      "workbooks": 5017,
      "Scheduled": 5018,
      "Struct": 5019,
      "estimates": 5020,
      "choices": 5021,
      "choosing": 5022,
      "encers": 5023,
      "meets": 5024,
      "Dayforce": 5025,
      "breaks": 5026,
      "Reconciliation": 5027,
      "Component": 5028,
      "budgeting": 5029,
      "reordering": 5030,
      "enhance": 5031,
      "identifiers": 5032,
      "Attachments": 5033,
      "Success": 5034,
      "exceptions": 5035,
      "Determining": 5036,
      "problem": 5037,
      "problems": 5038,
      "Statement": 5039,
      "Limitations": 5040,
      "written": 5041,
      "candidates": 5042,
      "Segments": 5043,
      "scrap": 5044,
      "snippet": 5045,
      "inquiry": 5046,
      "LCY": 5047,
      "Analyzer": 5048,
      "LIFO": 5049,
      "SaaS": 5050,
      "Recurring": 5051,
      "Requests": 5052,
      "Sequence": 5053,
      "equivalent": 5054,
      "accommo": 5055,
      "Aggreg": 5056,
      "Derived": 5057,
      "Flush": 5058,
      "Screen": 5059,
      "Whether": 5060,
      "AR": 5061,
      "Dates": 5062,
      "Edu": 5063,
      "Emer": 5064,
      "Frequ": 5065,
      "Gate": 5066,
      "Hover": 5067,
      "LE": 5068,
      "Lan": 5069,
      "Mem": 5070,
      "Most": 5071,
      "Mass": 5072,
      "OT": 5073,
      "Ren": 5074,
      "Side": 5075,
      "Switch": 5076,
      "Since": 5077,
      "cry": 5078,
      "daily": 5079,
      "fu": 5080,
      "grow": 5081,
      "hav": 5082,
      "mask": 5083,
      "nested": 5084,
      "sor": 5085,
      "water": 5086,
      "indirect": 5087,
      "repe": 5088,
      "revi": 5089,
      "resemb": 5090,
      "orient": 5091,
      "tied": 5092,
      "seven": 5093,
      "isk": 5094,
      "aps": 5095,
      "elli": 5096,
      "detection": 5097,
      "cove": 5098,
      "ntr": 5099,
      "osion": 5100,
      "explan": 5101,
      "footer": 5102,
      "followed": 5103,
      "duties": 5104,
      "platform": 5105,
      "uting": 5106,
      "investi": 5107,
      "igno": 5108,
      "enterprise": 5109,
      "near": 5110,
      "Several": 5111,
      "recr": 5112,
      "weighted": 5113,
      "transport": 5114,
      "Selected": 5115,
      "assist": 5116,
      "ficult": 5117,
      "manip": 5118,
      "however": 5119,
      "posed": 5120,
      "parties": 5121,
      "difficult": 5122,
      "dom": 5123,
      "Adds": 5124,
      "balancing": 5125,
      "cluded": 5126,
      "cluding": 5127,
      "generic": 5128,
      "notice": 5129,
      "capt": 5130,
      "subsequent": 5131,
      "dedu": 5132,
      "Quot": 5133,
      "Try": 5134,
      "operator": 5135,
      "performs": 5136,
      "Resul": 5137,
      "classify": 5138,
      "earning": 5139,
      "matched": 5140,
      "managers": 5141,
      "Gets": 5142,
      "Prices": 5143,
      "Pricing": 5144,
      "Collect": 5145,
      "Website": 5146,
      "timesheet": 5147,
      "occurred": 5148,
      "masters": 5149,
      "confirmed": 5150,
      "blocked": 5151,
      "consent": 5152,
      "Subject": 5153,
      "depends": 5154,
      "operational": 5155,
      "XMLA": 5156,
      "reduced": 5157,
      "personalize": 5158,
      "Grouping": 5159,
      "targets": 5160,
      "Receiving": 5161,
      "Admins": 5162,
      "videos": 5163,
      "consistent": 5164,
      "reversed": 5165,
      "Features": 5166,
      "QuickBooks": 5167,
      "warnings": 5168,
      "libraries": 5169,
      "Highlight": 5170,
      "extensions": 5171,
      "strategies": 5172,
      "directional": 5173,
      "Abs": 5174,
      "Objects": 5175,
      "Property": 5176,
      "modules": 5177,
      "Benefit": 5178,
      "buyer": 5179,
      "regarding": 5180,
      "deliveries": 5181,
      "Determine": 5182,
      "Collabor": 5183,
      "bench": 5184,
      "Validation": 5185,
      "decrease": 5186,
      "assortment": 5187,
      "assortments": 5188,
      "writing": 5189,
      "Issue": 5190,
      "automated": 5191,
      "centralized": 5192,
      "perspective": 5193,
      "accepted": 5194,
      "influencers": 5195,
      "preceding": 5196,
      "Between": 5197,
      "likely": 5198,
      "Starting": 5199,
      "appointment": 5200,
      "Container": 5201,
      "Tenant": 5202,
      "spreadsheet": 5203,
      "scripts": 5204,
      "accommodate": 5205,
      "Emergency": 5206,
      "Langu": 5207,
      "haven": 5208,
      "covered": 5209,
      "ES": 5210,
      "Est": 5211,
      "Event": 5212,
      "Jav": 5213,
      "MB": 5214,
      "MS": 5215,
      "None": 5216,
      "OK": 5217,
      "OP": 5218,
      "Parti": 5219,
      "Right": 5220,
      "SV": 5221,
      "Sale": 5222,
      "Wid": 5223,
      "ahead": 5224,
      "border": 5225,
      "brid": 5226,
      "pow": 5227,
      "sa": 5228,
      "touch": 5229,
      "wall": 5230,
      "xy": 5231,
      "inting": 5232,
      "inality": 5233,
      "reve": 5234,
      "rely": 5235,
      "attemp": 5236,
      "anim": 5237,
      "ordered": 5238,
      "enfor": 5239,
      "alse": 5240,
      "alph": 5241,
      "asource": 5242,
      "dee": 5243,
      "defect": 5244,
      "covers": 5245,
      "protect": 5246,
      "construct": 5247,
      "Inqu": 5248,
      "Input": 5249,
      "Inbound": 5250,
      "bered": 5251,
      "aded": 5252,
      "withdraw": 5253,
      "unrealized": 5254,
      "workbench": 5255,
      "sored": 5256,
      "trav": 5257,
      "trading": 5258,
      "agent": 5259,
      "completing": 5260,
      "Repair": 5261,
      "accountant": 5262,
      "Separ": 5263,
      "antine": 5264,
      "recently": 5265,
      "pret": 5266,
      "transition": 5267,
      "salesperson": 5268,
      "minim": 5269,
      "modeling": 5270,
      "commodity": 5271,
      "Program": 5272,
      "renam": 5273,
      "funnel": 5274,
      "possi": 5275,
      "Used": 5276,
      "variances": 5277,
      "corpor": 5278,
      "lue": 5279,
      "Worker": 5280,
      "Workspaces": 5281,
      "hierarchical": 5282,
      "designing": 5283,
      "designers": 5284,
      "IDE": 5285,
      "ponsored": 5286,
      "PayPal": 5287,
      "Shap": 5288,
      "sometimes": 5289,
      "appearance": 5290,
      "Definitions": 5291,
      "Unified": 5292,
      "responses": 5293,
      "screenshot": 5294,
      "yearly": 5295,
      "Transl": 5296,
      "Transform": 5297,
      "Impact": 5298,
      "goti": 5299,
      "activation": 5300,
      "whom": 5301,
      "handles": 5302,
      "Points": 5303,
      "office": 5304,
      "highest": 5305,
      "Overflow": 5306,
      "gridlines": 5307,
      "ellig": 5308,
      "Enabled": 5309,
      "pected": 5310,
      "Within": 5311,
      "authorities": 5312,
      "explained": 5313,
      "blocking": 5314,
      "Subscri": 5315,
      "interested": 5316,
      "SSL": 5317,
      "SSRS": 5318,
      "Exporting": 5319,
      "personalization": 5320,
      "expanded": 5321,
      "triggers": 5322,
      "accordingly": 5323,
      "maker": 5324,
      "vouchers": 5325,
      "keeping": 5326,
      "teams": 5327,
      "seller": 5328,
      "rounded": 5329,
      "rames": 5330,
      "trying": 5331,
      "modifications": 5332,
      "Party": 5333,
      "demonstrate": 5334,
      "Amounts": 5335,
      "effects": 5336,
      "Area": 5337,
      "Launch": 5338,
      "resolved": 5339,
      "panes": 5340,
      "Stock": 5341,
      "Platform": 5342,
      "Counting": 5343,
      "Positive": 5344,
      "referred": 5345,
      "responsive": 5346,
      "Monitoring": 5347,
      "situation": 5348,
      "suggest": 5349,
      "bulleted": 5350,
      "warehouses": 5351,
      "transformations": 5352,
      "Policies": 5353,
      "Purchasing": 5354,
      "precision": 5355,
      "Routing": 5356,
      "introduced": 5357,
      "Partner": 5358,
      "aScript": 5359,
      "simpli": 5360,
      "faster": 5361,
      "Distribute": 5362,
      "evaluate": 5363,
      "accurate": 5364,
      "kinds": 5365,
      "flushing": 5366,
      "reversal": 5367,
      "Permissions": 5368,
      "Agree": 5369,
      "FAQ": 5370,
      "Priority": 5371,
      "GUID": 5372,
      "ownership": 5373,
      "ranking": 5374,
      "Optimize": 5375,
      "peripherals": 5376,
      "Target": 5377,
      "debits": 5378,
      "compliance": 5379,
      "Database": 5380,
      "Version": 5381,
      "mentioned": 5382,
      "ntracked": 5383,
      "recruit": 5384,
      "Quotes": 5385,
      "JavaScript": 5386,
      "powered": 5387,
      "Cues": 5388,
      "Free": 5389,
      "Hist": 5390,
      "Kit": 5391,
      "Nam": 5392,
      "PS": 5393,
      "Range": 5394,
      "Sat": 5395,
      "Twit": 5396,
      "UT": 5397,
      "Warehou": 5398,
      "clock": 5399,
      "course": 5400,
      "dle": 5401,
      "frames": 5402,
      "gross": 5403,
      "je": 5404,
      "ming": 5405,
      "med": 5406,
      "mass": 5407,
      "mill": 5408,
      "nthe": 5409,
      "nat": 5410,
      "native": 5411,
      "oto": 5412,
      "pag": 5413,
      "rad": 5414,
      "sense": 5415,
      "tell": 5416,
      "talent": 5417,
      "uish": 5418,
      "xim": 5419,
      "ym": 5420,
      "zip": 5421,
      "inct": 5422,
      "independent": 5423,
      "incident": 5424,
      "reassign": 5425,
      "reality": 5426,
      "onto": 5427,
      "era": 5428,
      "enco": 5429,
      "ali": 5430,
      "inguish": 5431,
      "edu": 5432,
      "accessed": 5433,
      "ascending": 5434,
      "delet": 5435,
      "usion": 5436,
      "ared": 5437,
      "loop": 5438,
      "upgr": 5439,
      "datasource": 5440,
      "div": 5441,
      "umbered": 5442,
      "isting": 5443,
      "PowerPoint": 5444,
      "valued": 5445,
      "ples": 5446,
      "plies": 5447,
      "sol": 5448,
      "tracing": 5449,
      "descending": 5450,
      "agre": 5451,
      "lined": 5452,
      "Three": 5453,
      "Revenue": 5454,
      "amera": 5455,
      "lowest": 5456,
      "outli": 5457,
      "owned": 5458,
      "actually": 5459,
      "cursor": 5460,
      "ledge": 5461,
      "locate": 5462,
      "bucket": 5463,
      "major": 5464,
      "differ": 5465,
      "entially": 5466,
      "rolled": 5467,
      "getting": 5468,
      "configurable": 5469,
      "quotations": 5470,
      "functional": 5471,
      "subgrid": 5472,
      "Cho": 5473,
      "runtime": 5474,
      "Expression": 5475,
      "gran": 5476,
      "specifically": 5477,
      "postings": 5478,
      "signing": 5479,
      "signatures": 5480,
      "cardinality": 5481,
      "reads": 5482,
      "Generated": 5483,
      "marker": 5484,
      "Entering": 5485,
      "Enterprise": 5486,
      "Prefix": 5487,
      "logon": 5488,
      "logies": 5489,
      "clean": 5490,
      "budgeted": 5491,
      "receives": 5492,
      "early": 5493,
      "ember": 5494,
      "lake": 5495,
      "inspe": 5496,
      "photo": 5497,
      "Invoicing": 5498,
      "tracked": 5499,
      "ributed": 5500,
      "Retrieves": 5501,
      "Interactive": 5502,
      "explosion": 5503,
      "Connection": 5504,
      "percentages": 5505,
      "nonstock": 5506,
      "indicator": 5507,
      "drillthrough": 5508,
      "Processing": 5509,
      "locale": 5510,
      "interesting": 5511,
      "Loan": 5512,
      "artifact": 5513,
      "aggregations": 5514,
      "makers": 5515,
      "execute": 5516,
      "increases": 5517,
      "consumer": 5518,
      "optimization": 5519,
      "Searching": 5520,
      "Accessorial": 5521,
      "Scheduling": 5522,
      "Supports": 5523,
      "Straight": 5524,
      "prioriti": 5525,
      "selling": 5526,
      "initiate": 5527,
      "Booking": 5528,
      "Otherwise": 5529,
      "fixes": 5530,
      "Capture": 5531,
      "span": 5532,
      "scheme": 5533,
      "HTT": 5534,
      "Activities": 5535,
      "Areas": 5536,
      "Links": 5537,
      "overrides": 5538,
      "Columns": 5539,
      "Portals": 5540,
      "retrieved": 5541,
      "leads": 5542,
      "Keyboard": 5543,
      "involve": 5544,
      "involves": 5545,
      "Packing": 5546,
      "populate": 5547,
      "Parameter": 5548,
      "FTI": 5549,
      "Navigation": 5550,
      "rebates": 5551,
      "SPNs": 5552,
      "reminders": 5553,
      "technic": 5554,
      "recovery": 5555,
      "supplied": 5556,
      "rejected": 5557,
      "respondents": 5558,
      "encrypted": 5559,
      "discusses": 5560,
      "Consolid": 5561,
      "commercial": 5562,
      "candidate": 5563,
      "Segment": 5564,
      "ficiency": 5565,
      "world": 5566,
      "completely": 5567,
      "Phone": 5568,
      "controller": 5569,
      "Execution": 5570,
      "analyst": 5571,
      "Reduce": 5572,
      "Self": 5573,
      "clients": 5574,
      "government": 5575,
      "potential": 5576,
      "circle": 5577,
      "Hours": 5578,
      "restore": 5579,
      "subcontracted": 5580,
      "meaningful": 5581,
      "License": 5582,
      "encounter": 5583,
      "staff": 5584,
      "agnitude": 5585,
      "discrepan": 5586,
      "placeholder": 5587,
      "benefici": 5588,
      "prospective": 5589,
      "Environment": 5590,
      "Shortcut": 5591,
      "Gateway": 5592,
      "fuel": 5593,
      "Absence": 5594,
      "reveal": 5595,
      "travel": 5596,
      "Agreement": 5597,
      "Twitter": 5598,
      "natural": 5599,
      "deletes": 5600,
      "38": 5601,
      "39": 5602,
      "41": 5603,
      "43": 5604,
      "57": 5605,
      "AS": 5606,
      "BW": 5607,
      "Bul": 5608,
      "Block": 5609,
      "DK": 5610,
      "DPR": 5611,
      "Electricity": 5612,
      "Fetch": 5613,
      "GDPR": 5614,
      "Have": 5615,
      "MD": 5616,
      "MR": 5617,
      "Ow": 5618,
      "Rule": 5619,
      "Slic": 5620,
      "Sources": 5621,
      "Tell": 5622,
      "Vouch": 5623,
      "WH": 5624,
      "Wiz": 5625,
      "Will": 5626,
      "``": 5627,
      "air": 5628,
      "ban": 5629,
      "cas": 5630,
      "gator": 5631,
      "held": 5632,
      "ise": 5633,
      "jur": 5634,
      "mid": 5635,
      "milest": 5636,
      "numbered": 5637,
      "plic": 5638,
      "tance": 5639,
      "tapping": 5640,
      "ui": 5641,
      "watch": 5642,
      "zones": 5643,
      "ined": 5644,
      "intra": 5645,
      "reopen": 5646,
      "remit": 5647,
      "reward": 5648,
      "rections": 5649,
      "remember": 5650,
      "repeat": 5651,
      "ond": 5652,
      "onboard": 5653,
      "onym": 5654,
      "ats": 5655,
      "eni": 5656,
      "semi": 5657,
      "defer": 5658,
      "health": 5659,
      "chos": 5660,
      "propag": 5661,
      "consume": 5662,
      "mechan": 5663,
      "ulations": 5664,
      "peak": 5665,
      "viz": 5666,
      "emails": 5667,
      "cret": 5668,
      "moves": 5669,
      "modern": 5670,
      "counts": 5671,
      "fine": 5672,
      "compet": 5673,
      "Reassign": 5674,
      "Reading": 5675,
      "ensing": 5676,
      "never": 5677,
      "lies": 5678,
      "anything": 5679,
      "Existing": 5680,
      "outgoing": 5681,
      "disposition": 5682,
      "Conditional": 5683,
      "numbering": 5684,
      "pace": 5685,
      "Profit": 5686,
      "older": 5687,
      "Deci": 5688,
      "differs": 5689,
      "arily": 5690,
      "otherwise": 5691,
      "Added": 5692,
      "auth": 5693,
      "authentic": 5694,
      "automate": 5695,
      "explicit": 5696,
      "ront": 5697,
      "Core": 5698,
      "interacts": 5699,
      "interacting": 5700,
      "overrid": 5701,
      "commonly": 5702,
      "organize": 5703,
      "contained": 5704,
      "timer": 5705,
      "Workers": 5706,
      "Worksheets": 5707,
      "Week": 5708,
      "heading": 5709,
      "Moving": 5710,
      "releases": 5711,
      "effe": 5712,
      "effort": 5713,
      "legends": 5714,
      "association": 5715,
      "logging": 5716,
      "clearing": 5717,
      "Detect": 5718,
      "parenthe": 5719,
      "Directly": 5720,
      "Valu": 5721,
      "Finish": 5722,
      "referenced": 5723,
      "Interactions": 5724,
      "Assignment": 5725,
      "distinguish": 5726,
      "distributed": 5727,
      "Also": 5728,
      "authorization": 5729,
      "Local": 5730,
      "Requested": 5731,
      "particip": 5732,
      "Subcontract": 5733,
      "representing": 5734,
      "artifacts": 5735,
      "metric": 5736,
      "Allows": 5737,
      "receivables": 5738,
      "Approved": 5739,
      "faces": 5740,
      "Picking": 5741,
      "atives": 5742,
      "Applying": 5743,
      "affects": 5744,
      "schem": 5745,
      "flexible": 5746,
      "taking": 5747,
      "implemented": 5748,
      "smaller": 5749,
      "pools": 5750,
      "Sche": 5751,
      "Scroll": 5752,
      "Primary": 5753,
      "Frame": 5754,
      "Maps": 5755,
      "scanner": 5756,
      "tolerances": 5757,
      "achieved": 5758,
      "Bills": 5759,
      "profitability": 5760,
      "Sugg": 5761,
      "pbiviz": 5762,
      "rectangles": 5763,
      "advantages": 5764,
      "ITE": 5765,
      "Measures": 5766,
      "Deployment": 5767,
      "Discounts": 5768,
      "accuracy": 5769,
      "Notification": 5770,
      "geographic": 5771,
      "snippets": 5772,
      "Identity": 5773,
      "surface": 5774,
      "trusted": 5775,
      "completes": 5776,
      "English": 5777,
      "Germany": 5778,
      "floor": 5779,
      "enrollment": 5780,
      "queue": 5781,
      "assumes": 5782,
      "cumul": 5783,
      "aspects": 5784,
      "reclassification": 5785,
      "Removing": 5786,
      "declaration": 5787,
      "qualified": 5788,
      "Questionnaire": 5789,
      "Facility": 5790,
      "Answer": 5791,
      "Below": 5792,
      "Collaborate": 5793,
      "Partial": 5794,
      "SVG": 5795,
      "safe": 5796,
      "Inquiries": 5797,
      "outliers": 5798,
      "inspection": 5799,
      "beneficiary": 5800,
      "Wizard": 5801,
      "chosen": 5802,
      "overridden": 5803,
      "51": 5804,
      "52": 5805,
      "Ability": 5806,
      "DS": 5807,
      "Fren": 5808,
      "Govern": 5809,
      "Host": 5810,
      "IVisual": 5811,
      "June": 5812,
      "King": 5813,
      "Pur": 5814,
      "Pros": 5815,
      "Qual": 5816,
      "Sty": 5817,
      "Tele": 5818,
      "UE": 5819,
      "WI": 5820,
      "Zone": 5821,
      "blue": 5822,
      "eight": 5823,
      "ff": 5824,
      "far": 5825,
      "gest": 5826,
      "his": 5827,
      "kens": 5828,
      "lap": 5829,
      "mist": 5830,
      "pap": 5831,
      "rd": 5832,
      "sal": 5833,
      "ube": 5834,
      "untracked": 5835,
      "vents": 5836,
      "inform": 5837,
      "informs": 5838,
      "redirect": 5839,
      "reply": 5840,
      "orti": 5841,
      "ortion": 5842,
      "esting": 5843,
      "tokens": 5844,
      "isol": 5845,
      "iction": 5846,
      "stated": 5847,
      "fire": 5848,
      "apid": 5849,
      "debug": 5850,
      "prob": 5851,
      "cond": 5852,
      "lost": 5853,
      "rief": 5854,
      "viol": 5855,
      "creators": 5856,
      "vali": 5857,
      "unlock": 5858,
      "tele": 5859,
      "apportion": 5860,
      "contribute": 5861,
      "urer": 5862,
      "white": 5863,
      "valuations": 5864,
      "soon": 5865,
      "Token": 5866,
      "izer": 5867,
      "Reimburse": 5868,
      "fecycle": 5869,
      "produces": 5870,
      "negoti": 5871,
      "Second": 5872,
      "anyone": 5873,
      "customizing": 5874,
      "prepayments": 5875,
      "outcome": 5876,
      "newly": 5877,
      "ficial": 5878,
      "manner": 5879,
      "aves": 5880,
      "Profiles": 5881,
      "paring": 5882,
      "Forward": 5883,
      "tablet": 5884,
      "tablets": 5885,
      "super": 5886,
      "expired": 5887,
      "planner": 5888,
      "sia": 5889,
      "sidi": 5890,
      "interfaces": 5891,
      "optionally": 5892,
      "cape": 5893,
      "differently": 5894,
      "Assume": 5895,
      "submission": 5896,
      "substring": 5897,
      "Trade": 5898,
      "accessing": 5899,
      "operate": 5900,
      "Node": 5901,
      "checked": 5902,
      "Entities": 5903,
      "charged": 5904,
      "market": 5905,
      "discounted": 5906,
      "generally": 5907,
      "Modi": 5908,
      "movements": 5909,
      "Definition": 5910,
      "preser": 5911,
      "connects": 5912,
      "Completed": 5913,
      "Comprehensive": 5914,
      "Autom": 5915,
      "Result": 5916,
      "certified": 5917,
      "bars": 5918,
      "dialogs": 5919,
      "fulfilled": 5920,
      "Directed": 5921,
      "Disposal": 5922,
      "experimental": 5923,
      "Canvas": 5924,
      "Assigning": 5925,
      "Comment": 5926,
      "installing": 5927,
      "registering": 5928,
      "locally": 5929,
      "slice": 5930,
      "slips": 5931,
      "integrated": 5932,
      "integrity": 5933,
      "metry": 5934,
      "behaviors": 5935,
      "Attributes": 5936,
      "incremental": 5937,
      "consuming": 5938,
      "iliar": 5939,
      "everyone": 5940,
      "Sometimes": 5941,
      "consolidations": 5942,
      "ANK": 5943,
      "BLANK": 5944,
      "Arrow": 5945,
      "spent": 5946,
      "spot": 5947,
      "absences": 5948,
      "Feature": 5949,
      "migrate": 5950,
      "knowledge": 5951,
      "decimal": 5952,
      "suggests": 5953,
      "synchronized": 5954,
      "flexibility": 5955,
      "Additionally": 5956,
      "Functions": 5957,
      "numerical": 5958,
      "drawer": 5959,
      "summarize": 5960,
      "Controls": 5961,
      "Balancing": 5962,
      "utilization": 5963,
      "fulfillment": 5964,
      "Opportunities": 5965,
      "RFQs": 5966,
      "continuous": 5967,
      "exceeds": 5968,
      "Variable": 5969,
      "Like": 5970,
      "Lifecycle": 5971,
      "licitation": 5972,
      "Consolidate": 5973,
      "technologies": 5974,
      "Times": 5975,
      "Timeline": 5976,
      "didn": 5977,
      "Estimate": 5978,
      "caching": 5979,
      "Indicates": 5980,
      "German": 5981,
      "trend": 5982,
      "trends": 5983,
      "reliability": 5984,
      "redeem": 5985,
      "cluster": 5986,
      "diagnostic": 5987,
      "Similarly": 5988,
      "Skill": 5989,
      "broken": 5990,
      "Budgeting": 5991,
      "conflicts": 5992,
      "horizontal": 5993,
      "promising": 5994,
      "Sheets": 5995,
      "cmdlets": 5996,
      "deprecated": 5997,
      "Resolve": 5998,
      "Structure": 5999,
      "Education": 6000,
      "orientation": 6001,
      "captured": 6002,
      "Language": 6003,
      "Establish": 6004,
      "defects": 6005,
      "withdrawal": 6006,
      "corporate": 6007,
      "Shape": 6008,
      "granular": 6009,
      "Shortcuts": 6010,
      "Bulk": 6011,
      "Voucher": 6012,
      "jury": 6013,
      "onboarding": 6014,
      "onymous": 6015,
      "French": 6016,
      "Kingdom": 6017,
      "Prospect": 6018,
      "Quality": 6019,
      "3D": 6020,
      "42": 6021,
      "48": 6022,
      "49": 6023,
      "53": 6024,
      "56": 6025,
      "59": 6026,
      "940": 6027,
      "Ax": 6028,
      "Bins": 6029,
      "Break": 6030,
      "Clean": 6031,
      "CFO": 6032,
      "Due": 6033,
      "ET": 6034,
      "Emp": 6035,
      "East": 6036,
      "Flic": 6037,
      "Favor": 6038,
      "Gant": 6039,
      "GIS": 6040,
      "Hospital": 6041,
      "Long": 6042,
      "Mi": 6043,
      "May": 6044,
      "Medi": 6045,
      "Oc": 6046,
      "Pred": 6047,
      "RO": 6048,
      "Redi": 6049,
      "Sens": 6050,
      "SDK": 6051,
      "SWI": 6052,
      "Tests": 6053,
      "VM": 6054,
      "WY": 6055,
      "bed": 6056,
      "cGIS": 6057,
      "distr": 6058,
      "econ": 6059,
      "electron": 6060,
      "fetch": 6061,
      "friendly": 6062,
      "hub": 6063,
      "half": 6064,
      "hospital": 6065,
      "ients": 6066,
      "iques": 6067,
      "lack": 6068,
      "rup": 6069,
      "random": 6070,
      "risk": 6071,
      "squ": 6072,
      "score": 6073,
      "wa": 6074,
      "zing": 6075,
      "zoom": 6076,
      "inet": 6077,
      "instate": 6078,
      "repo": 6079,
      "retire": 6080,
      "reinstate": 6081,
      "enrolled": 6082,
      "especi": 6083,
      "tial": 6084,
      "secret": 6085,
      "ism": 6086,
      "isis": 6087,
      "enters": 6088,
      "stay": 6089,
      "arge": 6090,
      "elling": 6091,
      "dead": 6092,
      "ably": 6093,
      "abinet": 6094,
      "expose": 6095,
      "eted": 6096,
      "PowerBI": 6097,
      "trail": 6098,
      "trash": 6099,
      "agents": 6100,
      "ordering": 6101,
      "Reject": 6102,
      "Recr": 6103,
      "ained": 6104,
      "customizable": 6105,
      "umbr": 6106,
      "Experi": 6107,
      "Expected": 6108,
      "delay": 6109,
      "oblig": 6110,
      "recordings": 6111,
      "pointing": 6112,
      "archived": 6113,
      "renders": 6114,
      "audi": 6115,
      "audio": 6116,
      "balanced": 6117,
      "Applied": 6118,
      "asking": 6119,
      "Coverage": 6120,
      "notify": 6121,
      "overwrite": 6122,
      "venues": 6123,
      "Dataflows": 6124,
      "Ass": 6125,
      "cycles": 6126,
      "approvers": 6127,
      "subsidi": 6128,
      "Que": 6129,
      "Quar": 6130,
      "refers": 6131,
      "Salesforce": 6132,
      "ogle": 6133,
      "helper": 6134,
      "Generating": 6135,
      "presents": 6136,
      "searching": 6137,
      "Previous": 6138,
      "Undo": 6139,
      "Unpaid": 6140,
      "login": 6141,
      "thereby": 6142,
      "wasn": 6143,
      "integer": 6144,
      "2013": 6145,
      "2014": 6146,
      "illness": 6147,
      "idea": 6148,
      "ATO": 6149,
      "administrative": 6150,
      "Intro": 6151,
      "substit": 6152,
      "distinct": 6153,
      "Commission": 6154,
      "Commer": 6155,
      "award": 6156,
      "Shows": 6157,
      "Requires": 6158,
      "Steps": 6159,
      "partially": 6160,
      "Processes": 6161,
      "Tech": 6162,
      "originally": 6163,
      "localizable": 6164,
      "sender": 6165,
      "secondary": 6166,
      "Transferring": 6167,
      "corresponds": 6168,
      "physically": 6169,
      "Started": 6170,
      "optimal": 6171,
      "Accessing": 6172,
      "Picks": 6173,
      "removes": 6174,
      "understanding": 6175,
      "Settlement": 6176,
      "Organizations": 6177,
      "ArcGIS": 6178,
      "spend": 6179,
      "presentation": 6180,
      "encumbr": 6181,
      "Does": 6182,
      "Modeling": 6183,
      "reflected": 6184,
      "graphical": 6185,
      "Extend": 6186,
      "Linked": 6187,
      "Allocations": 6188,
      "dynamically": 6189,
      "improvements": 6190,
      "ONUS": 6191,
      "collaborate": 6192,
      "Confirmation": 6193,
      "highlighted": 6194,
      "Developer": 6195,
      "...": 6196,
      "bindings": 6197,
      "exceeded": 6198,
      "directives": 6199,
      "simply": 6200,
      "styles": 6201,
      "technical": 6202,
      "techniques": 6203,
      "Reordering": 6204,
      "supplier": 6205,
      "principles": 6206,
      "shifts": 6207,
      "CRONUS": 6208,
      "decreases": 6209,
      "discuss": 6210,
      "highlights": 6211,
      "automation": 6212,
      "scratch": 6213,
      "acceptable": 6214,
      "conventions": 6215,
      "quarantine": 6216,
      "tempor": 6217,
      "inquiries": 6218,
      "controlling": 6219,
      "Trial": 6220,
      "reached": 6221,
      "analytical": 6222,
      "reimbursement": 6223,
      "ENXML": 6224,
      "provisioning": 6225,
      "Increase": 6226,
      "simulation": 6227,
      "Initialize": 6228,
      "Presents": 6229,
      "tweet": 6230,
      "Regional": 6231,
      "Guided": 6232,
      "SLA": 6233,
      "South": 6234,
      "inherited": 6235,
      "Beginning": 6236,
      "Reservations": 6237,
      "CPU": 6238,
      "MT940": 6239,
      "familiar": 6240,
      "enhancements": 6241,
      "ellips": 6242,
      "ignored": 6243,
      "OPENXML": 6244,
      "Width": 6245,
      "attempt": 6246,
      "deeper": 6247,
      "constructor": 6248,
      "Names": 6249,
      "alias": 6250,
      "upgraded": 6251,
      "agreed": 6252,
      "technician": 6253,
      "discrepancies": 6254,
      "banner": 6255,
      "authors": 6256,
      "effectively": 6257,
      "Finished": 6258,
      "Style": 6259,
      "paper": 6260,
      "Gantt": 6261,
      "Redirect": 6262,
      "Sensitivity": 6263,
      "SWIFT": 6264,
      "econom": 6265,
      "electronically": 6266,
      "especially": 6267,
      "46": 6268,
      "54": 6269,
      "AM": 6270,
      "Aust": 6271,
      "AAD": 6272,
      "B2": 6273,
      "BA": 6274,
      "BRL": 6275,
      "Bra": 6276,
      "D3": 6277,
      "DL": 6278,
      "ED": 6279,
      "Grid": 6280,
      "Hierarch": 6281,
      "Hire": 6282,
      "IF": 6283,
      "Known": 6284,
      "Lat": 6285,
      "LOT": 6286,
      "Must": 6287,
      "NS": 6288,
      "Rew": 6289,
      "Rates": 6290,
      "Rapid": 6291,
      "SN": 6292,
      "Sus": 6293,
      "Sender": 6294,
      "Spain": 6295,
      "WAP": 6296,
      "XBRL": 6297,
      "bly": 6298,
      "camera": 6299,
      "evaluation": 6300,
      "ffer": 6301,
      "fence": 6302,
      "got": 6303,
      "iPhone": 6304,
      "jus": 6305,
      "mic": 6306,
      "magnitude": 6307,
      "nut": 6308,
      "none": 6309,
      "nical": 6310,
      "null": 6311,
      "narrow": 6312,
      "omy": 6313,
      "sat": 6314,
      "sponsored": 6315,
      "wish": 6316,
      "zed": 6317,
      "thro": 6318,
      "inline": 6319,
      "inactive": 6320,
      "invalid": 6321,
      "recalculation": 6322,
      "anti": 6323,
      "annot": 6324,
      "engin": 6325,
      "oun": 6326,
      "ouds": 6327,
      "alone": 6328,
      "almost": 6329,
      "tier": 6330,
      "toward": 6331,
      "seen": 6332,
      "segreg": 6333,
      "ico": 6334,
      "itect": 6335,
      "asers": 6336,
      "ellow": 6337,
      "cook": 6338,
      "coding": 6339,
      "coordin": 6340,
      "mptom": 6341,
      "concurrent": 6342,
      "conversions": 6343,
      "abe": 6344,
      "oses": 6345,
      "Inbox": 6346,
      "loon": 6347,
      "adaptive": 6348,
      "quart": 6349,
      "vember": 6350,
      "resched": 6351,
      "reside": 6352,
      "unable": 6353,
      "unmark": 6354,
      "append": 6355,
      "country": 6356,
      "workaround": 6357,
      "sole": 6358,
      "solicitation": 6359,
      "Toler": 6360,
      "traf": 6361,
      "compat": 6362,
      "compute": 6363,
      "Through": 6364,
      "Reb": 6365,
      "occurren": 6366,
      "Sept": 6367,
      "anywhere": 6368,
      "suit": 6369,
      "suite": 6370,
      "Sets": 6371,
      "clusion": 6372,
      "visit": 6373,
      "listing": 6374,
      "weights": 6375,
      "delimit": 6376,
      "postal": 6377,
      "preted": 6378,
      "prepaid": 6379,
      "transitions": 6380,
      "disabling": 6381,
      "discover": 6382,
      "Cons": 6383,
      "Conversion": 6384,
      "Whole": 6385,
      "minors": 6386,
      "buffer": 6387,
      "Device": 6388,
      "Deactivate": 6389,
      "ultant": 6390,
      "Ital": 6391,
      "express": 6392,
      "expire": 6393,
      "intellig": 6394,
      "interpreted": 6395,
      "margins": 6396,
      "nose": 6397,
      "notified": 6398,
      "productions": 6399,
      "Updating": 6400,
      "returning": 6401,
      "approves": 6402,
      "webpages": 6403,
      "Tracing": 6404,
      "multilevel": 6405,
      "multiplied": 6406,
      "multidimensional": 6407,
      "November": 6408,
      "lookups": 6409,
      "depth": 6410,
      "checker": 6411,
      "readers": 6412,
      "Encry": 6413,
      "Weight": 6414,
      "Annual": 6415,
      "Customizer": 6416,
      "Modern": 6417,
      "Google": 6418,
      "efficiency": 6419,
      "creditor": 6420,
      "searches": 6421,
      "searched": 6422,
      "Height": 6423,
      "backward": 6424,
      "issuing": 6425,
      "Complex": 6426,
      "certify": 6427,
      "cleared": 6428,
      "handler": 6429,
      "measurement": 6430,
      "Finite": 6431,
      "categorize": 6432,
      "categorized": 6433,
      "referential": 6434,
      "International": 6435,
      "Comments": 6436,
      "reviewed": 6437,
      "sorts": 6438,
      "indicated": 6439,
      "indicating": 6440,
      "Regist": 6441,
      "Visio": 6442,
      "Without": 6443,
      "consideration": 6444,
      "originating": 6445,
      "Subs": 6446,
      "Subcontracting": 6447,
      "representation": 6448,
      "Visualize": 6449,
      "Embedding": 6450,
      "integrate": 6451,
      "arrive": 6452,
      "Movement": 6453,
      "Copying": 6454,
      "diagnose": 6455,
      "Offer": 6456,
      "Statistics": 6457,
      "Closed": 6458,
      "parental": 6459,
      "Schedules": 6460,
      "caten": 6461,
      "stocking": 6462,
      "Relate": 6463,
      "merch": 6464,
      "priorities": 6465,
      "maintained": 6466,
      "ISV": 6467,
      "Offline": 6468,
      "BLUE": 6469,
      "Shipments": 6470,
      "empt": 6471,
      "debited": 6472,
      "segmented": 6473,
      "segmentation": 6474,
      "Fee": 6475,
      "Messages": 6476,
      "oughnut": 6477,
      "domains": 6478,
      "Formatting": 6479,
      "flag": 6480,
      "compares": 6481,
      "prompt": 6482,
      "takt": 6483,
      "Crisis": 6484,
      "breakdown": 6485,
      "Private": 6486,
      "Persons": 6487,
      "resolution": 6488,
      "retrieval": 6489,
      "monitoring": 6490,
      "preparer": 6491,
      "Alternative": 6492,
      "responsibilities": 6493,
      "sessions": 6494,
      "Building": 6495,
      "failures": 6496,
      "Associated": 6497,
      "privilege": 6498,
      "Rows": 6499,
      "pasting": 6500,
      "Migrate": 6501,
      "Summar": 6502,
      "favorites": 6503,
      "ratings": 6504,
      "Requirements": 6505,
      "Cards": 6506,
      "----": 6507,
      "Distribution": 6508,
      "00002": 6509,
      "Questions": 6510,
      "Administrators": 6511,
      "stopped": 6512,
      "coupon": 6513,
      "Certification": 6514,
      "focused": 6515,
      "Development": 6516,
      "persist": 6517,
      "troubleshoot": 6518,
      "promotion": 6519,
      "Engine": 6520,
      "Negative": 6521,
      "loaner": 6522,
      "Execute": 6523,
      "Roll": 6524,
      "cached": 6525,
      "straightforward": 6526,
      "lands": 6527,
      "Makers": 6528,
      "communication": 6529,
      "speak": 6530,
      "AutoML": 6531,
      "Archive": 6532,
      "Archived": 6533,
      "Provider": 6534,
      "analyzing": 6535,
      "North": 6536,
      "contributors": 6537,
      "Improve": 6538,
      "Alerts": 6539,
      "Blanket": 6540,
      "PivotTable": 6541,
      "csv": 6542,
      "expenditure": 6543,
      "Synchronize": 6544,
      "Flushing": 6545,
      "Frequently": 6546,
      "Rename": 6547,
      "Sidebar": 6548,
      "waterfall": 6549,
      "repeated": 6550,
      "resembles": 6551,
      "explanation": 6552,
      "manipulate": 6553,
      "deductions": 6554,
      "Satur": 6555,
      "Warehouses": 6556,
      "jection": 6557,
      "encoded": 6558,
      "HTTP": 6559,
      "Owner": 6560,
      "Slicers": 6561,
      "remittance": 6562,
      "propagation": 6563,
      "mechanism": 6564,
      "competencies": 6565,
      "Valuation": 6566,
      "IVisualHost": 6567,
      "Purpose": 6568,
      "rdl": 6569,
      "apportionments": 6570,
      "Mixed": 6571,
      "Technical": 6572,
      "economic": 6573,
      "Braz": 6574,
      "Reward": 6575,
      "satis": 6576,
      "thrott": 6577,
      "engines": 6578,
      "quarters": 6579,
      "traffic": 6580,
      "September": 6581,
      "1000": 6582,
      "55": 6583,
      "62": 6584,
      "Asia": 6585,
      "BS": 6586,
      "Car": 6587,
      "Dial": 6588,
      "Duplicate": 6589,
      "Gross": 6590,
      "Hiring": 6591,
      "IM": 6592,
      "Live": 6593,
      "Lef": 6594,
      "Ltd": 6595,
      "Large": 6596,
      "Mand": 6597,
      "Mex": 6598,
      "MPOS": 6599,
      "NET": 6600,
      "Our": 6601,
      "PI": 6602,
      "Pad": 6603,
      "Rating": 6604,
      "Si": 6605,
      "Sn": 6606,
      "Safety": 6607,
      "Tag": 6608,
      "Wa": 6609,
      "Wave": 6610,
      "Water": 6611,
      "Ways": 6612,
      "WBS": 6613,
      "XT": 6614,
      "cow": 6615,
      "cceed": 6616,
      "fession": 6617,
      "false": 6618,
      "flake": 6619,
      "haps": 6620,
      "ifies": 6621,
      "iPad": 6622,
      "ju": 6623,
      "kes": 6624,
      "ked": 6625,
      "lb": 6626,
      "lit": 6627,
      "lading": 6628,
      "mart": 6629,
      "ng": 6630,
      "nie": 6631,
      "ology": 6632,
      "pboard": 6633,
      "sis": 6634,
      "sizing": 6635,
      "tender": 6636,
      "v4": 6637,
      "vg": 6638,
      "vac": 6639,
      "vage": 6640,
      "yond": 6641,
      "injury": 6642,
      "theast": 6643,
      "recreate": 6644,
      "recalculate": 6645,
      "anonymous": 6646,
      "erated": 6647,
      "ene": 6648,
      "titi": 6649,
      "tood": 6650,
      "staging": 6651,
      "ars": 6652,
      "acqu": 6653,
      "accomp": 6654,
      "accel": 6655,
      "fiers": 6656,
      "api": 6657,
      "asy": 6658,
      "ateObject": 6659,
      "elcome": 6660,
      "covery": 6661,
      "mpt": 6662,
      "proportion": 6663,
      "profession": 6664,
      "confi": 6665,
      "concer": 6666,
      "geos": 6667,
      "Them": 6668,
      "wider": 6669,
      "beyond": 6670,
      "lob": 6671,
      "ups": 6672,
      "adver": 6673,
      "advance": 6674,
      "quate": 6675,
      "queri": 6676,
      "pegging": 6677,
      "emer": 6678,
      "licensing": 6679,
      "withholding": 6680,
      "ette": 6681,
      "unavailable": 6682,
      "unders": 6683,
      "unchanged": 6684,
      "duty": 6685,
      "verity": 6686,
      "plu": 6687,
      "uters": 6688,
      "serv": 6689,
      "agency": 6690,
      "comprehensive": 6691,
      "Things": 6692,
      "Revers": 6693,
      "Recent": 6694,
      "Reapply": 6695,
      "Remember": 6696,
      "producing": 6697,
      "succeed": 6698,
      "kept": 6699,
      "pays": 6700,
      "asses": 6701,
      "fictiti": 6702,
      "minute": 6703,
      "ashion": 6704,
      "Promo": 6705,
      "Proxy": 6706,
      "Prompt": 6707,
      "pointer": 6708,
      "balloon": 6709,
      "According": 6710,
      "Acquire": 6711,
      "Colored": 6712,
      "Descri": 6713,
      "putting": 6714,
      "typed": 6715,
      "organized": 6716,
      "approxim": 6717,
      "subledger": 6718,
      "subcategories": 6719,
      "subcontracting": 6720,
      "deduct": 6721,
      "Queries": 6722,
      "variations": 6723,
      "scales": 6724,
      "Trace": 6725,
      "correction": 6726,
      "reading": 6727,
      "applicants": 6728,
      "Worksheet": 6729,
      "taxon": 6730,
      "lang": 6731,
      "nowflake": 6732,
      "OpenSSL": 6733,
      "refreshing": 6734,
      "mandates": 6735,
      "credited": 6736,
      "legend": 6737,
      "specifying": 6738,
      "ounds": 6739,
      "helping": 6740,
      "Contents": 6741,
      "2017": 6742,
      "Buy": 6743,
      "copies": 6744,
      "forecasted": 6745,
      "Poll": 6746,
      "Designer": 6747,
      "150": 6748,
      "mix": 6749,
      "publicly": 6750,
      "Interval": 6751,
      "Calculations": 6752,
      "Prin": 6753,
      "Commodity": 6754,
      "installer": 6755,
      "reviewing": 6756,
      "Connections": 6757,
      "adequate": 6758,
      "hourly": 6759,
      "validations": 6760,
      "Projects": 6761,
      "Locate": 6762,
      "calling": 6763,
      "separated": 6764,
      "Operator": 6765,
      "personalized": 6766,
      "Remaining": 6767,
      "Received": 6768,
      "increased": 6769,
      "Monday": 6770,
      "facilities": 6771,
      "faceted": 6772,
      "engage": 6773,
      "Systems": 6774,
      "Lists": 6775,
      "Modifying": 6776,
      "evenly": 6777,
      "Organize": 6778,
      "Arnie": 6779,
      "catalogs": 6780,
      "green": 6781,
      "Registering": 6782,
      "Categories": 6783,
      "demonstrating": 6784,
      "Putting": 6785,
      "1001": 6786,
      "Ending": 6787,
      "longest": 6788,
      "Typically": 6789,
      "Currencies": 6790,
      "accrue": 6791,
      "accrued": 6792,
      "Allocate": 6793,
      "prompts": 6794,
      "streaming": 6795,
      "Layouts": 6796,
      "summarizes": 6797,
      "initialization": 6798,
      "Package": 6799,
      "prepared": 6800,
      "Yearly": 6801,
      "piece": 6802,
      "scanned": 6803,
      "Converts": 6804,
      "Converting": 6805,
      "Responding": 6806,
      "FTP": 6807,
      "Calendars": 6808,
      "Network": 6809,
      "Background": 6810,
      "introduce": 6811,
      "FactBoxes": 6812,
      "Combined": 6813,
      "Variance": 6814,
      "Personalizing": 6815,
      "pressing": 6816,
      "careful": 6817,
      "carefully": 6818,
      "collected": 6819,
      "efficiently": 6820,
      "convention": 6821,
      "convenient": 6822,
      "Drag": 6823,
      "Phys": 6824,
      "waiting": 6825,
      "Receipts": 6826,
      "Functionality": 6827,
      "FIFO": 6828,
      "Root": 6829,
      "Indicator": 6830,
      "closer": 6831,
      "TooltipService": 6832,
      "treated": 6833,
      "detected": 6834,
      "ordinary": 6835,
      "clipboard": 6836,
      "potentially": 6837,
      "Specifically": 6838,
      "dotted": 6839,
      "provisioned": 6840,
      "recognize": 6841,
      "recognized": 6842,
      "Original": 6843,
      "redemption": 6844,
      "symbols": 6845,
      "tweets": 6846,
      "digits": 6847,
      "Guidance": 6848,
      "significantly": 6849,
      "Alert": 6850,
      "Treat": 6851,
      "recipient": 6852,
      "recipients": 6853,
      "Aggregation": 6854,
      "growth": 6855,
      "Results": 6856,
      "alphabe": 6857,
      "renamed": 6858,
      "Subscriptions": 6859,
      "History": 6860,
      "radio": 6861,
      "Choice": 6862,
      "Consolidation": 6863,
      "MRP": 6864,
      "WHITE": 6865,
      "enior": 6866,
      "explicitly": 6867,
      "Government": 6868,
      "validated": 6869,
      "Empty": 6870,
      "square": 6871,
      "retirement": 6872,
      "Recruit": 6873,
      "audience": 6874,
      "encumbrances": 6875,
      "RapidStart": 6876,
      "segregation": 6877,
      "Registers": 6878,
      "Dialog": 6879,
      "Left": 6880,
      "Mexico": 6881,
      "cowork": 6882,
      "jump": 6883,
      "little": 6884,
      "accomplish": 6885,
      "ateObjectInstances": 6886,
      "queried": 6887,
      "understood": 6888,
      "fictitious": 6889,
      "alphabetical": 6890,
      "05": 6891,
      "2000": 6892,
      "45": 6893,
      "58": 6894,
      "63": 6895,
      "65": 6896,
      "67": 6897,
      "Bing": 6898,
      "Bind": 6899,
      "Cat": 6900,
      "Cos": 6901,
      "Cach": 6902,
      "Carri": 6903,
      "DOM": 6904,
      "Dedu": 6905,
      "Events": 6906,
      "Fab": 6907,
      "Friendly": 6908,
      "GT": 6909,
      "Gi": 6910,
      "Gen": 6911,
      "Half": 6912,
      "Icel": 6913,
      "IIS": 6914,
      "IES": 6915,
      "Ken": 6916,
      "LS": 6917,
      "Mer": 6918,
      "March": 6919,
      "Never": 6920,
      "OAu": 6921,
      "PG": 6922,
      "PM": 6923,
      "Patch": 6924,
      "Pages": 6925,
      "Ratio": 6926,
      "Scal": 6927,
      "Sta": 6928,
      "Scr": 6929,
      "Scat": 6930,
      "Score": 6931,
      "Space": 6932,
      "Til": 6933,
      "Tube": 6934,
      "UK": 6935,
      "VID": 6936,
      "West": 6937,
      "Wait": 6938,
      "`.": 6939,
      "ault": 6940,
      "brief": 6941,
      "city": 6942,
      "cading": 6943,
      "dash": 6944,
      "duplic": 6945,
      "employ": 6946,
      "faction": 6947,
      "front": 6948,
      "fashion": 6949,
      "gers": 6950,
      "ilored": 6951,
      "iseconds": 6952,
      "iFrame": 6953,
      "kit": 6954,
      "kam": 6955,
      "lights": 6956,
      "mos": 6957,
      "mun": 6958,
      "mach": 6959,
      "mally": 6960,
      "noun": 6961,
      "pal": 6962,
      "pto": 6963,
      "penc": 6964,
      "png": 6965,
      "slight": 6966,
      "vo": 6967,
      "vote": 6968,
      "independ": 6969,
      "incorrectly": 6970,
      "reapply": 6971,
      "redirected": 6972,
      "rearran": 6973,
      "refine": 6974,
      "revenues": 6975,
      "annotation": 6976,
      "erk": 6977,
      "enforce": 6978,
      "ester": 6979,
      "tober": 6980,
      "edge": 6981,
      "stances": 6982,
      "stacked": 6983,
      "accepts": 6984,
      "acquire": 6985,
      "accumul": 6986,
      "forcing": 6987,
      "fili": 6988,
      "aser": 6989,
      "asser": 6990,
      "decess": 6991,
      "defective": 6992,
      "deactivated": 6993,
      "colored": 6994,
      "concurrently": 6995,
      "gear": 6996,
      "abases": 6997,
      "Indi": 6998,
      "Including": 6999,
      "wild": 7000,
      "widget": 7001,
      "begins": 7002,
      "exts": 7003,
      "exam": 7004,
      "extract": 7005,
      "upcoming": 7006,
      "ril": 7007,
      "rival": 7008,
      "rikam": 7009,
      "databases": 7010,
      "vey": 7011,
      "pectively": 7012,
      "foot": 7013,
      "creator": 7014,
      "resides": 7015,
      "respectively": 7016,
      "diem": 7017,
      "division": 7018,
      "directions": 7019,
      "unsupported": 7020,
      "unexpected": 7021,
      "unpaid": 7022,
      "selector": 7023,
      "contribution": 7024,
      "perhaps": 7025,
      "solete": 7026,
      "serves": 7027,
      "YouTube": 7028,
      "invites": 7029,
      "Creates": 7030,
      "computed": 7031,
      "computing": 7032,
      "Recall": 7033,
      "Section": 7034,
      "clouds": 7035,
      "clerk": 7036,
      "visor": 7037,
      "weak": 7038,
      "Exce": 7039,
      "Excluded": 7040,
      "premium": 7041,
      "predecess": 7042,
      "requester": 7043,
      "payables": 7044,
      "dispose": 7045,
      "Consum": 7046,
      "Constrain": 7047,
      "Adaptive": 7048,
      "manages": 7049,
      "minus": 7050,
      "obsolete": 7051,
      "ift": 7052,
      "Dec": 7053,
      "parse": 7054,
      "architect": 7055,
      "aud": 7056,
      "Apple": 7057,
      "April": 7058,
      "entiment": 7059,
      "supple": 7060,
      "relating": 7061,
      "generative": 7062,
      "actively": 7063,
      "Accept": 7064,
      "cks": 7065,
      "Codes": 7066,
      "needing": 7067,
      "indent": 7068,
      "international": 7069,
      "bikes": 7070,
      "Series": 7071,
      "ferred": 7072,
      "versa": 7073,
      "supporting": 7074,
      "subset": 7075,
      "subarea": 7076,
      "submits": 7077,
      "subtract": 7078,
      "Reported": 7079,
      "throughput": 7080,
      "grain": 7081,
      "please": 7082,
      "specification": 7083,
      "miss": 7084,
      "ously": 7085,
      "signs": 7086,
      "checkmark": 7087,
      "lump": 7088,
      "Enh": 7089,
      "Enables": 7090,
      "designated": 7091,
      "precise": 7092,
      "driver": 7093,
      "Postal": 7094,
      "describing": 7095,
      "Opening": 7096,
      "Payable": 7097,
      "whereas": 7098,
      "standing": 7099,
      "Shift": 7100,
      "relational": 7101,
      "setups": 7102,
      "Defines": 7103,
      "Prerequisites": 7104,
      "Contribut": 7105,
      "picker": 7106,
      "URI": 7107,
      "activates": 7108,
      "summing": 7109,
      "2012": 7110,
      "Generally": 7111,
      "Bucket": 7112,
      "Direction": 7113,
      "menus": 7114,
      "registry": 7115,
      "tenants": 7116,
      "highly": 7117,
      "assemblies": 7118,
      "Overwrite": 7119,
      "affili": 7120,
      "Applic": 7121,
      "Intune": 7122,
      "brand": 7123,
      "brary": 7124,
      "sequential": 7125,
      "POs": 7126,
      "Retrie": 7127,
      "Interpret": 7128,
      "navig": 7129,
      "Cannot": 7130,
      "explor": 7131,
      "Commit": 7132,
      "colorPal": 7133,
      "reviews": 7134,
      "00015": 7135,
      "Regression": 7136,
      "Vision": 7137,
      "Although": 7138,
      "occurring": 7139,
      "filling": 7140,
      "Specifying": 7141,
      "Lean": 7142,
      "Recording": 7143,
      "deploying": 7144,
      "localized": 7145,
      "worksheets": 7146,
      "Operating": 7147,
      "Visualization": 7148,
      "aggregates": 7149,
      "arrives": 7150,
      "Multiplic": 7151,
      "illustrated": 7152,
      "execu": 7153,
      "Tracker": 7154,
      "ralia": 7155,
      "Receiv": 7156,
      "builder": 7157,
      "holi": 7158,
      "Creditor": 7159,
      "matter": 7160,
      "matically": 7161,
      "Administer": 7162,
      "Static": 7163,
      "Checks": 7164,
      "facets": 7165,
      "Meeting": 7166,
      "Relations": 7167,
      "alternatives": 7168,
      "ADCS": 7169,
      "chool": 7170,
      "quisitions": 7171,
      "developing": 7172,
      "earliest": 7173,
      "Bookable": 7174,
      "Arrival": 7175,
      "spans": 7176,
      "mailing": 7177,
      "translate": 7178,
      "equals": 7179,
      "pinning": 7180,
      "suggestion": 7181,
      "suggesting": 7182,
      "Totals": 7183,
      "patial": 7184,
      "uploading": 7185,
      "denied": 7186,
      "guided": 7187,
      "Fund": 7188,
      "restriction": 7189,
      "Higher": 7190,
      "Images": 7191,
      "Immedi": 7192,
      "shaping": 7193,
      "fraud": 7194,
      "Play": 7195,
      "Packaging": 7196,
      "delegate": 7197,
      "Centralized": 7198,
      "conditionally": 7199,
      "Responsi": 7200,
      "RED": 7201,
      "subscribe": 7202,
      "Balances": 7203,
      "Mappings": 7204,
      "layers": 7205,
      "Confirmed": 7206,
      "Built": 7207,
      "failure": 7208,
      "Classify": 7209,
      "Classification": 7210,
      "Logical": 7211,
      "introduces": 7212,
      "Sorting": 7213,
      "Combines": 7214,
      "Formulas": 7215,
      "Clearing": 7216,
      "Variables": 7217,
      "Ready": 7218,
      "Requirement": 7219,
      "Personalization": 7220,
      "Personalize": 7221,
      "supplies": 7222,
      "invitations": 7223,
      "00004": 7224,
      "Legacy": 7225,
      "Deploying": 7226,
      "Library": 7227,
      "faulty": 7228,
      "evaluated": 7229,
      "gnitive": 7230,
      "carrying": 7231,
      "Certific": 7232,
      "Matching": 7233,
      "Restric": 7234,
      "powerbi": 7235,
      "surplus": 7236,
      "reversing": 7237,
      "established": 7238,
      "Metadata": 7239,
      "Need": 7240,
      "obtained": 7241,
      "Reserve": 7242,
      "Functional": 7243,
      "Estimated": 7244,
      "closes": 7245,
      "precedence": 7246,
      "COVID": 7247,
      "Analyzing": 7248,
      "communicate": 7249,
      "CTRL": 7250,
      "speed": 7251,
      "circum": 7252,
      "Geolocation": 7253,
      "Incremental": 7254,
      "assumed": 7255,
      "Accrual": 7256,
      "Accrued": 7257,
      "Provides": 7258,
      "Dropbox": 7259,
      "Budgets": 7260,
      "enumerateObjectInstances": 7261,
      "depreciated": 7262,
      "Reservation": 7263,
      "Termination": 7264,
      "Terminate": 7265,
      "hovering": 7266,
      "expenditures": 7267,
      "masks": 7268,
      "revised": 7269,
      "investigate": 7270,
      "Resulting": 7271,
      "animation": 7272,
      "enforced": 7273,
      "possibilities": 7274,
      "simplified": 7275,
      "recruitment": 7276,
      "milliseconds": 7277,
      "solve": 7278,
      "cleanup": 7279,
      "cascading": 7280,
      "middle": 7281,
      "milestone": 7282,
      "Profitability": 7283,
      "Decide": 7284,
      "parenthesis": 7285,
      "schemes": 7286,
      "mistake": 7287,
      "granularity": 7288,
      "Axis": 7289,
      "Favorites": 7290,
      "Media": 7291,
      "October": 7292,
      "Prediction": 7293,
      "obligation": 7294,
      "Australia": 7295,
      "LOT1": 7296,
      "Susan": 7297,
      "mptoms": 7298,
      "delimiter": 7299,
      "intelligence": 7300,
      "Rollup": 7301,
      "Saturday": 7302,
      "Siri": 7303,
      "Waive": 7304,
      "accelerated": 7305,
      "geospatial": 7306,
      "adverti": 7307,
      "emergency": 7308,
      "Reversing": 7309,
      "assessed": 7310,
      "taxonomy": 7311,
      "Physical": 7312,
      "Treatment": 7313,
      "coworkers": 7314,
      "Cosmos": 7315,
      "Carrier": 7316,
      "Fabrikam": 7317,
      "GTIN": 7318,
      "Iceland": 7319,
      "OAuth": 7320,
      "Staff": 7321,
      "Scrap": 7322,
      "Scatter": 7323,
      "Tiles": 7324,
      "pencil": 7325,
      "independently": 7326,
      "colorPalette": 7327,
      "Multiplicity": 7328,
      "circumstances": 7329,
      "47": 7330,
      "61": 7331,
      "72": 7332,
      "75": 7333,
      "90": 7334,
      "98": 7335,
      "Amand": 7336,
      "Aged": 7337,
      "Aging": 7338,
      "BE": 7339,
      "Bi": 7340,
      "Cou": 7341,
      "Care": 7342,
      "Ctr": 7343,
      "Cue": 7344,
      "Campaign": 7345,
      "Course": 7346,
      "Cabinet": 7347,
      "EM": 7348,
      "Evalu": 7349,
      "Either": 7350,
      "Earning": 7351,
      "Elig": 7352,
      "F5": 7353,
      "Flo": 7354,
      "Face": 7355,
      "Found": 7356,
      "False": 7357,
      "GL": 7358,
      "GS": 7359,
      "Hou": 7360,
      "Hoc": 7361,
      "Hold": 7362,
      "Having": 7363,
      "IV": 7364,
      "Jo": 7365,
      "Just": 7366,
      "LV": 7367,
      "Low": 7368,
      "Length": 7369,
      "Mat": 7370,
      "Memb": 7371,
      "Milest": 7372,
      "M0001": 7373,
      "MIM": 7374,
      "OF": 7375,
      "OLE": 7376,
      "Pop": 7377,
      "Prom": 7378,
      "Rest": 7379,
      "Rules": 7380,
      "Random": 7381,
      "RDL": 7382,
      "Sal": 7383,
      "She": 7384,
      "Sun": 7385,
      "Simple": 7386,
      "Situ": 7387,
      "Small": 7388,
      "Svg": 7389,
      "Snowflake": 7390,
      "Teach": 7391,
      "Tabs": 7392,
      "TXT": 7393,
      "Warning": 7394,
      "ZIP": 7395,
      "Zoom": 7396,
      "ather": 7397,
      "aise": 7398,
      "bust": 7399,
      "centi": 7400,
      "dll": 7401,
      "docs": 7402,
      "doughnut": 7403,
      "ech": 7404,
      "fing": 7405,
      "gger": 7406,
      "havi": 7407,
      "human": 7408,
      "ls": 7409,
      "labor": 7410,
      "mals": 7411,
      "oms": 7412,
      "pm": 7413,
      "pen": 7414,
      "pended": 7415,
      "she": 7416,
      "say": 7417,
      "sory": 7418,
      "scop": 7419,
      "school": 7420,
      "tw": 7421,
      "ume": 7422,
      "wind": 7423,
      "xls": 7424,
      "yellow": 7425,
      "zen": 7426,
      "think": 7427,
      "incur": 7428,
      "instruct": 7429,
      "reci": 7430,
      "reused": 7431,
      "reallocation": 7432,
      "rewards": 7433,
      "revaluations": 7434,
      "ongoing": 7435,
      "atile": 7436,
      "orrow": 7437,
      "enced": 7438,
      "enclosed": 7439,
      "aling": 7440,
      "tiate": 7441,
      "topo": 7442,
      "togg": 7443,
      "ising": 7444,
      "icts": 7445,
      "icia": 7446,
      "robust": 7447,
      "ston": 7448,
      "story": 7449,
      "storing": 7450,
      "ardi": 7451,
      "acquisitions": 7452,
      "fier": 7453,
      "apo": 7454,
      "atever": 7455,
      "official": 7456,
      "els": 7457,
      "125": 7458,
      "dev": 7459,
      "decor": 7460,
      "deactivate": 7461,
      "hex": 7462,
      "cores": 7463,
      "coach": 7464,
      "proxy": 7465,
      "convers": 7466,
      "consequences": 7467,
      "console": 7468,
      "meant": 7469,
      "Individu": 7470,
      "lographic": 7471,
      "excess": 7472,
      "excluded": 7473,
      "excluding": 7474,
      "adap": 7475,
      "lications": 7476,
      "resid": 7477,
      "etc": 7478,
      "essential": 7479,
      "ops": 7480,
      "apper": 7481,
      "PowerApp": 7482,
      "contributes": 7483,
      "whatever": 7484,
      "verification": 7485,
      "verified": 7486,
      "endpoints": 7487,
      "Together": 7488,
      "trun": 7489,
      "servers": 7490,
      "invest": 7491,
      "compose": 7492,
      "comparing": 7493,
      "Replan": 7494,
      "Reclassify": 7495,
      "fered": 7496,
      "ensuring": 7497,
      "liqu": 7498,
      "usted": 7499,
      "amorti": 7500,
      "recall": 7501,
      "recorder": 7502,
      "clon": 7503,
      "Exclude": 7504,
      "delays": 7505,
      "prefix": 7506,
      "preferences": 7507,
      "outcomes": 7508,
      "outlined": 7509,
      "disappear": 7510,
      "addressed": 7511,
      "processor": 7512,
      "minor": 7513,
      "avy": 7514,
      "modeler": 7515,
      "Prod": 7516,
      "Propose": 7517,
      "Dev": 7518,
      "rence": 7519,
      "impair": 7520,
      "implications": 7521,
      "Appoint": 7522,
      "strong": 7523,
      "clicks": 7524,
      "groupings": 7525,
      "expires": 7526,
      "expressed": 7527,
      "relates": 7528,
      "tailored": 7529,
      "Cognitive": 7530,
      "interactivity": 7531,
      "Descript": 7532,
      "bike": 7533,
      "nothing": 7534,
      "icks": 7535,
      "overflow": 7536,
      "overlap": 7537,
      "quantified": 7538,
      "Asset": 7539,
      "Updates": 7540,
      "retention": 7541,
      "subreports": 7542,
      "varies": 7543,
      "Tricia": 7544,
      "CostCenter": 7545,
      "Investi": 7546,
      "Nomenclature": 7547,
      "Stages": 7548,
      "checking": 7549,
      "Enumer": 7550,
      "hierarchically": 7551,
      "designs": 7552,
      "Postdated": 7553,
      "stops": 7554,
      "mitted": 7555,
      "ributions": 7556,
      "headings": 7557,
      "Shop": 7558,
      "allowing": 7559,
      "naming": 7560,
      "releasing": 7561,
      "messaging": 7562,
      "searchable": 7563,
      "backwards": 7564,
      "Computers": 7565,
      "packed": 7566,
      "Prepayment": 7567,
      "Predefined": 7568,
      "Prepayments": 7569,
      "Preparing": 7570,
      "Unless": 7571,
      "logistics": 7572,
      "transferring": 7573,
      "goes": 7574,
      "adjusts": 7575,
      "termination": 7576,
      "pause": 7577,
      "limitation": 7578,
      "Behavi": 7579,
      "phr": 7580,
      "criter": 7581,
      "rolling": 7582,
      "Invoke": 7583,
      "personnel": 7584,
      "Dispose": 7585,
      "Valery": 7586,
      "modeled": 7587,
      "locked": 7588,
      "Final": 7589,
      "tested": 7590,
      "brack": 7591,
      "brings": 7592,
      "Forms": 7593,
      "Cancell": 7594,
      "quickstart": 7595,
      "distance": 7596,
      "Combo": 7597,
      "Commun": 7598,
      "Suppose": 7599,
      "Supplies": 7600,
      "Usually": 7601,
      "fewer": 7602,
      "recommendation": 7603,
      "00012": 7604,
      "00011": 7605,
      "Running": 7606,
      "cured": 7607,
      "indicators": 7608,
      "drilling": 7609,
      "lesson": 7610,
      "deployments": 7611,
      "learned": 7612,
      "SSAS": 7613,
      "separator": 7614,
      "appropriately": 7615,
      "Following": 7616,
      "modifying": 7617,
      "reduces": 7618,
      "actuals": 7619,
      "Outcome": 7620,
      "Finding": 7621,
      "shortage": 7622,
      "executing": 7623,
      "TypeDescript": 7624,
      "Verti": 7625,
      "diagon": 7626,
      "increasing": 7627,
      "holographic": 7628,
      "combines": 7629,
      "retailer": 7630,
      "Displaying": 7631,
      "programmatically": 7632,
      "stocked": 7633,
      "stockkeeping": 7634,
      "medium": 7635,
      "Assembled": 7636,
      "converts": 7637,
      "umeric": 7638,
      "cipal": 7639,
      "merged": 7640,
      "contextual": 7641,
      "Keys": 7642,
      "Margin": 7643,
      "estimation": 7644,
      "routings": 7645,
      "Codeunit": 7646,
      "Quickbooks": 7647,
      "decimals": 7648,
      "uppercase": 7649,
      "downloading": 7650,
      "Typical": 7651,
      "Anyone": 7652,
      "pairs": 7653,
      "streams": 7654,
      "summarization": 7655,
      "fraction": 7656,
      "recurrence": 7657,
      "initialize": 7658,
      "allocating": 7659,
      "Considerations": 7660,
      "Packages": 7661,
      "scanners": 7662,
      "Respond": 7663,
      "Capacities": 7664,
      "Positions": 7665,
      "FTE": 7666,
      "Navigator": 7667,
      "RFM": 7668,
      "Levels": 7669,
      "complexity": 7670,
      "branching": 7671,
      "utility": 7672,
      "Insurance": 7673,
      "committed": 7674,
      "immediate": 7675,
      "carried": 7676,
      "regularly": 7677,
      "Handle": 7678,
      "failing": 7679,
      "settles": 7680,
      "principals": 7681,
      "Charge": 7682,
      "Migrating": 7683,
      "Various": 7684,
      "favorable": 7685,
      "Statements": 7686,
      "Wrapper": 7687,
      "elimin": 7688,
      "STS": 7689,
      "Simulate": 7690,
      "Issues": 7691,
      "Certify": 7692,
      "Explorer": 7693,
      "Relationships": 7694,
      "Binary": 7695,
      "Denied": 7696,
      "Replenish": 7697,
      "Scenarios": 7698,
      "powerful": 7699,
      "secured": 7700,
      "commissions": 7701,
      "Solver": 7702,
      "promote": 7703,
      "Departments": 7704,
      "Cycles": 7705,
      "comparisons": 7706,
      "Addresses": 7707,
      "hyperlinks": 7708,
      "Materials": 7709,
      "Roles": 7710,
      "Trigger": 7711,
      "arguments": 7712,
      "Continu": 7713,
      "Prioriti": 7714,
      "normally": 7715,
      "reimbursements": 7716,
      "Authoring": 7717,
      "Maker": 7718,
      "Making": 7719,
      "speech": 7720,
      "relies": 7721,
      "ENT": 7722,
      "SILV": 7723,
      "Rendering": 7724,
      "alignment": 7725,
      "reclassify": 7726,
      "clustered": 7727,
      "broad": 7728,
      "declarations": 7729,
      "Questionnaires": 7730,
      "Southeast": 7731,
      "horizontally": 7732,
      "join": 7733,
      "joins": 7734,
      "inherit": 7735,
      "enumeration": 7736,
      "promissory": 7737,
      "Improved": 7738,
      "Virtualization": 7739,
      "Treas": 7740,
      "Aggregate": 7741,
      "Frequency": 7742,
      "Memos": 7743,
      "crypto": 7744,
      "assisted": 7745,
      "bridging": 7746,
      "protected": 7747,
      "Separate": 7748,
      "minimize": 7749,
      "renaming": 7750,
      "million": 7751,
      "prioritize": 7752,
      "```": 7753,
      "deferral": 7754,
      "authenticate": 7755,
      "Suggest": 7756,
      "Suggested": 7757,
      "DSR": 7758,
      "salary": 7759,
      "isolation": 7760,
      "firewall": 7761,
      "violations": 7762,
      "telemetry": 7763,
      "preserve": 7764,
      "Automation": 7765,
      "districts": 7766,
      "risks": 7767,
      "Assess": 7768,
      "subsidiary": 7769,
      "Quarter": 7770,
      "Commerce": 7771,
      "temporary": 7772,
      "ellipsis": 7773,
      "AADSTS": 7774,
      "B2B": 7775,
      "Hierarchy": 7776,
      "justification": 7777,
      "anticip": 7778,
      "ISVs": 7779,
      "landscape": 7780,
      "Northwind": 7781,
      "repeatedly": 7782,
      "Brazil": 7783,
      "throttling": 7784,
      "vacation": 7785,
      "professional": 7786,
      "approximately": 7787,
      "deducted": 7788,
      "Principal": 7789,
      "eniority": 7790,
      "Catalog": 7791,
      "Deduction": 7792,
      "Merge": 7793,
      "machines": 7794,
      "slightly": 7795,
      "accumulated": 7796,
      "India": 7797,
      "wildcard": 7798,
      "Exception": 7799,
      "predecessor": 7800,
      "Applicable": 7801,
      "exploration": 7802,
      "Commitments": 7803,
      "Certificate": 7804,
      "advertise": 7805,
      "Amanda": 7806,
      "Couple": 7807,
      "Ctrl": 7808,
      "Eligibility": 7809,
      "Facebook": 7810,
      "Houston": 7811,
      "Members": 7812,
      "MIME": 7813,
      "Restart": 7814,
      "Sunday": 7815,
      "twice": 7816,
      "xlsx": 7817,
      "orrowing": 7818,
      "impairment": 7819,
      "Behavior": 7820,
      "criterion": 7821,
      "Cancellations": 7822,
      "TypeDescriptor": 7823,
      "SILVER": 7824,
      "02": 7825,
      "04": 7826,
      "1st": 7827,
      "480": 7828,
      "81": 7829,
      "Alic": 7830,
      "Bed": 7831,
      "BPM": 7832,
      "City": 7833,
      "Cli": 7834,
      "Ceri": 7835,
      "Du": 7836,
      "Ele": 7837,
      "Eas": 7838,
      "FS": 7839,
      "Fail": 7840,
      "Further": 7841,
      "Front": 7842,
      "GP": 7843,
      "Gre": 7844,
      "HQ": 7845,
      "Has": 7846,
      "HAR": 7847,
      "IC": 7848,
      "ION": 7849,
      "LAT": 7850,
      "M1": 7851,
      "M9": 7852,
      "Mis": 7853,
      "Mail": 7854,
      "MIS": 7855,
      "MPS": 7856,
      "Nu": 7857,
      "Nested": 7858,
      "OD": 7859,
      "OR": 7860,
      "OPOS": 7861,
      "Ple": 7862,
      "Prec": 7863,
      "Pending": 7864,
      "Pie": 7865,
      "Phy": 7866,
      "PIN": 7867,
      "Rank": 7868,
      "Raw": 7869,
      "Scan": 7870,
      "Sense": 7871,
      "Saving": 7872,
      "Solu": 7873,
      "Sponsored": 7874,
      "Speak": 7875,
      "SFTP": 7876,
      "TD": 7877,
      "Tare": 7878,
      "Tree": 7879,
      "Util": 7880,
      "WMS": 7881,
      "YTD": 7882,
      "Zip": 7883,
      "azure": 7884,
      "ailed": 7885,
      "bing": 7886,
      "bad": 7887,
      "btt": 7888,
      "brevi": 7889,
      "black": 7890,
      "blob": 7891,
      "came": 7892,
      "cues": 7893,
      "dup": 7894,
      "dum": 7895,
      "electricity": 7896,
      "fon": 7897,
      "gri": 7898,
      "hr": 7899,
      "hit": 7900,
      "hard": 7901,
      "hides": 7902,
      "ix": 7903,
      "iest": 7904,
      "iho": 7905,
      "jec": 7906,
      "kr": 7907,
      "lance": 7908,
      "lene": 7909,
      "mor": 7910,
      "nced": 7911,
      "omin": 7912,
      "rame": 7913,
      "rack": 7914,
      "sl": 7915,
      "sap": 7916,
      "sus": 7917,
      "spare": 7918,
      "tur": 7919,
      "tries": 7920,
      "tlene": 7921,
      "uations": 7922,
      "vol": 7923,
      "void": 7924,
      "x64": 7925,
      "yes": 7926,
      "yms": 7927,
      "thumb": 7928,
      "thick": 7929,
      "threads": 7930,
      "informat": 7931,
      "infix": 7932,
      "incid": 7933,
      "incorporate": 7934,
      "reti": 7935,
      "renew": 7936,
      "recreated": 7937,
      "repos": 7938,
      "reaction": 7939,
      "rebuild": 7940,
      "refunds": 7941,
      "refund": 7942,
      "rearrange": 7943,
      "reseller": 7944,
      "atforms": 7945,
      "oric": 7946,
      "estic": 7947,
      "although": 7948,
      "leaf": 7949,
      "leading": 7950,
      "leaving": 7951,
      "took": 7952,
      "tocol": 7953,
      "towards": 7954,
      "sees": 7955,
      "seam": 7956,
      "severity": 7957,
      "edits": 7958,
      "rome": 7959,
      "road": 7960,
      "rophone": 7961,
      "rooms": 7962,
      "stations": 7963,
      "ands": 7964,
      "ark": 7965,
      "offered": 7966,
      "ctuations": 7967,
      "elf": 7968,
      "eliho": 7969,
      "deal": 7970,
      "llis": 7971,
      "chall": 7972,
      "promi": 7973,
      "usual": 7974,
      "arest": 7975,
      "abbrevi": 7976,
      "Industry": 7977,
      "exposed": 7978,
      "exempt": 7979,
      "ership": 7980,
      "advi": 7981,
      "ulates": 7982,
      "datapo": 7983,
      "pecti": 7984,
      "respect": 7985,
      "dian": 7986,
      "diam": 7987,
      "ilit": 7988,
      "illed": 7989,
      "dataPoints": 7990,
      "oppos": 7991,
      "unposted": 7992,
      "unnecessary": 7993,
      "unified": 7994,
      "unlimited": 7995,
      "undle": 7996,
      "ciled": 7997,
      "teach": 7998,
      "appended": 7999,
      "appreci": 8000,
      "shelf": 8001,
      "verifies": 8002,
      "valuable": 8003,
      "perman": 8004,
      "pertain": 8005,
      "permitted": 8006,
      "platforms": 8007,
      "traction": 8008,
      "tricks": 8009,
      "rout": 8010,
      "lind": 8011,
      "finding": 8012,
      "Creation": 8013,
      "comply": 8014,
      "compress": 8015,
      "Those": 8016,
      "Real": 8017,
      "Reuse": 8018,
      "React": 8019,
      "Reopen": 8020,
      "Recalculate": 8021,
      "accountants": 8022,
      "nearest": 8023,
      "liability": 8024,
      "figure": 8025,
      "Sector": 8026,
      "rective": 8027,
      "visitor": 8028,
      "invoke": 8029,
      "Expl": 8030,
      "Extra": 8031,
      "prepar": 8032,
      "preparing": 8033,
      "outstanding": 8034,
      "discovery": 8035,
      "Condition": 8036,
      "Concer": 8037,
      "Consignment": 8038,
      "Concaten": 8039,
      "Clicking": 8040,
      "notate": 8041,
      "redraw": 8042,
      "visualTransform": 8043,
      "addTooltip": 8044,
      "extends": 8045,
      "mini": 8046,
      "iframe": 8047,
      "olds": 8048,
      "oldest": 8049,
      "linear": 8050,
      "lineage": 8051,
      "Deleg": 8052,
      "Deleted": 8053,
      "parsing": 8054,
      "archiving": 8055,
      "iders": 8056,
      "imperson": 8057,
      "praise": 8058,
      "Applies": 8059,
      "wanted": 8060,
      "expensive": 8061,
      "expiry": 8062,
      "playback": 8063,
      "requiring": 8064,
      "ckets": 8065,
      "interim": 8066,
      "interrup": 8067,
      "noti": 8068,
      "nover": 8069,
      "overtime": 8070,
      "overloaded": 8071,
      "capital": 8072,
      "vention": 8073,
      "DataPoint": 8074,
      "approving": 8075,
      "subtotals": 8076,
      "subgrids": 8077,
      "synon": 8078,
      "synced": 8079,
      "Child": 8080,
      "Chrome": 8081,
      "imports": 8082,
      "Opt": 8083,
      "True": 8084,
      "signal": 8085,
      "Invite": 8086,
      "104": 8087,
      "10th": 8088,
      "correlation": 8089,
      "corrective": 8090,
      "Vide": 8091,
      "Std": 8092,
      "Stri": 8093,
      "Stream": 8094,
      "Stacked": 8095,
      "readable": 8096,
      "Workbooks": 8097,
      "prietary": 8098,
      "Anna": 8099,
      "Annotate": 8100,
      "CustomData": 8101,
      "Customizing": 8102,
      "headquarters": 8103,
      "standardi": 8104,
      "Good": 8105,
      "allowances": 8106,
      "relevance": 8107,
      "pressed": 8108,
      "backup": 8109,
      "backend": 8110,
      "Comparing": 8111,
      "packaging": 8112,
      "Preferred": 8113,
      "Unable": 8114,
      "Unlike": 8115,
      "Unrealized": 8116,
      "instant": 8117,
      "logos": 8118,
      "errone": 8119,
      "responding": 8120,
      "Transfers": 8121,
      "pickup": 8122,
      "tooling": 8123,
      "adjusting": 8124,
      "handful": 8125,
      "finds": 8126,
      "Detail": 8127,
      "2020": 8128,
      "Major": 8129,
      "terminology": 8130,
      "law": 8131,
      "offsetting": 8132,
      "inspect": 8133,
      "insured": 8134,
      "USSI": 8135,
      "phase": 8136,
      "ERRO": 8137,
      "Imported": 8138,
      "Importance": 8139,
      "Overhead": 8140,
      "Overdue": 8141,
      "basics": 8142,
      "persons": 8143,
      "Disposition": 8144,
      "Dispatch": 8145,
      "Vali": 8146,
      "corrected": 8147,
      "solid": 8148,
      "easiest": 8149,
      "divide": 8150,
      "Intelli": 8151,
      "Intellig": 8152,
      "Analy": 8153,
      "placement": 8154,
      "overviews": 8155,
      "billable": 8156,
      "boundary": 8157,
      "referencing": 8158,
      "Interaction": 8159,
      "FromExternal": 8160,
      "base64": 8161,
      "exploring": 8162,
      "installs": 8163,
      "installments": 8164,
      "Connector": 8165,
      "0002": 8166,
      "nonspecific": 8167,
      "nonconform": 8168,
      "authorize": 8169,
      "Lock": 8170,
      "POST": 8171,
      "partition": 8172,
      "finishes": 8173,
      "confirmations": 8174,
      "considers": 8175,
      "Sync": 8176,
      "personalizations": 8177,
      "continues": 8178,
      "replaces": 8179,
      "builds": 8180,
      "differentiate": 8181,
      "Administration": 8182,
      "Accessibility": 8183,
      "Published": 8184,
      "Clust": 8185,
      "removal": 8186,
      "consistency": 8187,
      "nchronous": 8188,
      "Filtering": 8189,
      "largest": 8190,
      "reconciled": 8191,
      "maintaining": 8192,
      "targeted": 8193,
      "initiating": 8194,
      "chooses": 8195,
      "Amorti": 8196,
      "popular": 8197,
      "entirely": 8198,
      "Signature": 8199,
      "Capabilities": 8200,
      "spending": 8201,
      "revert": 8202,
      "Param": 8203,
      "submitting": 8204,
      "Feed": 8205,
      "migrating": 8206,
      "migrated": 8207,
      "250": 8208,
      "graphics": 8209,
      "Linking": 8210,
      "denomin": 8211,
      "Driver": 8212,
      "children": 8213,
      "clearly": 8214,
      "Funds": 8215,
      "Identification": 8216,
      "feeds": 8217,
      "restricts": 8218,
      "restricted": 8219,
      "Highlights": 8220,
      "Paste": 8221,
      "PaaS": 8222,
      "Privile": 8223,
      "CompanyInfo": 8224,
      "leadership": 8225,
      "weeks": 8226,
      "asterisk": 8227,
      "scanning": 8228,
      "Possible": 8229,
      "Firm": 8230,
      "RECE": 8231,
      "lowercase": 8232,
      "auditing": 8233,
      "scaling": 8234,
      "foundation": 8235,
      "Inspect": 8236,
      "commitments": 8237,
      "clause": 8238,
      "Loaded": 8239,
      "Classic": 8240,
      "Purchasers": 8241,
      "hybrid": 8242,
      "Characters": 8243,
      "continued": 8244,
      "Attached": 8245,
      "FastTabs": 8246,
      "Login": 8247,
      "Forecasts": 8248,
      "Dashboards": 8249,
      "Deliver": 8250,
      "Differences": 8251,
      "Headers": 8252,
      "invited": 8253,
      "Validations": 8254,
      "Buttons": 8255,
      "career": 8256,
      "inserting": 8257,
      "scrolling": 8258,
      "Issuing": 8259,
      "Integrate": 8260,
      "Barcode": 8261,
      "pictures": 8262,
      "geolocation": 8263,
      "Graph": 8264,
      "IdP": 8265,
      "Reasons": 8266,
      "Disabled": 8267,
      "establishes": 8268,
      "Engage": 8269,
      "Agent": 8270,
      "FICE": 8271,
      "bids": 8272,
      "volunt": 8273,
      "influences": 8274,
      "Liquidate": 8275,
      "landing": 8276,
      "treem": 8277,
      "clarify": 8278,
      "Authorize": 8279,
      "Reduced": 8280,
      "Better": 8281,
      "SIWY": 8282,
      "dataViewMappings": 8283,
      "likeliho": 8284,
      "prediction": 8285,
      "predictive": 8286,
      "aligned": 8287,
      "Enrollment": 8288,
      "analyzed": 8289,
      "Removes": 8290,
      "diagnostics": 8291,
      "skipped": 8292,
      "peripheral": 8293,
      "Flexible": 8294,
      "encountered": 8295,
      "staffer": 8296,
      "qualify": 8297,
      "discrete": 8298,
      "placeholders": 8299,
      "CEO": 8300,
      "Answers": 8301,
      "Fulfillment": 8302,
      "cmdlet": 8303,
      "paint": 8304,
      "replenished": 8305,
      "Memory": 8306,
      "repeating": 8307,
      "resemble": 8308,
      "ignore": 8309,
      "deduction": 8310,
      "earnings": 8311,
      "Subscribe": 8312,
      "Stockkeeping": 8313,
      "simplify": 8314,
      "recruiting": 8315,
      "loops": 8316,
      "Consolidations": 8317,
      "FetchXML": 8318,
      "MDM": 8319,
      "milestones": 8320,
      "Decimal": 8321,
      "authenticated": 8322,
      "parentheses": 8323,
      "schemas": 8324,
      "Scheme": 8325,
      "salvage": 8326,
      "probability": 8327,
      "negotiated": 8328,
      "supervisor": 8329,
      "Skills": 8330,
      "WYSIWY": 8331,
      "waits": 8332,
      "deadline": 8333,
      "Experiment": 8334,
      "Queue": 8335,
      "Queues": 8336,
      "cookie": 8337,
      "coordinator": 8338,
      "reschedule": 8339,
      "Tolerance": 8340,
      "compatible": 8341,
      "Rebates": 8342,
      "occurrences": 8343,
      "Italy": 8344,
      "Encrypted": 8345,
      "Substit": 8346,
      "merchand": 8347,
      "speaker": 8348,
      "Snap": 8349,
      "lbs": 8350,
      "servicing": 8351,
      "langs": 8352,
      "TooltipServiceWrapper": 8353,
      "Scale": 8354,
      "dashed": 8355,
      "nounce": 8356,
      "examine": 8357,
      "Consumers": 8358,
      "Decision": 8359,
      "architecture": 8360,
      "Enhance": 8361,
      "Contributors": 8362,
      "Retrieve": 8363,
      "IVE": 8364,
      "Matrix": 8365,
      "OFFICE": 8366,
      "Situation": 8367,
      "SvgText": 8368,
      "topology": 8369,
      "conversation": 8370,
      "Individual": 8371,
      "liquid": 8372,
      "cloned": 8373,
      "Appointment": 8374,
      "brackets": 8375,
      "diagonal": 8376,
      "fractional": 8377,
      "eliminate": 8378,
      "Treasurer": 8379,
      "anticipated": 8380,
      "Alicia": 8381,
      "Ceridian": 8382,
      "Duty": 8383,
      "Elements": 8384,
      "Failure": 8385,
      "MISC": 8386,
      "Please": 8387,
      "Phyllis": 8388,
      "Solutions": 8389,
      "bttn": 8390,
      "duplication": 8391,
      "dummy": 8392,
      "grill": 8393,
      "sapcrypto": 8394,
      "turnover": 8395,
      "informative": 8396,
      "incidents": 8397,
      "retired": 8398,
      "seamless": 8399,
      "challen": 8400,
      "datapoints": 8401,
      "pectives": 8402,
      "opposite": 8403,
      "Concerning": 8404,
      "synonyms": 8405,
      "IntelliSense": 8406,
      "FromExternalApplication": 8407,
      "Amortize": 8408,
      "RECEIVE": 8409,
      "likelihood": 8410,
      "WYSIWYG": 8411,
      "09": 8412,
      "2pm": 8413,
      "400": 8414,
      "66": 8415,
      "70": 8416,
      "700": 8417,
      "765": 8418,
      "95": 8419,
      "980": 8420,
      "AC": 8421,
      "BY": 8422,
      "Br": 8423,
      "Ben": 8424,
      "Bod": 8425,
      "Bases": 8426,
      "Bring": 8427,
      "Brief": 8428,
      "CL": 8429,
      "Cs": 8430,
      "Cand": 8431,
      "Cri": 8432,
      "Cust": 8433,
      "Clock": 8434,
      "Cache": 8435,
      "CLI": 8436,
      "Camera": 8437,
      "DI": 8438,
      "DU": 8439,
      "Dan": 8440,
      "Ded": 8441,
      "Dig": 8442,
      "Dom": 8443,
      "Duration": 8444,
      "Daily": 8445,
      "D0001": 8446,
      "DUT": 8447,
      "DPI": 8448,
      "Equ": 8449,
      "EFT": 8450,
      "Four": 8451,
      "Freight": 8452,
      "GA": 8453,
      "Gain": 8454,
      "Horizont": 8455,
      "Ig": 8456,
      "Ide": 8457,
      "Icon": 8458,
      "IAP": 8459,
      "JBA": 8460,
      "Late": 8461,
      "Los": 8462,
      "M2": 8463,
      "Mid": 8464,
      "M00": 8465,
      "Member": 8466,
      "Magnitude": 8467,
      "NL": 8468,
      "NT": 8469,
      "Narr": 8470,
      "Numeric": 8471,
      "OY": 8472,
      "Ok": 8473,
      "P2": 8474,
      "PE": 8475,
      "Pan": 8476,
      "Pen": 8477,
      "PLC": 8478,
      "PPG": 8479,
      "Rad": 8480,
      "RSS": 8481,
      "SH": 8482,
      "SU": 8483,
      "Sp": 8484,
      "Sur": 8485,
      "Sli": 8486,
      "Sav": 8487,
      "Stop": 8488,
      "Scor": 8489,
      "Saf": 8490,
      "Smi": 8491,
      "Sove": 8492,
      "Samples": 8493,
      "Session": 8494,
      "Sold": 8495,
      "Script": 8496,
      "Sandbox": 8497,
      "Scope": 8498,
      "Smart": 8499,
      "Tren": 8500,
      "Tier": 8501,
      "Tak": 8502,
      "Tues": 8503,
      "TCA": 8504,
      "UPN": 8505,
      "Vend": 8506,
      "Volu": 8507,
      "Vault": 8508,
      "Want": 8509,
      "Welcome": 8510,
      "Xero": 8511,
      "X50": 8512,
      "YOY": 8513,
      "b5": 8514,
      "band": 8515,
      "borders": 8516,
      "borrowing": 8517,
      "billed": 8518,
      "blind": 8519,
      "che": 8520,
      "clo": 8521,
      "cil": 8522,
      "cabinet": 8523,
      "dence": 8524,
      "elect": 8525,
      "gust": 8526,
      "gover": 8527,
      "grows": 8528,
      "glance": 8529,
      "gx64": 8530,
      "hires": 8531,
      "htt": 8532,
      "ilo": 8533,
      "iers": 8534,
      "ief": 8535,
      "ised": 8536,
      "idelines": 8537,
      "ieves": 8538,
      "ibly": 8539,
      "king": 8540,
      "lers": 8541,
      "lending": 8542,
      "lapping": 8543,
      "liter": 8544,
      "lighting": 8545,
      "mash": 8546,
      "ny": 8547,
      "oth": 8548,
      "ore": 8549,
      "pad": 8550,
      "pure": 8551,
      "pivot": 8552,
      "pounds": 8553,
      "pix": 8554,
      "rations": 8555,
      "rices": 8556,
      "rati": 8557,
      "smo": 8558,
      "sized": 8559,
      "saw": 8560,
      "smart": 8561,
      "sounds": 8562,
      "sentiment": 8563,
      "seniority": 8564,
      "tor": 8565,
      "talk": 8566,
      "texts": 8567,
      "uing": 8568,
      "uck": 8569,
      "v2": 8570,
      "vat": 8571,
      "vation": 8572,
      "vances": 8573,
      "warran": 8574,
      "waves": 8575,
      "welcome": 8576,
      "xes": 8577,
      "yalty": 8578,
      "thous": 8579,
      "indu": 8580,
      "inclusion": 8581,
      "incenti": 8582,
      "reet": 8583,
      "replan": 8584,
      "replay": 8585,
      "really": 8586,
      "restructure": 8587,
      "resell": 8588,
      "revision": 8589,
      "remed": 8590,
      "replic": 8591,
      "rejection": 8592,
      "attr": 8593,
      "atulations": 8594,
      "ana": 8595,
      "ancy": 8596,
      "ering": 8597,
      "er2016": 8598,
      "org": 8599,
      "orize": 8600,
      "orized": 8601,
      "eners": 8602,
      "entitle": 8603,
      "ala": 8604,
      "alan": 8605,
      "titive": 8606,
      "ticket": 8607,
      "leverage": 8608,
      "tore": 8609,
      "season": 8610,
      "istive": 8611,
      "icy": 8612,
      "icted": 8613,
      "rot": 8614,
      "rozen": 8615,
      "stries": 8616,
      "stale": 8617,
      "stories": 8618,
      "forget": 8619,
      "forgot": 8620,
      "itory": 8621,
      "120": 8622,
      "dees": 8623,
      "devi": 8624,
      "debu": 8625,
      "deals": 8626,
      "chat": 8627,
      "chose": 8628,
      "prog": 8629,
      "proposed": 8630,
      "protocol": 8631,
      "usable": 8632,
      "usability": 8633,
      "conclusion": 8634,
      "concaten": 8635,
      "convey": 8636,
      "mentary": 8637,
      "ports": 8638,
      "osition": 8639,
      "Their": 8640,
      "Incident": 8641,
      "behave": 8642,
      "becoming": 8643,
      "exe": 8644,
      "exit": 8645,
      "excel": 8646,
      "adop": 8647,
      "advice": 8648,
      "additions": 8649,
      "advances": 8650,
      "titative": 8651,
      "ulation": 8652,
      "ulting": 8653,
      "dator": 8654,
      "lymor": 8655,
      "vides": 8656,
      "resum": 8657,
      "resume": 8658,
      "forming": 8659,
      "moment": 8660,
      "ilies": 8661,
      "isted": 8662,
      "validates": 8663,
      "unning": 8664,
      "undefined": 8665,
      "uniqu": 8666,
      "unapproved": 8667,
      "unately": 8668,
      "unrelate": 8669,
      "unresolved": 8670,
      "dual": 8671,
      "contributions": 8672,
      "whse": 8673,
      "workday": 8674,
      "plint": 8675,
      "plier": 8676,
      "placing": 8677,
      "social": 8678,
      "uton": 8679,
      "train": 8680,
      "izers": 8681,
      "invent": 8682,
      "agine": 8683,
      "agination": 8684,
      "lining": 8685,
      "Credenti": 8686,
      "compe": 8687,
      "complement": 8688,
      "compressed": 8689,
      "compelling": 8690,
      "composition": 8691,
      "Rebuild": 8692,
      "Retire": 8693,
      "References": 8694,
      "Regenerative": 8695,
      "bold": 8696,
      "ardo": 8697,
      "viewport": 8698,
      "ensibility": 8699,
      "ensitive": 8700,
      "ThisItem": 8701,
      "suits": 8702,
      "SetSPN": 8703,
      "customizers": 8704,
      "ambig": 8705,
      "umber": 8706,
      "clone": 8707,
      "visits": 8708,
      "visited": 8709,
      "invoked": 8710,
      "Exit": 8711,
      "Exact": 8712,
      "Extract": 8713,
      "Exempt": 8714,
      "prep": 8715,
      "preset": 8716,
      "prevents": 8717,
      "achieves": 8718,
      "lest": 8719,
      "outlines": 8720,
      "requesting": 8721,
      "transit": 8722,
      "transformation": 8723,
      "disables": 8724,
      "disburse": 8725,
      "disrup": 8726,
      "Const": 8727,
      "Congr": 8728,
      "Concurrent": 8729,
      "Concept": 8730,
      "visually": 8731,
      "assistive": 8732,
      "processors": 8733,
      "salespeople": 8734,
      "ledgers": 8735,
      "ipment": 8736,
      "buckets": 8737,
      "endorsed": 8738,
      "Proble": 8739,
      "Progress": 8740,
      "Decre": 8741,
      "Defer": 8742,
      "Depreci": 8743,
      "Deposit": 8744,
      "Dealing": 8745,
      "ultane": 8746,
      "parsed": 8747,
      "identities": 8748,
      "impose": 8749,
      "implicit": 8750,
      "printer": 8751,
      "ght": 8752,
      "hasize": 8753,
      "failo": 8754,
      "faxes": 8755,
      "003": 8756,
      "009": 8757,
      "plays": 8758,
      "playing": 8759,
      "asks": 8760,
      "regulations": 8761,
      "intu": 8762,
      "intensive": 8763,
      "sive": 8764,
      "intermedi": 8765,
      "interpret": 8766,
      "posing": 8767,
      "drops": 8768,
      "bidirectional": 8769,
      "assigns": 8770,
      "nore": 8771,
      "overpayment": 8772,
      "overpayments": 8773,
      "overwritten": 8774,
      "dropped": 8775,
      "quantitative": 8776,
      "veness": 8777,
      "Dataflow": 8778,
      "Asy": 8779,
      "Assort": 8780,
      "foreground": 8781,
      "retained": 8782,
      "subcomponent": 8783,
      "subassemblies": 8784,
      "sym": 8785,
      "symptoms": 8786,
      "specifications": 8787,
      "atten": 8788,
      "websites": 8789,
      "importance": 8790,
      "Trading": 8791,
      "Training": 8792,
      "Trusted": 8793,
      "containers": 8794,
      "linking": 8795,
      "multisite": 8796,
      "corrections": 8797,
      "Stay": 8798,
      "businesses": 8799,
      "timing": 8800,
      "checklist": 8801,
      "checkout": 8802,
      "Views": 8803,
      "Entire": 8804,
      "Workforce": 8805,
      "designate": 8806,
      "themsel": 8807,
      "drivers": 8808,
      "drives": 8809,
      "taxation": 8810,
      "taxable": 8811,
      "wherever": 8812,
      "standalone": 8813,
      "presence": 8814,
      "backs": 8815,
      "backflush": 8816,
      "Compose": 8817,
      "associates": 8818,
      "Prevent": 8819,
      "Union": 8820,
      "Unique": 8821,
      "Authentic": 8822,
      "Audio": 8823,
      "August": 8824,
      "Restore": 8825,
      "Controlling": 8826,
      "Translate": 8827,
      "Impala": 8828,
      "barcodes": 8829,
      "URIs": 8830,
      "summ": 8831,
      "handbook": 8832,
      "handheld": 8833,
      "handlers": 8834,
      "causing": 8835,
      "earned": 8836,
      "2018": 8837,
      "underline": 8838,
      "terminal": 8839,
      "terminated": 8840,
      "offsets": 8841,
      "measureSvgText": 8842,
      "Divides": 8843,
      "paq": 8844,
      "insensitive": 8845,
      "phic": 8846,
      "querying": 8847,
      "roller": 8848,
      "gged": 8849,
      "publishes": 8850,
      "determining": 8851,
      "cashier": 8852,
      "experiment": 8853,
      "Append": 8854,
      "requisite": 8855,
      "miti": 8856,
      "identical": 8857,
      "sequentially": 8858,
      "delivers": 8859,
      "ributing": 8860,
      "placements": 8861,
      "Interactivity": 8862,
      "Calculates": 8863,
      "Printing": 8864,
      "Canad": 8865,
      "Cannon": 8866,
      "Supplier": 8867,
      "Showing": 8868,
      "PaymentModel": 8869,
      "Colors": 8870,
      "consolidating": 8871,
      "structured": 8872,
      "dential": 8873,
      "simulate": 8874,
      "behaves": 8875,
      "indication": 8876,
      "holder": 8877,
      "Regular": 8878,
      "expensed": 8879,
      "Withholding": 8880,
      "manufacturer": 8881,
      "authorizes": 8882,
      "Requis": 8883,
      "confirms": 8884,
      "LedgerJournal": 8885,
      "175": 8886,
      "callback": 8887,
      "Connectors": 8888,
      "consultant": 8889,
      "Submission": 8890,
      "Subtracts": 8891,
      "Subsequent": 8892,
      "positioned": 8893,
      "leftmost": 8894,
      "slide": 8895,
      "representatives": 8896,
      "Symbol": 8897,
      "collapsible": 8898,
      "Loyalty": 8899,
      "expanding": 8900,
      "stars": 8901,
      "externally": 8902,
      "Finds": 8903,
      "arrived": 8904,
      "printable": 8905,
      "Allowing": 8906,
      "namespace": 8907,
      "illustrations": 8908,
      "licensed": 8909,
      "Quantities": 8910,
      "matrices": 8911,
      "Displayed": 8912,
      "passes": 8913,
      "IPC": 8914,
      "faced": 8915,
      "facilit": 8916,
      "lifetime": 8917,
      "Clone": 8918,
      "Picklist": 8919,
      "remote": 8920,
      "Maintenance": 8921,
      "Assembling": 8922,
      "consisting": 8923,
      "converting": 8924,
      "Strateg": 8925,
      "Relative": 8926,
      "Adjusted": 8927,
      "Adjustments": 8928,
      "sells": 8929,
      "specialized": 8930,
      "initially": 8931,
      "rounds": 8932,
      "Amend": 8933,
      "realistic": 8934,
      "reallocate": 8935,
      "credential": 8936,
      "Bookmarks": 8937,
      "AND": 8938,
      "Settlements": 8939,
      "Japanese": 8940,
      "Shipped": 8941,
      "Signals": 8942,
      "Arrange": 8943,
      "modifiers": 8944,
      "Markdown": 8945,
      "internally": 8946,
      "grey": 8947,
      "equally": 8948,
      "ggestions": 8949,
      "identifying": 8950,
      "Doing": 8951,
      "Domain": 8952,
      "frequencies": 8953,
      "purchasers": 8954,
      "Quickly": 8955,
      "reflecting": 8956,
      "decides": 8957,
      "decided": 8958,
      "longitude": 8959,
      "Refreshes": 8960,
      "Extended": 8961,
      "patient": 8962,
      "widgets": 8963,
      "bottlene": 8964,
      "impacted": 8965,
      "diagrams": 8966,
      "hosting": 8967,
      "999": 8968,
      "9999": 8969,
      "Funnel": 8970,
      "instruction": 8971,
      "implementing": 8972,
      "restricting": 8973,
      "Guidelines": 8974,
      "Lake": 8975,
      "drawn": 8976,
      "Paid": 8977,
      "switcher": 8978,
      "improvement": 8979,
      "Relevance": 8980,
      "weekly": 8981,
      "fra": 8982,
      "indexed": 8983,
      "allocates": 8984,
      "Identifying": 8985,
      "delegates": 8986,
      "Installing": 8987,
      "Installation": 8988,
      "arrays": 8989,
      "decline": 8990,
      "angle": 8991,
      "TransactionsGroups": 8992,
      "indexes": 8993,
      "FTEs": 8994,
      "traver": 8995,
      "raised": 8996,
      "plotting": 8997,
      "accruals": 8998,
      "transformed": 8999,
      "Billable": 9000,
      "Fully": 9001,
      "Managers": 9002,
      "Backward": 9003,
      "Logic": 9004,
      "Suggestions": 9005,
      "introduction": 9006,
      "Rede": 9007,
      "delivering": 9008,
      "Partners": 9009,
      "simplest": 9010,
      "styling": 9011,
      "Difference": 9012,
      "Minim": 9013,
      "PBIDS": 9014,
      "campaigns": 9015,
      "pressure": 9016,
      "fluctuations": 9017,
      "00006": 9018,
      "respondent": 9019,
      "Labels": 9020,
      "eliminations": 9021,
      "preferably": 9022,
      "Monthly": 9023,
      "evaluating": 9024,
      "latency": 9025,
      "latitude": 9026,
      "offering": 9027,
      "offerings": 9028,
      "proceeds": 9029,
      "preventing": 9030,
      "discussed": 9031,
      "Consolidated": 9032,
      "collects": 9033,
      "collecting": 9034,
      "BarChart": 9035,
      "Browser": 9036,
      "Certain": 9037,
      "geograph": 9038,
      "commenting": 9039,
      "iteration": 9040,
      "iterate": 9041,
      "Revert": 9042,
      "CDS": 9043,
      "Pegging": 9044,
      "powerapps": 9045,
      "securely": 9046,
      "worth": 9047,
      "worry": 9048,
      "promotions": 9049,
      "promoted": 9050,
      "confusion": 9051,
      "folding": 9052,
      "Submitting": 9053,
      "Initiation": 9054,
      "Drillthrough": 9055,
      "Agents": 9056,
      "FIK": 9057,
      "caches": 9058,
      "DatasetFromExternalApplication": 9059,
      "Priorities": 9060,
      "treat": 9061,
      "trees": 9062,
      "thresholds": 9063,
      "detects": 9064,
      "communications": 9065,
      "Calling": 9066,
      "Seleni": 9067,
      "Hourly": 9068,
      "dots": 9069,
      "happening": 9070,
      "conceptual": 9071,
      "restored": 9072,
[...]
