{
  "version": "1.0",
  "truncation": null,
  "padding": null,
  "added_tokens": [
    {
      "id": 0,
      "content": "[UNK]",
      "single_word": false,
      "lstrip": false,
      "rstrip": false,
      "normalized": false,
      "special": true
    },
    {
      "id": 1,
      "content": "[PAD]",
      "single_word": false,
      "lstrip": false,
      "rstrip": false,
      "normalized": false,
      "special": true
    },
    {
      "id": 2,
      "content": "[BOS]",
      "single_word": false,
      "lstrip": false,
      "rstrip": false,
      "normalized": false,
      "special": true
    },
    {
      "id": 3,
      "content": "[EOS]",
      "single_word": false,
      "lstrip": false,
      "rstrip": false,
      "normalized": false,
      "special": true
    }
  ],
  "normalizer": null,
  "pre_tokenizer": {
    "type": "Whitespace"
  },
  "post_processor": null,
  "decoder": null,
  "model": {
    "type": "BPE",
    "dropout": null,
    "unk_token": "[UNK]",
    "continuing_subword_prefix": null,
    "end_of_word_suffix": null,
    "fuse_unk": false,
    "vocab": {
      "[UNK]": 0,
      "[PAD]": 1,
      "[BOS]": 2,
      "[EOS]": 3,
      "!": 4,
      "#": 5,
      "$": 6,
      "%": 7,
      "&": 8,
      "(": 9,
      ")": 10,
      "*": 11,
      "+": 12,
      ",": 13,
      "-": 14,
      ".": 15,
      "/": 16,
      "0": 17,
      "1": 18,
      "2": 19,
      "3": 20,
      "4": 21,
      "5": 22,
      "6": 23,
      "7": 24,
      "8": 25,
      "9": 26,
      ":": 27,
      ";": 28,
      "=": 29,
      "?": 30,
      "A": 31,
      "B": 32,
      "C": 33,
      "D": 34,
      "E": 35,
      "F": 36,
      "G": 37,
      "H": 38,
      "I": 39,
      "J": 40,
      "K": 41,
      "L": 42,
      "M": 43,
      "N": 44,
      "O": 45,
      "P": 46,
      "Q": 47,
      "R": 48,
      "S": 49,
      "T": 50,
      "U": 51,
      "V": 52,
      "W": 53,
      "X": 54,
      "Y": 55,
      "Z": 56,
      "\\": 57,
      "_": 58,
      "a": 59,
      "b": 60,
      "c": 61,
      "d": 62,
      "e": 63,
      "f": 64,
      "g": 65,
      "h": 66,
      "i": 67,
      "j": 68,
      "k": 69,
      "l": 70,
      "m": 71,
      "n": 72,
      "o": 73,
      "p": 74,
      "q": 75,
      "r": 76,
      "s": 77,
      "t": 78,
      "u": 79,
      "v": 80,
      "w": 81,
      "x": 82,
      "y": 83,
      "z": 84,
      "§": 85,
      "×": 86,
      "÷": 87,
      "Ā": 88,
      "ā": 89,
      "Č": 90,
      "č": 91,
      "ē": 92,
      "Ģ": 93,
      "ģ": 94,
      "Ī": 95,
      "ī": 96,
      "Ķ": 97,
      "ķ": 98,
      "Ļ": 99,
      "ļ": 100,
      "Ņ": 101,
      "ņ": 102,
      "Š": 103,
      "š": 104,
      "Ū": 105,
      "ū": 106,
      "Ž": 107,
      "ž": 108,
      "–": 109,
      "—": 110,
      "“": 111,
      "”": 112,
      "„": 113,
      "†": 114,
      "‡": 115,
      "•": 116,
      "−": 117,
      "ie": 118,
      "as": 119,
      "at": 120,
      "an": 121,
      "um": 122,
      "ot": 123,
      "ai": 124,
      "in": 125,
      "ar": 126,
      "st": 127,
      "iet": 128,
      "am": 129,
      "šan": 130,
      "jum": 131,
      "iz": 132,
      "ak": 133,
      "or": 134,
      "gt": 135,
      "au": 136,
      "qu": 137,
      "lt": 138,
      "ij": 139,
      "quot": 140,
      "es": 141,
      "pr": 142,
      "kā": 143,
      "on": 144,
      "ir": 145,
      "no": 146,
      "en": 147,
      "rā": 148,
      "ti": 149,
      "ei": 150,
      "īb": 151,
      "er": 152,
      "al": 153,
      "tu": 154,
      "ad": 155,
      "uz": 156,
      "12": 157,
      "un": 158,
      "&#": 159,
      "124": 160,
      "šanas": 161,
      "cij": 162,
      "re": 163,
      "li": 164,
      "ēr": 165,
      "ta": 166,
      "de": 167,
      "ār": 168,
      "vei": 169,
      "lai": 170,
      "sk": 171,
      "iek": 172,
      "īt": 173,
      "us": 174,
      "ķin": 175,
      "ur": 176,
      "di": 177,
      "ame": 178,
      "iem": 179,
      "akst": 180,
      "ap": 181,
      "name": 182,
      "las": 183,
      "to": 184,
      "vēr": 185,
      "dz": 186,
      "jā": 187,
      "ījum": 188,
      "le": 189,
      "šana": 190,
      "arb": 191,
      "tā": 192,
      "pār": 193,
      "pie": 194,
      "aukā": 195,
      "izm": 196,
      "pro": 197,
      "il": 198,
      "ek": 199,
      "veid": 200,
      "ād": 201,
      "aks": 202,
      "lik": 203,
      "ūt": 204,
      "ien": 205,
      "vai": 206,
      "for": 207,
      "Laukā": 208,
      "ko": 209,
      "lā": 210,
      "darb": 211,
      "men": 212,
      "par": 213,
      "du": 214,
      "kon": 215,
      "fi": 216,
      "mā": 217,
      "dat": 218,
      "kas": 219,
      "ok": 220,
      "cijas": 221,
      "tr": 222,
      "atlas": 223,
      "var": 224,
      "stat": 225,
      "vad": 226,
      "ību": 227,
      "vērt": 228,
      "ības": 229,
      "juma": 230,
      "ts": 231,
      "ru": 232,
      "tiek": 233,
      "inā": 234,
      "pas": 235,
      "ier": 236,
      "is": 237,
      "jumu": 238,
      "ēķin": 239,
      "ošanas": 240,
      "izman": 241,
      "likš": 242,
      "likšķin": 243,
      "mat": 244,
      "likšķiniet": 245,
      "ēj": 246,
      "os": 247,
      "vien": 248,
      "tor": 249,
      "ces": 250,
      "lī": 251,
      "Iz": 252,
      "umu": 253,
      "lo": 254,
      "skat": 255,
      "ūtījum": 256,
      "ce": 257,
      "ne": 258,
      "ies": 259,
      "po": 260,
      "atlasiet": 261,
      "maks": 262,
      "ums": 263,
      "ēt": 264,
      "ās": 265,
      "sa": 266,
      "pasūtījum": 267,
      "pa": 268,
      "At": 269,
      "ajā": 270,
      "fin": 271,
      "vadiet": 272,
      "la": 273,
      "vērtību": 274,
      "iestat": 275,
      "Nok": 276,
      "skai": 277,
      "vē": 278,
      "tit": 279,
      "em": 280,
      "ciju": 281,
      "ēm": 282,
      "ka": 283,
      "veidot": 284,
      "rāmat": 285,
      "apr": 286,
      "formā": 287,
      "se": 288,
      "nor": 289,
      "tot": 290,
      "Noklikšķiniet": 291,
      "fig": 292,
      "title": 293,
      "ers": 294,
      "krā": 295,
      "th": 296,
      "ierakst": 297,
      "mo": 298,
      "ro": 299,
      "ci": 300,
      "liet": 301,
      "aļ": 302,
      "ām": 303,
      "rin": 304,
      "ijas": 305,
      "pre": 306,
      "grāmat": 307,
      "auk": 308,
      "uma": 309,
      "ra": 310,
      "ate": 311,
      "sad": 312,
      "ing": 313,
      "ist": 314,
      "ūs": 315,
      "cen": 316,
      "val": 317,
      "izmantot": 318,
      "ievadiet": 319,
      "Ie": 320,
      "redi": 321,
      "lē": 322,
      "not": 323,
      "ion": 324,
      "tē": 325,
      "op": 326,
      "norād": 327,
      "vi": 328,
      "kur": 329,
      "jau": 330,
      "bil": 331,
      "līdz": 332,
      "rēķin": 333,
      "pārskat": 334,
      "pl": 335,
      "arakst": 336,
      "ans": 337,
      "nok": 338,
      "me": 339,
      "viet": 340,
      "dā": 341,
      "pē": 342,
      "amat": 343,
      "izmanto": 344,
      "kādu": 345,
      "izmaks": 346,
      "lāk": 347,
      "gru": 348,
      "mens": 349,
      "the": 350,
      "bi": 351,
      "and": 352,
      "urā": 353,
      "reditor": 354,
      "šanu": 355,
      "00": 356,
      "cija": 357,
      "jiet": 358,
      "šu": 359,
      "konfig": 360,
      "jam": 361,
      "ild": 362,
      "iņ": 363,
      "lu": 364,
      "eri": 365,
      "av": 366,
      "ks": 367,
      "ma": 368,
      "izveidot": 369,
      "kt": 370,
      "ība": 371,
      "īg": 372,
      "informā": 373,
      "nie": 374,
      "jot": 375,
      "skait": 376,
      "mas": 377,
      "īta": 378,
      "por": 379,
      "dev": 380,
      "ele": 381,
      "dimens": 382,
      "īšana": 383,
      "Pār": 384,
      "gr": 385,
      "ban": 386,
      "defin": 387,
      "bu": 388,
      "nos": 389,
      "vis": 390,
      "ob": 391,
      "maksā": 392,
      "das": 393,
      "plā": 394,
      "bā": 395,
      "došanas": 396,
      "ņēm": 397,
      "strā": 398,
      "aist": 399,
      "nā": 400,
      "pir": 401,
      "īts": 402,
      "co": 403,
      "bitor": 404,
      "ņem": 405,
      "mu": 406,
      "ēšana": 407,
      "Šajā": 408,
      "iju": 409,
      "ja": 410,
      "ļau": 411,
      "sum": 412,
      "jaun": 413,
      "aprēķin": 414,
      "sadaļ": 415,
      "šķ": 416,
      "da": 417,
      "zī": 418,
      "des": 419,
      "pak": 420,
      "pras": 421,
      "jums": 422,
      "proces": 423,
      "mode": 424,
      "audz": 425,
      "trans": 426,
      "Atlas": 427,
      "dok": 428,
      "vēl": 429,
      "ation": 430,
      "kšanas": 431,
      "nes": 432,
      "te": 433,
      "tie": 434,
      "ierakstiet": 435,
      "oš": 436,
      "Darb": 437,
      "sarakst": 438,
      "pēc": 439,
      "vie": 440,
      "ais": 441,
      "jek": 442,
      "plūs": 443,
      "tālāk": 444,
      "Pie": 445,
      "noklikšķiniet": 446,
      "datu": 447,
      "varat": 448,
      "līdzek": 449,
      "rakst": 450,
      "šanai": 451,
      "iemēr": 452,
      "Atlasiet": 453,
      "veido": 454,
      "pamat": 455,
      "elemen": 456,
      "man": 457,
      "alpo": 458,
      "im": 459,
      "ter": 460,
      "izmaksu": 461,
      "saist": 462,
      "kār": 463,
      "zīm": 464,
      "kreditor": 465,
      "iekš": 466,
      "vienot": 467,
      "lietot": 468,
      "ojuma": 469,
      "aprakst": 470,
      "No": 471,
      "erson": 472,
      "ver": 473,
      "ven": 474,
      "žošanas": 475,
      "transak": 476,
      "pēj": 477,
      "āk": 478,
      "uzņēm": 479,
      "laiž": 480,
      "lap": 481,
      "umen": 482,
      "šķir": 483,
      "konfigurā": 484,
      "ētu": 485,
      "ve": 486,
      "īv": 487,
      "izvei": 488,
      "ļu": 489,
      "atbil": 490,
      "pild": 491,
      "iniek": 492,
      "urnā": 493,
      "daudz": 494,
      "gād": 495,
      "atvēr": 496,
      "ch": 497,
      "kat": 498,
      "izveide": 499,
      "āj": 500,
      "krājumu": 501,
      "eik": 502,
      "up": 503,
      "sadaļu": 504,
      "laukā": 505,
      "parād": 506,
      "mai": 507,
      "ītu": 508,
      "mek": 509,
      "lobā": 510,
      "con": 511,
      "debitor": 512,
      "Ja": 513,
      "ļa": 514,
      "ģist": 515,
      "izā": 516,
      "num": 517,
      "kop": 518,
      "cre": 519,
      "erio": 520,
      "person": 521,
      "Globā": 522,
      "tip": 523,
      "ējā": 524,
      "it": 525,
      "tion": 526,
      "vald": 527,
      "gad": 528,
      "šo": 529,
      "ču": 530,
      "uzdev": 531,
      "žurnā": 532,
      "sti": 533,
      "ījuma": 534,
      "pasūtījuma": 535,
      "ener": 536,
      "priekš": 537,
      "aj": 538,
      "izmantojot": 539,
      "et": 540,
      "likta": 541,
      "siet": 542,
      "anšu": 543,
      "pap": 544,
      "pakalpo": 545,
      "atvērtu": 546,
      "lus": 547,
      "kai": 548,
      "ds": 549,
      "pārdošanas": 550,
      "Krā": 551,
      "preces": 552,
      "laižam": 553,
      "create": 554,
      "nolaižam": 555,
      "liktav": 556,
      "ced": 557,
      "of": 558,
      "res": 559,
      "urs": 560,
      "Lai": 561,
      "ls": 562,
      "dokumen": 563,
      "gan": 564,
      "gu": 565,
      "meto": 566,
      "irs": 567,
      "vērsiet": 568,
      "stipr": 569,
      "kar": 570,
      "lais": 571,
      "meklē": 572,
      "bei": 573,
      "ment": 574,
      "norādīt": 575,
      "ac": 576,
      "gas": 577,
      "iestatīšana": 578,
      "jumi": 579,
      "tes": 580,
      "pārvald": 581,
      "datumu": 582,
      "set": 583,
      "piepras": 584,
      "gram": 585,
      "cedū": 586,
      "perio": 587,
      "ieš": 588,
      "saraksta": 589,
      "snie": 590,
      "tās": 591,
      "izpild": 592,
      "10": 593,
      "unk": 594,
      "tus": 595,
      "darbiniek": 596,
      "rindas": 597,
      "reģist": 598,
      "tas": 599,
      "aukums": 600,
      "procedū": 601,
      "īšanas": 602,
      "Iestat": 603,
      "vers": 604,
      "veik": 605,
      "aprēķinā": 606,
      "atbilst": 607,
      "piemēr": 608,
      "stiprinā": 609,
      "piec": 610,
      "anban": 611,
      "darbības": 612,
      "ražošanas": 613,
      "pirkšanas": 614,
      "ku": 615,
      "ež": 616,
      "piešķir": 617,
      "ab": 618,
      "vairā": 619,
      "sac": 620,
      "isk": 621,
      "ēta": 622,
      "ējiet": 623,
      "pasūtījumu": 624,
      "tam": 625,
      "īti": 626,
      "aliz": 627,
      "ija": 628,
      "iešam": 629,
      "pieciešam": 630,
      "akti": 631,
      "līg": 632,
      "stru": 633,
      "tur": 634,
      "diet": 635,
      "ējuma": 636,
      "dž": 637,
      "rēķinu": 638,
      "Globālais": 639,
      "produ": 640,
      "ēšanas": 641,
      "gor": 642,
      "dže": 643,
      "itā": 644,
      "nepieciešam": 645,
      "tiks": 646,
      "pogas": 647,
      "tiec": 648,
      "mp": 649,
      "darba": 650,
      "arī": 651,
      "apstrā": 652,
      "ategor": 653,
      "port": 654,
      "sadal": 655,
      "obež": 656,
      "De": 657,
      "Izvērsiet": 658,
      "ejam": 659,
      "Ievadiet": 660,
      "attiec": 661,
      "grup": 662,
      "Pir": 663,
      "informāciju": 664,
      "slē": 665,
      "program": 666,
      "ord": 667,
      "uri": 668,
      "ag": 669,
      "kad": 670,
      "šī": 671,
      "uzmeklē": 672,
      "Kon": 673,
      "maksu": 674,
      "finanšu": 675,
      "noteik": 676,
      "alī": 677,
      "projek": 678,
      "status": 679,
      "iespēj": 680,
      "Pro": 681,
      "US": 682,
      "gādes": 683,
      "vā": 684,
      "Izveidot": 685,
      "ri": 686,
      "ošana": 687,
      "apstiprinā": 688,
      "noliktav": 689,
      "irsgrāmat": 690,
      "om": 691,
      "ktū": 692,
      "struktū": 693,
      "pieejam": 694,
      "izācijas": 695,
      "umi": 696,
      "tikai": 697,
      "nolaižamā": 698,
      "ct": 699,
      "jumus": 700,
      "portē": 701,
      "ībā": 702,
      "ījumi": 703,
      "Nos": 704,
      "Tā": 705,
      "lusējuma": 706,
      "ed": 707,
      "so": 708,
      "nav": 709,
      "informācija": 710,
      "Kanban": 711,
      "PV": 712,
      "uzskait": 713,
      "konfigur": 714,
      "nosac": 715,
      "PVN": 716,
      "rindu": 717,
      "plūsmas": 718,
      "uridi": 719,
      "dimensijas": 720,
      "plāno": 721,
      "ras": 722,
      "pārskatu": 723,
      "na": 724,
      "ievad": 725,
      "izveido": 726,
      "ierar": 727,
      "būt": 728,
      "sta": 729,
      "konfigurācijas": 730,
      "Maks": 731,
      "Pre": 732,
      "tiem": 733,
      "preču": 734,
      "Kreditor": 735,
      "pe": 736,
      "fic": 737,
      "paš": 738,
      "hierar": 739,
      "jauninā": 740,
      "lietojuma": 741,
      "ex": 742,
      "saņem": 743,
      "izvēl": 744,
      "datums": 745,
      "Var": 746,
      "džeta": 747,
      "ierobež": 748,
      "Jā": 749,
      "MK": 750,
      "lis": 751,
      "min": 752,
      "ģener": 753,
      "jūs": 754,
      "nod": 755,
      "tro": 756,
      "ms": 757,
      "Sarakst": 758,
      "ņu": 759,
      "maksas": 760,
      "skaitli": 761,
      "dimensiju": 762,
      "20": 763,
      "atlasīt": 764,
      "az": 765,
      "lauk": 766,
      "pievienot": 767,
      "bal": 768,
      "tir": 769,
      "daž": 770,
      "kategor": 771,
      "roš": 772,
      "grupas": 773,
      "vieno": 774,
      "uzmeklēšanu": 775,
      "umus": 776,
      "Sarakstā": 777,
      "ej": 778,
      "stā": 779,
      "cil": 780,
      "Šī": 781,
      "ījumu": 782,
      "cības": 783,
      "dien": 784,
      "juridi": 785,
      "otu": 786,
      "Izmaksu": 787,
      "Ap": 788,
      "ziņ": 789,
      "stu": 790,
      "opciju": 791,
      "hierarh": 792,
      "gal": 793,
      "vērtības": 794,
      "izmantots": 795,
      "kontu": 796,
      "ietver": 797,
      "kārtu": 798,
      "bau": 799,
      "gno": 800,
      "ni": 801,
      "organ": 802,
      "red": 803,
      "dznie": 804,
      "Maksā": 805,
      "aiz": 806,
      "arp": 807,
      "miņ": 808,
      "atlai": 809,
      "transakcijas": 810,
      "gā": 811,
      "bankas": 812,
      "numur": 813,
      "sniegt": 814,
      "iepriekš": 815,
      "atjauninā": 816,
      "alīdz": 817,
      "tos": 818,
      "Vis": 819,
      "ju": 820,
      "tirdznie": 821,
      "kr": 822,
      "mēr": 823,
      "main": 824,
      "cu": 825,
      "sāk": 826,
      "ic": 827,
      "sav": 828,
      "Krājumu": 829,
      "11": 830,
      "fai": 831,
      "rī": 832,
      "parame": 833,
      "eriā": 834,
      "daļ": 835,
      "jo": 836,
      "esoš": 837,
      "gnoz": 838,
      "jumiem": 839,
      "reģistr": 840,
      "rez": 841,
      "rēķina": 842,
      "pakalpojumu": 843,
      "lon": 844,
      "tron": 845,
      "noklusējuma": 846,
      "Varat": 847,
      "šanās": 848,
      "rācijas": 849,
      "tabu": 850,
      "lodz": 851,
      "ņas": 852,
      "grie": 853,
      "Debitor": 854,
      "coun": 855,
      "pare": 856,
      "format": 857,
      "15": 858,
      "do": 859,
      "izmaksas": 860,
      "config": 861,
      "ots": 862,
      "Uz": 863,
      "kurā": 864,
      "ūtī": 865,
      "kuru": 866,
      "pārskata": 867,
      "ījumus": 868,
      "Apr": 869,
      "konts": 870,
      "kreditora": 871,
      "16": 872,
      "sas": 873,
      "aties": 874,
      "krājuma": 875,
      "laika": 876,
      "ītas": 877,
      "vitā": 878,
      "den": 879,
      "nolietojuma": 880,
      "tips": 881,
      "ig": 882,
      "sek": 883,
      "starp": 884,
      "izdev": 885,
      "laikā": 886,
      "maksājumu": 887,
      "pamatlīdzek": 888,
      "ult": 889,
      "ībām": 890,
      "reiz": 891,
      "ināt": 892,
      "vairāk": 893,
      "irsgrāmatas": 894,
      "prognoz": 895,
      "seg": 896,
      "Pievienot": 897,
      "lietotāj": 898,
      "papild": 899,
      "iekļau": 900,
      "kods": 901,
      "be": 902,
      "fil": 903,
      "umam": 904,
      "onstrā": 905,
      "māti": 906,
      "tri": 907,
      "In": 908,
      "Jau": 909,
      "summa": 910,
      "tirdzniecības": 911,
      "onstrācijas": 912,
      "Ko": 913,
      "ojumu": 914,
      "pat": 915,
      "wor": 916,
      "tomāti": 917,
      "nosauk": 918,
      "vēlaties": 919,
      "parādīts": 920,
      "ID": 921,
      "kam": 922,
      "rūtī": 923,
      "ota": 924,
      "Kad": 925,
      "ojot": 926,
      "grupa": 927,
      "budžeta": 928,
      "Nosaukums": 929,
      "skā": 930,
      "Tālāk": 931,
      "kor": 932,
      "filt": 933,
      "definī": 934,
      "ER": 935,
      "MF": 936,
      "atzīm": 937,
      "komp": 938,
      "materiā": 939,
      "grāmatošanas": 940,
      "ations": 941,
      "les": 942,
      "alo": 943,
      "ildu": 944,
      "summu": 945,
      "modeļa": 946,
      "ance": 947,
      "Piemēr": 948,
      "ser": 949,
      "procen": 950,
      "13": 951,
      "ik": 952,
      "sist": 953,
      "ēts": 954,
      "poli": 955,
      "iestatīt": 956,
      "šād": 957,
      "jaunu": 958,
      "Ra": 959,
      "funk": 960,
      "inter": 961,
      "Izman": 962,
      "lapā": 963,
      "dažād": 964,
      "tomātisk": 965,
      "Pamat": 966,
      "izrakst": 967,
      "je": 968,
      "nosaukums": 969,
      "summas": 970,
      "veic": 971,
      "izveidotu": 972,
      "process": 973,
      "Vien": 974,
      "maksājuma": 975,
      "slēg": 976,
      "bū": 977,
      "kontro": 978,
      "ētas": 979,
      "manu": 980,
      "resurs": 981,
      "soli": 982,
      "nodroš": 983,
      "ktron": 984,
      "āla": 985,
      "nodok": 986,
      "adz": 987,
      "order": 988,
      "Fin": 989,
      "kan": 990,
      "Pirkšanas": 991,
      "Re": 992,
      "ge": 993,
      "ajadz": 994,
      "ultā": 995,
      "termiņ": 996,
      "aktivitā": 997,
      "ejas": 998,
      "pārbau": 999,
      "itātes": 1000,
      "debitora": 1001,
      "USMF": 1002,
      "lie": 1003,
      "redz": 1004,
      "darbību": 1005,
      "labā": 1006,
      "ierakstu": 1007,
      "rind": 1008,
      "Pārdošanas": 1009,
      "dē": 1010,
      "veikt": 1011,
      "pievieno": 1012,
      "pay": 1013,
      "isko": 1014,
      "noliktavas": 1015,
      "balst": 1016,
      "ņa": 1017,
      "izmai": 1018,
      "darbu": 1019,
      "pabei": 1020,
      "objek": 1021,
      "Darbību": 1022,
      "Pē": 1023,
      "umā": 1024,
      "tika": 1025,
      "profil": 1026,
      "dāvā": 1027,
      "plānot": 1028,
      "elementu": 1029,
      "importē": 1030,
      "Ier": 1031,
      "sūt": 1032,
      "īgi": 1033,
      "14": 1034,
      "kl": 1035,
      "umiem": 1036,
      "grupu": 1037,
      "cilnes": 1038,
      "ting": 1039,
      "šru": 1040,
      "ats": 1041,
      "aršru": 1042,
      "akt": 1043,
      "maz": 1044,
      "nu": 1045,
      "kreditoru": 1046,
      "rezultā": 1047,
      "tat": 1048,
      "viz": 1049,
      "det": 1050,
      "cion": 1051,
      "ple": 1052,
      "ēti": 1053,
      "kartē": 1054,
      "vo": 1055,
      "cenu": 1056,
      "notei": 1057,
      "ītajā": 1058,
      "alog": 1059,
      "vērtība": 1060,
      "veikal": 1061,
      "work": 1062,
      "jat": 1063,
      "punk": 1064,
      "onen": 1065,
      "ope": 1066,
      "Pārskat": 1067,
      "izvēles": 1068,
      "sal": 1069,
      "vajadz": 1070,
      "are": 1071,
      "rād": 1072,
      "ierī": 1073,
      "procedūrā": 1074,
      "rū": 1075,
      "vir": 1076,
      "atgrie": 1077,
      "inven": 1078,
      "konta": 1079,
      "andar": 1080,
      "tieš": 1081,
      "tions": 1082,
      "transakciju": 1083,
      "dieties": 1084,
      "Preces": 1085,
      "aug": 1086,
      "alen": 1087,
      "piedāvā": 1088,
      "ējo": 1089,
      "jūsu": 1090,
      "denti": 1091,
      "Pēc": 1092,
      "ojums": 1093,
      "vas": 1094,
      "formu": 1095,
      "sag": 1096,
      "daudzums": 1097,
      "vērā": 1098,
      "vēstu": 1099,
      "uzskaites": 1100,
      "paredz": 1101,
      "pil": 1102,
      "scen": 1103,
      "lab": 1104,
      "Iestatīt": 1105,
      "atbilstoš": 1106,
      "Ražošanas": 1107,
      "dem": 1108,
      "procesa": 1109,
      "pieprasījuma": 1110,
      "Do": 1111,
      "Dat": 1112,
      "mē": 1113,
      "mes": 1114,
      "āja": 1115,
      "cijām": 1116,
      "vietas": 1117,
      "pirms": 1118,
      "juridisk": 1119,
      "Dodieties": 1120,
      "Pap": 1121,
      "jiem": 1122,
      "ain": 1123,
      "ina": 1124,
      "daudzumu": 1125,
      "Krājuma": 1126,
      "rūti": 1127,
      "ement": 1128,
      "tijas": 1129,
      "āli": 1130,
      "laiku": 1131,
      "formāta": 1132,
      "rakstā": 1133,
      "katr": 1134,
      "atlaides": 1135,
      "rež": 1136,
      "report": 1137,
      "000": 1138,
      "Darba": 1139,
      "papildu": 1140,
      "Šis": 1141,
      "cijai": 1142,
      "iņu": 1143,
      "metodes": 1144,
      "Konfig": 1145,
      "projekta": 1146,
      "nas": 1147,
      "automātisk": 1148,
      "apā": 1149,
      "numurs": 1150,
      "gada": 1151,
      "pakalpojuma": 1152,
      "Rēķin": 1153,
      "ec": 1154,
      "sēr": 1155,
      "āt": 1156,
      "ances": 1157,
      "cik": 1158,
      "Izmanto": 1159,
      "Pamatlīdzek": 1160,
      "Par": 1161,
      "ho": 1162,
      "sat": 1163,
      "ījums": 1164,
      "vienības": 1165,
      "līdzības": 1166,
      "procesu": 1167,
      "17": 1168,
      "ns": 1169,
      "sak": 1170,
      "tek": 1171,
      "āre": 1172,
      "kodu": 1173,
      "cenas": 1174,
      "tēmā": 1175,
      "saistīt": 1176,
      "tar": 1177,
      "umtirdzniecības": 1178,
      "jumam": 1179,
      "inājuma": 1180,
      "prec": 1181,
      "izmantota": 1182,
      "informācijas": 1183,
      "view": 1184,
      "uzņēmuma": 1185,
      "Pak": 1186,
      "Izveido": 1187,
      "pārvaldības": 1188,
      "nepieciešams": 1189,
      "apstrādā": 1190,
      "vari": 1191,
      "ēmas": 1192,
      "izmantoti": 1193,
      "vid": 1194,
      "Iestatiet": 1195,
      "product": 1196,
      "configur": 1197,
      "Tas": 1198,
      "attē": 1199,
      "invo": 1200,
      "dati": 1201,
      "modi": 1202,
      "ojoties": 1203,
      "PO": 1204,
      "Vei": 1205,
      "īs": 1206,
      "konfigurāciju": 1207,
      "Po": 1208,
      "ējās": 1209,
      "Ne": 1210,
      "rīv": 1211,
      "ādi": 1212,
      "vice": 1213,
      "žurnāla": 1214,
      "accoun": 1215,
      "pārvaldība": 1216,
      "numuru": 1217,
      "andarta": 1218,
      "ārejiet": 1219,
      "Grāmat": 1220,
      "kred": 1221,
      "ēto": 1222,
      "kom": 1223,
      "debitoru": 1224,
      "uzdevumu": 1225,
      "peci": 1226,
      "sales": 1227,
      "demonstrācijas": 1228,
      "invoi": 1229,
      "POS": 1230,
      "Au": 1231,
      "fro": 1232,
      "ētā": 1233,
      "use": 1234,
      "veidnes": 1235,
      "ināšanas": 1236,
      "ierobežo": 1237,
      "materiālu": 1238,
      "detaliz": 1239,
      "from": 1240,
      "Pārejiet": 1241,
      "Tr": 1242,
      "imā": 1243,
      "maršru": 1244,
      "pos": 1245,
      "ments": 1246,
      "scenār": 1247,
      "lū": 1248,
      "šajā": 1249,
      "atri": 1250,
      "lāg": 1251,
      "datuma": 1252,
      "uzņēmums": 1253,
      "tabulā": 1254,
      "komponen": 1255,
      "dr": 1256,
      "identi": 1257,
      "vienu": 1258,
      "višķ": 1259,
      "automātiski": 1260,
      "Di": 1261,
      "atro": 1262,
      "izveid": 1263,
      "noviet": 1264,
      "datus": 1265,
      "šīs": 1266,
      "izdevumu": 1267,
      "pabeigt": 1268,
      "Pa": 1269,
      "Virsgrāmatas": 1270,
      "piem": 1271,
      "ērā": 1272,
      "personas": 1273,
      "varian": 1274,
      "nau": 1275,
      "wi": 1276,
      "atkar": 1277,
      "pārsūt": 1278,
      "piegādes": 1279,
      "data": 1280,
      "opcijas": 1281,
      "kuras": 1282,
      "plūsma": 1283,
      "pamatojoties": 1284,
      "ktu": 1285,
      "ijā": 1286,
      "rukā": 1287,
      "uzņēmumu": 1288,
      "plānošanas": 1289,
      "organizācijas": 1290,
      "Kokā": 1291,
      "tad": 1292,
      "ītāj": 1293,
      "ūtas": 1294,
      "modelis": 1295,
      "dokumentu": 1296,
      "cional": 1297,
      "Izveidojiet": 1298,
      "ub": 1299,
      "ure": 1300,
      "Ņem": 1301,
      "ligā": 1302,
      "kārto": 1303,
      "Kop": 1304,
      "cal": 1305,
      "sai": 1306,
      "ase": 1307,
      "apmaksas": 1308,
      "tāv": 1309,
      "fikā": 1310,
      "pasūtījumi": 1311,
      "cost": 1312,
      "Noliktav": 1313,
      "sadalījuma": 1314,
      "ign": 1315,
      "stom": 1316,
      "obligā": 1317,
      "vieg": 1318,
      "itēr": 1319,
      "item": 1320,
      "nosaukumu": 1321,
      "with": 1322,
      "Ele": 1323,
      "lin": 1324,
      "pal": 1325,
      "salīdz": 1326,
      "atse": 1327,
      "oti": 1328,
      "kaņ": 1329,
      "Kreditora": 1330,
      "politi": 1331,
      "Finanšu": 1332,
      "redzam": 1333,
      "atsevišķ": 1334,
      "speci": 1335,
      "wer": 1336,
      "ieejas": 1337,
      "iskā": 1338,
      "mobil": 1339,
      "nosak": 1340,
      "strādā": 1341,
      "comp": 1342,
      "galven": 1343,
      "aloglodz": 1344,
      "Trans": 1345,
      "22": 1346,
      "Vai": 1347,
      "sam": 1348,
      "atļau": 1349,
      "ijām": 1350,
      "kolon": 1351,
      "Atzīm": 1352,
      "istr": 1353,
      "metode": 1354,
      "korek": 1355,
      "noteikt": 1356,
      "piemērā": 1357,
      "wh": 1358,
      "apos": 1359,
      "eks": 1360,
      "custom": 1361,
      "Nor": 1362,
      "piek": 1363,
      "pasūtījums": 1364,
      "model": 1365,
      "ajiem": 1366,
      "nolaižamo": 1367,
      "līgumu": 1368,
      "Aprakst": 1369,
      "ojiet": 1370,
      "lim": 1371,
      "dialoglodz": 1372,
      "ajām": 1373,
      "izveidots": 1374,
      "plūsmu": 1375,
      "procedūru": 1376,
      "versijas": 1377,
      "programmas": 1378,
      "konfigurēšana": 1379,
      "filtr": 1380,
      "Ban": 1381,
      "Liet": 1382,
      "noņem": 1383,
      "date": 1384,
      "līme": 1385,
      "cel": 1386,
      "that": 1387,
      "elementa": 1388,
      "sniedz": 1389,
      "pašreiz": 1390,
      "skās": 1391,
      "jeb": 1392,
      "Mo": 1393,
      "ātā": 1394,
      "ilk": 1395,
      "veids": 1396,
      "skatīt": 1397,
      "laš": 1398,
      "elektron": 1399,
      "Darbiniek": 1400,
      "tipu": 1401,
      "beigu": 1402,
      "kārtulas": 1403,
      "funkcional": 1404,
      "dor": 1405,
      "ty": 1406,
      "atlīdzības": 1407,
      "stun": 1408,
      "dis": 1409,
      "jābūt": 1410,
      "pieņem": 1411,
      "chan": 1412,
      "izpildes": 1413,
      "produc": 1414,
      "lauku": 1415,
      "parametr": 1416,
      "Op": 1417,
      "brīv": 1418,
      "palīdz": 1419,
      "ālā": 1420,
      "ijai": 1421,
      "konsoli": 1422,
      "tras": 1423,
      "rafi": 1424,
      "vendor": 1425,
      "ākam": 1426,
      "ajai": 1427,
      "hierarhijas": 1428,
      "patēr": 1429,
      "nosaka": 1430,
      "Ta": 1431,
      "dār": 1432,
      "atav": 1433,
      "pielāg": 1434,
      "aprakstīt": 1435,
      "lapas": 1436,
      "piemērs": 1437,
      "Ierakst": 1438,
      "rūtiņu": 1439,
      "Skat": 1440,
      "iniet": 1441,
      "cijā": 1442,
      "rec": 1443,
      "sec": 1444,
      "centr": 1445,
      "lapu": 1446,
      "virz": 1447,
      "Nākam": 1448,
      "anu": 1449,
      "otn": 1450,
      "ail": 1451,
      "ample": 1452,
      "viena": 1453,
      "līmen": 1454,
      "valū": 1455,
      "nesa": 1456,
      "prognozes": 1457,
      "Atzīmējiet": 1458,
      "For": 1459,
      "Ir": 1460,
      "pus": 1461,
      "inājumu": 1462,
      "manag": 1463,
      "Projek": 1464,
      "Piemēram": 1465,
      "service": 1466,
      "klien": 1467,
      "Plā": 1468,
      "iznesa": 1469,
      "ceļ": 1470,
      "post": 1471,
      "ļauj": 1472,
      "žurnālu": 1473,
      "dokumenta": 1474,
      "norādītās": 1475,
      "procentu": 1476,
      "izmaiņas": 1477,
      "satur": 1478,
      "Pakalpo": 1479,
      "naudas": 1480,
      "itērij": 1481,
      "tei": 1482,
      "novērt": 1483,
      "raž": 1484,
      "pārskats": 1485,
      "kategorijas": 1486,
      "mērķ": 1487,
      "būtu": 1488,
      "Ņemiet": 1489,
      "bet": 1490,
      "ētās": 1491,
      "standarta": 1492,
      "tarizācijas": 1493,
      "dialoglodziņu": 1494,
      "Maz": 1495,
      "gro": 1496,
      "ou": 1497,
      "ļi": 1498,
      "ator": 1499,
      "str": 1500,
      "atlasīta": 1501,
      "varētu": 1502,
      "new": 1503,
      "pasūtījumiem": 1504,
      "norāda": 1505,
      "bilances": 1506,
      "visas": 1507,
      "Globāls": 1508,
      "Aprēķin": 1509,
      "payment": 1510,
      "sērijas": 1511,
      "Iek": 1512,
      "nal": 1513,
      "vār": 1514,
      "pri": 1515,
      "valūtas": 1516,
      "plan": 1517,
      "definēšana": 1518,
      "aprēķināšanas": 1519,
      "statuss": 1520,
      "ministr": 1521,
      "saskaņ": 1522,
      "resursu": 1523,
      "18": 1524,
      "klas": 1525,
      "ļū": 1526,
      "ieteik": 1527,
      "kod": 1528,
      "inātā": 1529,
      "rindā": 1530,
      "ļaujiet": 1531,
      "piemēram": 1532,
      "operā": 1533,
      "režī": 1534,
      "Izmantojiet": 1535,
      "fe": 1536,
      "žu": 1537,
      "atskai": 1538,
      "akš": 1539,
      "apakš": 1540,
      "formātu": 1541,
      "darbinieku": 1542,
      "reģistrācijas": 1543,
      "example": 1544,
      "slēgšanas": 1545,
      "invoice": 1546,
      "vieglo": 1547,
      "Daudz": 1548,
      "der": 1549,
      "grafi": 1550,
      "pur": 1551,
      "ties": 1552,
      "iemes": 1553,
      "Kreditoru": 1554,
      "klā": 1555,
      "tī": 1556,
      "one": 1557,
      "add": 1558,
      "aprakstīts": 1559,
      "perioda": 1560,
      "Preču": 1561,
      "intervā": 1562,
      "alendār": 1563,
      "teksta": 1564,
      "dir": 1565,
      "jos": 1566,
      "atū": 1567,
      "prin": 1568,
      "vienību": 1569,
      "lieto": 1570,
      "grāmatot": 1571,
      "īgo": 1572,
      "nosūt": 1573,
      "Piepras": 1574,
      "versiju": 1575,
      "atbilstoši": 1576,
      "by": 1577,
      "dg": 1578,
      "dar": 1579,
      "gener": 1580,
      "izsek": 1581,
      "using": 1582,
      "konkr": 1583,
      "veriet": 1584,
      "laižu": 1585,
      "organizā": 1586,
      "Vispār": 1587,
      "funkcionalitā": 1588,
      "fiz": 1589,
      "niek": 1590,
      "tajā": 1591,
      "kura": 1592,
      "jautā": 1593,
      "aktīv": 1594,
      "configuration": 1595,
      "Kat": 1596,
      "cy": 1597,
      "virs": 1598,
      "šab": 1599,
      "darbplūsmas": 1600,
      "iestatījumi": 1601,
      "skaitu": 1602,
      "īga": 1603,
      "aprēķina": 1604,
      "portēšanas": 1605,
      "objekta": 1606,
      "Datu": 1607,
      "Papild": 1608,
      "šablon": 1609,
      "Gal": 1610,
      "Sa": 1611,
      "pon": 1612,
      "ēšanu": 1613,
      "uztur": 1614,
      "veida": 1615,
      "iestatiet": 1616,
      "krājumiem": 1617,
      "elements": 1618,
      "2016": 1619,
      "dienas": 1620,
      "Apraksts": 1621,
      "Det": 1622,
      "Kred": 1623,
      "nē": 1624,
      "ģēt": 1625,
      "iel": 1626,
      "app": 1627,
      "ījumiem": 1628,
      "veidu": 1629,
      "veidošanas": 1630,
      "low": 1631,
      "nevar": 1632,
      "līguma": 1633,
      "attiecas": 1634,
      "cul": 1635,
      "savilk": 1636,
      "Debitora": 1637,
      "purch": 1638,
      "19": 1639,
      "administr": 1640,
      "ēja": 1641,
      "ējam": 1642,
      "loc": 1643,
      "finans": 1644,
      "skaits": 1645,
      "cena": 1646,
      "vieta": 1647,
      "metodi": 1648,
      "saglabā": 1649,
      "cikla": 1650,
      "ceļve": 1651,
      "bl": 1652,
      "atšķir": 1653,
      "ams": 1654,
      "auka": 1655,
      "urnal": 1656,
      "didā": 1657,
      "ināšana": 1658,
      "rēķinā": 1659,
      "vispār": 1660,
      "kārtot": 1661,
      "Jauns": 1662,
      "nodokļu": 1663,
      "rindām": 1664,
      "Dimens": 1665,
      "calcul": 1666,
      "Ierakstiet": 1667,
      "purchase": 1668,
      "Bu": 1669,
      "drukā": 1670,
      "oj": 1671,
      "inte": 1672,
      "laiks": 1673,
      "vietu": 1674,
      "avotu": 1675,
      "vēlam": 1676,
      "sadales": 1677,
      "drots": 1678,
      "Detaliz": 1679,
      "Lī": 1680,
      "virsgrāmatas": 1681,
      "atskait": 1682,
      "atlaižu": 1683,
      "sts": 1684,
      "ējais": 1685,
      "modu": 1686,
      "visiem": 1687,
      "plāna": 1688,
      "import": 1689,
      "Defin": 1690,
      "struktūras": 1691,
      "nosacījumi": 1692,
      "stāv": 1693,
      "Debitoru": 1694,
      "modific": 1695,
      "scenārij": 1696,
      "Nākamajā": 1697,
      "Ar": 1698,
      "Pas": 1699,
      "kanban": 1700,
      "zar": 1701,
      "dziet": 1702,
      "ījumā": 1703,
      "trauk": 1704,
      "vienumu": 1705,
      "netiek": 1706,
      "pasūtījumam": 1707,
      "sadaļas": 1708,
      "programmā": 1709,
      "statusu": 1710,
      "parametri": 1711,
      "mazumtirdzniecības": 1712,
      "Konfigurā": 1713,
      "politikas": 1714,
      "Transak": 1715,
      "samaz": 1716,
      "fy": 1717,
      "svar": 1718,
      "adres": 1719,
      "iesnie": 1720,
      "pavad": 1721,
      "ieraksti": 1722,
      "uzdevuma": 1723,
      "darbinieka": 1724,
      "struktūrā": 1725,
      "ievadīt": 1726,
      "journal": 1727,
      "atrodiet": 1728,
      "Budžeta": 1729,
      "dal": 1730,
      "sh": 1731,
      "ājam": 1732,
      "izvērsiet": 1733,
      "requ": 1734,
      "vadības": 1735,
      "krājumus": 1736,
      "rinda": 1737,
      "preci": 1738,
      "paplaš": 1739,
      "pieejama": 1740,
      "mainīt": 1741,
      "daļa": 1742,
      "biznesa": 1743,
      "ware": 1744,
      "ēšanai": 1745,
      "īpaš": 1746,
      "izlai": 1747,
      "nodarb": 1748,
      "erations": 1749,
      "grāmato": 1750,
      "norādiet": 1751,
      "elementi": 1752,
      "periodi": 1753,
      "failu": 1754,
      "manuāli": 1755,
      "Galven": 1756,
      "Jūs": 1757,
      "Japā": 1758,
      "eš": 1759,
      "sign": 1760,
      "stād": 1761,
      "darbā": 1762,
      "mentu": 1763,
      "valitātes": 1764,
      "definēt": 1765,
      "modeli": 1766,
      "apstrādes": 1767,
      "plānošana": 1768,
      "sniegta": 1769,
      "sākuma": 1770,
      "Bankas": 1771,
      "Lietot": 1772,
      "Nav": 1773,
      "dot": 1774,
      "ket": 1775,
      "ze": 1776,
      "šis": 1777,
      "atlik": 1778,
      "ībai": 1779,
      "iekas": 1780,
      "apskat": 1781,
      "veidni": 1782,
      "norādīta": 1783,
      "period": 1784,
      "ziņo": 1785,
      "kārtulu": 1786,
      "Maksājuma": 1787,
      "configure": 1788,
      "pamatlīdzekļu": 1789,
      "Rin": 1790,
      "lēt": 1791,
      "si": 1792,
      "ansac": 1793,
      "piegād": 1794,
      "pasta": 1795,
      "ieraksta": 1796,
      "ierakstus": 1797,
      "redit": 1798,
      "Pirms": 1799,
      "lietotājs": 1800,
      "šādas": 1801,
      "reporting": 1802,
      "Power": 1803,
      "trastat": 1804,
      "Ies": 1805,
      "can": 1806,
      "ris": 1807,
      "atra": 1808,
      "atbalst": 1809,
      "aran": 1810,
      "šanā": 1811,
      "notik": 1812,
      "zīmes": 1813,
      "orders": 1814,
      "noteiktu": 1815,
      "USD": 1816,
      "liec": 1817,
      "Pamatlīdzekļu": 1818,
      "line": 1819,
      "Main": 1820,
      "St": 1821,
      "Sad": 1822,
      "ros": 1823,
      "ēģ": 1824,
      "ieg": 1825,
      "anci": 1826,
      "ietek": 1827,
      "form": 1828,
      "kodi": 1829,
      "koda": 1830,
      "tspēj": 1831,
      "skatīšana": 1832,
      "kuriem": 1833,
      "žurnāls": 1834,
      "nosacījumu": 1835,
      "atlasīto": 1836,
      "sakļaujiet": 1837,
      "Noliktavas": 1838,
      "Japāna": 1839,
      "ES": 1840,
      "Tiek": 1841,
      "fer": 1842,
      "flow": 1843,
      "lauka": 1844,
      "ēmā": 1845,
      "pārtrauk": 1846,
      "oka": 1847,
      "paskai": 1848,
      "pasūtījumus": 1849,
      "iestatījumus": 1850,
      "Noklusējuma": 1851,
      "Pārbau": 1852,
      "daudzuma": 1853,
      "debitoram": 1854,
      "aktiviz": 1855,
      "Visi": 1856,
      "customer": 1857,
      "Dem": 1858,
      "job": 1859,
      "kalendār": 1860,
      "tem": 1861,
      "ček": 1862,
      "iež": 1863,
      "kopē": 1864,
      "statist": 1865,
      "ējot": 1866,
      "krājumi": 1867,
      "opcija": 1868,
      "dācijas": 1869,
      "ļaut": 1870,
      "sarakstā": 1871,
      "periods": 1872,
      "attiecībā": 1873,
      "konfigurēt": 1874,
      "Apstiprinā": 1875,
      "faila": 1876,
      "segšana": 1877,
      "aktivitātes": 1878,
      "inventarizācijas": 1879,
      "Skatīt": 1880,
      "management": 1881,
      "Person": 1882,
      "Sag": 1883,
      "Stat": 1884,
      "až": 1885,
      "droš": 1886,
      "kļū": 1887,
      "nam": 1888,
      "our": 1889,
      "āko": 1890,
      "jumā": 1891,
      "izdošanas": 1892,
      "div": 1893,
      "grāmatošana": 1894,
      "dimension": 1895,
      "visu": 1896,
      "apraksts": 1897,
      "piešķirt": 1898,
      "izveidošana": 1899,
      "sākotn": 1900,
      "Elektron": 1901,
      "Norād": 1902,
      "change": 1903,
      "Pakalpojumu": 1904,
      "Demonstrācijas": 1905,
      "21": 1906,
      "24": 1907,
      "Num": 1908,
      "cas": 1909,
      "ron": 1910,
      "sūtījum": 1911,
      "izviet": 1912,
      "tām": 1913,
      "define": 1914,
      "ted": 1915,
      "kopsavilk": 1916,
      "pieprasījumu": 1917,
      "procedūra": 1918,
      "bez": 1919,
      "kanā": 1920,
      "Reģist": 1921,
      "saites": 1922,
      "princi": 1923,
      "Kā": 1924,
      "būs": 1925,
      "cībā": 1926,
      "los": 1927,
      "ālo": 1928,
      "analī": 1929,
      "izkārto": 1930,
      "pārviet": 1931,
      "partijas": 1932,
      "fiks": 1933,
      "vietā": 1934,
      "pēkā": 1935,
      "visi": 1936,
      "nākam": 1937,
      "kreditoriem": 1938,
      "vairākas": 1939,
      "saņemšanas": 1940,
      "dienu": 1941,
      "termiņatlaides": 1942,
      "pievienošana": 1943,
      "atgriez": 1944,
      "kredīta": 1945,
      "Projekta": 1946,
      "atūras": 1947,
      "200": 1948,
      "Cen": 1949,
      "Koka": 1950,
      "bom": 1951,
      "ke": 1952,
      "izvad": 1953,
      "rācija": 1954,
      "apaz": 1955,
      "trīs": 1956,
      "vadība": 1957,
      "inātu": 1958,
      "vienā": 1959,
      "kuram": 1960,
      "dokuments": 1961,
      "norādītie": 1962,
      "versija": 1963,
      "attiecīg": 1964,
      "definīcijas": 1965,
      "Piemērs": 1966,
      "punktu": 1967,
      "ītājs": 1968,
      "piekļu": 1969,
      "production": 1970,
      "Konfigurācijas": 1971,
      "apazon": 1972,
      "25": 1973,
      "Lapā": 1974,
      "bru": 1975,
      "fakti": 1976,
      "kra": 1977,
      "lād": 1978,
      "sā": 1979,
      "valu": 1980,
      "Pārslē": 1981,
      "noslodz": 1982,
      "com": 1983,
      "saistes": 1984,
      "Nolietojuma": 1985,
      "transakcijām": 1986,
      "uzdevums": 1987,
      "nepieciešama": 1988,
      "apstiprināšanas": 1989,
      "pārsūtīšanas": 1990,
      "Val": 1991,
      "ļiem": 1992,
      "ased": 1993,
      "transac": 1994,
      "budg": 1995,
      "sarakstu": 1996,
      "able": 1997,
      "kritērij": 1998,
      "atsau": 1999,
      "rezultātu": 2000,
      "ierīces": 2001,
      "group": 2002,
      "Daudzums": 2003,
      "templ": 2004,
      "budget": 2005,
      "sin": 2006,
      "td": 2007,
      "ves": 2008,
      "vīt": 2009,
      "īšanai": 2010,
      "šim": 2011,
      "atkārtot": 2012,
      "apkop": 2013,
      "darbs": 2014,
      "citu": 2015,
      "norādītajā": 2016,
      "rēķins": 2017,
      "sadaļā": 2018,
      "procesā": 2019,
      "vec": 2020,
      "norādītos": 2021,
      "apstrāde": 2022,
      "projektu": 2023,
      "rezer": 2024,
      "atzīmējiet": 2025,
      "Konfigur": 2026,
      "ātāja": 2027,
      "brīvā": 2028,
      "atskaišu": 2029,
      "Līdz": 2030,
      "atrašanās": 2031,
      "23": 2032,
      "dēj": 2033,
      "liem": 2034,
      "šū": 2035,
      "ieņēm": 2036,
      "apaļ": 2037,
      "jāt": 2038,
      "kos": 2039,
      "tory": 2040,
      "pasūtījumā": 2041,
      "ēma": 2042,
      "grāmatas": 2043,
      "bank": 2044,
      "lietotāja": 2045,
      "lapa": 2046,
      "persona": 2047,
      "atbilstības": 2048,
      "Intrastat": 2049,
      "ject": 2050,
      "formulas": 2051,
      "katram": 2052,
      "izveides": 2053,
      "wareho": 2054,
      "Pārslēdziet": 2055,
      "30": 2056,
      "Kar": 2057,
      "Perio": 2058,
      "biež": 2059,
      "ļus": 2060,
      "reg": 2061,
      "debe": 2062,
      "dzīv": 2063,
      "ādīt": 2064,
      "parakst": 2065,
      "poz": 2066,
      "iestatīta": 2067,
      "budže": 2068,
      "aprakstīti": 2069,
      "grupai": 2070,
      "pieejamas": 2071,
      "nosacījumus": 2072,
      "Maksājumu": 2073,
      "ajam": 2074,
      "gai": 2075,
      "gšanas": 2076,
      "hron": 2077,
      "ly": 2078,
      "pu": 2079,
      "atīv": 2080,
      "atvieglo": 2081,
      "noliet": 2082,
      "tifikā": 2083,
      "īto": 2084,
      "ēju": 2085,
      "vienība": 2086,
      "ned": 2087,
      "krājumam": 2088,
      "izveidoti": 2089,
      "konfigurācija": 2090,
      "personu": 2091,
      "gadījumā": 2092,
      "kategoriju": 2093,
      "juridiskās": 2094,
      "hierarhiju": 2095,
      "rīd": 2096,
      "sistēmas": 2097,
      "vēstules": 2098,
      "kolonnas": 2099,
      "Plānot": 2100,
      "out": 2101,
      "stāvok": 2102,
      "Ex": 2103,
      "Ter": 2104,
      "js": 2105,
      "kvalitātes": 2106,
      "takt": 2107,
      "ēs": 2108,
      "oto": 2109,
      "esat": 2110,
      "espon": 2111,
      "kases": 2112,
      "trac": 2113,
      "maksa": 2114,
      "kuri": 2115,
      "visus": 2116,
      "maksāšanas": 2117,
      "plānu": 2118,
      "pamata": 2119,
      "katru": 2120,
      "personai": 2121,
      "darbiniekam": 2122,
      "produktu": 2123,
      "apstiprināšana": 2124,
      "ziņojumu": 2125,
      "sniegts": 2126,
      "nodrošina": 2127,
      "kandidā": 2128,
      "korekcijas": 2129,
      "virsrakst": 2130,
      "dzīves": 2131,
      "Kan": 2132,
      "Or": 2133,
      "Rādīt": 2134,
      "est": 2135,
      "ition": 2136,
      "lam": 2137,
      "rai": 2138,
      "Ģener": 2139,
      "Šo": 2140,
      "time": 2141,
      "darbībām": 2142,
      "konti": 2143,
      "iespējas": 2144,
      "pieejami": 2145,
      "izvēlnes": 2146,
      "numura": 2147,
      "ignor": 2148,
      "sistēmā": 2149,
      "atgriešanas": 2150,
      "accounts": 2151,
      "Mazumtirdzniecības": 2152,
      "cash": 2153,
      "vītr": 2154,
      "Organ": 2155,
      "Kas": 2156,
      "ML": 2157,
      "Viet": 2158,
      "dei": 2159,
      "ten": 2160,
      "nolū": 2161,
      "uni": 2162,
      "diapazon": 2163,
      "darbība": 2164,
      "rule": 2165,
      "pastāv": 2166,
      "iestatīts": 2167,
      "Piešķir": 2168,
      "Noviet": 2169,
      "katra": 2170,
      "agre": 2171,
      "Procen": 2172,
      "saņemšana": 2173,
      "balsta": 2174,
      "galve": 2175,
      "doc": 2176,
      "inventory": 2177,
      "piln": 2178,
      "katrai": 2179,
      "ierobežojumi": 2180,
      "obligāti": 2181,
      "līmeņa": 2182,
      "režīma": 2183,
      "vēlamās": 2184,
      "paplašinājumu": 2185,
      "Aiz": 2186,
      "Kor": 2187,
      "ējums": 2188,
      "asti": 2189,
      "pielād": 2190,
      "ekt": 2191,
      "kontus": 2192,
      "logu": 2193,
      "sagādes": 2194,
      "norādīts": 2195,
      "izmaksām": 2196,
      "izveidoto": 2197,
      "bāz": 2198,
      "Pievieno": 2199,
      "elementus": 2200,
      "ved": 2201,
      "parādīta": 2202,
      "turp": 2203,
      "ierobežojuma": 2204,
      "esošajā": 2205,
      "reģistrēšana": 2206,
      "lietotājiem": 2207,
      "sagatav": 2208,
      "precēm": 2209,
      "recei": 2210,
      "teiks": 2211,
      "febru": 2212,
      "paskaidrots": 2213,
      "warehouse": 2214,
      "Sāk": 2215,
      "XML": 2216,
      "bo": 2217,
      "došana": 2218,
      "ošu": 2219,
      "ps": 2220,
      "Žurnā": 2221,
      "otas": 2222,
      "izej": 2223,
      "kād": 2224,
      "iro": 2225,
      "apmaksā": 2226,
      "atlasītajā": 2227,
      "inājums": 2228,
      "iestata": 2229,
      "ring": 2230,
      "pret": 2231,
      "kurš": 2232,
      "izmantojat": 2233,
      "saistīti": 2234,
      "maiņas": 2235,
      "uzdevumus": 2236,
      "darbinieks": 2237,
      "piešķiršana": 2238,
      "statusa": 2239,
      "pareiz": 2240,
      "sertifikā": 2241,
      "rindai": 2242,
      "Iespēj": 2243,
      "Pārbaudiet": 2244,
      "sinhron": 2245,
      "Termiņ": 2246,
      "ektīv": 2247,
      "Not": 2248,
      "id": 2249,
      "run": 2250,
      "ģion": 2251,
      "oties": 2252,
      "amo": 2253,
      "izejas": 2254,
      "sko": 2255,
      "datiem": 2256,
      "viens": 2257,
      "tity": 2258,
      "sele": 2259,
      "norakst": 2260,
      "norādītu": 2261,
      "pārskatus": 2262,
      "dimensijām": 2263,
      "col": 2264,
      "pakeš": 2265,
      "priekšlik": 2266,
      "izpildīt": 2267,
      "ģenerēšana": 2268,
      "tabulas": 2269,
      "operācijas": 2270,
      "ecas": 2271,
      "vidējā": 2272,
      "atribūtu": 2273,
      "stundu": 2274,
      "generate": 2275,
      "arantijas": 2276,
      "Excel": 2277,
      "Pal": 2278,
      "cā": 2279,
      "laik": 2280,
      "dzē": 2281,
      "pielik": 2282,
      "koka": 2283,
      "rēķinus": 2284,
      "personām": 2285,
      "noliktavā": 2286,
      "joma": 2287,
      "pamatlīdzekļa": 2288,
      "vairākus": 2289,
      "vairākiem": 2290,
      "termiņatlai": 2291,
      "komb": 2292,
      "Formā": 2293,
      "operāciju": 2294,
      "integ": 2295,
      "Rindas": 2296,
      "Numur": 2297,
      "template": 2298,
      "dējoš": 2299,
      "espondējoš": 2300,
      "BI": 2301,
      "Virsgrāmat": 2302,
      "dēm": 2303,
      "kti": 2304,
      "pub": 2305,
      "ters": 2306,
      "šādi": 2307,
      "iestād": 2308,
      "tikt": 2309,
      "lic": 2310,
      "part": 2311,
      "fix": 2312,
      "pogu": 2313,
      "izmantotas": 2314,
      "definēta": 2315,
      "līdzekļu": 2316,
      "oft": 2317,
      "actu": 2318,
      "izpildiet": 2319,
      "version": 2320,
      "veikta": 2321,
      "veiktspēj": 2322,
      "vairākā": 2323,
      "aizpild": 2324,
      "icros": 2325,
      "starpuzņēmumu": 2326,
      "Ierobež": 2327,
      "Rēķina": 2328,
      "kredīt": 2329,
      "identific": 2330,
      "kodus": 2331,
      "Detalizēta": 2332,
      "iegū": 2333,
      "Norādiet": 2334,
      "icrosoft": 2335,
      "Atri": 2336,
      "Dok": 2337,
      "Im": 2338,
      "Ti": 2339,
      "king": 2340,
      "per": 2341,
      "su": 2342,
      "sch": 2343,
      "assign": 2344,
      "eit": 2345,
      "alitātes": 2346,
      "reģion": 2347,
      "veidā": 2348,
      "cess": 2349,
      "bilance": 2350,
      "izveidota": 2351,
      "nāk": 2352,
      "prasības": 2353,
      "aprakstu": 2354,
      "gādinājuma": 2355,
      "noteikta": 2356,
      "struktūru": 2357,
      "Šīs": 2358,
      "savu": 2359,
      "Veid": 2360,
      "Dokumen": 2361,
      "Fi": 2362,
      "ošanai": 2363,
      "ren": 2364,
      "virsgrāmat": 2365,
      "ys": 2366,
      "Ār": 2367,
      "atbalsta": 2368,
      "informat": 2369,
      "gts": 2370,
      "ināta": 2371,
      "celt": 2372,
      "pēd": 2373,
      "dimensija": 2374,
      "pirk": 2375,
      "pirm": 2376,
      "ity": 2377,
      "norādīto": 2378,
      "uzmeklēšanas": 2379,
      "struktūr": 2380,
      "definīciju": 2381,
      "kontroles": 2382,
      "pārbaudes": 2383,
      "profilu": 2384,
      "vajadzīgo": 2385,
      "paredzēta": 2386,
      "režģ": 2387,
      "items": 2388,
      "Operations": 2389,
      "Tabu": 2390,
      "iemeslu": 2391,
      "Dimensiju": 2392,
      "Pasūtījum": 2393,
      "Pievienojiet": 2394,
      "31": 2395,
      "IS": 2396,
      "Ret": 2397,
      "Sist": 2398,
      "credit": 2399,
      "edu": 2400,
      "factu": 2401,
      "jai": 2402,
      "spēkā": 2403,
      "izpil": 2404,
      "novirz": 2405,
      "ilg": 2406,
      "kopēj": 2407,
      "mām": 2408,
      "ēmu": 2409,
      "kavē": 2410,
      "kurus": 2411,
      "pārskati": 2412,
      "elec": 2413,
      "definētu": 2414,
      "aprēķins": 2415,
      "saraksts": 2416,
      "kreditoram": 2417,
      "kopu": 2418,
      "abone": 2419,
      "aiztur": 2420,
      "manufactu": 2421,
      "Redi": 2422,
      "profila": 2423,
      "importēšana": 2424,
      "ierīc": 2425,
      "account": 2426,
      "aprakstītās": 2427,
      "inieties": 2428,
      "izlaist": 2429,
      "kopsavilkuma": 2430,
      "20022": 2431,
      "documen": 2432,
      "schedu": 2433,
      "Retail": 2434,
      "Daž": 2435,
      "Tur": 2436,
      "agram": 2437,
      "brīd": 2438,
      "pieteik": 2439,
      "īšanu": 2440,
      "any": 2441,
      "ard": 2442,
      "stan": 2443,
      "tax": 2444,
      "veidi": 2445,
      "jām": 2446,
      "profi": 2447,
      "vienuma": 2448,
      "pozī": 2449,
      "Atbil": 2450,
      "jauno": 2451,
      "rēķini": 2452,
      "izmantošana": 2453,
      "iņa": 2454,
      "Pārvald": 2455,
      "uzņēmumā": 2456,
      "debitoriem": 2457,
      "numb": 2458,
      "uzdevumi": 2459,
      "acti": 2460,
      "setting": 2461,
      "iespēju": 2462,
      "iespējams": 2463,
      "krau": 2464,
      "tronic": 2465,
      "filtru": 2466,
      "Finance": 2467,
      "pārbaud": 2468,
      "dēļ": 2469,
      "veikala": 2470,
      "detalizētu": 2471,
      "novietojuma": 2472,
      "Paš": 2473,
      "atkarīg": 2474,
      "atskaites": 2475,
      "Sadal": 2476,
      "kombinā": 2477,
      "fixed": 2478,
      "electronic": 2479,
      "ciet": 2480,
      "efic": 2481,
      "ll": 2482,
      "mi": 2483,
      "ošanu": 2484,
      "atv": 2485,
      "ating": 2486,
      "izvē": 2487,
      "ens": 2488,
      "uzkrā": 2489,
      "pārvērt": 2490,
      "vaicā": 2491,
      "darbus": 2492,
      "menta": 2493,
      "atlases": 2494,
      "isijas": 2495,
      "Izdev": 2496,
      "loģ": 2497,
      "page": 2498,
      "tēšanas": 2499,
      "0000": 2500,
      "avota": 2501,
      "visām": 2502,
      "Atlasīt": 2503,
      "tipi": 2504,
      "izpilda": 2505,
      "reģistrēt": 2506,
      "Uzņēm": 2507,
      "sastāv": 2508,
      "vairāki": 2509,
      "kori": 2510,
      "atzīmi": 2511,
      "nodokļa": 2512,
      "Papildu": 2513,
      "Grāmatot": 2514,
      "ierobežojumus": 2515,
      "elektronisko": 2516,
      "Darbinieku": 2517,
      "discoun": 2518,
      "pieņemšanas": 2519,
      "Statist": 2520,
      "kravas": 2521,
      "transactions": 2522,
      "eficien": 2523,
      "91": 2524,
      "Mēr": 2525,
      "gh": 2526,
      "ojam": 2527,
      "trā": 2528,
      "atēģ": 2529,
      "jumos": 2530,
      "tagad": 2531,
      "forecas": 2532,
      "koeficien": 2533,
      "darbvietas": 2534,
      "Izpild": 2535,
      "definē": 2536,
      "bult": 2537,
      "maksājums": 2538,
      "aprēķinu": 2539,
      "lietotājam": 2540,
      "ajos": 2541,
      "Kreditori": 2542,
      "lauks": 2543,
      "hierarhija": 2544,
      "rīcībā": 2545,
      "griez": 2546,
      "Vienības": 2547,
      "kontrolē": 2548,
      "rezultātus": 2549,
      "atribū": 2550,
      "Vispārīgi": 2551,
      "funkcionalitāti": 2552,
      "Definēt": 2553,
      "Personāla": 2554,
      "Organizācijas": 2555,
      "information": 2556,
      "93": 2557,
      "99": 2558,
      "An": 2559,
      "Akti": 2560,
      "Kr": 2561,
      "Lauk": 2562,
      "Microsoft": 2563,
      "PP": 2564,
      "Res": 2565,
      "Sum": 2566,
      "md": 2567,
      "sub": 2568,
      "otā": 2569,
      "izteiks": 2570,
      "tuk": 2571,
      "rek": 2572,
      "appro": 2573,
      "leju": 2574,
      "vadīt": 2575,
      "ēķinu": 2576,
      "ēji": 2577,
      "līn": 2578,
      "erial": 2579,
      "īguma": 2580,
      "Piegādes": 2581,
      "lauki": 2582,
      "cilnē": 2583,
      "Maksājumi": 2584,
      "slēgšana": 2585,
      "Pārskata": 2586,
      "piedāvājumu": 2587,
      "Izmantojot": 2588,
      "Noliktava": 2589,
      "iskās": 2590,
      "prior": 2591,
      "location": 2592,
      "liecinieties": 2593,
      "Nē": 2594,
      "ements": 2595,
      "ln": 2596,
      "tais": 2597,
      "iegrāmat": 2598,
      "iegādes": 2599,
      "umstruktūras": 2600,
      "ietvar": 2601,
      "urren": 2602,
      "jāveic": 2603,
      "ētie": 2604,
      "financi": 2605,
      "iestatījumu": 2606,
      "formātā": 2607,
      "grupē": 2608,
      "mult": 2609,
      "procesus": 2610,
      "zīmē": 2611,
      "maiņa": 2612,
      "uzdevumā": 2613,
      "programma": 2614,
      "uzskaite": 2615,
      "pievienotu": 2616,
      "Apmaksas": 2617,
      "ics": 2618,
      "rīk": 2619,
      "esošo": 2620,
      "procenti": 2621,
      "imālo": 2622,
      "variantu": 2623,
      "palaist": 2624,
      "parametru": 2625,
      "parametrus": 2626,
      "konsolidācijas": 2627,
      "finansi": 2628,
      "Mainīt": 2629,
      "galveno": 2630,
      "manufacturing": 2631,
      "Rediģēt": 2632,
      "ietvaros": 2633,
      "financial": 2634,
      "26": 2635,
      "27": 2636,
      "36": 2637,
      "Fakti": 2638,
      "Tād": 2639,
      "gšana": 2640,
      "ojumi": 2641,
      "tle": 2642,
      "vanu": 2643,
      "oten": 2644,
      "ails": 2645,
      "tipa": 2646,
      "tul": 2647,
      "apar": 2648,
      "kopo": 2649,
      "Atveriet": 2650,
      "iestatītu": 2651,
      "tēšana": 2652,
      "pārskatā": 2653,
      "avot": 2654,
      "porta": 2655,
      "ājs": 2656,
      "kopā": 2657,
      "personāla": 2658,
      "žurnāli": 2659,
      "resour": 2660,
      "settle": 2661,
      "periodu": 2662,
      "darbiniekiem": 2663,
      "iski": 2664,
      "atjaunināt": 2665,
      "komple": 2666,
      "Izmantot": 2667,
      "juridiskajai": 2668,
      "Rēķinu": 2669,
      "Automātisk": 2670,
      "maršruta": 2671,
      "products": 2672,
      "stratēģ": 2673,
      "Kredīt": 2674,
      "calculation": 2675,
      "ojas": 2676,
      "Galvenais": 2677,
      "Konfigurēt": 2678,
      "agreement": 2679,
      "otenci": 2680,
      "Kategor": 2681,
      "Pr": 2682,
      "UR": 2683,
      "ges": 2684,
      "gab": 2685,
      "ikas": 2686,
      "jis": 2687,
      "mār": 2688,
      "ža": 2689,
      "iepak": 2690,
      "ore": 2691,
      "nomen": 2692,
      "rāciju": 2693,
      "uzlab": 2694,
      "ret": 2695,
      "diagram": 2696,
      "project": 2697,
      "skatītu": 2698,
      "lay": 2699,
      "formāts": 2700,
      "lietošanas": 2701,
      "norādīti": 2702,
      "plūsmā": 2703,
      "saistītas": 2704,
      "kator": 2705,
      "darbinieki": 2706,
      "Konta": 2707,
      "ievada": 2708,
      "Maksāšanas": 2709,
      "veiciet": 2710,
      "atsauk": 2711,
      "vajadzības": 2712,
      "precei": 2713,
      "noņemiet": 2714,
      "administrator": 2715,
      "dalīb": 2716,
      "multi": 2717,
      "aparatūras": 2718,
      "Kom": 2719,
      "Se": 2720,
      "Tieš": 2721,
      "based": 2722,
      "mju": 2723,
      "zau": 2724,
      "ša": 2725,
      "ievie": 2726,
      "atvērt": 2727,
      "lter": 2728,
      "entr": 2729,
      "list": 2730,
      "jāizmanto": 2731,
      "ienāko": 2732,
      "parasti": 2733,
      "kontā": 2734,
      "datumam": 2735,
      "tra": 2736,
      "log": 2737,
      "loķ": 2738,
      "mobi": 2739,
      "oper": 2740,
      "kurai": 2741,
      "jamo": 2742,
      "maksājumus": 2743,
      "tein": 2744,
      "rakstur": 2745,
      "contro": 2746,
      "gul": 2747,
      "periodā": 2748,
      "Iestatīšana": 2749,
      "aprēķinātu": 2750,
      "aprēķināts": 2751,
      "piešķirts": 2752,
      "portēt": 2753,
      "Konsoli": 2754,
      "izveidojiet": 2755,
      "ierobežojumu": 2756,
      "juridiskā": 2757,
      "ical": 2758,
      "works": 2759,
      "izraksta": 2760,
      "workflow": 2761,
      "Pabei": 2762,
      "what": 2763,
      "Mobil": 2764,
      "centra": 2765,
      "līmenī": 2766,
      "Formu": 2767,
      "posting": 2768,
      "funkcionalitāte": 2769,
      "tajām": 2770,
      "Transakcijas": 2771,
      "pavadzīm": 2772,
      "drošības": 2773,
      "Ģenerēt": 2774,
      "februār": 2775,
      "select": 2776,
      "Numuru": 2777,
      "retail": 2778,
      "ltern": 2779,
      "mobile": 2780,
      "28": 2781,
      "Ats": 2782,
      "Drukā": 2783,
      "Saist": 2784,
      "Tek": 2785,
      "Vēr": 2786,
      "Ziņ": 2787,
      "bat": 2788,
      "cle": 2789,
      "ning": 2790,
      "ran": 2791,
      "sar": 2792,
      "šiem": 2793,
      "uzskai": 2794,
      "tomat": 2795,
      "jāiestata": 2796,
      "kontakt": 2797,
      "fikator": 2798,
      "vēst": 2799,
      "segt": 2800,
      "rēķiniem": 2801,
      "noklus": 2802,
      "izmantojiet": 2803,
      "izveidotas": 2804,
      "design": 2805,
      "Darbības": 2806,
      "atbild": 2807,
      "žurnālā": 2808,
      "Laika": 2809,
      "meklēšanas": 2810,
      "grupā": 2811,
      "age": 2812,
      "peļ": 2813,
      "kārtula": 2814,
      "parameters": 2815,
      "alent": 2816,
      "fizisko": 2817,
      "debeta": 2818,
      "Novietojuma": 2819,
      "Žurnāla": 2820,
      "Resurs": 2821,
      "100": 2822,
      "Mat": 2823,
      "ction": 2824,
      "curren": 2825,
      "mapp": 2826,
      "van": 2827,
      "ši": 2828,
      "šai": 2829,
      "aid": 2830,
      "ietei": 2831,
      "cijās": 2832,
      "divi": 2833,
      "apkopo": 2834,
      "veidne": 2835,
      "formas": 2836,
      "kopas": 2837,
      "kontiem": 2838,
      "ējs": 2839,
      "loy": 2840,
      "nekā": 2841,
      "ajās": 2842,
      "plat": 2843,
      "ošo": 2844,
      "veidošana": 2845,
      "saistīts": 2846,
      "daudzumam": 2847,
      "veiktu": 2848,
      "programmu": 2849,
      "2015": 2850,
      "gāde": 2851,
      "segšanas": 2852,
      "lietotāju": 2853,
      "definīcijā": 2854,
      "nodrošinātā": 2855,
      "veiktas": 2856,
      "noteikšanas": 2857,
      "veikalu": 2858,
      "Datums": 2859,
      "Iekļaut": 2860,
      "direktīv": 2861,
      "Saņem": 2862,
      "ketas": 2863,
      "Starp": 2864,
      "unikā": 2865,
      "ISO": 2866,
      "Kritērij": 2867,
      "rekviz": 2868,
      "gabal": 2869,
      "Materiā": 2870,
      "--": 2871,
      "Cik": 2872,
      "Maršru": 2873,
      "bloķ": 2874,
      "clu": 2875,
      "her": 2876,
      "raudz": 2877,
      "ynam": 2878,
      "ņām": 2879,
      "šos": 2880,
      "ūta": 2881,
      "star": 2882,
      "amā": 2883,
      "kādā": 2884,
      "tiktu": 2885,
      "tup": 2886,
      "ded": 2887,
      "vērtā": 2888,
      "jāizpilda": 2889,
      "pārdo": 2890,
      "ekse": 2891,
      "atlasītu": 2892,
      "vadītājs": 2893,
      "rules": 2894,
      "vienād": 2895,
      "vienībām": 2896,
      "skaid": 2897,
      "skais": 2898,
      "setup": 2899,
      "lieties": 2900,
      "centrā": 2901,
      "codes": 2902,
      "transportēšanas": 2903,
      "pamatā": 2904,
      "lietota": 2905,
      "norādītā": 2906,
      "izpildei": 2907,
      "iska": 2908,
      "nodaļ": 2909,
      "pārbaude": 2910,
      "importēšanas": 2911,
      "piedāvājuma": 2912,
      "vasinā": 2913,
      "paredzēts": 2914,
      "mēne": 2915,
      "Veiciet": 2916,
      "atkarībā": 2917,
      "eksportē": 2918,
      "valūtā": 2919,
      "klienta": 2920,
      "saskaņošanas": 2921,
      "requir": 2922,
      "analīze": 2923,
      "noslodzes": 2924,
      "Procentu": 2925,
      "lnrakst": 2926,
      "Priekš": 2927,
      "dalībniek": 2928,
      "Vērt": 2929,
      "mapping": 2930,
      "Bei": 2931,
      "Juridi": 2932,
      "Ope": 2933,
      "cība": 2934,
      "over": 2935,
      "svītr": 2936,
      "noapaļ": 2937,
      "dita": 2938,
      "apjoma": 2939,
      "ienu": 2940,
      "darbam": 2941,
      "darbplūsmu": 2942,
      "darbojas": 2943,
      "vērtībām": 2944,
      "vienkār": 2945,
      "tora": 2946,
      "lomu": 2947,
      "nevis": 2948,
      "ētais": 2949,
      "savienot": 2950,
      "Atvieglo": 2951,
      "iestatīšanas": 2952,
      "vali": 2953,
      "ave": 2954,
      "īgu": 2955,
      "maksājumiem": 2956,
      "pamats": 2957,
      "Iestatījumi": 2958,
      "piemēri": 2959,
      "piešķirta": 2960,
      "noliktavu": 2961,
      "struktūra": 2962,
      "uzskaitīt": 2963,
      "atlasītā": 2964,
      "aizstā": 2965,
      "inātības": 2966,
      "Pārskatu": 2967,
      "tiešā": 2968,
      "formula": 2969,
      "configurations": 2970,
      "invoices": 2971,
      "fikācijas": 2972,
      "specifi": 2973,
      "strādāt": 2974,
      "company": 2975,
      "when": 2976,
      "pašreizējā": 2977,
      "secību": 2978,
      "Aprēķināt": 2979,
      "Iekas": 2980,
      "grafiku": 2981,
      "Katr": 2982,
      "uzturēšana": 2983,
      "izvades": 2984,
      "sinhroniz": 2985,
      "Fiks": 2986,
      "koriģ": 2987,
      "zaudē": 2988,
      "teiner": 2989,
      "februāris": 2990,
      "batch": 2991,
      "Kritēriji": 2992,
      "Ad": 2993,
      "BA": 2994,
      "CS": 2995,
      "Jums": 2996,
      "hi": 2997,
      "pt": 2998,
      "ption": 2999,
      "tau": 3000,
      "atras": 3001,
      "other": 3002,
      "ary": 3003,
      "rāk": 3004,
      "tik": 3005,
      "rešu": 3006,
      "pārvad": 3007,
      "darbi": 3008,
      "ish": 3009,
      "neto": 3010,
      "neatbilst": 3011,
      "rou": 3012,
      "row": 3013,
      "valstu": 3014,
      "notiek": 3015,
      "amatu": 3016,
      "īgās": 3017,
      "modeļu": 3018,
      "teh": 3019,
      "parāda": 3020,
      "access": 3021,
      "pieprasījums": 3022,
      "procedūras": 3023,
      "Pirm": 3024,
      "slēgt": 3025,
      "iepriekšēju": 3026,
      "daļu": 3027,
      "how": 3028,
      "vidējo": 3029,
      "attēlā": 3030,
      "atrodas": 3031,
      "palai": 3032,
      "groz": 3033,
      "klasi": 3034,
      "blok": 3035,
      "zaru": 3036,
      "Elektronisko": 3037,
      "iestādes": 3038,
      "Pārvaldīt": 3039,
      "discount": 3040,
      "workspa": 3041,
      "ISO20022": 3042,
      "ynamics": 3043,
      "FT": 3044,
      "pan": 3045,
      "ploy": 3046,
      "sim": 3047,
      "inst": 3048,
      "izdo": 3049,
      "ārtot": 3050,
      "ska": 3051,
      "jānorāda": 3052,
      "lās": 3053,
      "konstan": 3054,
      "atlasa": 3055,
      "ēties": 3056,
      "Atlīdzības": 3057,
      "norēķinu": 3058,
      "grāmatu": 3059,
      "rediģ": 3060,
      "iņš": 3061,
      "lud": 3062,
      "īgā": 3063,
      "saistīta": 3064,
      "aprakstītas": 3065,
      "ākumu": 3066,
      "āju": 3067,
      "gadu": 3068,
      "nepieciešami": 3069,
      "ievades": 3070,
      "organiz": 3071,
      "Informā": 3072,
      "Inven": 3073,
      "rindās": 3074,
      "objektu": 3075,
      "saturs": 3076,
      "apstrādāt": 3077,
      "lines": 3078,
      "mobilo": 3079,
      "atlasītajam": 3080,
      "nosūtīšanas": 3081,
      "iesniegt": 3082,
      "atliku": 3083,
      "iekasēšanas": 3084,
      "Standarta": 3085,
      "espondējošais": 3086,
      "Izdevumu": 3087,
      "29": 3088,
      "40": 3089,
      "DE": 3090,
      "Gru": 3091,
      "Lap": 3092,
      "Piek": 3093,
      "cri": 3094,
      "he": 3095,
      "jū": 3096,
      "nai": 3097,
      "sup": 3098,
      "tre": 3099,
      "iezīm": 3100,
      "iestā": 3101,
      "stad": 3102,
      "entity": 3103,
      "rele": 3104,
      "dele": 3105,
      "divas": 3106,
      "jāizveido": 3107,
      "probl": 3108,
      "likmes": 3109,
      "kopa": 3110,
      "paraug": 3111,
      "material": 3112,
      "ējiem": 3113,
      "lomas": 3114,
      "emb": 3115,
      "citas": 3116,
      "citiem": 3117,
      "prece": 3118,
      "īgas": 3119,
      "īgais": 3120,
      "transfer": 3121,
      "update": 3122,
      "parādīti": 3123,
      "izācija": 3124,
      "kartes": 3125,
      "līgumam": 3126,
      "apstrādi": 3127,
      "plānošanu": 3128,
      "atlasītās": 3129,
      "iepriekšējā": 3130,
      "daļas": 3131,
      "iekļauts": 3132,
      "sistēma": 3133,
      "policy": 3134,
      "izmaiņu": 3135,
      "kartēšana": 3136,
      "punkta": 3137,
      "rādīts": 3138,
      "jebkuru": 3139,
      "brīva": 3140,
      "Tagad": 3141,
      "administrēšana": 3142,
      "ietekmē": 3143,
      "čeku": 3144,
      "Reģistrācijas": 3145,
      "value": 3146,
      "atkārtoti": 3147,
      "vecumstruktūras": 3148,
      "atvieglojumu": 3149,
      "nolietojums": 3150,
      "norakstīšanas": 3151,
      "Summa": 3152,
      "multiple": 3153,
      "50": 3154,
      "NP": 3155,
      "altern": 3156,
      "categor": 3157,
      "ef": 3158,
      "garantijas": 3159,
      "itor": 3160,
      "tver": 3161,
      "īr": 3162,
      "šā": 3163,
      "atgādinājuma": 3164,
      "atcelt": 3165,
      "anal": 3166,
      "anke": 3167,
      "stāj": 3168,
      "automat": 3169,
      "adrešu": 3170,
      "unit": 3171,
      "depreci": 3172,
      "ījumos": 3173,
      "parti": 3174,
      "ējat": 3175,
      "load": 3176,
      "skatiet": 3177,
      "paziņo": 3178,
      "ieraksts": 3179,
      "sadarb": 3180,
      "skaites": 3181,
      "master": 3182,
      "vispirms": 3183,
      "code": 3184,
      "līdzekļa": 3185,
      "līdzekļus": 3186,
      "transakcija": 3187,
      "char": 3188,
      "parādu": 3189,
      "grupām": 3190,
      "liskā": 3191,
      "ģenerētu": 3192,
      "kategorija": 3193,
      "cilni": 3194,
      "ietvertas": 3195,
      "tirdzniecība": 3196,
      "counting": 3197,
      "redzēt": 3198,
      "profils": 3199,
      "atspogu": 3200,
      "details": 3201,
      "vēstule": 3202,
      "komponentu": 3203,
      "mobilās": 3204,
      "elektronisk": 3205,
      "Skatiet": 3206,
      "līmeni": 3207,
      "finansējuma": 3208,
      "atšķiras": 3209,
      "integr": 3210,
      "periodisk": 3211,
      "apskats": 3212,
      "notikumu": 3213,
      "analīz": 3214,
      "faktisko": 3215,
      "rezervē": 3216,
      "tract": 3217,
      "Vieta": 3218,
      "turpmā": 3219,
      "Iespējot": 3220,
      "Termiņatlaides": 3221,
      "Veidnes": 3222,
      "lejupielād": 3223,
      "nomenkl": 3224,
      "Cikla": 3225,
      "workspace": 3226,
      "depreciation": 3227,
      "atspoguļ": 3228,
      "Daļ": 3229,
      "Mek": 3230,
      "Pil": 3231,
      "RT": 3232,
      "Veik": 3233,
      "ay": 3234,
      "dī": 3235,
      "glabā": 3236,
      "gatav": 3237,
      "mon": 3238,
      "od": 3239,
      "ol": 3240,
      "pes": 3241,
      "ācijas": 3242,
      "ējumu": 3243,
      "atjaun": 3244,
      "inde": 3245,
      "inclu": 3246,
      "ess": 3247,
      "kāds": 3248,
      "enable": 3249,
      "ere": 3250,
      "apstipr": 3251,
      "jāievada": 3252,
      "jāatlasa": 3253,
      "mās": 3254,
      "loj": 3255,
      "power": 3256,
      "iestatījumiem": 3257,
      "krājums": 3258,
      "ister": 3259,
      "plān": 3260,
      "prasībām": 3261,
      "Darbs": 3262,
      "Nodarb": 3263,
      "parādītas": 3264,
      "tipus": 3265,
      "itīv": 3266,
      "dokumentus": 3267,
      "beig": 3268,
      "ētajā": 3269,
      "šīm": 3270,
      "noteikumi": 3271,
      "Program": 3272,
      "daži": 3273,
      "kategorijām": 3274,
      "diena": 3275,
      "atjaunināšana": 3276,
      "papildināšanas": 3277,
      "iekļauti": 3278,
      "funkcijas": 3279,
      "dažādās": 3280,
      "dažādām": 3281,
      "izrakstīšanas": 3282,
      "kanāla": 3283,
      "aktivitāti": 3284,
      "veikalā": 3285,
      "formulu": 3286,
      "Pamatlīdzekļa": 3287,
      "modify": 3288,
      "imālais": 3289,
      "novieto": 3290,
      "redzams": 3291,
      "līmeņ": 3292,
      "valūta": 3293,
      "Pieprasījuma": 3294,
      "Sagādes": 3295,
      "Saglabā": 3296,
      "nākamo": 3297,
      "vairākām": 3298,
      "number": 3299,
      "control": 3300,
      "grozījuma": 3301,
      "Dynamics": 3302,
      "Eiro": 3303,
      "Funk": 3304,
      "ect": 3305,
      "fiel": 3306,
      "ga": 3307,
      "jan": 3308,
      "sap": 3309,
      "ēšanās": 3310,
      "Šād": 3311,
      "nozīmē": 3312,
      "all": 3313,
      "rel": 3314,
      "retur": 3315,
      "apk": 3316,
      "veidos": 3317,
      "darbvieta": 3318,
      "loma": 3319,
      "Atjauninā": 3320,
      "open": 3321,
      "operations": 3322,
      "Pārliecinieties": 3323,
      "maksājumi": 3324,
      "pakaļ": 3325,
      "test": 3326,
      "līdzekļi": 3327,
      "elementiem": 3328,
      "aprakstīta": 3329,
      "Nodok": 3330,
      "meklēt": 3331,
      "kopsummas": 3332,
      "mentār": 3333,
      "piešķirti": 3334,
      "līgums": 3335,
      "itāte": 3336,
      "attiecības": 3337,
      "noliktava": 3338,
      "Tāpēc": 3339,
      "sour": 3340,
      "izveidojāt": 3341,
      "hierarch": 3342,
      "ģenerēt": 3343,
      "laukus": 3344,
      "stāšanās": 3345,
      "ziņojuma": 3346,
      "lodzes": 3347,
      "kurām": 3348,
      "sektora": 3349,
      "Jauna": 3350,
      "izrakstu": 3351,
      "augst": 3352,
      "augšu": 3353,
      "saistīto": 3354,
      "eksportēšanas": 3355,
      "Mode": 3356,
      "konsolid": 3357,
      "mērķa": 3358,
      "organizācija": 3359,
      "modificēšana": 3360,
      "Periodi": 3361,
      "register": 3362,
      "budžetu": 3363,
      "Piešķirt": 3364,
      "pilnvar": 3365,
      "Palaist": 3366,
      "termiņatlaide": 3367,
      "Virsgrāmata": 3368,
      "virsgrāmatā": 3369,
      "Sistēmas": 3370,
      "schedule": 3371,
      "Pašreiz": 3372,
      "forecast": 3373,
      "Komisijas": 3374,
      "ieteic": 3375,
      "direktīvas": 3376,
      "Beigu": 3377,
      "Inventarizācijas": 3378,
      "lojalitātes": 3379,
      "Ab": 3380,
      "Ien": 3381,
      "LCS": 3382,
      "Manu": 3383,
      "Pat": 3384,
      "Talent": 3385,
      "fun": 3386,
      "have": 3387,
      "kv": 3388,
      "ler": 3389,
      "rad": 3390,
      "sy": 3391,
      "tēt": 3392,
      "vu": 3393,
      "xt": 3394,
      "zg": 3395,
      "arch": 3396,
      "izvēr": 3397,
      "ault": 3398,
      "enter": 3399,
      "review": 3400,
      "laic": 3401,
      "usi": 3402,
      "ursa": 3403,
      "toler": 3404,
      "pārskait": 3405,
      "pienāk": 3406,
      "darbvietu": 3407,
      "darbplūsmā": 3408,
      "dator": 3409,
      "vienai": 3410,
      "Izlai": 3411,
      "pašu": 3412,
      "Atlik": 3413,
      "skaidrots": 3414,
      "vēlāk": 3415,
      "ated": 3416,
      "ports": 3417,
      "pirmo": 3418,
      "kārt": 3419,
      "lietotas": 3420,
      "uzņēmumam": 3421,
      "tipiem": 3422,
      "priekšme": 3423,
      "beidz": 3424,
      "struc": 3425,
      "itāti": 3426,
      "esošie": 3427,
      "izdevumus": 3428,
      "šādus": 3429,
      "kontrole": 3430,
      "inventar": 3431,
      "juridisko": 3432,
      "juridiskajām": 3433,
      "Pamatlīdzekļi": 3434,
      "atribūt": 3435,
      "identifikator": 3436,
      "pabeigtu": 3437,
      "salīdzināšana": 3438,
      "politiku": 3439,
      "atsevišķu": 3440,
      "filtrētu": 3441,
      "patēriņu": 3442,
      "pielāgot": 3443,
      "līmenis": 3444,
      "direct": 3445,
      "šablonu": 3446,
      "scenārijs": 3447,
      "Transakciju": 3448,
      "keting": 3449,
      "kanālu": 3450,
      "Kases": 3451,
      "Sākuma": 3452,
      "dzēst": 3453,
      "abonementu": 3454,
      "profili": 3455,
      "activi": 3456,
      "settings": 3457,
      "vaicājumu": 3458,
      "Drukāt": 3459,
      "vēstur": 3460,
      "pane": 3461,
      "partial": 3462,
      "janvār": 3463,
      "saplud": 3464,
      "Kād": 3465,
      "Rī": 3466,
      "Sūtījum": 3467,
      "fault": 3468,
      "jas": 3469,
      "map": 3470,
      "potenci": 3471,
      "Šim": 3472,
      "atvasinā": 3473,
      "otnes": 3474,
      "int": 3475,
      "stri": 3476,
      "ietur": 3477,
      "kāda": 3478,
      "ence": 3479,
      "tajiem": 3480,
      "default": 3481,
      "ītais": 3482,
      "usī": 3483,
      "ledg": 3484,
      "tāpēc": 3485,
      "tājs": 3486,
      "kojiet": 3487,
      "atlase": 3488,
      "vienas": 3489,
      "vienmēr": 3490,
      "Izvē": 3491,
      "ierakstiem": 3492,
      "Iepriekš": 3493,
      "option": 3494,
      "rēķinam": 3495,
      "pārskatiem": 3496,
      "noklikšķin": 3497,
      "mezg": 3498,
      "vietot": 3499,
      "avoti": 3500,
      "īgs": 3501,
      "ņemot": 3502,
      "summ": 3503,
      "jaunus": 3504,
      "zīme": 3505,
      "Noapaļ": 3506,
      "atbildes": 3507,
      "kopsummu": 3508,
      "meklēšana": 3509,
      "izpildītu": 3510,
      "1099": 3511,
      "aprēķināšana": 3512,
      "programmai": 3513,
      "gādi": 3514,
      "pamatlīdzekli": 3515,
      "materiāli": 3516,
      "dažādas": 3517,
      "Vienuma": 3518,
      "payments": 3519,
      "plānots": 3520,
      "worker": 3521,
      "tiešsaistes": 3522,
      "katrs": 3523,
      "Rēķins": 3524,
      "attēlu": 3525,
      "accounting": 3526,
      "komer": 3527,
      "posi": 3528,
      "lūk": 3529,
      "galvenā": 3530,
      "jebkurā": 3531,
      "types": 3532,
      "stundas": 3533,
      "record": 3534,
      "virzienu": 3535,
      "puses": 3536,
      "šablona": 3537,
      "Dimensijas": 3538,
      "Definējiet": 3539,
      "Lietotāja": 3540,
      "Reģistr": 3541,
      "kritērijus": 3542,
      "nolietojumu": 3543,
      "document": 3544,
      "koeficients": 3545,
      "līnijas": 3546,
      "365": 3547,
      "tulko": 3548,
      "komplek": 3549,
      "Materiālu": 3550,
      "Atjaunināt": 3551,
      "structu": 3552,
      "1000": 3553,
      "Brīv": 3554,
      "Cil": 3555,
      "EUR": 3556,
      "Lik": 3557,
      "Me": 3558,
      "Sak": 3559,
      "ml": 3560,
      "pad": 3561,
      "tai": 3562,
      "ān": 3563,
      "ījis": 3564,
      "Šeit": 3565,
      "iegād": 3566,
      "umos": 3567,
      "izstrādā": 3568,
      "ijās": 3569,
      "nosegšana": 3570,
      "alē": 3571,
      "dekl": 3572,
      "laides": 3573,
      "let": 3574,
      "tities": 3575,
      "employ": 3576,
      "grāmatots": 3577,
      "lēšanas": 3578,
      "jaunā": 3579,
      "ktīv": 3580,
      "definition": 3581,
      "sadaļās": 3582,
      "modelim": 3583,
      "ošā": 3584,
      "līdzeklis": 3585,
      "katrā": 3586,
      "debitors": 3587,
      "metodei": 3588,
      "norādītas": 3589,
      "pieprasījumus": 3590,
      "piemērojam": 3591,
      "USRT": 3592,
      "pieejams": 3593,
      "Nosūt": 3594,
      "ģenerēts": 3595,
      "dienā": 3596,
      "Debitors": 3597,
      "prognozi": 3598,
      "lietotāji": 3599,
      "nosaukuma": 3600,
      "definīcija": 3601,
      "Pārskatiet": 3602,
      "Partijas": 3603,
      "Grāmatošanas": 3604,
      "salīdzinā": 3605,
      "specific": 3606,
      "korekcija": 3607,
      "Projektu": 3608,
      "Pakalpojuma": 3609,
      "planning": 3610,
      "operācijām": 3611,
      "adrese": 3612,
      "groups": 3613,
      "ieņēmumu": 3614,
      "bieži": 3615,
      "kandidātu": 3616,
      "Kandidā": 3617,
      "Korespondējošais": 3618,
      "integrācija": 3619,
      "Aktivitā": 3620,
      "Saistīt": 3621,
      "currency": 3622,
      "ledger": 3623,
      "Izvēlieties": 3624,
      "deklar": 3625,
      "32": 3626,
      "33": 3627,
      "PA": 3628,
      "Sas": 3629,
      "Tajā": 3630,
      "cau": 3631,
      "fu": 3632,
      "lēm": 3633,
      "your": 3634,
      "zē": 3635,
      "zon": 3636,
      "zvanu": 3637,
      "ījāt": 3638,
      "šeit": 3639,
      "ature": 3640,
      "atpakaļ": 3641,
      "inot": 3642,
      "prim": 3643,
      "end": 3644,
      "ent": 3645,
      "tim": 3646,
      "tive": 3647,
      "ārvalstu": 3648,
      "vērojiet": 3649,
      "leve": 3650,
      "kontam": 3651,
      "vadī": 3652,
      "vienam": 3653,
      "līd": 3654,
      "veidotā": 3655,
      "ierakstā": 3656,
      "rediģēt": 3657,
      "lēgt": 3658,
      "nota": 3659,
      "vides": 3660,
      "melnrakst": 3661,
      "vietai": 3662,
      "skaitīšanas": 3663,
      "Pārsūt": 3664,
      "Pārdošana": 3665,
      "gres": 3666,
      "jaunas": 3667,
      "Pieejam": 3668,
      "saistības": 3669,
      "mekļa": 3670,
      "consoli": 3671,
      "dokumentā": 3672,
      "dokumentiem": 3673,
      "task": 3674,
      "aprēķināt": 3675,
      "vairāku": 3676,
      "turētā": 3677,
      "noteikšana": 3678,
      "iespējam": 3679,
      "Proces": 3680,
      "nosacījumiem": 3681,
      "stacijas": 3682,
      "Prece": 3683,
      "export": 3684,
      "tirg": 3685,
      "ziņojums": 3686,
      "dow": 3687,
      "Uzskaites": 3688,
      "patap": 3689,
      "atzīmēta": 3690,
      "Raž": 3691,
      "kontrol": 3692,
      "resursiem": 3693,
      "aktivitāšu": 3694,
      "liel": 3695,
      "rādīt": 3696,
      "tiešās": 3697,
      "Kopēt": 3698,
      "costs": 3699,
      "mobilajā": 3700,
      "componen": 3701,
      "korekciju": 3702,
      "Darbinieka": 3703,
      "secībā": 3704,
      "Plāno": 3705,
      "Mazum": 3706,
      "ators": 3707,
      "saskaņā": 3708,
      "grāmatotas": 3709,
      "nieks": 3710,
      "ceļvedī": 3711,
      "vispārējā": 3712,
      "moduļa": 3713,
      "pārtraukt": 3714,
      "kļūdas": 3715,
      "piekļuves": 3716,
      "Valūta": 3717,
      "amoun": 3718,
      "laikus": 3719,
      "publiskā": 3720,
      "ierīcē": 3721,
      "kraušanas": 3722,
      "atribūtus": 3723,
      "mārketing": 3724,
      "Formulas": 3725,
      "uzskaiti": 3726,
      "Katram": 3727,
      "nomenklatū": 3728,
      "apkalpo": 3729,
      "01": 3730,
      "Al": 3731,
      "Amat": 3732,
      "Biznesa": 3733,
      "IF": 3734,
      "Kra": 3735,
      "SE": 3736,
      "To": 3737,
      "cies": 3738,
      "eu": 3739,
      "eti": 3740,
      "ikon": 3741,
      "ika": 3742,
      "ive": 3743,
      "rau": 3744,
      "sl": 3745,
      "tēm": 3746,
      "tain": 3747,
      "vil": 3748,
      "xml": 3749,
      "ālais": 3750,
      "īz": 3751,
      "īko": 3752,
      "asset": 3753,
      "ates": 3754,
      "atslē": 3755,
      "anc": 3756,
      "ini": 3757,
      "stības": 3758,
      "standar": 3759,
      "izsnie": 3760,
      "novēr": 3761,
      "ality": 3762,
      "reports": 3763,
      "aps": 3764,
      "aptver": 3765,
      "vair": 3766,
      "darbplūsma": 3767,
      "dation": 3768,
      "vienībai": 3769,
      "savieno": 3770,
      "Atv": 3771,
      "ply": 3772,
      "meth": 3773,
      "izmantošanas": 3774,
      "definēti": 3775,
      "vismaz": 3776,
      "jauns": 3777,
      "Novērt": 3778,
      "āji": 3779,
      "parādītu": 3780,
      "conten": 3781,
      "izāciju": 3782,
      "respon": 3783,
      "aprēķināšanai": 3784,
      "apstrādei": 3785,
      "noteiktā": 3786,
      "Prognoz": 3787,
      "apstiprinājumu": 3788,
      "izveidojat": 3789,
      "izvēlēties": 3790,
      "minētās": 3791,
      "noder": 3792,
      "pievienots": 3793,
      "numurus": 3794,
      "iepriekšējās": 3795,
      "Visas": 3796,
      "failus": 3797,
      "prognozēšanas": 3798,
      "tribu": 3799,
      "Inte": 3800,
      "dažādos": 3801,
      "veicot": 3802,
      "aktivitāte": 3803,
      "imālā": 3804,
      "maršrutēšanas": 3805,
      "paliel": 3806,
      "atsevišķi": 3807,
      "samaks": 3808,
      "līmeņu": 3809,
      "pašreizējo": 3810,
      "ālās": 3811,
      "vārds": 3812,
      "klases": 3813,
      "grafika": 3814,
      "klāt": 3815,
      "organizācijā": 3816,
      "Kredīts": 3817,
      "saglabāt": 3818,
      "pavadzīmes": 3819,
      "requis": 3820,
      "iekasēšana": 3821,
      "norādītajiem": 3822,
      "sākotnējo": 3823,
      "izvietošanas": 3824,
      "Cenu": 3825,
      "piekļuvi": 3826,
      "Kartēšana": 3827,
      "pozitor": 3828,
      "Piešķiriet": 3829,
      "bāzes": 3830,
      "Pasūtījuma": 3831,
      "izpilde": 3832,
      "Turp": 3833,
      "Turklāt": 3834,
      "Lauks": 3835,
      "resource": 3836,
      "diagrammā": 3837,
      "noklusējums": 3838,
      "Resursu": 3839,
      "mēneša": 3840,
      "tikko": 3841,
      "Piekļu": 3842,
      "released": 3843,
      "Eiropa": 3844,
      "34": 3845,
      "35": 3846,
      "60": 3847,
      "Gan": 3848,
      "Garantijas": 3849,
      "Kalendār": 3850,
      "Svītr": 3851,
      "ling": 3852,
      "piet": 3853,
      "play": 3854,
      "ses": 3855,
      "vekse": 3856,
      "ētos": 3857,
      "ģen": 3858,
      "Šie": 3859,
      "Šādi": 3860,
      "atur": 3861,
      "attribu": 3862,
      "ansa": 3863,
      "anketas": 3864,
      "ari": 3865,
      "izstrā": 3866,
      "quan": 3867,
      "esošu": 3868,
      "eigh": 3869,
      "realiz": 3870,
      "repozitor": 3871,
      "tajam": 3872,
      "device": 3873,
      "apskatīt": 3874,
      "jādefinē": 3875,
      "ījumam": 3876,
      "likme": 3877,
      "darbiem": 3878,
      "matū": 3879,
      "ējie": 3880,
      "Atvērt": 3881,
      "emes": 3882,
      "sequ": 3883,
      "lietošana": 3884,
      "Ievērojiet": 3885,
      "bilanci": 3886,
      "ņēmumu": 3887,
      "procesiem": 3888,
      "modelī": 3889,
      "text": 3890,
      "veidojat": 3891,
      "saistībā": 3892,
      "chec": 3893,
      "katalog": 3894,
      "kopēt": 3895,
      "creating": 3896,
      "personā": 3897,
      "Krājums": 3898,
      "iskie": 3899,
      "līgumi": 3900,
      "līgumus": 3901,
      "līgumā": 3902,
      "Konteiner": 3903,
      "iespējotu": 3904,
      "Produ": 3905,
      "konfigurētu": 3906,
      "Kreditors": 3907,
      "exist": 3908,
      "kategorijai": 3909,
      "dienai": 3910,
      "hierarhijā": 3911,
      "mainiet": 3912,
      "Debitori": 3913,
      "papildinformāciju": 3914,
      "iekļautas": 3915,
      "processing": 3916,
      "Viens": 3917,
      "manuā": 3918,
      "nodrošināt": 3919,
      "pievienojiet": 3920,
      "rezultāti": 3921,
      "augš": 3922,
      "vēstuli": 3923,
      "scenari": 3924,
      "0001": 3925,
      "komand": 3926,
      "izveidošanas": 3927,
      "novietojumu": 3928,
      "obligāta": 3929,
      "compens": 3930,
      "noteiktiem": 3931,
      "konsolidē": 3932,
      "Taču": 3933,
      "secība": 3934,
      "valūtu": 3935,
      "manage": 3936,
      "planned": 3937,
      "izsekošana": 3938,
      "konkrētu": 3939,
      "jautājumu": 3940,
      "modulī": 3941,
      "zars": 3942,
      "svars": 3943,
      "nodarbinātības": 3944,
      "grāmatošanu": 3945,
      "periodam": 3946,
      "piegādātāja": 3947,
      "Apstiprināt": 3948,
      "izkārtojuma": 3949,
      "izkārtojumu": 3950,
      "attiecīgajā": 3951,
      "comm": 3952,
      "Valūtas": 3953,
      "virsraksta": 3954,
      "receipt": 3955,
      "colum": 3956,
      "Importēt": 3957,
      "izteiksmes": 3958,
      "peļņas": 3959,
      "zaudējumu": 3960,
      "alternatīv": 3961,
      "include": 3962,
      "apstiprina": 3963,
      "plānus": 3964,
      "beigās": 3965,
      "compensation": 3966,
      "Av": 3967,
      "Dzē": 3968,
      "Fiz": 3969,
      "Identi": 3970,
      "IBA": 3971,
      "Loj": 3972,
      "Mai": 3973,
      "Meks": 3974,
      "Ser": 3975,
      "Vec": 3976,
      "ctions": 3977,
      "dom": 3978,
      "fo": 3979,
      "hys": 3980,
      "pen": 3981,
      "phys": 3982,
      "ūk": 3983,
      "atlīdz": 3984,
      "atcel": 3985,
      "otās": 3986,
      "ort": 3987,
      "noform": 3988,
      "noloģ": 3989,
      "ences": 3990,
      "algu": 3991,
      "ade": 3992,
      "adju": 3993,
      "apgrozījuma": 3994,
      "legal": 3995,
      "pārrēķinā": 3996,
      "veidiem": 3997,
      "ienākumu": 3998,
      "force": 3999,
      "komentār": 4000,
      "file": 4001,
      "vadītāj": 4002,
      "match": 4003,
      "cep": 4004,
      "cetur": 4005,
      "maksimālo": 4006,
      "Atkārto": 4007,
      "Atgriez": 4008,
      "Attract": 4009,
      "find": 4010,
      "noraid": 4011,
      "lietojums": 4012,
      "grāmatai": 4013,
      "viņ": 4014,
      "vidi": 4015,
      "vices": 4016,
      "vigā": 4017,
      "vidē": 4018,
      "kurs": 4019,
      "avansa": 4020,
      "plānā": 4021,
      "jauna": 4022,
      "aprēķiniem": 4023,
      "ošās": 4024,
      "Darbu": 4025,
      "Piegād": 4026,
      "Pielāg": 4027,
      "līdzekli": 4028,
      "pamatu": 4029,
      "created": 4030,
      "versijai": 4031,
      "apstiprināt": 4032,
      "plānošanā": 4033,
      "ievade": 4034,
      "pašā": 4035,
      "minimālo": 4036,
      "laukam": 4037,
      "savus": 4038,
      "tabulu": 4039,
      "sasaist": 4040,
      "Kolon": 4041,
      "alogu": 4042,
      "interf": 4043,
      "dažādiem": 4044,
      "resursi": 4045,
      "kartēšanas": 4046,
      "juridiskajā": 4047,
      "Parame": 4048,
      "sakni": 4049,
      "precīz": 4050,
      "maršrutu": 4051,
      "scenārijā": 4052,
      "komponenti": 4053,
      "pārsūtīšana": 4054,
      "Transportēšanas": 4055,
      "pašreizējās": 4056,
      "display": 4057,
      "centraliz": 4058,
      "kodiem": 4059,
      "intervāla": 4060,
      "izsekošanas": 4061,
      "jautājumus": 4062,
      "Papildināšanas": 4063,
      "importēt": 4064,
      "scenāriji": 4065,
      "Sadaļ": 4066,
      "sūtījuma": 4067,
      "sūtījumu": 4068,
      "atsauce": 4069,
      "pozitīv": 4070,
      "ignorēt": 4071,
      "Vietas": 4072,
      "colle": 4073,
      "Formāta": 4074,
      "integrācijas": 4075,
      "vairākās": 4076,
      "Atribū": 4077,
      "novirze": 4078,
      "novirzes": 4079,
      "documents": 4080,
      "izvēlē": 4081,
      "Starpuzņēmumu": 4082,
      "Maršruta": 4083,
      "Atvieglojumu": 4084,
      "tehnoloģ": 4085,
      "Nodokļu": 4086,
      "tolerances": 4087,
      "letter": 4088,
      "employe": 4089,
      "Procesa": 4090,
      "mārketings": 4091,
      "standard": 4092,
      "content": 4093,
      "existing": 4094,
      "IBAN": 4095,
      "Lojalitātes": 4096,
      "physical": 4097,
      "adjust": 4098,
      "ben": 4099,
      "bija": 4100,
      "dām": 4101,
      "fir": 4102,
      "gar": 4103,
      "if": 4104,
      "lien": 4105,
      "sing": 4106,
      "če": 4107,
      "ķa": 4108,
      "ķis": 4109,
      "šās": 4110,
      "ievēr": 4111,
      "ason": 4112,
      "stem": 4113,
      "amēr": 4114,
      "izsniegt": 4115,
      "nosegšanas": 4116,
      "entities": 4117,
      "advan": 4118,
      "relā": 4119,
      "reason": 4120,
      "skie": 4121,
      "user": 4122,
      "dition": 4123,
      "apmaksa": 4124,
      "tād": 4125,
      "pārsniedz": 4126,
      "pieder": 4127,
      "formē": 4128,
      "lām": 4129,
      "datumi": 4130,
      "datumus": 4131,
      "atlasot": 4132,
      "Izsek": 4133,
      "neatbilstības": 4134,
      "search": 4135,
      "roll": 4136,
      "cita": 4137,
      "grāmatojot": 4138,
      "Iepak": 4139,
      "pārskatam": 4140,
      "001": 4141,
      "niegt": 4142,
      "plāni": 4143,
      "pirmā": 4144,
      "ņemta": 4145,
      "summām": 4146,
      "aprēķinus": 4147,
      "lietoti": 4148,
      "konfigurācijai": 4149,
      "katras": 4150,
      "ējādi": 4151,
      "off": 4152,
      "metodēm": 4153,
      "pārvaldīt": 4154,
      "pieprasījumi": 4155,
      "piešķirtu": 4156,
      "sadalīt": 4157,
      "attiecību": 4158,
      "Kontakt": 4159,
      "projektiem": 4160,
      "iespēja": 4161,
      "iespējošana": 4162,
      "apstiprināšanai": 4163,
      "soci": 4164,
      "nosacījuma": 4165,
      "exchange": 4166,
      "ierobežojums": 4167,
      "savas": 4168,
      "papildobjekta": 4169,
      "files": 4170,
      "sistēmu": 4171,
      "profiles": 4172,
      "plānoto": 4173,
      "rādīta": 4174,
      "virk": 4175,
      "tieši": 4176,
      "vēstuļu": 4177,
      "hol": 4178,
      "apstrādātu": 4179,
      "Grāmata": 4180,
      "variantus": 4181,
      "specify": 4182,
      "comple": 4183,
      "galvenie": 4184,
      "Apraksta": 4185,
      "elektroniskā": 4186,
      "patēriņš": 4187,
      "satura": 4188,
      "novērtē": 4189,
      "mērķis": 4190,
      "kodam": 4191,
      "tiesību": 4192,
      "iemesla": 4193,
      "general": 4194,
      "organizācijai": 4195,
      "Kredīta": 4196,
      "applic": 4197,
      "calculate": 4198,
      "Nākamajās": 4199,
      "ross": 4200,
      "dimensions": 4201,
      "apkopošanas": 4202,
      "Līdzek": 4203,
      "nolūkos": 4204,
      "izejmateriālu": 4205,
      "pakešuzdevumu": 4206,
      "iegūtu": 4207,
      "Dokumentu": 4208,
      "Tabula": 4209,
      "kombinācijas": 4210,
      "atvaļ": 4211,
      "pārvērtēšanas": 4212,
      "approval": 4213,
      "iegrāmatota": 4214,
      "entries": 4215,
      "Atsau": 4216,
      "Teksts": 4217,
      "instal": 4218,
      "indeks": 4219,
      "hierarchy": 4220,
      "system": 4221,
      "laicīgi": 4222,
      "Izlaist": 4223,
      "kojieties": 4224,
      "lūkot": 4225,
      "veidotājā": 4226,
      "SEPA": 4227,
      "check": 4228,
      "Avota": 4229,
      "Apar": 4230,
      "Atras": 4231,
      "Co": 4232,
      "Min": 4233,
      "Sal": 4234,
      "Spēkā": 4235,
      "Vajadz": 4236,
      "abi": 4237,
      "ble": 4238,
      "fon": 4239,
      "fle": 4240,
      "ip": 4241,
      "iskais": 4242,
      "veri": 4243,
      "āde": 4244,
      "akredit": 4245,
      "autor": 4246,
      "quest": 4247,
      "kās": 4248,
      "kādas": 4249,
      "rās": 4250,
      "tikas": 4251,
      "ībās": 4252,
      "algas": 4253,
      "tuā": 4254,
      "liver": 4255,
      "litikas": 4256,
      "deliver": 4257,
      "āro": 4258,
      "iekam": 4259,
      "pārliec": 4260,
      "darbībā": 4261,
      "pars": 4262,
      "konver": 4263,
      "kontos": 4264,
      "datētu": 4265,
      "atlasi": 4266,
      "ināts": 4267,
      "ējas": 4268,
      "ējos": 4269,
      "Izvēl": 4270,
      "iesaist": 4271,
      "ētiem": 4272,
      "saņēm": 4273,
      "Atļau": 4274,
      "Atgādinājuma": 4275,
      "finish": 4276,
      "iestatījums": 4277,
      "iestatīšanu": 4278,
      "vēlas": 4279,
      "move": 4280,
      "citam": 4281,
      "grāmata": 4282,
      "izmantotu": 4283,
      "Ievadīt": 4284,
      "optim": 4285,
      "pārskatos": 4286,
      "izmantojam": 4287,
      "visaptver": 4288,
      "saistību": 4289,
      "kreditors": 4290,
      "lietots": 4291,
      "lapās": 4292,
      "tipam": 4293,
      "gadā": 4294,
      "žurnālus": 4295,
      "resursa": 4296,
      "karšu": 4297,
      "pieprasa": 4298,
      "abon": 4299,
      "nepieciešamās": 4300,
      "projektam": 4301,
      "nosacījums": 4302,
      "saņemt": 4303,
      "ģenerēšanai": 4304,
      "galamēr": 4305,
      "ietverta": 4306,
      "sniegti": 4307,
      "atjaunināti": 4308,
      "atjaunināts": 4309,
      "izdevumi": 4310,
      "iekļauta": 4311,
      "Jaunas": 4312,
      "nosaukumi": 4313,
      "šādu": 4314,
      "termiņš": 4315,
      "izmaiņām": 4316,
      "importēšanu": 4317,
      "mazā": 4318,
      "punkts": 4319,
      "Pārskats": 4320,
      "Pārskatīt": 4321,
      "rādīti": 4322,
      "Politikas": 4323,
      "izveidei": 4324,
      "pabeigts": 4325,
      "Ņemamā": 4326,
      "salīdzināšanas": 4327,
      "atļauts": 4328,
      "kolonnu": 4329,
      "noteiktas": 4330,
      "filtrus": 4331,
      "Lietojiet": 4332,
      "type": 4333,
      "channe": 4334,
      "Opcijas": 4335,
      "palīdzēt": 4336,
      "patēriņa": 4337,
      "Vispārējā": 4338,
      "Katrai": 4339,
      "samazināšanas": 4340,
      "adresi": 4341,
      "journals": 4342,
      "piegādātā": 4343,
      "PowerAp": 4344,
      "iegūt": 4345,
      "ietekme": 4346,
      "jobs": 4347,
      "kalendāru": 4348,
      "Sagatav": 4349,
      "kritērijiem": 4350,
      "stāvokli": 4351,
      "stāvokļa": 4352,
      "Procenti": 4353,
      "pareizi": 4354,
      "sertifikātu": 4355,
      "veiktspēja": 4356,
      "izpildi": 4357,
      "izlaistās": 4358,
      "Sadalījuma": 4359,
      "Uzņēmums": 4360,
      "Izpildes": 4361,
      "atvērts": 4362,
      "entry": 4363,
      "guld": 4364,
      "Mobilās": 4365,
      "pavadzīmi": 4366,
      "eksportēšana": 4367,
      "head": 4368,
      "category": 4369,
      "sadarbības": 4370,
      "Rīcībā": 4371,
      "tirgot": 4372,
      "Mazumtirdzniecība": 4373,
      "inici": 4374,
      "vairs": 4375,
      "Atkārtojiet": 4376,
      "Sadaļā": 4377,
      "advanced": 4378,
      "ditional": 4379,
      "Aparatūras": 4380,
      "Atrast": 4381,
      "akreditīv": 4382,
      "finished": 4383,
      "Day": 4384,
      "Iemes": 4385,
      "Kvalitātes": 4386,
      "PI": 4387,
      "Punk": 4388,
      "Stu": 4389,
      "Svērtā": 4390,
      "Te": 4391,
      "Tom": 4392,
      "Vē": 4393,
      "aci": 4394,
      "base": 4395,
      "bloc": 4396,
      "biro": 4397,
      "efi": 4398,
      "fak": 4399,
      "gūt": 4400,
      "kiem": 4401,
      "mar": 4402,
      "pic": 4403,
      "svērtā": 4404,
      "slīd": 4405,
      "vak": 4406,
      "you": 4407,
      "ķi": 4408,
      "ieskat": 4409,
      "associ": 4410,
      "iztur": 4411,
      "izskaidrots": 4412,
      "ijs": 4413,
      "priek": 4414,
      "noformē": 4415,
      "ītās": 4416,
      "jās": 4417,
      "jāpievieno": 4418,
      "pārdev": 4419,
      "izmēr": 4420,
      "prom": 4421,
      "ienas": 4422,
      "forman": 4423,
      "dates": 4424,
      "trūk": 4425,
      "statements": 4426,
      "lomai": 4427,
      "netiks": 4428,
      "maksai": 4429,
      "sage": 4430,
      "pac": 4431,
      "Atļaut": 4432,
      "iestatāt": 4433,
      "momentu": 4434,
      "grāmatve": 4435,
      "grāmatota": 4436,
      "valo": 4437,
      "valid": 4438,
      "pārskatīt": 4439,
      "ktiem": 4440,
      "ņemt": 4441,
      "vielas": 4442,
      "veidojot": 4443,
      "veco": 4444,
      "constr": 4445,
      "confir": 4446,
      "personaliz": 4447,
      "metožu": 4448,
      "darbiniekus": 4449,
      "reģistrāciju": 4450,
      "veikts": 4451,
      "atbilstošu": 4452,
      "piemērot": 4453,
      "piešķirtas": 4454,
      "ētajiem": 4455,
      "produk": 4456,
      "nepieciešamo": 4457,
      "noteikts": 4458,
      "projektā": 4459,
      "uzskaitīti": 4460,
      "ficēt": 4461,
      "ģenerēti": 4462,
      "dažas": 4463,
      "ietverti": 4464,
      "atjauninātu": 4465,
      "atjauninājumu": 4466,
      "mērījumus": 4467,
      "rīkojieties": 4468,
      "formats": 4469,
      "Uzdev": 4470,
      "sekotu": 4471,
      "izdevumiem": 4472,
      "ults": 4473,
      "iekļaut": 4474,
      "filtra": 4475,
      "politika": 4476,
      "šādiem": 4477,
      "funkciju": 4478,
      "interest": 4479,
      "processes": 4480,
      "resursus": 4481,
      "lielā": 4482,
      "importēšanai": 4483,
      "ītajām": 4484,
      "mēs": 4485,
      "rūtiņas": 4486,
      "tekstu": 4487,
      "saistītās": 4488,
      "preciz": 4489,
      "Nepieciešam": 4490,
      "Audita": 4491,
      "komponents": 4492,
      "pabeigta": 4493,
      "atkarīgi": 4494,
      "Kopsavilk": 4495,
      "galvenās": 4496,
      "noteiktam": 4497,
      "filtrēt": 4498,
      "noņemt": 4499,
      "funkcionalitātes": 4500,
      "palīdzētu": 4501,
      "klientu": 4502,
      "klientam": 4503,
      "procentuālo": 4504,
      "Aprēķina": 4505,
      "price": 4506,
      "aktīvu": 4507,
      "saglabātu": 4508,
      "ceļvež": 4509,
      "ceļvedi": 4510,
      "drukāšanas": 4511,
      "atskaite": 4512,
      "Galvenā": 4513,
      "apskatītu": 4514,
      "simu": 4515,
      "Mainiet": 4516,
      "tspējas": 4517,
      "Sagāde": 4518,
      "key": 4519,
      "values": 4520,
      "transaction": 4521,
      "norādītajām": 4522,
      "ieņēmumi": 4523,
      "Perioda": 4524,
      "virsraksts": 4525,
      "Aizveriet": 4526,
      "Korek": 4527,
      "Noteik": 4528,
      "pielikumu": 4529,
      "Formāts": 4530,
      "pēdējā": 4531,
      "pārbaudīt": 4532,
      "pārbaudītu": 4533,
      "Uzņēmuma": 4534,
      "resources": 4535,
      "Kategorijas": 4536,
      "Seg": 4537,
      "rekvizītu": 4538,
      "specifisk": 4539,
      "Adres": 4540,
      "DEMF": 4541,
      "jūl": 4542,
      "problēmas": 4543,
      "structure": 4544,
      "Saskaņ": 4545,
      "level": 4546,
      "melnraksta": 4547,
      "components": 4548,
      "pārtrauktības": 4549,
      "IFO": 4550,
      "Konteinera": 4551,
      "Produktu": 4552,
      "Parametri": 4553,
      "benefi": 4554,
      "flex": 4555,
      "question": 4556,
      "Dayforce": 4557,
      "Tomēr": 4558,
      "priekšu": 4559,
      "formance": 4560,
      "momentuz": 4561,
      "Bil": 4562,
      "Ci": 4563,
      "Dienas": 4564,
      "Fai": 4565,
      "Ik": 4566,
      "Le": 4567,
      "Virs": 4568,
      "Zvanu": 4569,
      "aģen": 4570,
      "bas": 4571,
      "cs": 4572,
      "cap": 4573,
      "clos": 4574,
      "gvielas": 4575,
      "ktr": 4576,
      "kredi": 4577,
      "ods": 4578,
      "sauk": 4579,
      "teik": 4580,
      "vies": 4581,
      "ycle": 4582,
      "ļūt": 4583,
      "another": 4584,
      "ume": 4585,
      "stoš": 4586,
      "audita": 4587,
      "nostrādā": 4588,
      "alizācijas": 4589,
      "ree": 4590,
      "lity": 4591,
      "debi": 4592,
      "laikam": 4593,
      "ski": 4594,
      "uss": 4595,
      "aptur": 4596,
      "apgabal": 4597,
      "apmeklēt": 4598,
      "lem": 4599,
      "pārstāv": 4600,
      "piesaist": 4601,
      "piegāde": 4602,
      "ekrā": 4603,
      "veidņu": 4604,
      "dated": 4605,
      "atlasīts": 4606,
      "state": 4607,
      "pasūt": 4608,
      "vienumus": 4609,
      "ceno": 4610,
      "point": 4611,
      "paziņojumu": 4612,
      "iestatītas": 4613,
      "norīko": 4614,
      "notīr": 4615,
      "norādījumus": 4616,
      "kuros": 4617,
      "metad": 4618,
      "banka": 4619,
      "banku": 4620,
      "definēts": 4621,
      "visa": 4622,
      "visos": 4623,
      "object": 4624,
      "plāns": 4625,
      "plānam": 4626,
      "ņemiet": 4627,
      "ļaujam": 4628,
      "aprēķini": 4629,
      "descri": 4630,
      "prasību": 4631,
      "importa": 4632,
      "kreditorus": 4633,
      "lietotu": 4634,
      "lapjoma": 4635,
      "parādīt": 4636,
      "debitori": 4637,
      "gads": 4638,
      "priekšapmaksas": 4639,
      "actions": 4640,
      "reģistrācija": 4641,
      "veiktās": 4642,
      "aprēķināta": 4643,
      "ežģ": 4644,
      "vairākos": 4645,
      "struk": 4646,
      "nepieciešamas": 4647,
      "noteikumus": 4648,
      "apstiprinātā": 4649,
      "ievadīts": 4650,
      "ievadītu": 4651,
      "excel": 4652,
      "saņemti": 4653,
      "saņemšanu": 4654,
      "pievienotas": 4655,
      "ziņas": 4656,
      "gnožu": 4657,
      "Maksājums": 4658,
      "atjaunināta": 4659,
      "griešanas": 4660,
      "pamatlīdzekļiem": 4661,
      "nosaukumus": 4662,
      "korespondējoš": 4663,
      "intercompany": 4664,
      "Viena": 4665,
      "kontroli": 4666,
      "pievienošanas": 4667,
      "balstīts": 4668,
      "kartējumu": 4669,
      "vajadzību": 4670,
      "vajadzētu": 4671,
      "sēriju": 4672,
      "Pakeš": 4673,
      "apstrādāti": 4674,
      "attēl": 4675,
      "Neto": 4676,
      "komisijas": 4677,
      "Aug": 4678,
      "Austr": 4679,
      "komponenta": 4680,
      "komponentiem": 4681,
      "pabeigtas": 4682,
      "redzama": 4683,
      "redzamajā": 4684,
      "mobilā": 4685,
      "Norakst": 4686,
      "pusē": 4687,
      "novērtēšanas": 4688,
      "ražošanai": 4689,
      "atlasītajai": 4690,
      "režīmā": 4691,
      "klāst": 4692,
      "tīmekļa": 4693,
      "intervāls": 4694,
      "cycle": 4695,
      "modificēt": 4696,
      "adreses": 4697,
      "nodarbinātā": 4698,
      "norādītajos": 4699,
      "situā": 4700,
      "aktivizēt": 4701,
      "statistikas": 4702,
      "princips": 4703,
      "fiksētas": 4704,
      "nākamajā": 4705,
      "Cenas": 4706,
      "piekļuve": 4707,
      "sākt": 4708,
      "šūnas": 4709,
      "registr": 4710,
      "budžets": 4711,
      "Sākotn": 4712,
      "kādai": 4713,
      "priekšlikumu": 4714,
      "termiņatlaidi": 4715,
      "public": 4716,
      "veiktspējas": 4717,
      "Atribūt": 4718,
      "struktūrvienības": 4719,
      "Pasūtījumu": 4720,
      "kopējo": 4721,
      "aizturēšanas": 4722,
      "profile": 4723,
      "pozīcijas": 4724,
      "numbers": 4725,
      "Aktiviz": 4726,
      "tukš": 4727,
      "finansiāli": 4728,
      "avotiem": 4729,
      "Automātiski": 4730,
      "operator": 4731,
      "designer": 4732,
      "start": 4733,
      "skaidras": 4734,
      "Vērtība": 4735,
      "Operāciju": 4736,
      "noapaļošanas": 4737,
      "vienkārš": 4738,
      "Iekasēšana": 4739,
      "pārvadātā": 4740,
      "organization": 4741,
      "Informācija": 4742,
      "integration": 4743,
      "Veiktspējas": 4744,
      "field": 4745,
      "Pašreizējā": 4746,
      "Abone": 4747,
      "Sakļaujiet": 4748,
      "apkalpošanās": 4749,
      "Kravas": 4750,
      "atslēgas": 4751,
      "requisition": 4752,
      "quantity": 4753,
      "Dzēst": 4754,
      "matching": 4755,
      "vigācijas": 4756,
      "Piegādātāja": 4757,
      "interfei": 4758,
      "Iemeslu": 4759,
      "Stun": 4760,
      "izturēšanās": 4761,
      "Lean": 4762,
      "metadat": 4763,
      "37": 4764,
      "44": 4765,
      "Atro": 4766,
      "Atra": 4767,
      "DO": 4768,
      "Fran": 4769,
      "Klien": 4770,
      "Tās": 4771,
      "avai": 4772,
      "bli": 4773,
      "cop": 4774,
      "cted": 4775,
      "dra": 4776,
      "ding": 4777,
      "eur": 4778,
      "fec": 4779,
      "gū": 4780,
      "gšanu": 4781,
      "gatīv": 4782,
      "minā": 4783,
      "rais": 4784,
      "slim": 4785,
      "vēt": 4786,
      "weigh": 4787,
      "āls": 4788,
      "ieviet": 4789,
      "atveriet": 4790,
      "analiz": 4791,
      "ine": 4792,
      "ize": 4793,
      "primā": 4794,
      "nosegt": 4795,
      "erage": 4796,
      "als": 4797,
      "allocation": 4798,
      "additional": 4799,
      "rever": 4800,
      "regul": 4801,
      "apgriez": 4802,
      "apmaksai": 4803,
      "jāpiešķir": 4804,
      "jāgrāmato": 4805,
      "lean": 4806,
      "pārraudz": 4807,
      "piegādi": 4808,
      "likmi": 4809,
      "menti": 4810,
      "menis": 4811,
      "paralē": 4812,
      "datos": 4813,
      "datumā": 4814,
      "ināto": 4815,
      "vienlaicīgi": 4816,
      "Izdošanas": 4817,
      "Izej": 4818,
      "lomām": 4819,
      "skatījuma": 4820,
      "cels": 4821,
      "Atkar": 4822,
      "Atgriešanas": 4823,
      "skaita": 4824,
      "veidotājs": 4825,
      "formāti": 4826,
      "citā": 4827,
      "Iegādes": 4828,
      "kursa": 4829,
      "pārskatīšana": 4830,
      "iņas": 4831,
      "average": 4832,
      "ported": 4833,
      "Pārkraušanas": 4834,
      "definētas": 4835,
      "transl": 4836,
      "Darbplūsma": 4837,
      "plūsmai": 4838,
      "rakstīt": 4839,
      "termin": 4840,
      "Nolietojums": 4841,
      "izveidi": 4842,
      "atbilžu": 4843,
      "atvēršana": 4844,
      "parādās": 4845,
      "maiņu": 4846,
      "gadījumos": 4847,
      "pakalpojumiem": 4848,
      "Laiks": 4849,
      "beigas": 4850,
      "pārvaldību": 4851,
      "reģistra": 4852,
      "aprēķināto": 4853,
      "atbilstību": 4854,
      "piemēru": 4855,
      "piemēros": 4856,
      "piešķires": 4857,
      "abri": 4858,
      "līgumiem": 4859,
      "nepieciešamības": 4860,
      "sadalītu": 4861,
      "attiecīgo": 4862,
      "programmatū": 4863,
      "iespējot": 4864,
      "iespējota": 4865,
      "Nose": 4866,
      "Nosac": 4867,
      "Noslodzes": 4868,
      "laukiem": 4869,
      "pievienota": 4870,
      "balance": 4871,
      "Apkop": 4872,
      "aizstāj": 4873,
      "iepriekšējo": 4874,
      "maintain": 4875,
      "Uzkrā": 4876,
      "Uztur": 4877,
      "Inter": 4878,
      "procentus": 4879,
      "slēgšanu": 4880,
      "manual": 4881,
      "Rez": 4882,
      "aktivitātēm": 4883,
      "lielāk": 4884,
      "labāk": 4885,
      "izmain": 4886,
      "pabeigšanas": 4887,
      "mazum": 4888,
      "nul": 4889,
      "vizu": 4890,
      "rādītas": 4891,
      "ierīci": 4892,
      "sērija": 4893,
      "Parasti": 4894,
      "attēlo": 4895,
      "ētām": 4896,
      "detalizētas": 4897,
      "identifikācijas": 4898,
      "novietojums": 4899,
      "varianti": 4900,
      "ītāju": 4901,
      "fikācija": 4902,
      "speciāli": 4903,
      "Vairā": 4904,
      "piekļū": 4905,
      "piekļūt": 4906,
      "stundām": 4907,
      "aprakstīto": 4908,
      "aprakstītie": 4909,
      "aprakstītos": 4910,
      "mērķi": 4911,
      "derīguma": 4912,
      "grafiks": 4913,
      "print": 4914,
      "Pieprasīt": 4915,
      "izsekot": 4916,
      "ielād": 4917,
      "ējamo": 4918,
      "vispārējās": 4919,
      "Līmenis": 4920,
      "svarīgi": 4921,
      "ship": 4922,
      "grāmatošanai": 4923,
      "Galvenie": 4924,
      "zemā": 4925,
      "risinā": 4926,
      "atbalsts": 4927,
      "kalendāri": 4928,
      "čeka": 4929,
      "kopsavilkums": 4930,
      "principu": 4931,
      "norādītajās": 4932,
      "rezervā": 4933,
      "šūnu": 4934,
      "gaitā": 4935,
      "february": 4936,
      "book": 4937,
      "izejoš": 4938,
      "sertifikāta": 4939,
      "Notik": 4940,
      "identificētu": 4941,
      "Tabulas": 4942,
      "abonementa": 4943,
      "pozīciju": 4944,
      "atkarīgs": 4945,
      "kombināciju": 4946,
      "vadītāja": 4947,
      "settlement": 4948,
      "stratēģija": 4949,
      "Tiešā": 4950,
      "Konsolidācijas": 4951,
      "Teksta": 4952,
      "nodaļu": 4953,
      "taust": 4954,
      "route": 4955,
      "palaišana": 4956,
      "atlikušo": 4957,
      "iestāžu": 4958,
      "parauga": 4959,
      "atspoguļo": 4960,
      "Šādā": 4961,
      "padar": 4962,
      "consolidation": 4963,
      "kontrolier": 4964,
      "etiķ": 4965,
      "responden": 4966,
      "Kalendārs": 4967,
      "domē": 4968,
      "Kolonnas": 4969,
      "Atribūta": 4970,
      "employee": 4971,
      "application": 4972,
      "Sales": 4973,
      "constrain": 4974,
      "Virsrakst": 4975,
      "Atribūts": 4976,
      "Atrodiet": 4977,
      "Atrašanās": 4978,
      "copy": 4979,
      "Atkarībā": 4980,
      "940": 4981,
      "AS": 4982,
      "Be": 4983,
      "Dān": 4984,
      "Es": 4985,
      "Kār": 4986,
      "Pieteik": 4987,
      "Potenci": 4988,
      "Str": 4989,
      "Skai": 4990,
      "Vers": 4991,
      "bež": 4992,
      "cer": 4993,
      "cis": 4994,
      "get": 4995,
      "jom": 4996,
      "kš": 4997,
      "mb": 4998,
      "pēt": 4999,
      "rate": 5000,
      "sig": 5001,
      "wri": 5002,
      "āl": 5003,
      "ēļ": 5004,
      "ļos": 5005,
      "Šai": 5006,
      "iegu": 5007,
      "indow": 5008,
      "instruk": 5009,
      "arr": 5010,
      "arhi": 5011,
      "šanos": 5012,
      "izdošana": 5013,
      "ake": 5014,
      "akiet": 5015,
      "ori": 5016,
      "augu": 5017,
      "irop": 5018,
      "ery": 5019,
      "uzman": 5020,
      "uzkrājuma": 5021,
      "uzved": 5022,
      "licen": 5023,
      "depoz": 5024,
      "used": 5025,
      "dif": 5026,
      "jāņem": 5027,
      "pārs": 5028,
      "pārval": 5029,
      "pārkrau": 5030,
      "pārliecinieties": 5031,
      "piezīmes": 5032,
      "projām": 5033,
      "veidn": 5034,
      "veidus": 5035,
      "iens": 5036,
      "menu": 5037,
      "trade": 5038,
      "statement": 5039,
      "vērtībai": 5040,
      "inās": 5041,
      "iss": 5042,
      "vienumam": 5043,
      "pasūtījumos": 5044,
      "Atlaides": 5045,
      "skaidr": 5046,
      "sets": 5047,
      "krāsu": 5048,
      "robež": 5049,
      "ciden": 5050,
      "citām": 5051,
      "cenām": 5052,
      "valst": 5053,
      "lēšana": 5054,
      "noti": 5055,
      "vietās": 5056,
      "vietām": 5057,
      "avots": 5058,
      "īgums": 5059,
      "Pārlūkot": 5060,
      "aprēķinam": 5061,
      "pakot": 5062,
      "prasmju": 5063,
      "procesam": 5064,
      "veidošanu": 5065,
      "apraksta": 5066,
      "aprakstus": 5067,
      "uzņēmumiem": 5068,
      "daudzumus": 5069,
      "daudzumiem": 5070,
      "maina": 5071,
      "contrac": 5072,
      "uzdevumiem": 5073,
      "žurnālam": 5074,
      "priekšro": 5075,
      "dokumentē": 5076,
      "pārvaldībai": 5077,
      "veikti": 5078,
      "veikšana": 5079,
      "aprēķināti": 5080,
      "grupās": 5081,
      "Konts": 5082,
      "projekti": 5083,
      "projekts": 5084,
      "apstiprināts": 5085,
      "noliktavām": 5086,
      "expen": 5087,
      "ģenerēšanas": 5088,
      "pievienoti": 5089,
      "atjaunināšanas": 5090,
      "kritēr": 5091,
      "mainīgās": 5092,
      "faili": 5093,
      "fails": 5094,
      "daļēji": 5095,
      "joprojām": 5096,
      "esošos": 5097,
      "segmentu": 5098,
      "Jaun": 5099,
      "procentos": 5100,
      "šāda": 5101,
      "funkcija": 5102,
      "dažādu": 5103,
      "dažādus": 5104,
      "Vienība": 5105,
      "nodrošinātu": 5106,
      "balstoties": 5107,
      "vizor": 5108,
      "veikalam": 5109,
      "ierīču": 5110,
      "auga": 5111,
      "message": 5112,
      "Parauga": 5113,
      "teksts": 5114,
      "Izveidojot": 5115,
      "Nevar": 5116,
      "saitei": 5117,
      "obligāts": 5118,
      "Elements": 5119,
      "redzami": 5120,
      "Vairāk": 5121,
      "why": 5122,
      "Banku": 5123,
      "Modi": 5124,
      "Modu": 5125,
      "Darbinieki": 5126,
      "Opcija": 5127,
      "klientiem": 5128,
      "vārdā": 5129,
      "inātāja": 5130,
      "Daudzuma": 5131,
      "tīk": 5132,
      "addres": 5133,
      "intervālu": 5134,
      "lietošanai": 5135,
      "nosūtīt": 5136,
      "darīt": 5137,
      "darījumu": 5138,
      "jautājumi": 5139,
      "vispārējo": 5140,
      "svaru": 5141,
      "iesniedz": 5142,
      "īpašības": 5143,
      "cant": 5144,
      "atbalstīta": 5145,
      "notikuma": 5146,
      "kopēšana": 5147,
      "attiecīgajai": 5148,
      "kravu": 5149,
      "noslodze": 5150,
      "put": 5151,
      "pušu": 5152,
      "diapazonu": 5153,
      "sagatavot": 5154,
      "sagatavošanas": 5155,
      "kādam": 5156,
      "pakešveida": 5157,
      "Virsgrāmatā": 5158,
      "veiktspēju": 5159,
      "pēdējo": 5160,
      "ilgums": 5161,
      "kavējuma": 5162,
      "scheduling": 5163,
      "Izpildiet": 5164,
      "bultiņas": 5165,
      "Anketas": 5166,
      "tukšu": 5167,
      "prioritātes": 5168,
      "rīkjos": 5169,
      "Kredītvēstule": 5170,
      "uzlabojumi": 5171,
      "administrators": 5172,
      "Konsolid": 5173,
      "Pabeigt": 5174,
      "saraž": 5175,
      "FTI": 5176,
      "konstante": 5177,
      "Grupa": 5178,
      "Lapas": 5179,
      "efek": 5180,
      "Piln": 5181,
      "atjaunina": 5182,
      "Saglabāt": 5183,
      "sources": 5184,
      "Modeļa": 5185,
      "kvīti": 5186,
      "beidzas": 5187,
      "atribūtiem": 5188,
      "Sūtījuma": 5189,
      "Noapaļošanas": 5190,
      "komercija": 5191,
      "izstrādātā": 5192,
      "deklarā": 5193,
      "gresīv": 5194,
      "Plānošanas": 5195,
      "amount": 5196,
      "vilēģ": 5197,
      "Prognozes": 5198,
      "scenario": 5199,
      "komentārus": 5200,
      "verify": 5201,
      "delivery": 5202,
      "Kopsavilkuma": 5203,
      "Austrume": 5204,
      "reverse": 5205,
      "write": 5206,
      "AT": 5207,
      "Der": 5208,
      "Droš": 5209,
      "EK": 5210,
      "Gad": 5211,
      "IP": 5212,
      "Lo": 5213,
      "Lab": 5214,
      "Labi": 5215,
      "SL": 5216,
      "ST": 5217,
      "Svar": 5218,
      "Vekse": 5219,
      "bar": 5220,
      "brā": 5221,
      "carr": 5222,
      "dur": 5223,
      "el": 5224,
      "elo": 5225,
      "free": 5226,
      "hard": 5227,
      "ji": 5228,
      "līt": 5229,
      "lējiet": 5230,
      "nek": 5231,
      "pun": 5232,
      "rf": 5233,
      "scal": 5234,
      "scri": 5235,
      "uch": 5236,
      "vat": 5237,
      "vate": 5238,
      "ātr": 5239,
      "ātro": 5240,
      "iepirk": 5241,
      "atver": 5242,
      "atstā": 5243,
      "inam": 5244,
      "store": 5245,
      "izrai": 5246,
      "audi": 5247,
      "envir": 5248,
      "ensā": 5249,
      "enish": 5250,
      "allow": 5251,
      "rep": 5252,
      "redu": 5253,
      "repl": 5254,
      "recon": 5255,
      "debet": 5256,
      "skaļ": 5257,
      "urity": 5258,
      "apjo": 5259,
      "vērst": 5260,
      "tādēļ": 5261,
      "pārstā": 5262,
      "pieredz": 5263,
      "ilp": 5264,
      "veidnē": 5265,
      "ienes": 5266,
      "darbvietā": 5267,
      "datumiem": 5268,
      "atlasīšana": 5269,
      "atlasāt": 5270,
      "atlasījāt": 5271,
      "vades": 5272,
      "inātās": 5273,
      "inātas": 5274,
      "ējai": 5275,
      "ējus": 5276,
      "vienreiz": 5277,
      "lokā": 5278,
      "logā": 5279,
      "skatā": 5280,
      "neviens": 5281,
      "negatīv": 5282,
      "skaitā": 5283,
      "grāmatotu": 5284,
      "grāmatoti": 5285,
      "center": 5286,
      "options": 5287,
      "kursu": 5288,
      "pārskatīšanai": 5289,
      "izmantošanai": 5290,
      "informācijai": 5291,
      "develo": 5292,
      "definējiet": 5293,
      "summai": 5294,
      "sumption": 5295,
      "procesi": 5296,
      "Darbība": 5297,
      "Piedāvā": 5298,
      "līdzekļiem": 5299,
      "element": 5300,
      "saistīšana": 5301,
      "zīmi": 5302,
      "vienotā": 5303,
      "transakcijai": 5304,
      "upon": 5305,
      "consumption": 5306,
      "numuri": 5307,
      "kopsumma": 5308,
      "žurnāliem": 5309,
      "pārvaldītu": 5310,
      "pieprasījumiem": 5311,
      "pieprasījumā": 5312,
      "procedūrai": 5313,
      "aprēķinātas": 5314,
      "ētajam": 5315,
      "sadali": 5316,
      "Procedū": 5317,
      "Nosakiet": 5318,
      "konfigurēta": 5319,
      "plānošanai": 5320,
      "pašapkalpošanās": 5321,
      "saņemšanai": 5322,
      "minim": 5323,
      "dažādi": 5324,
      "ietverts": 5325,
      "atlaide": 5326,
      "atlaidi": 5327,
      "Visu": 5328,
      "cure": 5329,
      "rīku": 5330,
      "daļā": 5331,
      "reģistrētu": 5332,
      "reģistrēts": 5333,
      "starpība": 5334,
      "pamatlīdzeklim": 5335,
      "segmen": 5336,
      "seguma": 5337,
      "papildmaksas": 5338,
      "papildmaksa": 5339,
      "iekļautu": 5340,
      "Jaunu": 5341,
      "Komp": 5342,
      "pati": 5343,
      "otajam": 5344,
      "kontrolēt": 5345,
      "aktī": 5346,
      "vouch": 5347,
      "punktus": 5348,
      "ierīce": 5349,
      "alendā": 5350,
      "saistītā": 5351,
      "detalizēta": 5352,
      "detalizētās": 5353,
      "position": 5354,
      "komponentus": 5355,
      "izveidos": 5356,
      "call": 5357,
      "redzamas": 5358,
      "galvenes": 5359,
      "galvenais": 5360,
      "atļauto": 5361,
      "pieņemšanu": 5362,
      "pielāgoto": 5363,
      "recor": 5364,
      "security": 5365,
      "otnē": 5366,
      "Aprēķins": 5367,
      "privilēģ": 5368,
      "iemesli": 5369,
      "fiziski": 5370,
      "fiziska": 5371,
      "Katra": 5372,
      "Papildobjekta": 5373,
      "calculations": 5374,
      "shēmas": 5375,
      "Lietotāji": 5376,
      "atlikusī": 5377,
      "periodus": 5378,
      "Rindu": 5379,
      "site": 5380,
      "paskaidr": 5381,
      "divu": 5382,
      "bezsaistes": 5383,
      "Kāpēc": 5384,
      "izvadi": 5385,
      "kritēriji": 5386,
      "Konfigurējiet": 5387,
      "parakstu": 5388,
      "stāvoklis": 5389,
      "kandidātus": 5390,
      "Kanāla": 5391,
      "diapazona": 5392,
      "agreements": 5393,
      "bāzlīnijas": 5394,
      "board": 5395,
      "priekšlikums": 5396,
      "Tikai": 5397,
      "pirmajā": 5398,
      "režģa": 5399,
      "Sistēma": 5400,
      "ilgumu": 5401,
      "kavējumu": 5402,
      "Atbilstības": 5403,
      "Pašlaik": 5404,
      "Statistikas": 5405,
      "approve": 5406,
      "rīkst": 5407,
      "Faktiskās": 5408,
      "avotam": 5409,
      "juridiskām": 5410,
      "Mobilā": 5411,
      "Saņemšanas": 5412,
      "bloķēšanas": 5413,
      "pārdošanu": 5414,
      "nodaļas": 5415,
      "svītrkoda": 5416,
      "uzskaitītos": 5417,
      "atrast": 5418,
      "atrastu": 5419,
      "neatbilstību": 5420,
      "klasific": 5421,
      "bloku": 5422,
      "tree": 5423,
      "Daļēja": 5424,
      "Meklēt": 5425,
      "Saglabājiet": 5426,
      "relations": 5427,
      "augšupielād": 5428,
      "ieteicams": 5429,
      "Ienāko": 5430,
      "function": 5431,
      "activity": 5432,
      "activities": 5433,
      "vēstures": 5434,
      "positions": 5435,
      "Brīva": 5436,
      "Likmes": 5437,
      "Aktivitātes": 5438,
      "caur": 5439,
      "vadīklas": 5440,
      "Pārsūtīšanas": 5441,
      "nomenklatūra": 5442,
      "Integ": 5443,
      "pietiekam": 5444,
      "attribute": 5445,
      "izstrāde": 5446,
      "atlīdzību": 5447,
      "noformēšana": 5448,
      "ceturkš": 5449,
      "single": 5450,
      "Izsekošanas": 5451,
      "autoriz": 5452,
      "channel": 5453,
      "grāmatveža": 5454,
      "ceļveži": 5455,
      "Adreses": 5456,
      "notīriet": 5457,
      "DOM": 5458,
      "arhivē": 5459,
      "differ": 5460,
      "expense": 5461,
      "address": 5462,
      "carrier": 5463,
      "hardware": 5464,
      "izraisa": 5465,
      "environ": 5466,
      "replenish": 5467,
      "reconci": 5468,
      "apjomu": 5469,
      "38": 5470,
      "39": 5471,
      "43": 5472,
      "80": 5473,
      "Aktīv": 5474,
      "Brīd": 5475,
      "Grafi": 5476,
      "Ig": 5477,
      "Lauka": 5478,
      "Latv": 5479,
      "Mas": 5480,
      "Nau": 5481,
      "Rek": 5482,
      "Sh": 5483,
      "Sek": 5484,
      "Sav": 5485,
      "Speci": 5486,
      "Vir": 5487,
      "Vad": 5488,
      "cor": 5489,
      "cts": 5490,
      "eb": 5491,
      "edi": 5492,
      "even": 5493,
      "gn": 5494,
      "ite": 5495,
      "jē": 5496,
      "ki": 5497,
      "ktro": 5498,
      "kalendā": 5499,
      "lijas": 5500,
      "non": 5501,
      "nis": 5502,
      "oc": 5503,
      "peri": 5504,
      "plaš": 5505,
      "rīt": 5506,
      "slodzes": 5507,
      "vemb": 5508,
      "zinā": 5509,
      "īšanās": 5510,
      "ķē": 5511,
      "šie": 5512,
      "šais": 5513,
      "assets": 5514,
      "attī": 5515,
      "atjauno": 5516,
      "atgū": 5517,
      "intrastat": 5518,
      "indivi": 5519,
      "ste": 5520,
      "izslēgšanas": 5521,
      "izdrukā": 5522,
      "izgatav": 5523,
      "izlem": 5524,
      "izrais": 5525,
      "quality": 5526,
      "praks": 5527,
      "kāp": 5528,
      "nolikta": 5529,
      "novemb": 5530,
      "remove": 5531,
      "lifec": 5532,
      "dece": 5533,
      "ītā": 5534,
      "ītie": 5535,
      "users": 5536,
      "distri": 5537,
      "apm": 5538,
      "apply": 5539,
      "apjom": 5540,
      "dzēšana": 5541,
      "tādā": 5542,
      "tāda": 5543,
      "pārlū": 5544,
      "veidlapas": 5545,
      "veidlapu": 5546,
      "vaidz": 5547,
      "darbībai": 5548,
      "paras": 5549,
      "konven": 5550,
      "konteiner": 5551,
      "koncep": 5552,
      "station": 5553,
      "vienlaikus": 5554,
      "tors": 5555,
      "Izviet": 5556,
      "Izrakst": 5557,
      "look": 5558,
      "skatījums": 5559,
      "nedēļ": 5560,
      "savai": 5561,
      "pagai": 5562,
      "email": 5563,
      "veidotāja": 5564,
      "veidotāju": 5565,
      "sedz": 5566,
      "secības": 5567,
      "krājumos": 5568,
      "rodas": 5569,
      "grāmatā": 5570,
      "Iezīm": 5571,
      "lēp": 5572,
      "notas": 5573,
      "tēts": 5574,
      "opcijai": 5575,
      "norādot": 5576,
      "norādīšana": 5577,
      "viņu": 5578,
      "jaunot": 5579,
      "bilanc": 5580,
      "amata": 5581,
      "ktam": 5582,
      "noslē": 5583,
      "pirc": 5584,
      "cover": 5585,
      "aprēķinos": 5586,
      "testa": 5587,
      "tiešo": 5588,
      "Darbplūsmas": 5589,
      "mandā": 5590,
      "saistē": 5591,
      "saistītu": 5592,
      "apraksti": 5593,
      "aprakstītu": 5594,
      "Novirz": 5595,
      "atbildi": 5596,
      "atvērta": 5597,
      "kopai": 5598,
      "enerģ": 5599,
      "results": 5600,
      "beigt": 5601,
      "pārvaldniek": 5602,
      "piemērošanas": 5603,
      "piemērots": 5604,
      "grupēt": 5605,
      "Pirk": 5606,
      "statusi": 5607,
      "statusus": 5608,
      "iespējo": 5609,
      "uzskaitītas": 5610,
      "konfigurējam": 5611,
      "ievadīta": 5612,
      "pašas": 5613,
      "izvēlni": 5614,
      "minētie": 5615,
      "ģenerētas": 5616,
      "2012": 5617,
      "ietvert": 5618,
      "ietverto": 5619,
      "kārtulām": 5620,
      "atlaidēm": 5621,
      "mainīts": 5622,
      "esošā": 5623,
      "reģistrēti": 5624,
      "tabula": 5625,
      "sasniegt": 5626,
      "reizi": 5627,
      "prognoze": 5628,
      "papildnolietojuma": 5629,
      "iekļauj": 5630,
      "Jautā": 5631,
      "atzīmēt": 5632,
      "policies": 5633,
      "Vienumam": 5634,
      "nodoklis": 5635,
      "termiņa": 5636,
      "pārbaudi": 5637,
      "lielapjoma": 5638,
      "balstīta": 5639,
      "balstītas": 5640,
      "plānotos": 5641,
      "veikaliem": 5642,
      "workers": 5643,
      "punkti": 5644,
      "punktā": 5645,
      "sale": 5646,
      "piedāvājumi": 5647,
      "labo": 5648,
      "labot": 5649,
      "demand": 5650,
      "Paplaš": 5651,
      "cikls": 5652,
      "apstrādāts": 5653,
      "vidējās": 5654,
      "attēla": 5655,
      "scenāriju": 5656,
      "identify": 5657,
      "Pay": 5658,
      "atkarīga": 5659,
      "kolonn": 5660,
      "noteiktai": 5661,
      "customers": 5662,
      "cell": 5663,
      "ilkumu": 5664,
      "changes": 5665,
      "konsolidā": 5666,
      "Plāns": 5667,
      "mērķus": 5668,
      "Iekļaujam": 5669,
      "vārdu": 5670,
      "ieteikumus": 5671,
      "atskaiti": 5672,
      "direk": 5673,
      "direc": 5674,
      "lietojat": 5675,
      "Pieprasiet": 5676,
      "jautājumiem": 5677,
      "uzturiet": 5678,
      "ceļvedis": 5679,
      "drukāšana": 5680,
      "iesniegšana": 5681,
      "shēmu": 5682,
      "nodarbināta": 5683,
      "Jūsu": 5684,
      "periodiem": 5685,
      "ziņojumus": 5686,
      "kalendāra": 5687,
      "statistisk": 5688,
      "diviem": 5689,
      "sākotnējā": 5690,
      "kanālam": 5691,
      "principa": 5692,
      "izkārtojums": 5693,
      "atsauces": 5694,
      "atsauci": 5695,
      "šūnai": 5696,
      "biežums": 5697,
      "Plānots": 5698,
      "nolūkiem": 5699,
      "units": 5700,
      "bāzi": 5701,
      "receiv": 5702,
      "kādus": 5703,
      "partiju": 5704,
      "ysis": 5705,
      "Ārējā": 5706,
      "Daži": 5707,
      "brīdī": 5708,
      "brīdinājuma": 5709,
      "kontrolētu": 5710,
      "Anke": 5711,
      "subscri": 5712,
      "Tādējādi": 5713,
      "Tādēļ": 5714,
      "Automātiska": 5715,
      "stratēģijas": 5716,
      "iepakot": 5717,
      "iepakojuma": 5718,
      "Tiešsaistes": 5719,
      "trace": 5720,
      "kontaktpersonas": 5721,
      "nodrošinātāju": 5722,
      "unikālu": 5723,
      "validate": 5724,
      "pārvadātāja": 5725,
      "analysis": 5726,
      "anketu": 5727,
      "paziņojumus": 5728,
      "ession": 5729,
      "return": 5730,
      "augstas": 5731,
      "Periodiskie": 5732,
      "Atlikusī": 5733,
      "potenciālā": 5734,
      "atvasinātās": 5735,
      "Reģistrējiet": 5736,
      "patapinājuma": 5737,
      "Algas": 5738,
      "method": 5739,
      "Ganta": 5740,
      "atcelšana": 5741,
      "collections": 5742,
      "četras": 5743,
      "complete": 5744,
      "Vajadzības": 5745,
      "Atļauts": 5746,
      "optimiz": 5747,
      "visaptveroš": 5748,
      "mazāks": 5749,
      "header": 5750,
      "picking": 5751,
      "associate": 5752,
      "Korekcijas": 5753,
      "nostrādāto": 5754,
      "cenojuma": 5755,
      "norīkojuma": 5756,
      "registration": 5757,
      "Uzturēt": 5758,
      "mazumtirgot": 5759,
      "uzmanība": 5760,
      "ission": 5761,
      "Austrumeirop": 5762,
      "develop": 5763,
      "voucher": 5764,
      "replenishment": 5765,
      "Masveida": 5766,
      "Naudas": 5767,
      "jēdz": 5768,
      "ktroenerģ": 5769,
      "individu": 5770,
      "noliktavai": 5771,
      "lifecycle": 5772,
      "decemb": 5773,
      "distribu": 5774,
      "Iekļaujamie": 5775,
      "49": 5776,
      "Az": 5777,
      "Date": 5778,
      "Man": 5779,
      "Pras": 5780,
      "Ris": 5781,
      "Sā": 5782,
      "Sūt": 5783,
      "Tir": 5784,
      "Uni": 5785,
      "Vid": 5786,
      "Word": 5787,
      "cl": 5788,
      "cat": 5789,
      "cei": 5790,
      "card": 5791,
      "cross": 5792,
      "dai": 5793,
      "go": 5794,
      "has": 5795,
      "itions": 5796,
      "lp": 5797,
      "lan": 5798,
      "more": 5799,
      "memb": 5800,
      "nere": 5801,
      "o20022": 5802,
      "ptions": 5803,
      "serial": 5804,
      "sence": 5805,
      "tēmas": 5806,
      "ud": 5807,
      "vance": 5808,
      "zem": 5809,
      "āts": 5810,
      "ālu": 5811,
      "ātri": 5812,
      "ģinā": 5813,
      "iegrāmatot": 5814,
      "iegrāmatotas": 5815,
      "umtiesību": 5816,
      "otē": 5817,
      "otro": 5818,
      "into": 5819,
      "arri": 5820,
      "stor": 5821,
      "izslēgt": 5822,
      "novir": 5823,
      "noguld": 5824,
      "noveco": 5825,
      "tific": 5826,
      "eras": 5827,
      "ala": 5828,
      "advance": 5829,
      "uzkrājumu": 5830,
      "revalu": 5831,
      "deta": 5832,
      "degvielas": 5833,
      "ārpus": 5834,
      "ārējiem": 5835,
      "sken": 5836,
      "iekrau": 5837,
      "dialogu": 5838,
      "apmā": 5839,
      "lasīšanas": 5840,
      "jāat": 5841,
      "tādu": 5842,
      "tācijas": 5843,
      "pārne": 5844,
      "progr": 5845,
      "prognožu": 5846,
      "procure": 5847,
      "vais": 5848,
      "kokā": 5849,
      "darblapas": 5850,
      "dubult": 5851,
      "fiscal": 5852,
      "ināšanu": 5853,
      "inātos": 5854,
      "iso20022": 5855,
      "Izteiks": 5856,
      "skatījumu": 5857,
      "nepārtrauktības": 5858,
      "Atjaun": 5859,
      "Attiec": 5860,
      "Atkārtot": 5861,
      "iestatīti": 5862,
      "sep": 5863,
      "citi": 5864,
      "citus": 5865,
      "lietojot": 5866,
      "valod": 5867,
      "tētu": 5868,
      "pārskatīšanas": 5869,
      "amats": 5870,
      "izmantošanu": 5871,
      "bibli": 5872,
      "portā": 5873,
      "Pārvad": 5874,
      "build": 5875,
      "visā": 5876,
      "visās": 5877,
      "bāze": 5878,
      "strādes": 5879,
      "ļautu": 5880,
      "pakārtot": 5881,
      "Darbvietas": 5882,
      "Piegāde": 5883,
      "veidošanai": 5884,
      "elementam": 5885,
      "kārtas": 5886,
      "uzņēmumi": 5887,
      "lapām": 5888,
      "parādīšana": 5889,
      "koplietot": 5890,
      "koplieto": 5891,
      "dokumenti": 5892,
      "pieprasīt": 5893,
      "izpildīti": 5894,
      "versijā": 5895,
      "atbilstība": 5896,
      "abiem": 5897,
      "about": 5898,
      "absence": 5899,
      "nepieciešamos": 5900,
      "sadalījums": 5901,
      "Process": 5902,
      "pieejamās": 5903,
      "solis": 5904,
      "uzskaitīto": 5905,
      "konfigurēšanas": 5906,
      "izveidojis": 5907,
      "ierobežotu": 5908,
      "Apmaksā": 5909,
      "ziņot": 5910,
      "hierarhijai": 5911,
      "aizie": 5912,
      "atjauninātas": 5913,
      "Vispirms": 5914,
      "krei": 5915,
      "mērījumu": 5916,
      "daļai": 5917,
      "esošās": 5918,
      "esošajiem": 5919,
      "starpuzņēmuma": 5920,
      "ināties": 5921,
      "inātais": 5922,
      "segment": 5923,
      "pats": 5924,
      "kamēr": 5925,
      "definīcijai": 5926,
      "kompensā": 5927,
      "services": 5928,
      "procentiem": 5929,
      "Pamatojoties": 5930,
      "Finans": 5931,
      "pievienojot": 5932,
      "objekts": 5933,
      "Pēd": 5934,
      "cionālās": 5935,
      "kartējuma": 5936,
      "working": 5937,
      "vajadzībām": 5938,
      "atgriež": 5939,
      "paredzēto": 5940,
      "lable": 5941,
      "atbilstošo": 5942,
      "mēnes": 5943,
      "Rēķini": 5944,
      "Parādi": 5945,
      "saknes": 5946,
      "sakārtot": 5947,
      "saistītie": 5948,
      "detalizēti": 5949,
      "maršruts": 5950,
      "scenārija": 5951,
      "variants": 5952,
      "atsevišķā": 5953,
      "eksportēt": 5954,
      "limi": 5955,
      "Bank": 5956,
      "noņemšana": 5957,
      "Darbinieks": 5958,
      "vendors": 5959,
      "pielāgotu": 5960,
      "centru": 5961,
      "saturu": 5962,
      "ražoto": 5963,
      "atskaitē": 5964,
      "dern": 5965,
      "nosūtīta": 5966,
      "darījuma": 5967,
      "aktīvo": 5968,
      "šablonam": 5969,
      "vēlamo": 5970,
      "Konfigurāciju": 5971,
      "samazināt": 5972,
      "nodarbināto": 5973,
      "kalendārs": 5974,
      "statistisko": 5975,
      "kļūst": 5976,
      "divām": 5977,
      "izvietošana": 5978,
      "fiksētās": 5979,
      "faktiskās": 5980,
      "sākas": 5981,
      "noslodzi": 5982,
      "templates": 5983,
      "apkopot": 5984,
      "nedrīkst": 5985,
      "Aizvērt": 5986,
      "turpināt": 5987,
      "Numura": 5988,
      "Ierobežojuma": 5989,
      "Atribūtu": 5990,
      "Tiks": 5991,
      "Tips": 5992,
      "Dokumenta": 5993,
      "Filt": 5994,
      "pieteikumu": 5995,
      "atkarīgas": 5996,
      "00002": 5997,
      "discounts": 5998,
      "forecasting": 5999,
      "atribūti": 6000,
      "Lauku": 6001,
      "finansiāla": 6002,
      "tulk": 6003,
      "Kategoriju": 6004,
      "URL": 6005,
      "administratora": 6006,
      "logoti": 6007,
      "Pabeigts": 6008,
      "Atvieglojumi": 6009,
      "Iekasēšanas": 6010,
      "sinhronizēšanas": 6011,
      "koriģēšana": 6012,
      "Administr": 6013,
      "tauti": 6014,
      "tehn": 6015,
      "simbo": 6016,
      "izdošanai": 6017,
      "Informācijas": 6018,
      "Lapa": 6019,
      "categories": 6020,
      "analīzes": 6021,
      "lejupielādēto": 6022,
      "Nodarbinātā": 6023,
      "Programmā": 6024,
      "Funkcijas": 6025,
      "Funkcional": 6026,
      "fields": 6027,
      "returned": 6028,
      "Patēr": 6029,
      "janvāris": 6030,
      "Brīvā": 6031,
      "Melnrakst": 6032,
      "Nosūtīšanas": 6033,
      "zonu": 6034,
      "ikona": 6035,
      "Piekļuves": 6036,
      "atures": 6037,
      "sequence": 6038,
      "column": 6039,
      "hold": 6040,
      "Izlaistās": 6041,
      "pārliecinātos": 6042,
      "PowerApps": 6043,
      "akreditīva": 6044,
      "prombūt": 6045,
      "jūlijā": 6046,
      "questionnai": 6047,
      "momentuzņēm": 6048,
      "Bilance": 6049,
      "Faila": 6050,
      "close": 6051,
      "debit": 6052,
      "ekrāna": 6053,
      "situācijās": 6054,
      "Aktivizēt": 6055,
      "available": 6056,
      "primārā": 6057,
      "regulār": 6058,
      "celsme": 6059,
      "Nosacījuma": 6060,
      "piekļūtu": 6061,
      "Dānija": 6062,
      "Kārtu": 6063,
      "String": 6064,
      "indows": 6065,
      "priekšrocības": 6066,
      "kritēriju": 6067,
      "Drošības": 6068,
      "SLA": 6069,
      "during": 6070,
      "skaļru": 6071,
      "Procedūrā": 6072,
      "records": 6073,
      "environment": 6074,
      "kalendārā": 6075,
      "izgatavošanas": 6076,
      "pagaidu": 6077,
      "Azure": 6078,
      "arrival": 6079,
      "bibliotē": 6080,
      "42": 6081,
      "48": 6082,
      "52": 6083,
      "AX": 6084,
      "Avan": 6085,
      "Cit": 6086,
      "Eks": 6087,
      "FR": 6088,
      "HR": 6089,
      "Klikšķiniet": 6090,
      "Līguma": 6091,
      "MX": 6092,
      "Mē": 6093,
      "MPOS": 6094,
      "OP": 6095,
      "Otr": 6096,
      "P2": 6097,
      "Pri": 6098,
      "Puse": 6099,
      "Pub": 6100,
      "Piesaist": 6101,
      "Tī": 6102,
      "Vā": 6103,
      "Vācijas": 6104,
      "af": 6105,
      "bī": 6106,
      "bin": 6107,
      "bac": 6108,
      "cing": 6109,
      "cord": 6110,
      "dinam": 6111,
      "eļ": 6112,
      "emat": 6113,
      "fok": 6114,
      "fier": 6115,
      "guma": 6116,
      "globā": 6117,
      "hist": 6118,
      "iku": 6119,
      "jusi": 6120,
      "klikš": 6121,
      "lat": 6122,
      "lau": 6123,
      "mēm": 6124,
      "mit": 6125,
      "nī": 6126,
      "rit": 6127,
      "sp": 6128,
      "talent": 6129,
      "ul": 6130,
      "āto": 6131,
      "ņemat": 6132,
      "žņu": 6133,
      "aspē": 6134,
      "atta": 6135,
      "anket": 6136,
      "inciden": 6137,
      "stas": 6138,
      "stība": 6139,
      "stošo": 6140,
      "amās": 6141,
      "izd": 6142,
      "izņēmumu": 6143,
      "kām": 6144,
      "online": 6145,
      "nobī": 6146,
      "eign": 6147,
      "uzd": 6148,
      "uzz": 6149,
      "uzskat": 6150,
      "undār": 6151,
      "revers": 6152,
      "restri": 6153,
      "liation": 6154,
      "dest": 6155,
      "degresīv": 6156,
      "veikšanas": 6157,
      "skas": 6158,
      "skos": 6159,
      "last": 6160,
      "pārklā": 6161,
      "pierakst": 6162,
      "foreign": 6163,
      "koku": 6164,
      "koord": 6165,
      "parādi": 6166,
      "fiktīv": 6167,
      "varu": 6168,
      "rukas": 6169,
      "mation": 6170,
      "vienumi": 6171,
      "vienībā": 6172,
      "vienādi": 6173,
      "Izpil": 6174,
      "Izdot": 6175,
      "Izslēgšana": 6176,
      "net": 6177,
      "iespē": 6178,
      "ieslēgt": 6179,
      "maksām": 6180,
      "maksim": 6181,
      "savā": 6182,
      "saīs": 6183,
      "pagar": 6184,
      "Atskai": 6185,
      "finance": 6186,
      "lace": 6187,
      "lajam": 6188,
      "cipar": 6189,
      "prefer": 6190,
      "note": 6191,
      "notes": 6192,
      "tēšanu": 6193,
      "bills": 6194,
      "rēķinos": 6195,
      "izveidotās": 6196,
      "dimensijai": 6197,
      "Pārdot": 6198,
      "transport": 6199,
      "Atlasot": 6200,
      "zīmju": 6201,
      "āku": 6202,
      "uzņēmēja": 6203,
      "lapai": 6204,
      "atbildēm": 6205,
      "ājiem": 6206,
      "ējām": 6207,
      "pakalpojums": 6208,
      "Krājumi": 6209,
      "gui": 6210,
      "karo": 6211,
      "pārvaldīšana": 6212,
      "pārvaldnieks": 6213,
      "pieprasījumam": 6214,
      "izpildot": 6215,
      "piešķire": 6216,
      "Pirmā": 6217,
      "agrāk": 6218,
      "Kontu": 6219,
      "ievadāt": 6220,
      "izveidojot": 6221,
      "staciju": 6222,
      "Maksimālais": 6223,
      "saņemts": 6224,
      "pievienoto": 6225,
      "Apstrādāt": 6226,
      "Apvienotā": 6227,
      "Apstrādes": 6228,
      "sniegtu": 6229,
      "july": 6230,
      "mainītu": 6231,
      "sākum": 6232,
      "savstar": 6233,
      "failā": 6234,
      "esošas": 6235,
      "reģistrēta": 6236,
      "reģistrēšanās": 6237,
      "starpību": 6238,
      "papildmaksu": 6239,
      "papildināšana": 6240,
      "papildinājums": 6241,
      "Kods": 6242,
      "nosaukumiem": 6243,
      "atzīmētas": 6244,
      "server": 6245,
      "izrakstus": 6246,
      "Record": 6247,
      "pārbaudiet": 6248,
      "pabeigšanu": 6249,
      "objektam": 6250,
      "plānotu": 6251,
      "atsvaidz": 6252,
      "rezultāts": 6253,
      "salik": 6254,
      "atgriešana": 6255,
      "tiešsaistē": 6256,
      "augstā": 6257,
      "rūtiņ": 6258,
      "00011": 6259,
      "ciklā": 6260,
      "Parād": 6261,
      "vidējais": 6262,
      "Veikt": 6263,
      "Transac": 6264,
      "posmu": 6265,
      "varianta": 6266,
      "variantiem": 6267,
      "pārsūtītu": 6268,
      "without": 6269,
      "atsevišķas": 6270,
      "Norēķinu": 6271,
      "liminā": 6272,
      "noņemta": 6273,
      "novērtēšana": 6274,
      "ražo": 6275,
      "mērķiem": 6276,
      "saskaņot": 6277,
      "režīms": 6278,
      "tīnas": 6279,
      "intervālus": 6280,
      "konkrētas": 6281,
      "Katalog": 6282,
      "Papildus": 6283,
      "ceļveža": 6284,
      "atšķirības": 6285,
      "drukāt": 6286,
      "Detalizēti": 6287,
      "moduļiem": 6288,
      "scenārijiem": 6289,
      "scenārijos": 6290,
      "Pastāv": 6291,
      "samazina": 6292,
      "shar": 6293,
      "īpašniek": 6294,
      "atbalstītu": 6295,
      "aktivizēšana": 6296,
      "divus": 6297,
      "sākotnēji": 6298,
      "sūtījumiem": 6299,
      "kanāliem": 6300,
      "pārvietot": 6301,
      "boms": 6302,
      "trīsvirzienu": 6303,
      "attiecīgā": 6304,
      "atkārtota": 6305,
      "šūna": 6306,
      "ieņēmumus": 6307,
      "gaid": 6308,
      "Plānotie": 6309,
      "ignorēšana": 6310,
      "tenden": 6311,
      "galvenos": 6312,
      "pilnībā": 6313,
      "Aiztur": 6314,
      "receive": 6315,
      "pielikumus": 6316,
      "versions": 6317,
      "kredītkartes": 6318,
      "Import": 6319,
      "Importa": 6320,
      "perform": 6321,
      "Dokuments": 6322,
      "pēdējās": 6323,
      "pirmais": 6324,
      "struktūrvienību": 6325,
      "Tabulā": 6326,
      "ierīcei": 6327,
      "Dažād": 6328,
      "brīdinā": 6329,
      "pieteikuma": 6330,
      "pieteikšanās": 6331,
      "Pārvaldības": 6332,
      "atkarīgu": 6333,
      "izvēlieties": 6334,
      "pārvērtēšana": 6335,
      "vaicājuma": 6336,
      "koriģēt": 6337,
      "subcontrac": 6338,
      "prioritāte": 6339,
      "Automātisks": 6340,
      "stratēģiju": 6341,
      "Kredītvēstules": 6342,
      "Kategorija": 6343,
      "mārci": 6344,
      "layout": 6345,
      "atsauks": 6346,
      "raksturīgo": 6347,
      "ically": 6348,
      "vēsturi": 6349,
      "peļņa": 6350,
      "platformas": 6351,
      "nodrošinātāja": 6352,
      "pārdošanai": 6353,
      "required": 6354,
      "requirements": 6355,
      "dalībnieki": 6356,
      "overview": 6357,
      "svītrkodu": 6358,
      "aizstāšanas": 6359,
      "Aprēķinātais": 6360,
      "Katrs": 6361,
      "hip": 6362,
      "Pirmie": 6363,
      "Pirmdokuments": 6364,
      "iezīmēšanu": 6365,
      "deleģ": 6366,
      "problēmu": 6367,
      "paraugs": 6368,
      "materials": 6369,
      "automatically": 6370,
      "Veikala": 6371,
      "Nodarbinātības": 6372,
      "kvīts": 6373,
      "Atliku": 6374,
      "inventarizāciju": 6375,
      "identifikators": 6376,
      "sapludināt": 6377,
      "potenciālo": 6378,
      "noklikšķināt": 6379,
      "positive": 6380,
      "tulkojumus": 6381,
      "Meto": 6382,
      "salīdzināšanu": 6383,
      "deklarācijas": 6384,
      "Ražošana": 6385,
      "lielumu": 6386,
      "rādītāja": 6387,
      "nomenklatūru": 6388,
      "Atvaļ": 6389,
      "methods": 6390,
      "Svītrkodu": 6391,
      "sesijas": 6392,
      "sequences": 6393,
      "columns": 6394,
      "Maiņas": 6395,
      "Vecumstruktūras": 6396,
      "viņi": 6397,
      "pozitīvā": 6398,
      "Iepakojuma": 6399,
      "atvaļinājuma": 6400,
      "Atsauces": 6401,
      "indekss": 6402,
      "fonā": 6403,
      "abonement": 6404,
      "inicializ": 6405,
      "Punktu": 6406,
      "vakanc": 6407,
      "packing": 6408,
      "Saskaņot": 6409,
      "Francija": 6410,
      "weighted": 6411,
      "Nosegt": 6412,
      "Rezultā": 6413,
      "lielāku": 6414,
      "taustiņu": 6415,
      "Bez": 6416,
      "certific": 6417,
      "Vairāki": 6418,
      "Modific": 6419,
      "Gada": 6420,
      "rfq": 6421,
      "privilēģijas": 6422,
      "functionality": 6423,
      "ceturkšņa": 6424,
      "different": 6425,
      "Ignor": 6426,
      "perif": 6427,
      "nedēļas": 6428,
      "subscription": 6429,
      "members": 6430,
      "revaluation": 6431,
      "detaļ": 6432,
      "procurement": 6433,
      "Pārvadātāja": 6434,
      "prombūtnes": 6435,
      "questionnaire": 6436,
      "Avansa": 6437,
      "after": 6438,
      "back": 6439,
      "histor": 6440,
      "attach": 6441,
      "anketai": 6442,
      "07": 6443,
      "41": 6444,
      "56": 6445,
      "59": 6446,
      "AN": 6447,
      "Biež": 6448,
      "CC": 6449,
      "Dar": 6450,
      "Doties": 6451,
      "EN": 6452,
      "En": 6453,
      "Fails": 6454,
      "Gro": 6455,
      "Isl": 6456,
      "Lū": 6457,
      "LIFO": 6458,
      "MT": 6459,
      "Peļ": 6460,
      "Režģ": 6461,
      "SI": 6462,
      "Sai": 6463,
      "Salīdz": 6464,
      "Tie": 6465,
      "XT": 6466,
      "Zar": 6467,
      "avē": 6468,
      "avi": 6469,
      "blē": 6470,
      "cē": 6471,
      "cam": 6472,
      "ear": 6473,
      "eli": 6474,
      "evišķ": 6475,
      "gi": 6476,
      "gumu": 6477,
      "gšanai": 6478,
      "hand": 6479,
      "ima": 6480,
      "kap": 6481,
      "mer": 6482,
      "mus": 6483,
      "mīgi": 6484,
      "make": 6485,
      "ous": 6486,
      "rates": 6487,
      "tējiet": 6488,
      "way": 6489,
      "ātu": 6490,
      "ādz": 6491,
      "āmo": 6492,
      "šas": 6493,
      "ievietot": 6494,
      "atmiņ": 6495,
      "atslēg": 6496,
      "atjaunot": 6497,
      "anču": 6498,
      "otr": 6499,
      "ston": 6500,
      "stil": 6501,
      "ietilp": 6502,
      "amort": 6503,
      "ized": 6504,
      "izplat": 6505,
      "izņemot": 6506,
      "izklāst": 6507,
      "akts": 6508,
      "akredi": 6509,
      "pression": 6510,
      "kādi": 6511,
      "only": 6512,
      "noseg": 6513,
      "nolieto": 6514,
      "nozar": 6515,
      "rāda": 6516,
      "alp": 6517,
      "aler": 6518,
      "alist": 6519,
      "uzņem": 6520,
      "remain": 6521,
      "tab": 6522,
      "ārais": 6523,
      "usies": 6524,
      "vērsta": 6525,
      "tādas": 6526,
      "pārdošana": 6527,
      "pārkāp": 6528,
      "pieskait": 6529,
      "piediet": 6530,
      "pieskaitā": 6531,
      "izmēģ": 6532,
      "veidlapā": 6533,
      "fore": 6534,
      "forma": 6535,
      "paraugu": 6536,
      "fice": 6537,
      "ināšanai": 6538,
      "paslēp": 6539,
      "issu": 6540,
      "matri": 6541,
      "vienums": 6542,
      "Izcelsme": 6543,
      "skatu": 6544,
      "neviena": 6545,
      "saziņas": 6546,
      "Attē": 6547,
      "Atbalst": 6548,
      "Atcelt": 6549,
      "Atvasinā": 6550,
      "Noklus": 6551,
      "norēķin": 6552,
      "krātu": 6553,
      "them": 6554,
      "ierakstīt": 6555,
      "prepare": 6556,
      "grāmatojums": 6557,
      "Iegūt": 6558,
      "notu": 6559,
      "ples": 6560,
      "amati": 6561,
      "amatus": 6562,
      "bility": 6563,
      "iņā": 6564,
      "īgie": 6565,
      "īgos": 6566,
      "maskas": 6567,
      "Pārtrauk": 6568,
      "definēto": 6569,
      "jaunajam": 6570,
      "prast": 6571,
      "procesos": 6572,
      "modeļi": 6573,
      "Pieņem": 6574,
      "līdzeklī": 6575,
      "pamati": 6576,
      "pamatojuma": 6577,
      "terminā": 6578,
      "aprakstītajā": 6579,
      "transakcijās": 6580,
      "uzņēmumos": 6581,
      "atvērtās": 6582,
      "ups": 6583,
      "maijs": 6584,
      "nume": 6585,
      "kopuma": 6586,
      "personās": 6587,
      "ites": 6588,
      "gadījumi": 6589,
      "gadījumus": 6590,
      "žurnālos": 6591,
      "priekšnosacījumi": 6592,
      "priekšnoteikumi": 6593,
      "etes": 6594,
      "pakalpojumus": 6595,
      "dokumentam": 6596,
      "dokumentos": 6597,
      "karan": 6598,
      "Iestatot": 6599,
      "veikšanai": 6600,
      "piemēra": 6601,
      "isks": 6602,
      "iskajiem": 6603,
      "Pirkt": 6604,
      "noteikti": 6605,
      "noteiktus": 6606,
      "USP2": 6607,
      "apstiprināti": 6608,
      "apstiprinājuma": 6609,
      "pieejamības": 6610,
      "pieejamos": 6611,
      "uzskaitīta": 6612,
      "konfigurē": 6613,
      "navigācijas": 6614,
      "izveidošanu": 6615,
      "stacija": 6616,
      "exe": 6617,
      "exten": 6618,
      "expression": 6619,
      "saņems": 6620,
      "balances": 6621,
      "Apskatiet": 6622,
      "numuram": 6623,
      "sniegtas": 6624,
      "mērījumi": 6625,
      "sākat": 6626,
      "sākts": 6627,
      "sākums": 6628,
      "icing": 6629,
      "sava": 6630,
      "failiem": 6631,
      "rīks": 6632,
      "count": 6633,
      "ūtīšanai": 6634,
      "prognozēšana": 6635,
      "lietotājus": 6636,
      "papildinformācijas": 6637,
      "before": 6638,
      "filtri": 6639,
      "atzīmēšana": 6640,
      "materiāla": 6641,
      "ikdienas": 6642,
      "Pamata": 6643,
      "izrakstīt": 6644,
      "izrakstīšanai": 6645,
      "nodrošināšana": 6646,
      "nodokli": 6647,
      "pārbauda": 6648,
      "balstās": 6649,
      "pabeidz": 6650,
      "objektiem": 6651,
      "plānotās": 6652,
      "plānotajām": 6653,
      "mazāk": 6654,
      "kartējums": 6655,
      "arePo": 6656,
      "tiešajiem": 6657,
      "labor": 6658,
      "labošana": 6659,
      "mēģ": 6660,
      "juridisku": 6661,
      "juridiskajās": 6662,
      "rūtiņa": 6663,
      "00015": 6664,
      "tēmās": 6665,
      "configuring": 6666,
      "Veidošanas": 6667,
      "Pozī": 6668,
      "Grāmatošana": 6669,
      "komis": 6670,
      "detalizēto": 6671,
      "Diapazon": 6672,
      "Kopējā": 6673,
      "saiti": 6674,
      "saite": 6675,
      "Elementa": 6676,
      "Elektr": 6677,
      "salīdzināt": 6678,
      "kolonnā": 6679,
      "piekrīt": 6680,
      "filtrs": 6681,
      "filtrēšanai": 6682,
      "pašreizējais": 6683,
      "Modern": 6684,
      "palīdzības": 6685,
      "patērēto": 6686,
      "centriem": 6687,
      "valūtās": 6688,
      "procentuālais": 6689,
      "novērtējumu": 6690,
      "ražošanu": 6691,
      "feature": 6692,
      "apakšuzņēmēja": 6693,
      "tiesības": 6694,
      "Pieprasījumi": 6695,
      "generating": 6696,
      "konkrēt": 6697,
      "aktīva": 6698,
      "aktīvas": 6699,
      "Papildinformāciju": 6700,
      "Papildmaksas": 6701,
      "šablons": 6702,
      "locations": 6703,
      "īpašnieks": 6704,
      "īpašumtiesību": 6705,
      "stādīšanas": 6706,
      "atlikumu": 6707,
      "periodos": 6708,
      "risinājumu": 6709,
      "atrašana": 6710,
      "atbalstam": 6711,
      "notikums": 6712,
      "ietekm": 6713,
      "pārtraukumi": 6714,
      "kopējā": 6715,
      "Statuss": 6716,
      "kļūdu": 6717,
      "divos": 6718,
      "Elektroniskie": 6719,
      "Numurs": 6720,
      "pārvietošanai": 6721,
      "fiksēta": 6722,
      "atgriezen": 6723,
      "Centr": 6724,
      "izvadē": 6725,
      "lādēt": 6726,
      "coming": 6727,
      "apkopotā": 6728,
      "Karalist": 6729,
      "paraksts": 6730,
      "virsrakstu": 6731,
      "sagatavošana": 6732,
      "Termiņa": 6733,
      "Palai": 6734,
      "aizpildīta": 6735,
      "kredītā": 6736,
      "kredītkaršu": 6737,
      "performance": 6738,
      "reģionam": 6739,
      "nākotnes": 6740,
      "Ārvalstu": 6741,
      "struktūrvienība": 6742,
      "kopējot": 6743,
      "activate": 6744,
      "Atlasītās": 6745,
      "Statistiskās": 6746,
      "Mērvienība": 6747,
      "Mērķis": 6748,
      "cilnēs": 6749,
      "grupēšana": 6750,
      "Faktiskā": 6751,
      "Tādā": 6752,
      "avotus": 6753,
      "nomencl": 6754,
      "pavadzīmju": 6755,
      "Atsevišķ": 6756,
      "uzskaitē": 6757,
      "Resursi": 6758,
      "Saņemt": 6759,
      "vienāda": 6760,
      "Vērtību": 6761,
      "Vērtības": 6762,
      "Juridiska": 6763,
      "Operācijas": 6764,
      "vienkārši": 6765,
      "uzskaitītie": 6766,
      "aizstāts": 6767,
      "Fiksētās": 6768,
      "rediģēšana": 6769,
      "rediģētu": 6770,
      "iestāde": 6771,
      "stadiju": 6772,
      "efektīv": 6773,
      "analy": 6774,
      "stājas": 6775,
      "chart": 6776,
      "elektroniskos": 6777,
      "analīzi": 6778,
      "turpmāk": 6779,
      "Meklēšanas": 6780,
      "Programmas": 6781,
      "novietojumā": 6782,
      "līmeņos": 6783,
      "related": 6784,
      "source": 6785,
      "Ienākumu": 6786,
      "priekšmetu": 6787,
      "inventarizācija": 6788,
      "komplektā": 6789,
      "Cilnē": 6790,
      "Kandidātu": 6791,
      "lēmumu": 6792,
      "primāro": 6793,
      "down": 6794,
      "amounts": 6795,
      "Novērtēt": 6796,
      "Turpmā": 6797,
      "Piekļuve": 6798,
      "realized": 6799,
      "kataloga": 6800,
      "augšpusē": 6801,
      "Identificēt": 6802,
      "sasaiste": 6803,
      "tehnoloģiju": 6804,
      "virkni": 6805,
      "novērtējumi": 6806,
      "faktor": 6807,
      "Uzdevumu": 6808,
      "lielāka": 6809,
      "simulā": 6810,
      "benefits": 6811,
      "capaci": 6812,
      "descriptions": 6813,
      "analizēt": 6814,
      "Izejmateriālu": 6815,
      "manually": 6816,
      "nulle": 6817,
      "Vairāku": 6818,
      "risinājumā": 6819,
      "rezervācijas": 6820,
      "constraints": 6821,
      "iegult": 6822,
      "depozīta": 6823,
      "tīkla": 6824,
      "reconciliation": 6825,
      "SharePo": 6826,
      "edit": 6827,
      "apmier": 6828,
      "apjoms": 6829,
      "pārvaldniekam": 6830,
      "kolonnās": 6831,
      "jēdzien": 6832,
      "ktroenerģijas": 6833,
      "Unikā": 6834,
      "noviržu": 6835,
      "dubultklikš": 6836,
      "Izteiksmes": 6837,
      "septi": 6838,
      "building": 6839,
      "kompensācijas": 6840,
      "Melnraksts": 6841,
      "aspēka": 6842,
      "koordin": 6843,
      "Atskaišu": 6844,
      "guides": 6845,
      "savstarpēj": 6846,
      "MT940": 6847,
      "Peļņas": 6848,
      "Zara": 6849,
      "ādzī": 6850,
      "remaining": 6851,
      "Karaliste": 6852,
      "nomenclature": 6853,
      "SharePoint": 6854,
      "dubultklikšķi": 6855,
      "51": 6856,
      "53": 6857,
      "54": 6858,
      "57": 6859,
      "64": 6860,
      "Altern": 6861,
      "Bā": 6862,
      "CT": 6863,
      "FIFO": 6864,
      "IFT": 6865,
      "JA": 6866,
      "Jauk": 6867,
      "Kavē": 6868,
      "Mal": 6869,
      "Na": 6870,
      "Qu": 6871,
      "SW": 6872,
      "Sample": 6873,
      "Tra": 6874,
      "UN": 6875,
      "Vecas": 6876,
      "Windows": 6877,
      "bre": 6878,
      "cance": 6879,
      "calen": 6880,
      "eas": 6881,
      "elast": 6882,
      "flik": 6883,
      "faci": 6884,
      "fabri": 6885,
      "gg": 6886,
      "hum": 6887,
      "jauk": 6888,
      "lajā": 6889,
      "ner": 6890,
      "nch": 6891,
      "ojumiem": 6892,
      "pi": 6893,
      "ss": 6894,
      "sli": 6895,
      "spēj": 6896,
      "show": 6897,
      "tt": 6898,
      "taks": 6899,
      "we": 6900,
      "wo": 6901,
      "who": 6902,
      "zitīv": 6903,
      "ārā": 6904,
      "Ček": 6905,
      "Ļau": 6906,
      "ūtā": 6907,
      "iegrāmatošanas": 6908,
      "assig": 6909,
      "atai": 6910,
      "atvieg": 6911,
      "ande": 6912,
      "otais": 6913,
      "aic": 6914,
      "inform": 6915,
      "izņēm": 6916,
      "izslēgšana": 6917,
      "izsauk": 6918,
      "akus": 6919,
      "aur": 6920,
      "esen": 6921,
      "prot": 6922,
      "nokavē": 6923,
      "ents": 6924,
      "enroll": 6925,
      "tivitā": 6926,
      "alf": 6927,
      "uzglabā": 6928,
      "lisk": 6929,
      "ērijas": 6930,
      "table": 6931,
      "uses": 6932,
      "apdroš": 6933,
      "apzīmē": 6934,
      "tob": 6935,
      "toso": 6936,
      "tovadītāja": 6937,
      "dzi": 6938,
      "jāiz": 6939,
      "jānosaka": 6940,
      "jāiekļauj": 6941,
      "tāds": 6942,
      "pārtr": 6943,
      "pārsniegts": 6944,
      "pārkraušanas": 6945,
      "pārsūtījumiem": 6946,
      "piesaistes": 6947,
      "ekon": 6948,
      "ekvi": 6949,
      "lāde": 6950,
      "paro": 6951,
      "party": 6952,
      "konflik": 6953,
      "varēs": 6954,
      "ināti": 6955,
      "iera": 6956,
      "Izmēr": 6957,
      "skats": 6958,
      "netika": 6959,
      "nebūs": 6960,
      "neapmaksā": 6961,
      "nepareiz": 6962,
      "neatkarīgi": 6963,
      "nepietiekam": 6964,
      "poga": 6965,
      "pages": 6966,
      "paziņojuma": 6967,
      "Atjau": 6968,
      "Atlaižu": 6969,
      "vēku": 6970,
      "ēmai": 6971,
      "formātam": 6972,
      "noris": 6973,
      "krāsas": 6974,
      "krājumā": 6975,
      "this": 6976,
      "throu": 6977,
      "roles": 6978,
      "citās": 6979,
      "preview": 6980,
      "grāmatojiet": 6981,
      "izmantoto": 6982,
      "Iestād": 6983,
      "Ielādēt": 6984,
      "opcijām": 6985,
      "via": 6986,
      "vide": 6987,
      "līdzi": 6988,
      "līdzprodu": 6989,
      "plū": 6990,
      "plans": 6991,
      "medi": 6992,
      "vietojiet": 6993,
      "amatiem": 6994,
      "jamu": 6995,
      "jamās": 6996,
      "mašī": 6997,
      "izveidotā": 6998,
      "bankā": 6999,
      "definēšanas": 7000,
      "maksājumam": 7001,
      "plānos": 7002,
      "summē": 7003,
      "prasmes": 7004,
      "team": 7005,
      "tern": 7006,
      "saista": 7007,
      "saistībām": 7008,
      "iekšņa": 7009,
      "iekšējās": 7010,
      "iekšējām": 7011,
      "īvs": 7012,
      "katalogu": 7013,
      "conformance": 7014,
      "kopumu": 7015,
      "gadam": 7016,
      "uzdevumam": 7017,
      "pakalpojumi": 7018,
      "pakalpojumā": 7019,
      "kartēt": 7020,
      "norādītais": 7021,
      "action": 7022,
      "across": 7023,
      "sniegšana": 7024,
      "izpildīts": 7025,
      "izpildīšanai": 7026,
      "aprēķinātā": 7027,
      "piemērota": 7028,
      "piešķiri": 7029,
      "sadalīšana": 7030,
      "noteikumu": 7031,
      "apstiprinātu": 7032,
      "struktūrai": 7033,
      "pieejamo": 7034,
      "pieejamā": 7035,
      "edded": 7036,
      "ievadīšana": 7037,
      "pašam": 7038,
      "pašlaik": 7039,
      "minēto": 7040,
      "minimālais": 7041,
      "kategorijā": 7042,
      "kategorijās": 7043,
      "dienām": 7044,
      "Apgrozījuma": 7045,
      "redak": 7046,
      "dzniecības": 7047,
      "aizvēr": 7048,
      "aizveriet": 7049,
      "atjauninājumus": 7050,
      "sāktu": 7051,
      "sākšana": 7052,
      "saviem": 7053,
      "daļēja": 7054,
      "daļēju": 7055,
      "reģistrē": 7056,
      "formatēšana": 7057,
      "150": 7058,
      "kurās": 7059,
      "sekundār": 7060,
      "pamatlīdzekļi": 7061,
      "Jaunā": 7062,
      "Jauni": 7063,
      "materiālus": 7064,
      "materiāliem": 7065,
      "politikai": 7066,
      "šādām": 7067,
      "dažādie": 7068,
      "izrakstiem": 7069,
      "jects": 7070,
      "manuāla": 7071,
      "resurss": 7072,
      "nodoklim": 7073,
      "Reiz": 7074,
      "termiņu": 7075,
      "pievienojum": 7076,
      "balstīti": 7077,
      "importēti": 7078,
      "atspēj": 7079,
      "rezultātiem": 7080,
      "kartēti": 7081,
      "kartējumus": 7082,
      "kartējumam": 7083,
      "veikalos": 7084,
      "rādītu": 7085,
      "paredzētas": 7086,
      "pilna": 7087,
      "labošanas": 7088,
      "atbilstošās": 7089,
      "āties": 7090,
      "saistītam": 7091,
      "īsies": 7092,
      "Pozitīv": 7093,
      "Grāmatas": 7094,
      "Grāmatojiet": 7095,
      "kredītu": 7096,
      "Autovadītāja": 7097,
      "detalizētā": 7098,
      "identifier": 7099,
      "Div": 7100,
      "pabeigto": 7101,
      "naudu": 7102,
      "pārsūtīt": 7103,
      "atļauju": 7104,
      "atļautais": 7105,
      "atļaujas": 7106,
      "whi": 7107,
      "sniedzot": 7108,
      "parametriem": 7109,
      "parametros": 7110,
      "anulēt": 7111,
      "klients": 7112,
      "novērtējums": 7113,
      "prices": 7114,
      "klaster": 7115,
      "ieteikumi": 7116,
      "režīmu": 7117,
      "features": 7118,
      "apakšlīgumu": 7119,
      "apakšgrāmatas": 7120,
      "apakšlīgumā": 7121,
      "tīr": 7122,
      "tīvi": 7123,
      "adding": 7124,
      "nosūtītas": 7125,
      "Pieprasītais": 7126,
      "izsekotu": 7127,
      "organizāciju": 7128,
      "organizācijām": 7129,
      "fiziskā": 7130,
      "jautājuma": 7131,
      "aktīvs": 7132,
      "aktīvā": 7133,
      "virsrakstā": 7134,
      "Papildināšana": 7135,
      "uzturēt": 7136,
      "uzturēšanas": 7137,
      "uzturēšanu": 7138,
      "atšķirties": 7139,
      "vispārīga": 7140,
      "Detalizētās": 7141,
      "samazināta": 7142,
      "iesniegts": 7143,
      "request": 7144,
      "nodarbinātais": 7145,
      "Lietotājs": 7146,
      "aktivizē": 7147,
      "čeki": 7148,
      "kopēta": 7149,
      "names": 7150,
      "bruto": 7151,
      "sākšanas": 7152,
      "sintaks": 7153,
      "Periods": 7154,
      "biežāk": 7155,
      "Plānotā": 7156,
      "output": 7157,
      "apmaksāt": 7158,
      "Notīr": 7159,
      "collabor": 7160,
      "Paliel": 7161,
      "Formātu": 7162,
      "iestādei": 7163,
      "Ierobežot": 7164,
      "iegūst": 7165,
      "nākotnē": 7166,
      "Veidne": 7167,
      "virsgrāmata": 7168,
      "režģis": 7169,
      "režģim": 7170,
      "kopējais": 7171,
      "Dažas": 7172,
      "Sadalīt": 7173,
      "uzkrāšanas": 7174,
      "00004": 7175,
      "sastāvdaļai": 7176,
      "Mērķa": 7177,
      "ght": 7178,
      "līniju": 7179,
      "prioritāti": 7180,
      "iegrāmatotu": 7181,
      "Kredītkaršu": 7182,
      "diagramma": 7183,
      "atsaukt": 7184,
      "Secības": 7185,
      "ienākošo": 7186,
      "operation": 7187,
      "controll": 7188,
      "Formula": 7189,
      "Ziņojums": 7190,
      "atbildīgais": 7191,
      "current": 7192,
      "rekvizīt": 7193,
      "Priekšapmaksas": 7194,
      "Juridiskās": 7195,
      "skaņ": 7196,
      "supported": 7197,
      "stadijas": 7198,
      "stadijā": 7199,
      "delete": 7200,
      "alternat": 7201,
      "analīti": 7202,
      "charge": 7203,
      "charges": 7204,
      "atjauniniet": 7205,
      "powerapp": 7206,
      "līmeņi": 7207,
      "testēšanas": 7208,
      "hierarchies": 7209,
      "pilnvaro": 7210,
      "pilnvarojuma": 7211,
      "Manuāla": 7212,
      "Patap": 7213,
      "rada": 7214,
      "pienākumi": 7215,
      "priekšmetus": 7216,
      "janvārī": 7217,
      "Kādas": 7218,
      "Iepriekšējā": 7219,
      "mezglu": 7220,
      "recording": 7221,
      "tulkojumu": 7222,
      "piemērojamības": 7223,
      "Saistītā": 7224,
      "lieluma": 7225,
      "Amata": 7226,
      "izsniegšanas": 7227,
      "Turpiniet": 7228,
      "vekseļu": 7229,
      "attributes": 7230,
      "repozitoriju": 7231,
      "repozitorija": 7232,
      "commun": 7233,
      "commission": 7234,
      "Meksi": 7235,
      "Meksika": 7236,
      "vadītājiem": 7237,
      "kurss": 7238,
      "Pielāgoto": 7239,
      "Kontaktinformācija": 7240,
      "Kontaktpersonas": 7241,
      "Līdzekļu": 7242,
      "abonēšanas": 7243,
      "galamērķ": 7244,
      "Vēl": 7245,
      "blocking": 7246,
      "confirm": 7247,
      "confirmation": 7248,
      "piemērotības": 7249,
      "specifisku": 7250,
      "pārvadātāju": 7251,
      "Abonementu": 7252,
      "Intervā": 7253,
      "Virsraksts": 7254,
      "veidnēm": 7255,
      "Konsolidēt": 7256,
      "saražot": 7257,
      "izstrādātāja": 7258,
      "deklarāciju": 7259,
      "Labot": 7260,
      "Vekseļu": 7261,
      "atstājiet": 7262,
      "replace": 7263,
      "debetiem": 7264,
      "pārstāvi": 7265,
      "Piedāvājuma": 7266,
      "Ienākošā": 7267,
      "Integrācijas": 7268,
      "Grafika": 7269,
      "Latvijai": 7270,
      "Speciālā": 7271,
      "ķēdes": 7272,
      "step": 7273,
      "konvencijas": 7274,
      "koncepcijas": 7275,
      "Iezīmējiet": 7276,
      "coverage": 7277,
      "Payment": 7278,
      "Austrumeiropai": 7279,
      "Tirdzniecības": 7280,
      "catalog": 7281,
      "noguldījuma": 7282,
      "novecoju": 7283,
      "Atjauniniet": 7284,
      "Atkārtoti": 7285,
      "Finansi": 7286,
      "Filtr": 7287,
      "Patēriņa": 7288,
      "laukos": 7289,
      "nobīde": 7290,
      "destin": 7291,
      "fiktīvs": 7292,
      "Izpilde": 7293,
      "iespējām": 7294,
      "sākumlapa": 7295,
      "liminācijas": 7296,
      "ražošanā": 7297,
      "Metode": 7298,
      "certificate": 7299,
      "Modificējiet": 7300,
      "Ignorēt": 7301,
      "detaļas": 7302,
      "history": 7303,
      "Darījuma": 7304,
      "Islande": 7305,
      "execu": 7306,
      "komisiju": 7307,
      "Diapazons": 7308,
      "Centraliz": 7309,
      "Palaidiet": 7310,
      "capacity": 7311,
      "koordinators": 7312,
      "Malaiz": 7313,
      "Query": 7314,
      "SWIFT": 7315,
      "calendar": 7316,
      "human": 7317,
      "atviegl": 7318,
      "ekvival": 7319,
      "Atjaunota": 7320,
      "through": 7321,
      "Iestādes": 7322,
      "summēšanu": 7323,
      "..": 7324,
      "2000": 7325,
      "46": 7326,
      "63": 7327,
      "65": 7328,
      "Ac": 7329,
      "Apak": 7330,
      "Bru": 7331,
      "CE": 7332,
      "Con": 7333,
      "Draudz": 7334,
      "ED": 7335,
      "Ekrā": 7336,
      "Fabri": 7337,
      "GB": 7338,
      "Gar": 7339,
      "IT": 7340,
      "Ini": 7341,
      "Kv": 7342,
      "Kam": 7343,
      "Kļū": 7344,
      "Lie": 7345,
      "Mēs": 7346,
      "Of": 7347,
      "Ori": 7348,
      "Parakst": 7349,
      "Palīdz": 7350,
      "RF": 7351,
      "Sp": 7352,
      "Sar": 7353,
      "Sam": 7354,
      "Slē": 7355,
      "Satur": 7356,
      "Tre": 7357,
      "TXT": 7358,
      "Viz": 7359,
      "abu": 7360,
      "cēm": 7361,
      "crit": 7362,
      "ešu": 7363,
      "esti": 7364,
      "fr": 7365,
      "ft": 7366,
      "jeras": 7367,
      "kne": 7368,
      "lar": 7369,
      "lok": 7370,
      "lrun": 7371,
      "mos": 7372,
      "microsoft": 7373,
      "nt": 7374,
      "nei": 7375,
      "nijs": 7376,
      "ow": 7377,
      "ošanās": 7378,
      "oga": 7379,
      "pēr": 7380,
      "pek": 7381,
      "ping": 7382,
      "pieteic": 7383,
      "ror": 7384,
      "sies": 7385,
      "sla": 7386,
      "seri": 7387,
      "spe": 7388,
      "vs": 7389,
      "ving": 7390,
      "word": 7391,
      "īšu": 7392,
      "īsiet": 7393,
      "ļņu": 7394,
      "šin": 7395,
      "šies": 7396,
      "ūlīt": 7397,
      "ied": 7398,
      "iegādi": 7399,
      "ieguld": 7400,
      "asto": 7401,
      "atmaksas": 7402,
      "atris": 7403,
      "atskaņ": 7404,
      "umas": 7405,
      "iness": 7406,
      "stam": 7407,
      "stec": 7408,
      "stCen": 7409,
      "stoc": 7410,
      "izēt": 7411,
      "ization": 7412,
      "izsniedz": 7413,
      "izteik": 7414,
      "izpēt": 7415,
      "akām": 7416,
      "auc": 7417,
      "automāti": 7418,
      "quis": 7419,
      "kāpēc": 7420,
      "nolas": 7421,
      "eng": 7422,
      "til": 7423,
      "times": 7424,
      "error": 7425,
      "ture": 7426,
      "uzraudz": 7427,
      "under": 7428,
      "rect": 7429,
      "reklā": 7430,
      "remon": 7431,
      "taču": 7432,
      "deploy": 7433,
      "veiks": 7434,
      "laidiena": 7435,
      "usiness": 7436,
      "apl": 7437,
      "jāmaksā": 7438,
      "jāatjaunina": 7439,
      "jāiespējo": 7440,
      "pārsk": 7441,
      "pārveidošanas": 7442,
      "piee": 7443,
      "pieļau": 7444,
      "propor": 7445,
      "provizor": 7446,
      "likt": 7447,
      "parādzī": 7448,
      "due": 7449,
      "koncentr": 7450,
      "datēti": 7451,
      "pasāk": 7452,
      "ieris": 7453,
      "ējies": 7454,
      "vienumiem": 7455,
      "līring": 7456,
      "Izsniegt": 7457,
      "loud": 7458,
      "skata": 7459,
      "nedē": 7460,
      "nepabeigt": 7461,
      "nepārtrauk": 7462,
      "maksimālā": 7463,
      "saz": 7464,
      "sajā": 7465,
      "save": 7466,
      "pag": 7467,
      "Atlīdz": 7468,
      "Atbalsta": 7469,
      "eme": 7470,
      "role": 7471,
      "citos": 7472,
      "raw": 7473,
      "centri": 7474,
      "Ieņēm": 7475,
      "Ietei": 7476,
      "Ieturētā": 7477,
      "Ievades": 7478,
      "norādījumi": 7479,
      "vietrā": 7480,
      "dāmās": 7481,
      "izmantos": 7482,
      "šupielād": 7483,
      "jamā": 7484,
      "eria": 7485,
      "elektr": 7486,
      "grī": 7487,
      "definējat": 7488,
      "bufer": 7489,
      "viss": 7490,
      "vislabāk": 7491,
      "maksāt": 7492,
      "pirmās": 7493,
      "ņemts": 7494,
      "jaunās": 7495,
      "jaunais": 7496,
      "sadaļa": 7497,
      "days": 7498,
      "dabas": 7499,
      "pakļau": 7500,
      "modeļiem": 7501,
      "modeļus": 7502,
      "nesen": 7503,
      "testu": 7504,
      "rakstīšana": 7505,
      "saistība": 7506,
      "kreditori": 7507,
      "aprakstītajām": 7508,
      "Nodaļa": 7509,
      "Noform": 7510,
      "veno": 7511,
      "daudzumi": 7512,
      "chive": 7513,
      "ājus": 7514,
      "conversion": 7515,
      "contain": 7516,
      "izācijai": 7517,
      "kopētas": 7518,
      "koplietotas": 7519,
      "gadi": 7520,
      "gadījumu": 7521,
      "gadījumiem": 7522,
      "eten": 7523,
      "kait": 7524,
      "resol": 7525,
      "ursu": 7526,
      "guaran": 7527,
      "pārvaldībā": 7528,
      "izpildlaikā": 7529,
      "reģistrā": 7530,
      "versijās": 7531,
      "atbilstu": 7532,
      "piemērotas": 7533,
      "piešķiršanas": 7534,
      "abas": 7535,
      "iskos": 7536,
      "alizējiet": 7537,
      "produktam": 7538,
      "mpos": 7539,
      "Debe": 7540,
      "attiecībām": 7541,
      "Kontro": 7542,
      "noteikšanu": 7543,
      "noteikšanai": 7544,
      "noteiktām": 7545,
      "statuses": 7546,
      "Profil": 7547,
      "Izveidots": 7548,
      "apstiprinātājs": 7549,
      "pieejamu": 7550,
      "Tāpat": 7551,
      "konfigurēts": 7552,
      "izveidošanai": 7553,
      "Maksu": 7554,
      "Maksas": 7555,
      "peles": 7556,
      "expe": 7557,
      "saņemto": 7558,
      "saņemtas": 7559,
      "ierobežot": 7560,
      "ģenerējot": 7561,
      "atlasītas": 7562,
      "cilne": 7563,
      "Apstrādā": 7564,
      "ziņots": 7565,
      "sniegtajos": 7566,
      "mērvienību": 7567,
      "mēroga": 7568,
      "mainās": 7569,
      "sākta": 7570,
      "rīz": 7571,
      "reģistram": 7572,
      "reģistrēšanas": 7573,
      "formatēšanas": 7574,
      "dod": 7575,
      "pamatlīdzeklis": 7576,
      "papildus": 7577,
      "beh": 7578,
      "Komentār": 7579,
      "korespondējošais": 7580,
      "materiāls": 7581,
      "sistēmai": 7582,
      "iestatītā": 7583,
      "šāds": 7584,
      "funkcion": 7585,
      "interes": 7586,
      "izrakstīšana": 7587,
      "veicināšanas": 7588,
      "Vienā": 7589,
      "Vienmēr": 7590,
      "būvē": 7591,
      "payable": 7592,
      "payroll": 7593,
      "plānotais": 7594,
      "rezultātā": 7595,
      "kartēšanu": 7596,
      "kartēšanai": 7597,
      "rādīšanas": 7598,
      "rādītāju": 7599,
      "tionsGro": 7600,
      "piedāvājums": 7601,
      "vēsture": 7602,
      "paredzēti": 7603,
      "paredzamo": 7604,
      "pilnas": 7605,
      "messag": 7606,
      "00012": 7607,
      "Part": 7608,
      "Paralē": 7609,
      "tekstā": 7610,
      "saistītos": 7611,
      "viewing": 7612,
      "apstrādātas": 7613,
      "attēlus": 7614,
      "īsim": 7615,
      "Automat": 7616,
      "ierobežojumiem": 7617,
      "maršrutā": 7618,
      "pose": 7619,
      "posmā": 7620,
      "šajās": 7621,
      "tabulās": 7622,
      "izveidē": 7623,
      "novietojumi": 7624,
      "Pavad": 7625,
      "Paņemta": 7626,
      "piemaks": 7627,
      "kārtošanas": 7628,
      "Kopuma": 7629,
      "vieglāk": 7630,
      "salīdzinājums": 7631,
      "atsevišķus": 7632,
      "atsevišķiem": 7633,
      "speciālā": 7634,
      "atļauta": 7635,
      "atļautas": 7636,
      "kolonna": 7637,
      "Atzīmēt": 7638,
      "filtrēšanas": 7639,
      "pašreizējam": 7640,
      "jebkurai": 7641,
      "jebkādus": 7642,
      "Darbiniekam": 7643,
      "stundā": 7644,
      "pieņemt": 7645,
      "Ieraksts": 7646,
      "centrs": 7647,
      "virziens": 7648,
      "Nākamajos": 7649,
      "pusei": 7650,
      "poste": 7651,
      "posted": 7652,
      "saturam": 7653,
      "ražot": 7654,
      "ražotnes": 7655,
      "outs": 7656,
      "klase": 7657,
      "Daudzkārt": 7658,
      "derīga": 7659,
      "grafiki": 7660,
      "iemesls": 7661,
      "intervālā": 7662,
      "josla": 7663,
      "joslu": 7664,
      "Pieprasījums": 7665,
      "dara": 7666,
      "darījumi": 7667,
      "konkrētā": 7668,
      "konkrētiem": 7669,
      "šabloni": 7670,
      "Galveno": 7671,
      "ējamās": 7672,
      "saglabāti": 7673,
      "saglabāts": 7674,
      "Archive": 7675,
      "Pasūt": 7676,
      "programmām": 7677,
      "iesniegšanas": 7678,
      "shēma": 7679,
      "short": 7680,
      "grāmatojat": 7681,
      "norādītajam": 7682,
      "ziņojumi": 7683,
      "piegādāt": 7684,
      "risinājuma": 7685,
      "risinājums": 7686,
      "Pārbaud": 7687,
      "aktivizētu": 7688,
      "aktivizēts": 7689,
      "kalendārus": 7690,
      "kopētu": 7691,
      "Apstiprināšanas": 7692,
      "sākotnējās": 7693,
      "kanālos": 7694,
      "pārvietots": 7695,
      "pārvietoties": 7696,
      "atgriezto": 7697,
      "attiecīgās": 7698,
      "vecuma": 7699,
      "rezervēt": 7700,
      "Līdzās": 7701,
      "ieņēmumiem": 7702,
      "biežumu": 7703,
      "debets": 7704,
      "paraksta": 7705,
      "parakstītāj": 7706,
      "atvieglojumiem": 7707,
      "kandidāta": 7708,
      "Ģenerēto": 7709,
      "ignorē": 7710,
      "sistēmās": 7711,
      "nolūku": 7712,
      "diapazons": 7713,
      "received": 7714,
      "box": 7715,
      "Žurnālu": 7716,
      "pareizo": 7717,
      "sertifikāts": 7718,
      "Iespējams": 7719,
      "sinhronizācijas": 7720,
      "Notei": 7721,
      "selected": 7722,
      "priekšlikuma": 7723,
      "generated": 7724,
      "dzēš": 7725,
      "aizpilda": 7726,
      "Time": 7727,
      "pirkuma": 7728,
      "struktūrvienībām": 7729,
      "režģi": 7730,
      "režģī": 7731,
      "aizturēšana": 7732,
      "ierīcēm": 7733,
      "Atbilde": 7734,
      "Atbilstoš": 7735,
      "atvilkumu": 7736,
      "uzkrāšana": 7737,
      "loģika": 7738,
      "Statistisko": 7739,
      "koeficientu": 7740,
      "Izpildīt": 7741,
      "atribūta": 7742,
      "submit": 7743,
      "izteiksme": 7744,
      "prioritā": 7745,
      "iegrāmatots": 7746,
      "palaists": 7747,
      "Faktiski": 7748,
      "komplektu": 7749,
      "iepakošanas": 7750,
      "atsaukšanas": 7751,
      "ieviest": 7752,
      "logs": 7753,
      "logon": 7754,
      "Konsolidē": 7755,
      "Pabeidziet": 7756,
      "Ziņojuma": 7757,
      "sarežģ": 7758,
      "kontaktpersonu": 7759,
      "ieteikt": 7760,
      "Saņemts": 7761,
      "unikāls": 7762,
      "rekvizīti": 7763,
      "bloķēšana": 7764,
      "pārdod": 7765,
      "vienāds": 7766,
      "skaidro": 7767,
      "dalībnieku": 7768,
      "mappings": 7769,
      "Juridiskas": 7770,
      "overri": 7771,
      "savienotāju": 7772,
      "Fiksēta": 7773,
      "batches": 7774,
      "neatbilstība": 7775,
      "routes": 7776,
      "accessori": 7777,
      "bloki": 7778,
      "izdošanu": 7779,
      "Grupas": 7780,
      "support": 7781,
      "atcelts": 7782,
      "anketa": 7783,
      "automatiz": 7784,
      "paziņojumi": 7785,
      "sadarbība": 7786,
      "elektroniskajiem": 7787,
      "Pilna": 7788,
      "gatavs": 7789,
      "monitor": 7790,
      "index": 7791,
      "plāniem": 7792,
      "Pašreizējais": 7793,
      "Manuāli": 7794,
      "izvēršanu": 7795,
      "pārskaitījums": 7796,
      "dators": 7797,
      "atribūts": 7798,
      "atvasināto": 7799,
      "noklikšķinot": 7800,
      "komerci": 7801,
      "komplekta": 7802,
      "structures": 7803,
      "iegādāties": 7804,
      "Aktivitāte": 7805,
      "ful": 7806,
      "full": 7807,
      "zonas": 7808,
      "primār": 7809,
      "gresa": 7810,
      "turētāja": 7811,
      "vilkšanas": 7812,
      "izsniegšana": 7813,
      "novērstu": 7814,
      "apsvēr": 7815,
      "noderēt": 7816,
      "noderīgi": 7817,
      "manuālas": 7818,
      "scenarios": 7819,
      "komanda": 7820,
      "komandas": 7821,
      "konsolidēto": 7822,
      "alternatīvas": 7823,
      "Fiziska": 7824,
      "Service": 7825,
      "vadītāji": 7826,
      "Atgriezto": 7827,
      "relācija": 7828,
      "tādējādi": 7829,
      "CostCen": 7830,
      "konvertēšanas": 7831,
      "konvertēšana": 7832,
      "piegādātājam": 7833,
      "PowerApp": 7834,
      "Sagatavot": 7835,
      "Teh": 7836,
      "block": 7837,
      "slīdošā": 7838,
      "ieskati": 7839,
      "precizitāte": 7840,
      "rekvizītus": 7841,
      "benefit": 7842,
      "Citi": 7843,
      "apmeklētība": 7844,
      "piesaiste": 7845,
      "apstiprinātāju": 7846,
      "korespondējošā": 7847,
      "Augšupielād": 7848,
      "Norakstīšanas": 7849,
      "Sākotnējais": 7850,
      "Abonementa": 7851,
      "Stundas": 7852,
      "europe": 7853,
      "slimības": 7854,
      "pārraudzība": 7855,
      "programmatūrā": 7856,
      "Virsraksta": 7857,
      "Esoš": 7858,
      "Versijas": 7859,
      "instrukcijas": 7860,
      "license": 7861,
      "pārvalde": 7862,
      "pārkraušanai": 7863,
      "valstij": 7864,
      "pakotne": 7865,
      "pakotni": 7866,
      "ienesīguma": 7867,
      "Brīdinājuma": 7868,
      "Virkne": 7869,
      "correct": 7870,
      "event": 7871,
      "nonconformance": 7872,
      "novembris": 7873,
      "pircējs": 7874,
      "directive": 7875,
      "nodarbinātajiem": 7876,
      "receivable": 7877,
      "visaptverošais": 7878,
      "DateTime": 7879,
      "Risinātāja": 7880,
      "Sūtīt": 7881,
      "iekraušanas": 7882,
      "apmācības": 7883,
      "aiziešanas": 7884,
      "Tīmekļa": 7885,
      "uzzinātu": 7886,
      "restrict": 7887,
      "transportation": 7888,
      "TransactionsGro": 7889,
      "perifērā": 7890,
      "attachments": 7891,
      "Bieži": 7892,
      "Salīdzināt": 7893,
      "pieskaitāmo": 7894,
      "Pozīciju": 7895,
      "Elektrība": 7896,
      "Turpmāk": 7897,
      "Bāz": 7898,
      "Navigācijas": 7899,
      "cancel": 7900,
      "eastern": 7901,
      "assigned": 7902,
      "ekonom": 7903,
      "Apakš": 7904,
      "Bruto": 7905,
      "Contoso": 7906,
      "Draudzīgais": 7907,
      "Ekrāna": 7908,
      "Oriģinā": 7909,
      "Spān": 7910,
      "Saraž": 7911,
      "Satura": 7912,
      "Vizu": 7913,
      "criteria": 7914,
      "lrunis": 7915,
      "serializ": 7916,
      "remonta": 7917,
      "līringa": 7918,
      "Ieteic": 7919,
      "bufera": 7920,
      "Noformēt": 7921,
      "guarante": 7922,
      "Debets": 7923,
      "Daudzkārtīgums": 7924,
      "accessorial": 7925,
      "CostCenter": 7926,
      "TransactionsGroups": 7927,
      "45": 7928,
      "47": 7929,
      "58": 7930,
      "61": 7931,
      "98": 7932,
      "AR": 7933,
      "Brā": 7934,
      "Caur": 7935,
      "Dub": 7936,
      "D0001": 7937,
      "Hierar": 7938,
      "Jeb": 7939,
      "Kur": 7940,
      "Kens": 7941,
      "Kursu": 7942,
      "LE": 7943,
      "M0001": 7944,
      "Nem": 7945,
      "Pienākumu": 7946,
      "Si": 7947,
      "Sem": 7948,
      "Sing": 7949,
      "Scen": 7950,
      "Slēgt": 7951,
      "TI": 7952,
      "UM": 7953,
      "Zon": 7954,
      "ba": 7955,
      "bur": 7956,
      "business": 7957,
      "clai": 7958,
      "core": 7959,
      "dge": 7960,
      "eliminācijas": 7961,
      "gs": 7962,
      "gy": 7963,
      "ger": 7964,
      "gain": 7965,
      "ids": 7966,
      "kval": 7967,
      "keš": 7968,
      "lei": 7969,
      "late": 7970,
      "lcs": 7971,
      "my": 7972,
      "mei": 7973,
      "mums": 7974,
      "ners": 7975,
      "ojumus": 7976,
      "pto": 7977,
      "pāre": 7978,
      "pens": 7979,
      "paid": 7980,
      "rat": 7981,
      "rūt": 7982,
      "same": 7983,
      "send": 7984,
      "two": 7985,
      "util": 7986,
      "year": 7987,
      "ālas": 7988,
      "ējumi": 7989,
      "īms": 7990,
      "īju": 7991,
      "īšanā": 7992,
      "īvais": 7993,
      "ļūs": 7994,
      "Šos": 7995,
      "ūra": 7996,
      "iedal": 7997,
      "iedaļas": 7998,
      "ass": 7999,
      "ast": 8000,
      "aspek": 8001,
      "atmaksu": 8002,
      "atten": 8003,
      "attract": 8004,
      "ant": 8005,
      "anotā": 8006,
      "otrā": 8007,
      "otības": 8008,
      "otrās": 8009,
      "inkas": 8010,
      "instan": 8011,
      "incoming": 8012,
      "arh": 8013,
      "aras": 8014,
      "stiet": 8015,
      "stību": 8016,
      "stās": 8017,
      "amples": 8018,
      "šanām": 8019,
      "izdot": 8020,
      "iztrūk": 8021,
      "akta": 8022,
      "quir": 8023,
      "query": 8024,
      "prie": 8025,
      "prere": 8026,
      "pricing": 8027,
      "nojumu": 8028,
      "ticam": 8029,
      "uzsla": 8030,
      "read": 8031,
      "reassign": 8032,
      "lit": 8033,
      "lifo": 8034,
      "ērs": 8035,
      "laide": 8036,
      "sks": 8037,
      "skener": 8038,
      "iekav": 8039,
      "diag": 8040,
      "apgr": 8041,
      "vērš": 8042,
      "dzot": 8043,
      "jāpie": 8044,
      "jāveido": 8045,
      "jālieto": 8046,
      "jākonfigurē": 8047,
      "jāpārbauda": 8048,
      "jāsaista": 8049,
      "led": 8050,
      "leave": 8051,
      "pārveidot": 8052,
      "pārman": 8053,
      "pārlūk": 8054,
      "pārrakstīt": 8055,
      "piesaistīt": 8056,
      "piedal": 8057,
      "piesaistīti": 8058,
      "pielāde": 8059,
      "provid": 8060,
      "ilu": 8061,
      "eksist": 8062,
      "likmju": 8063,
      "darblapu": 8064,
      "darbvietām": 8065,
      "atlasīti": 8066,
      "atlasījis": 8067,
      "vadlīnijas": 8068,
      "vērtais": 8069,
      "inājum": 8070,
      "ināmo": 8071,
      "ējis": 8072,
      "torā": 8073,
      "Izvades": 8074,
      "loģist": 8075,
      "nejau": 8076,
      "nekādu": 8077,
      "neattiecas": 8078,
      "neietekmē": 8079,
      "nebija": 8080,
      "neobligāts": 8081,
      "neiekļautu": 8082,
      "iesakām": 8083,
      "popu": 8084,
      "pool": 8085,
      "maksimā": 8086,
      "saprast": 8087,
      "pazī": 8088,
      "pact": 8089,
      "Atskaites": 8090,
      "iestatījuma": 8091,
      "iestatīšanai": 8092,
      "segts": 8093,
      "norun": 8094,
      "norobež": 8095,
      "krāsa": 8096,
      "than": 8097,
      "ierakstam": 8098,
      "roun": 8099,
      "grāmatām": 8100,
      "racion": 8101,
      "ategy": 8102,
      "izmantotās": 8103,
      "Ievad": 8104,
      "Ievietot": 8105,
      "Iegrāmatojot": 8106,
      "vig": 8107,
      "bill": 8108,
      "plate": 8109,
      "viettur": 8110,
      "amatam": 8111,
      "izmaksa": 8112,
      "iņi": 8113,
      "avējot": 8114,
      "niedz": 8115,
      "niegts": 8116,
      "masku": 8117,
      "ītajam": 8118,
      "portu": 8119,
      "Pārkrau": 8120,
      "Pārvietot": 8121,
      "granu": 8122,
      "bankai": 8123,
      "budge": 8124,
      "pirma": 8125,
      "aprēķiniet": 8126,
      "šķērs": 8127,
      "pakā": 8128,
      "modelē": 8129,
      "models": 8130,
      "modeļos": 8131,
      "nesaist": 8132,
      "Darbplūsmu": 8133,
      "sarakstam": 8134,
      "līdzeklim": 8135,
      "rakstzīmes": 8136,
      "pamatus": 8137,
      "pamatojumu": 8138,
      "Nodot": 8139,
      "Noņemiet": 8140,
      "ākus": 8141,
      "īva": 8142,
      "atbilde": 8143,
      "ājis": 8144,
      "upat": 8145,
      "upload": 8146,
      "mainot": 8147,
      "conta": 8148,
      "conne": 8149,
      "conver": 8150,
      "consign": 8151,
      "koplietošanas": 8152,
      "tipiski": 8153,
      "gadiem": 8154,
      "gadījums": 8155,
      "priekšskatījums": 8156,
      "karti": 8157,
      "karte": 8158,
      "acc": 8159,
      "pārvaldē": 8160,
      "pieprasītu": 8161,
      "sniegšanas": 8162,
      "izpildpasūtījumu": 8163,
      "reģistru": 8164,
      "tasks": 8165,
      "versijām": 8166,
      "piešķiriet": 8167,
      "gorit": 8168,
      "sadalīšanas": 8169,
      "sadalītas": 8170,
      "attiecībās": 8171,
      "aging": 8172,
      "noteikums": 8173,
      "noteikumiem": 8174,
      "iespējamo": 8175,
      "USSI": 8176,
      "apstiprinājumi": 8177,
      "pieejamību": 8178,
      "solī": 8179,
      "konfigurēti": 8180,
      "plānojat": 8181,
      "navig": 8182,
      "ievadi": 8183,
      "peč": 8184,
      "fication": 8185,
      "examples": 8186,
      "saņemtos": 8187,
      "minēts": 8188,
      "minētajā": 8189,
      "ģenerē": 8190,
      "ģenerēta": 8191,
      "ģenerēto": 8192,
      "ģenerētie": 8193,
      "atlasītos": 8194,
      "eju": 8195,
      "stāža": 8196,
      "cilvēku": 8197,
      "juridiskai": 8198,
      "galīgā": 8199,
      "ietvertās": 8200,
      "aizka": 8201,
      "numuriem": 8202,
      "mēru": 8203,
      "mērvienības": 8204,
      "mainīšana": 8205,
      "savam": 8206,
      "failam": 8207,
      "esošs": 8208,
      "reģistrētā": 8209,
      "does": 8210,
      "dodieties": 8211,
      "ūtīšanu": 8212,
      "sekas": 8213,
      "sekoj": 8214,
      "starpības": 8215,
      "starptauti": 8216,
      "segums": 8217,
      "iekļaušana": 8218,
      "iekļautajiem": 8219,
      "been": 8220,
      "fill": 8221,
      "filter": 8222,
      "atzīmē": 8223,
      "šādā": 8224,
      "dažāda": 8225,
      "izrakstīts": 8226,
      "Vienkār": 8227,
      "resursam": 8228,
      "nodrošināta": 8229,
      "nodokļiem": 8230,
      "nodokļus": 8231,
      "lielu": 8232,
      "redzētu": 8233,
      "pievienojat": 8234,
      "balstīt": 8235,
      "objektus": 8236,
      "profilā": 8237,
      "profilam": 8238,
      "importētu": 8239,
      "importēta": 8240,
      "Ierī": 8241,
      "rādīšana": 8242,
      "rādītāj": 8243,
      "procedūrām": 8244,
      "tieša": 8245,
      "piedāvājumā": 8246,
      "vēstulei": 8247,
      "paredzētās": 8248,
      "pilnu": 8249,
      "Dati": 8250,
      "mērā": 8251,
      "juridiskas": 8252,
      "0002": 8253,
      "automātisku": 8254,
      "Rēķinā": 8255,
      "sērijā": 8256,
      "175": 8257,
      "target": 8258,
      "apstrādāta": 8259,
      "attēls": 8260,
      "modity": 8261,
      "modifikator": 8262,
      "Veic": 8263,
      "Veids": 8264,
      "Veidot": 8265,
      "īsinājum": 8266,
      "Neatbilstības": 8267,
      "Nepārtrauktības": 8268,
      "Austrā": 8269,
      "Automāti": 8270,
      "lūžņu": 8271,
      "Divas": 8272,
      "Diagram": 8273,
      "atrod": 8274,
      "pabeigti": 8275,
      "variant": 8276,
      "naudai": 8277,
      "atkarības": 8278,
      "Kopējais": 8279,
      "costing": 8280,
      "obligātas": 8281,
      "viegli": 8282,
      "within": 8283,
      "salīdzinot": 8284,
      "atsevišķās": 8285,
      "strādājat": 8286,
      "atļautu": 8287,
      "atļautās": 8288,
      "modelēt": 8289,
      "Banka": 8290,
      "jebkura": 8291,
      "disple": 8292,
      "pieņemšana": 8293,
      "pieņemts": 8294,
      "Oper": 8295,
      "palīdzēs": 8296,
      "pielāgošana": 8297,
      "pielāgota": 8298,
      "Ieraksta": 8299,
      "Nākamais": 8300,
      "anulē": 8301,
      "anulēšanas": 8302,
      "anulēšana": 8303,
      "procentuālā": 8304,
      "novērtēt": 8305,
      "ražošana": 8306,
      "ražotajam": 8307,
      "betwe": 8308,
      "strategy": 8309,
      "atlasītajiem": 8310,
      "Aprēķinā": 8311,
      "Aprēķiniet": 8312,
      "vārd": 8313,
      "privā": 8314,
      "saskaņošanu": 8315,
      "ieteikumu": 8316,
      "operācija": 8317,
      "operācijai": 8318,
      "fees": 8319,
      "apakšdaļā": 8320,
      "klāstu": 8321,
      "intervāliem": 8322,
      "intervālam": 8323,
      "nosūtīts": 8324,
      "izsekošanu": 8325,
      "fiziskās": 8326,
      "jautājumam": 8327,
      "aktīvās": 8328,
      "Katrā": 8329,
      "virsstundas": 8330,
      "īgajam": 8331,
      "dienasnaudas": 8332,
      "blakus": 8333,
      "atšķirība": 8334,
      "Detalizētas": 8335,
      "modulim": 8336,
      "modificēto": 8337,
      "scenārijus": 8338,
      "Pasta": 8339,
      "svara": 8340,
      "pavadzīme": 8341,
      "paplašinā": 8342,
      "izlaišana": 8343,
      "periodisko": 8344,
      "Rinda": 8345,
      "piegādā": 8346,
      "piegādēm": 8347,
      "Iesniegt": 8348,
      "candi": 8349,
      "risinātāja": 8350,
      "notikumiem": 8351,
      "ietekmi": 8352,
      "pārtraukšanas": 8353,
      "kopēti": 8354,
      "Apstiprināja": 8355,
      "Apstiprinājums": 8356,
      "Apstiprinātājs": 8357,
      "Persona": 8358,
      "drošību": 8359,
      "drošība": 8360,
      "kļūda": 8361,
      "Elektroniskā": 8362,
      "kanāls": 8363,
      "principle": 8364,
      "principus": 8365,
      "atgriezties": 8366,
      "atgrieztajiem": 8367,
      "Cena": 8368,
      "faktisk": 8369,
      "faktiskā": 8370,
      "Valst": 8371,
      "atkārtotas": 8372,
      "apkopotu": 8373,
      "Kartēšanas": 8374,
      "atvieglojumus": 8375,
      "track": 8376,
      "nolūkā": 8377,
      "diapazonam": 8378,
      "Novietojumu": 8379,
      "esošajās": 8380,
      "apmaksāts": 8381,
      "Termiņatlaižu": 8382,
      "Termiņatlaide": 8383,
      "selection": 8384,
      "norakstīšana": 8385,
      "priekšlikumus": 8386,
      "pielikumiem": 8387,
      "Ierobežota": 8388,
      "Ierobežojumi": 8389,
      "kredītvēstuli": 8390,
      "identificē": 8391,
      "identificēt": 8392,
      "identificēšana": 8393,
      "iegūta": 8394,
      "reģiona": 8395,
      "reģions": 8396,
      "reģionāla": 8397,
      "Veidņu": 8398,
      "virsgrāmatai": 8399,
      "Ārst": 8400,
      "pirmstec": 8401,
      "ilguma": 8402,
      "aizturēšanu": 8403,
      "Dažādi": 8404,
      "Atbildes": 8405,
      "Atbilžu": 8406,
      "kombinācija": 8407,
      "izvēlas": 8408,
      "izvēle": 8409,
      "uzkrāto": 8410,
      "pārvērtēšanu": 8411,
      "koeficienta": 8412,
      "bultiņa": 8413,
      "Summas": 8414,
      "izteiksmi": 8415,
      "tukša": 8416,
      "vadītājam": 8417,
      "grupēti": 8418,
      "grupēšanai": 8419,
      "rīkus": 8420,
      "finansiālā": 8421,
      "finansiālo": 8422,
      "layouts": 8423,
      "atsaukšana": 8424,
      "Komand": 8425,
      "Segšanas": 8426,
      "ieviests": 8427,
      "ienākoš": 8428,
      "ienākošos": 8429,
      "ienākošā": 8430,
      "operators": 8431,
      "pavadzīmēm": 8432,
      "Drukāšanas": 8433,
      "range": 8434,
      "sarkan": 8435,
      "segtas": 8436,
      "atbildīgs": 8437,
      "apkopojuma": 8438,
      "apkopojumu": 8439,
      "eksportētu": 8440,
      "require": 8441,
      "requirement": 8442,
      "Juridiskā": 8443,
      "Operācija": 8444,
      "sinhronizēšana": 8445,
      "Fiksētā": 8446,
      "zaudējumi": 8447,
      "CSV": 8448,
      "neatbilstībām": 8449,
      "palaiž": 8450,
      "klasifikācijas": 8451,
      "klasifikācija": 8452,
      "iesniegtu": 8453,
      "help": 8454,
      "supply": 8455,
      "iezīmējot": 8456,
      "embedded": 8457,
      "atcelta": 8458,
      "periodisku": 8459,
      "rezervēts": 8460,
      "nomenklatūras": 8461,
      "included": 8462,
      "Programmatū": 8463,
      "novietojumus": 8464,
      "līmeņus": 8465,
      "aprakstītajos": 8466,
      "Modelis": 8467,
      "konsolidēšanas": 8468,
      "ieteicam": 8469,
      "izvēršanas": 8470,
      "pārskaitījuma": 8471,
      "pienākumu": 8472,
      "datorā": 8473,
      "identifikatoru": 8474,
      "pielāgotos": 8475,
      "panelī": 8476,
      "Sūtījumu": 8477,
      "mezgls": 8478,
      "summing": 8479,
      "Reģistrēt": 8480,
      "Cilne": 8481,
      "Cilvē": 8482,
      "iegādā": 8483,
      "Kandidātam": 8484,
      "Saistītie": 8485,
      "entīt": 8486,
      "levels": 8487,
      "vadīklā": 8488,
      "component": 8489,
      "Kravu": 8490,
      "ikonu": 8491,
      "sliekšņa": 8492,
      "atslēgu": 8493,
      "novērst": 8494,
      "apsveriet": 8495,
      "Integr": 8496,
      "samaksu": 8497,
      "requisitions": 8498,
      "Svītrkoda": 8499,
      "izstrādes": 8500,
      "eight": 8501,
      "realizēto": 8502,
      "manuālu": 8503,
      "Identifikācijas": 8504,
      "pārrēķināšana": 8505,
      "komentāru": 8506,
      "kursor": 8507,
      "centralized": 8508,
      "adjustment": 8509,
      "relācijas": 8510,
      "tādai": 8511,
      "holder": 8512,
      "atvaļinājumu": 8513,
      "Atsauce": 8514,
      "Minimālais": 8515,
      "Minimālā": 8516,
      "Izvēles": 8517,
      "saņēmējs": 8518,
      "izmantojamās": 8519,
      "piegādātāju": 8520,
      "baseline": 8521,
      "slīdošās": 8522,
      "noformētā": 8523,
      "pārdevējs": 8524,
      "valodu": 8525,
      "valodā": 8526,
      "validēšana": 8527,
      "personalizētu": 8528,
      "produkta": 8529,
      "produktus": 8530,
      "Segmenti": 8531,
      "momentuzņēmumu": 8532,
      "csv": 8533,
      "kreditēts": 8534,
      "saukta": 8535,
      "apmeklētības": 8536,
      "pasūtīt": 8537,
      "description": 8538,
      "publicēšana": 8539,
      "operatoru": 8540,
      "pārvadātājs": 8541,
      "slimību": 8542,
      "apgrieztais": 8543,
      "programmatūras": 8544,
      "Apkopoto": 8545,
      "Uzkrāšanas": 8546,
      "Vairākas": 8547,
      "shipping": 8548,
      "padarītu": 8549,
      "kontrolieris": 8550,
      "etiķetes": 8551,
      "domēnam": 8552,
      "constraint": 8553,
      "Skait": 8554,
      "cise": 8555,
      "veidnei": 8556,
      "skaidrai": 8557,
      "notikt": 8558,
      "Modulis": 8559,
      "efektivitā": 8560,
      "Pilnīgas": 8561,
      "Derīguma": 8562,
      "Lokā": 8563,
      "Svars": 8564,
      "punktiem": 8565,
      "pieredzi": 8566,
      "Komponen": 8567,
      "aktīvi": 8568,
      "atjaunošanas": 8569,
      "prakse": 8570,
      "pārlūko": 8571,
      "savainojumu": 8572,
      "Pirkuma": 8573,
      "Paplašinātās": 8574,
      "development": 8575,
      "individual": 8576,
      "distribution": 8577,
      "Sākt": 8578,
      "goods": 8579,
      "langu": 8580,
      "nerealiz": 8581,
      "Pēdējā": 8582,
      "atskaitēs": 8583,
      "logotipa": 8584,
      "simbolu": 8585,
      "Funkcionalitātes": 8586,
      "momentuzņēmums": 8587,
      "regulāri": 8588,
      "skaļruņa": 8589,
      "Eksporta": 8590,
      "Otrais": 8591,
      "Prior": 8592,
      "Public": 8593,
      "incidenta": 8594,
      "rūtiņai": 8595,
      "Kataloga": 8596,
      "shared": 8597,
      "Importējiet": 8598,
      "mārciņu": 8599,
      "atsauksmes": 8600,
      "abonementam": 8601,
      "Režģī": 8602,
      "Saite": 8603,
      "kapitā": 8604,
      "merge": 8605,
      "izklāstīts": 8606,
      "nosegšanu": 8607,
      "alpošanas": 8608,
      "alert": 8609,
      "karantīnas": 8610,
      "uzskaitītajiem": 8611,
      "Unikāls": 8612,
      "savstarpēji": 8613,
      "Alternatīv": 8614,
      "nchron": 8615,
      "dziļ": 8616,
      "pārtraukums": 8617,
      "identifiers": 8618,
      "which": 8619,
      "sintakse": 8620,
      "collaboration": 8621,
      "analītiskos": 8622,
      "Meksikā": 8623,
      "replacement": 8624,
      "atvieglotu": 8625,
      "Garums": 8626,
      "Palīdzība": 8627,
      "RFM": 8628,
      "Samaz": 8629,
      "estimat": 8630,
      "freight": 8631,
      "quisites": 8632,
      "pieļaujamo": 8633,
      "koncentrējas": 8634,
      "nedēļu": 8635,
      "Ieņēmumi": 8636,
      "container": 8637,
      "Profila": 8638,
      "expected": 8639,
      "Apstrādājiet": 8640,
      "Komentārs": 8641,
      "messages": 8642,
      "Pārbaudīt": 8643,
      "Augšupielādēt": 8644,
      "Hierarh": 8645,
      "Simu": 8646,
      "Singap": 8647,
      "Scenār": 8648,
      "claims": 8649,
      "kvalitāti": 8650,
      "rati": 8651,
      "inkaso": 8652,
      "prerequisites": 8653,
      "apgrūt": 8654,
      "jāpievērš": 8655,
      "norobežot": 8656,
      "avējoties": 8657,
      "granular": 8658,
      "consignment": 8659,
      "between": 8660,
      "02": 8661,
      "300": 8662,
      "4000": 8663,
      "55": 8664,
      "62": 8665,
      "66": 8666,
      "Amo": 8667,
      "Akredi": 8668,
      "BS": 8669,
      "CO": 8670,
      "CP": 8671,
      "Cu": 8672,
      "Com": 8673,
      "Cloud": 8674,
      "Dir": 8675,
      "Dis": 8676,
      "EF": 8677,
      "GTI": 8678,
      "HQ": 8679,
      "Itā": 8680,
      "JAS": 8681,
      "Klas": 8682,
      "Karan": 8683,
      "Kārtot": 8684,
      "KAN": 8685,
      "Liel": 8686,
      "Line": 8687,
      "MY": 8688,
      "M00": 8689,
      "OK": 8690,
      "OJA": 8691,
      "Pus": 8692,
      "Paz": 8693,
      "Plat": 8694,
      "QL": 8695,
      "Rež": 8696,
      "Rou": 8697,
      "Respon": 8698,
      "ROJA": 8699,
      "Sim": 8700,
      "Saz": 8701,
      "Stāv": 8702,
      "Slīd": 8703,
      "Svērtais": 8704,
      "Tu": 8705,
      "Tele": 8706,
      "Taiz": 8707,
      "Test": 8708,
      "Tūlīt": 8709,
      "Taras": 8710,
      "WBS": 8711,
      "ax": 8712,
      "ach": 8713,
      "bie": 8714,
      "bate": 8715,
      "biju": 8716,
      "brī": 8717,
      "cību": 8718,
      "dās": 8719,
      "dro": 8720,
      "dri": 8721,
      "dance": 8722,
      "dynamics": 8723,
      "drukas": 8724,
      "drīz": 8725,
      "eth": 8726,
      "ests": 8727,
      "fes": 8728,
      "flus": 8729,
      "frequ": 8730,
      "fied": 8731,
      "fast": 8732,
      "gz": 8733,
      "hing": 8734,
      "hance": 8735,
      "ian": 8736,
      "idācijas": 8737,
      "jur": 8738,
      "jies": 8739,
      "kvīt": 8740,
      "krek": 8741,
      "kupon": 8742,
      "klīringa": 8743,
      "kļūs": 8744,
      "lk": 8745,
      "lija": 8746,
      "mij": 8747,
      "mnie": 8748,
      "nupat": 8749,
      "pam": 8750,
      "pults": 8751,
      "sem": 8752,
      "slodz": 8753,
      "sveic": 8754,
      "sauc": 8755,
      "tin": 8756,
      "tele": 8757,
      "tētas": 8758,
      "va": 8759,
      "wai": 8760,
      "wal": 8761,
      "zi": 8762,
      "zina": 8763,
      "āka": 8764,
      "ākt": 8765,
      "Īpaš": 8766,
      "īn": 8767,
      "īcija": 8768,
      "īja": 8769,
      "īpašu": 8770,
      "ņi": 8771,
      "ņēmā": 8772,
      "šus": 8773,
      "šām": 8774,
      "ūras": 8775,
      "žen": 8776,
      "iešana": 8777,
      "ieplānot": 8778,
      "iegrāmato": 8779,
      "attiek": 8780,
      "atvas": 8781,
      "atbrīv": 8782,
      "aight": 8783,
      "inhron": 8784,
      "inquir": 8785,
      "arized": 8786,
      "stāk": 8787,
      "ama": 8788,
      "amp": 8789,
      "izskat": 8790,
      "izēšanas": 8791,
      "izcelt": 8792,
      "izskaidr": 8793,
      "izdarīt": 8794,
      "akcep": 8795,
      "ontā": 8796,
      "nolī": 8797,
      "nodošanas": 8798,
      "nope": 8799,
      "nominā": 8800,
      "enta": 8801,
      "ency": 8802,
      "enhance": 8803,
      "tikā": 8804,
      "timā": 8805,
      "era": 8806,
      "ervē": 8807,
      "ervizor": 8808,
      "ercise": 8809,
      "uzn": 8810,
      "uzdot": 8811,
      "uzcenojuma": 8812,
      "uzsākšanas": 8813,
      "125": 8814,
      "1250": 8815,
      "unt": 8816,
      "rein": 8817,
      "repr": 8818,
      "reāl": 8819,
      "regresa": 8820,
      "rebate": 8821,
      "tage": 8822,
      "tajos": 8823,
      "depart": 8824,
      "devices": 8825,
      "determin": 8826,
      "ārējā": 8827,
      "ārēja": 8828,
      "divē": 8829,
      "apmaksu": 8830,
      "apgrie": 8831,
      "aplū": 8832,
      "aptau": 8833,
      "apmērā": 8834,
      "apstāk": 8835,
      "lasām": 8836,
      "tojuma": 8837,
      "jādi": 8838,
      "jāatbilst": 8839,
      "jāaprēķina": 8840,
      "jāapkopo": 8841,
      "jāapstiprina": 8842,
      "jāparādās": 8843,
      "jāmaina": 8844,
      "jādara": 8845,
      "tāla": 8846,
      "tālrunis": 8847,
      "pāriet": 8848,
      "pārveido": 8849,
      "pārmaksas": 8850,
      "pārdot": 8851,
      "pārveidošana": 8852,
      "pārrakstīšana": 8853,
      "pieņēm": 8854,
      "piesaistīts": 8855,
      "provi": 8856,
      "problē": 8857,
      "projects": 8858,
      "prospe": 8859,
      "ill": 8860,
      "veidam": 8861,
      "likumu": 8862,
      "ūtai": 8863,
      "darbos": 8864,
      "darbvietai": 8865,
      "darbībās": 8866,
      "darbplūsmai": 8867,
      "darbaspēka": 8868,
      "konsek": 8869,
      "kontekstā": 8870,
      "fici": 8871,
      "oktob": 8872,
      "trim": 8873,
      "vērtē": 8874,
      "ināšanās": 8875,
      "isnt": 8876,
      "ose": 8877,
      "vienībās": 8878,
      "Izmaksas": 8879,
      "Izkārto": 8880,
      "Izdošana": 8881,
      "Izvērst": 8882,
      "nee": 8883,
      "saņemat": 8884,
      "saprot": 8885,
      "pagā": 8886,
      "final": 8887,
      "iestatot": 8888,
      "skaitot": 8889,
      "vēlē": 8890,
      "veidotu": 8891,
      "see": 8892,
      "secon": 8893,
      "totals": 8894,
      "there": 8895,
      "ierakstos": 8896,
      "ierakstīšana": 8897,
      "ierakstīts": 8898,
      "modes": 8899,
      "moving": 8900,
      "cimā": 8901,
      "ciļņu": 8902,
      "lietojiet": 8903,
      "prepayment": 8904,
      "centers": 8905,
      "valūtai": 8906,
      "Iegu": 8907,
      "Ieejas": 8908,
      "Iegāde": 8909,
      "Ieteik": 8910,
      "Ievietojiet": 8911,
      "lēdziet": 8912,
      "tēta": 8913,
      "billing": 8914,
      "līdzās": 8915,
      "answer": 8916,
      "vietnē": 8917,
      "amatā": 8918,
      "izmantojamo": 8919,
      "max": 8920,
      "izveidotajam": 8921,
      "īgus": 8922,
      "īgumu": 8923,
      "īgajām": 8924,
      "informācijā": 8925,
      "skaitam": 8926,
      "masveidā": 8927,
      "definētā": 8928,
      "nosūta": 8929,
      "nospiediet": 8930,
      "visam": 8931,
      "maksājamo": 8932,
      "ņemti": 8933,
      "ļaus": 8934,
      "summā": 8935,
      "jaunam": 8936,
      "jauniem": 8937,
      "jaunajai": 8938,
      "day": 8939,
      "pakotnes": 8940,
      "prasība": 8941,
      "vēlreiz": 8942,
      "nesis": 8943,
      "tec": 8944,
      "tech": 8945,
      "Darbvietā": 8946,
      "Piezīme": 8947,
      "imported": 8948,
      "importu": 8949,
      "ternal": 8950,
      "saistītajā": 8951,
      "kārtē": 8952,
      "iekšējo": 8953,
      "Nodaļas": 8954,
      "vertikā": 8955,
      "transakcijā": 8956,
      "ākajā": 8957,
      "uzņēmēj": 8958,
      "konfigurācijās": 8959,
      "daudzus": 8960,
      "atvērtā": 8961,
      "katalo": 8962,
      "updates": 8963,
      "updated": 8964,
      "parādīšanas": 8965,
      "contin": 8966,
      "numi": 8967,
      "kopīg": 8968,
      "kopīgi": 8969,
      "Globālā": 8970,
      "ējāt": 8971,
      "gadus": 8972,
      "gados": 8973,
      "šodienas": 8974,
      "priekšnosacījumus": 8975,
[...]
